#version: 0.2 - Trained by `huggingface/tokenizers`
Ġ s
e r
Ġ t
o d
Ġ a
i n
Ġ p
Ġt h
i t
e l
Ġ g
a l
Ġ b
r e
Ġ o
o od
i s
Ġ f
Ġ d
v er
a n
Ġ c
Ġ w
e d
Ġg ood
Ġth e
ver y
Ġp r
c e
c t
in g
e n
e s
Ġ m
o n
Ġ n
a t
o r
Ġ h
a s
od u
Ġ l
odu ct
el l
q u
Ġ is
Ġ qu
Ġpr oduct
it y
o m
al ity
Ġqu ality
Ġ re
t h
i ce
a r
Ġ very
el i
o u
i l
Ġa n
Ġt o
p e
Ġ e
l y
Ġd eli
c k
u t
Ġs h
o t
Ġdeli very
u s
l e
r i
en t
Ġan d
Ġ i
Ġo f
Ġ it
Ġ k
Ġ y
a g
Ġs ell
p p
Ġsell er
as t
a y
Ġ in
a ck
Ġs t
Ġpr ice
Ġn ot
Ġa l
Ġb e
om e
Ġ u
an k
it h
a a
Ġf a
Ġw ith
v e
c h
Ġb ut
a m
Ġs m
u l
Ġf or
x c
Ġs pe
s e
d er
Ä ł
xc ell
xcell ent
Ġspe ed
g h
Ġp ack
Ġo r
a d
k e
w es
b le
Ġth ank
wes ome
Ġsh o
Ġf ast
Ġfa ce
g ood
o l
i on
Ġs u
s p
Ġ v
Ġgood s
Ġ j
u e
Ġor der
Ġl i
e t
il l
o w
Ġo n
a k
an d
sp on
e ar
a h
th e
Ġsh i
a p
i m
a in
Ġy ou
a ble
e m
Ġsm il
Ġre spon
Ġo k
Ġv al
o k
Ġn e
s t
u r
gh t
Ġa wesome
s s
Ġc h
Ġval ue
en d
y a
u n
Ġsmil ing
th er
Ġs o
Ġw h
u m
Ġ r
f ul
an t
er e
us t
i r
Ġpack ag
Ġrespon se
on e
t t
al ly
Ġe xcellent
i d
o re
Ġs er
or t
Ġl o
Ġb u
p r
an g
Ġth at
Ġser v
Ġc om
b s
Ġn ice
Ġu p
Ġserv ice
s o
v ed
on g
al l
Ġw as
el y
Ġli ke
y es
Ġa s
f f
Ġw ell
e xcellent
Ġt im
Ġth is
Ġa g
Ġa re
Ġh ear
Ġh a
Ġc on
Ġhear t
Ġu n
us e
Ġthank s
es s
Ġo ther
Ġal so
g in
Ġe yes
i c
Ġo ri
Ġ 1
e e
c om
Ġshi pp
Ġs i
ad y
pr oduct
Ġbu y
Ġa c
Ġw ill
Ġag ain
Ġm y
gin al
h h
Ġe x
Ġc ol
Ġt r
Ġtim e
ar d
Ġori ginal
Ġre ally
Ġd o
n ya
one y
l d
Ġm oney
Ġd is
t er
Ġm at
aa aa
Ġs e
Ġd e
i ck
z e
Ġ 2
Ġf r
Ġsho p
i ve
Ġb l
Ġcol or
re at
Ġf it
Ġpackag ing
or d
Ġit em
Ġha ve
Ġs a
p t
i i
i al
Ġn o
l o
Ġj ust
w ay
Ġw or
f ort
Ġch e
a pp
um bs
Ġw r
a wesome
es t
p er
Ġth umbs
Ġb r
Ġre ce
in t
Ġsi ze
u re
Ġh is
Ġal l
Ġl ong
k k
Ġd i
at e
com m
i ved
Ġm e
Ġit s
Ġc an
o pe
Ġa r
u u
Ġb o
er ial
Ġshi p
Ġto o
Ġok ay
s h
Ġm u
l i
ful ly
am e
Ġi m
t le
re ady
c a
Ġh e
Ġpack ing
Ġfr om
ou ld
Ġmat erial
Ġt p
a ut
Ġp re
th ank
Ġ 3
Ġa t
f e
Ġc o
Ġac c
at is
ag e
Ġp o
as e
atis f
Ġc p
aut i
it e
o p
Ġproduct s
Ġk g
auti ful
ou gh
Ġrece ived
a b
o o
fort able
pe t
Ġche ap
Ġshipp ing
g t
Ġth ere
Ġmu ch
Ġl it
Ġsho es
at ion
Ġs atisf
Ġh ope
Ġal ready
ca use
Ġlit tle
Ġpr o
Ġacc ord
i g
# #
Ġbe cause
Ġh ere
Ġlo ve
Ġan y
Ġ us
Ġm ore
er s
Ġa d
Ġg a
f t
a i
Ġcom fortable
Ġg reat
f ast
ou n
x t
tt y
Ġ use
Ġb ag
i ed
Ġne at
o int
Ġc e
Ġon e
Ġb y
Ġsm all
i h
Ġbe autiful
Ġp l
Ġth in
Ġli ght
Ġun t
Ġon ly
a ke
n g
Ġd ay
Ġa m
d h
is e
Ġst ore
Ġp i
Ġi f
app oint
en g
a re
r y
Ġo ut
an ce
c ri
a ct
and ard
Ġo ver
v en
h e
Ġy es
Ġar ri
Ġth an
Ġshipp ed
Ġunt il
Ġdis appoint
Ġpre tty
way s
Ġs k
Ġh as
Ġst u
Ġh and
Ġsatisf ied
comm end
Ġb gt
n ing
Ġn y
at ely
Ġy a
it ion
Ġne xt
Ġcom p
k s
Ġf e
Ġs ent
ou s
Ġwor th
Ġre commend
Ġst ar
l ow
Ġhope fully
Ġf ri
good s
Ġre d
Ġ 5
ri m
re e
h er
in e
Ġstu ff
Ġqu ick
en s
Ġs ame
Ġst andard
pt ion
as s
Ġal ways
Ġfa b
Ġre p
Ġne w
Ġfri end
Ġ en
Ġpi ct
g a
Ġp er
at ing
Ġb it
d ition
Ġm er
Ġk ak
Ġcon t
n y
Ġst ill
Ġg r
Ġs ome
Ġlo ok
Ġc lo
ed i
Ġl ess
Ġsu per
Ġthe y
ir st
pe ct
Ġbe en
is s
Ġ ri
Ġsu bs
cri ption
Ġw ear
Ġp ur
Ġmer ch
d d
ak as
ol d
Ġd es
Ġh er
Ġpackag e
ou t
d eli
ri c
Ġcon dition
g g
Ġs p
and ise
g e
s u
pp ing
Ġ 4
Ġmerch andise
Ġsk in
Ġc ut
Ġce pet
Ġdisappoint ed
Ġl e
id e
Ġf irst
Ġex pect
Ġfriend ly
e ady
Ġwh en
Ġb ang
i ght
p ack
Ġbo x
d ul
Ġg i
Ġsho e
b e
Ġt er
h am
ur n
Ġaccord ing
an y
ce ss
le t
Ġw e
Ġtr y
Ġm ay
Ġsa f
Ġpict ure
Ġthe m
Ġs end
Ġpackag ed
Ġw ant
ill ah
n ice
o ther
fe ct
Ġarri ved
Ġp a
Ġwh o
is t
Ġ x
deli very
ham dul
Ġitem s
Ġfab ric
ou ght
Ġa b
Ġex p
Ġdo es
Ġdi ff
Ġf ree
n t
Ġc ust
a it
Ġa f
c i
o s
Ġsaf ely
Ġp h
n n
Ġb ig
aaaa aaaa
Ġse c
hh hh
od ating
e ct
ou r
Ġthe n
Ġs y
t ing
Ġw ould
Ġg et
am p
Ġqu ite
s i
th es
Ġpur ch
hamdul illah
pe e
Ġany way
l l
Ġk n
Ġt w
u d
i ch
Ġsho pping
Ġorder ed
Ġprice s
Ġthe se
Ġt one
oun d
Ġe ven
Ġaccord ance
Ġs low
Ġa pp
Ġr un
thank s
Ġsa fe
Ġwh at
Ġde h
m ent
in d
Ġaf ter
comm odating
a c
Ġquick ly
Ġim m
Ġj g
w h
f ore
Ġcut e
Ġd ur
Ġm ess
ss ss
Ġbu b
Ġsu it
Ġac commodating
b ag
ast ic
Ġc ome
Ġm ant
Ġst eady
Ġsh ould
d ay
Ġorder s
Ġwr ap
Ġcust om
Ġrecommend ed
Ġday s
Ġso ft
Ġd r
a v
Ġf l
th ing
w e
k a
pp ort
Ġimm edi
Ġsho pee
Ġk e
Ġbe fore
Ġl ah
er t
Ġover all
re ss
Ġc are
Ġl g
Ġp le
li ght
in k
Ġwh ich
Ġimmedi ately
ar t
Ġbub ble
Ġb est
a ch
es en
Ġh i
Ġdiff er
Ġus ed
u al
Ġd am
j a
Ġco ol
Ġtw o
kk kk
us h
a il
i v
ok ok
n e
un g
Ġd id
Ġh ad
Ġtr an
Ġk iss
Ġbang et
Ġb ad
ul t
ri er
uu uu
Ġbag us
Ġw ait
Ġt q
Ġg od
Ġg o
Ġm o
a w
Ġst r
i e
Ġ1 0
Ġsubs cription
is h
Ġhand s
or m
a ce
d i
Ġt e
Ġl ot
Ġh ow
am pe
ow n
Ġa ff
ow ing
Ġj o
ii ii
Ġm ake
Ġcomp let
re ct
o se
ai k
Ġc or
b r
li ke
Ġsu pport
Ġbl ack
Ġs c
Ġha pp
al hamdulillah
i p
re spon
ang e
Ġw ere
Ġc r
Ġo ld
Ġfe el
n d
a u
Ġwor k
f in
m m
Ġri ght
tt tt
Ġth ick
at ed
in ning
Ġmess age
Ġcont in
Ġdeli ver
ing s
Ġb ack
Ġy et
th is
i rim
Ġdiffer ent
g reat
Ġexpect ed
j d
Ġb ought
Ġgr inning
Ġheart s
Ġan other
b er
Ġrep ly
ar k
b o
i es
akas ih
Ġg k
at er
Ġph ot
Ġe very
il d
it s
Ġtim es
Ġsu c
n ot
Ġpa ir
Ġc ar
bag us
Ġp e
oun t
on d
pp pp
ert ain
at her
Ġof f
Ġin t
Ġen ough
j s
Ġpo or
p at
ct ion
Ġs al
Ġdur able
Ġsuc cess
Ġbl owing
p en
or der
light ly
Ġm any
Ġt urn
Ġp esen
Ġs ens
Ġhapp y
r op
w n
Ġgi ft
Ġe as
Ġne ed
Ġin st
ord able
Ġj d
Ġc ertain
Ġkn ow
aa a
Ġs ay
Ġneat ly
Ġre al
end ed
il e
ear s
tt er
un d
Ġch at
Ġsens it
Ġf old
Ġple ase
Ġb ar
Ġaff ordable
Ġhi gh
ul l
Ġbe tter
Ġpurch ase
Äł s
Ġp ass
ok en
it em
i re
Ġyou r
rop ri
Ġs lightly
Ġche ck
d e
un ately
ag ed
Ġwh ite
Ġd ah
ropri ate
Ġp ut
i k
Ġl u
Ġ ve
Ġs ee
Ġmat ch
Ġcertain ly
i f
Ġpl astic
as h
Ġper fect
u p
Ġwr ong
Ġs is
it ely
Ġbr oken
Ġg l
ee ee
Ġf un
Ġn g
Ġthin k
Ġt ri
th ough
Ġsuit able
Ġfold ed
am ing
Ġim age
Ġcomplet e
m ant
Ġde fin
u k
Ġn ow
Ġsu re
Ġt ast
Ġc l
t r
ant s
Ġclo thes
Ġny ampe
n a
Ġas k
Ġhe he
v es
Ġcare fully
Ġdefin itely
o ck
Ġh u
Ġre s
Ġb g
Ġsmil e
ar g
Ġ 6
ad e
Ġrun ning
Ġdeliver ed
Ġc ou
Ġp eng
Äł p
Ġwr app
Ġo pen
Ġbe aming
Äł m
Ġw ee
ig n
Äł b
Ġsu k
Ġstandard s
Ġapp ropriate
n o
e p
the y
Ġto p
ot e
an ya
oo th
Ġu dh
Ġab out
Ġ z
Ġm in
0 0
b ut
or y
or ry
Ġl et
c o
r t
Ġservice s
u ally
Ġcon f
Ġbl ue
Ġre com
Ġpass able
l es
ble m
r o
m o
Ġd ent
Ġcolor s
ee p
pack ing
ar ge
Ġk o
Ġcustom er
Ġc ame
Ġg ot
Ġpro blem
Ġb aik
Ġg u
en ce
Ġe m
a z
as on
Ġr ather
d ing
u es
Ġc le
Ġin c
Ġli k
Ġdes cription
Ġre t
Ġstar s
b b
m y
Ġf o
p le
re t
at ter
Ġshi rt
Ġm on
dd dd
Ġsm ooth
re en
Ġad d
ens ive
Ġm m
Ġfit ting
p l
s ide
Ġs amp
Ġm od
Ġn i
Ġre f
ry ing
sh op
su per
Ġo ke
en er
Äł c
Ġphot o
Ġsec ond
Ġth ough
Ġ 9
Ġm as
Ġal though
Ġa ct
Ġs we
Ġo wn
Ġch ild
as ed
Ġc ould
Ġeas y
b u
Ġtran sp
Ġdam aged
fort unately
s m
l ing
Ġb ot
y ou
ation s
g et
Ġs el
Ġun g
r r
Ġseller s
Ġf ull
at ch
ir t
c ed
Äł d
Ġ el
Ġsh ort
irim an
Ġsh e
Ġwith out
Ġso on
Ġpro v
Ġsec ure
Ġm ou
ir m
Ġp ink
Ġ2 0
er y
re ce
Ġre g
Ġp art
Ġc rying
Ġbr g
Ġwrapp ed
Ġk r
Ġpack ed
Ġst ick
Ġa ja
Ġc ase
ah ah
Ġg ive
Ġlong er
b el
Ġre pe
Ġd a
Ġk eep
g r
Ġc ard
Ġter im
Ġs em
Ġa tt
Ġc m
Ġy aa
o ke
ul ous
Ġdi rect
on us
ar i
Ġon ce
Ġtp i
qu ality
Ġtransp ort
d ah
Ġw al
Ġcontin ue
Ġjo y
en ya
Ġc um
Ġd at
ar y
Ġco ver
Ġh ard
z z
l ess
Ġlook s
Ġt ears
Ġt rim
Ġcou rier
Ġun der
u g
Ġb onus
akas i
Ġde fect
p o
Ġcor respon
Ġb ab
Ġsm ell
Ġe ar
Ġun fortunately
Ġwr ote
pr o
Ġus ing
wh at
oo oo
Ġgi ven
Ġpo st
Ġd own
Ġcar rier
Ġfe et
e x
Ġim p
Ġre st
ou d
thes e
il y
Ġre ason
Ġmou th
Ġsu b
Ġmod el
Ġm edi
Ġbo ok
Ġm k
v ing
Ġ ed
re n
Ġrepe at
Ġa p
ie w
Ġp ants
Ġt ake
m in
Ġy g
Ġs et
Ġh el
Ġk a
k w
Ġne ver
Ġfit s
e ce
u h
Ġcheap er
Ġsubscription s
Ġex act
Ġ 7
Ġrecom ended
Ġmedi um
Ġce pat
Ġt ight
Ġstore s
Ġfab ulous
Ġtri ed
p re
Ġmo st
Ġre v
Ġwh y
ion s
i ous
Äł t
Ġf in
Ġf ine
Ġret urn
r ow
Ġbuy ing
f orm
Ġdes ign
ent s
be autiful
Ġdis c
rece ived
Ġa k
n s
Ġd ate
Ġn ya
Ġp ay
an nya
Ġbab y
Ġwee k
Ġl ast
it ch
av y
Ġs ad
Ġs on
ke t
ell er
b l
Ġcom m
Ġ 8
t q
Ġs dh
Ġre qu
Ġsal e
Ġf ar
Ġpr om
h a
Ġm ak
Ġsu r
l u
on t
Ġref und
Ġturn s
e ver
w r
Ġp en
Ġc reat
c s
al i
Ġg an
Ġse em
Ġn a
he he
Ġh r
n ess
Ġtr ust
Ġfr ag
Ġsensit ive
5 5
Ġg pp
Ġth ose
d a
Ġh al
Ġl oud
Ġmaterial s
b ed
o ga
t ed
Ġ 0
Ġp u
Ġarri ve
Ġm an
op le
b d
in i
Ġm ust
or i
Ġsa id
Ġm ade
Ġcom es
as i
ter day
od ay
ag es
Ġd t
Ġpro cess
Ġwh ere
ce pt
w ard
hhhh hhhh
Ġin ter
Ġe ff
al ready
Äł k
Ġmon th
Ġexact ly
s ive
Ġn orm
Ġwor ks
Ġc re
Ġt oday
Ġpe ople
Ġm ot
Ġm ur
Ġgo ing
Ġl a
Ġbar ang
Ġbl ess
a pe
Ġc ush
u b
Ġh our
Ġcon s
Ġclo th
Ġw ater
s w
Ġl ate
Ġrece ive
Ġd c
Ġh ome
Ġcustom ers
n er
Ġcum an
Ġp ok
Ġfun ction
w ell
t en
Ġst ock
e ad
ag ing
Ġlo ves
Ġpi ece
Ġyes terday
Ġ q
Ġdat eng
Ġs im
Ġhel p
Ġcreat e
gg ing
Ġh ar
Ġse ver
j j
y y
h is
an an
iv ity
t on
po or
k ing
Ġb s
Ġtran s
Ġthe ir
f it
i ent
Ġprov id
Ġb ah
ain t
Ġs ol
Ġth x
Ġw ar
Ġl arge
Ġc pt
am a
product s
Ġcorrespon ding
Ġ1 2
Ġco st
u a
Ġb ri
Ġm ar
Ġb al
st eady
ll ll
Ġbr and
Ġp as
Ġe ver
bo ard
Ġfor m
Ġam c
Ġcush ion
Ġth r
i ally
Ġh im
aaaaaaaa aaaaaaaa
Ġre m
Ġri ch
j ust
Ġt em
nn nn
Ġs orry
Ġloud ly
Ġsatisf act
or n
id y
Ġth ings
Ġfa ir
g n
Ġinst ead
Ġconf irm
re ally
ce nt
ur ch
cri bed
Ġ er
Ġr ap
ci ous
Ġrev iew
Ġw ay
kkkk kkkk
ire d
b a
Ġfo ot
Ġswe at
ok ay
Ġte bel
Ġk ind
c el
Ġg reen
Ġ ing
lo ve
Ġl ine
Ġk lo
Ġsome what
Ġt y
yes el
Ġsensit ivity
ap er
Ġdam age
Ġres ult
Ġd ress
Ġval ues
Ġl ater
Ġan sw
Ġthank you
t o
pre tty
w or
as ih
Ġdeli ery
Ġchild ren
i x
mo st
Ġto ok
on ya
Ġsu ka
Ġstr ong
Ġs in
Ġa v
ab ly
Ġl ow
Ġad v
ish ed
Ġpro per
Ġrequ est
re d
Ġbo ss
Ġ es
Ġrespon sive
Ġp at
il ity
s eller
ssss ssss
Ġda pet
Äł h
ou se
Ġbo th
and ed
pack aging
Ġy ung
b ar
Ġreason able
Ġt ak
ell ow
am an
c on
i ct
us ed
Ġam ount
Ġ1 1
Ġb er
Ġb atter
Ġj e
Ġs n
y s
Ġm or
Ġshop s
are d
Ġd h
Ġtast e
i ze
uuuu uuuu
c m
Ġw ide
y ing
Ġfrag r
Ġb re
Ġlook ing
hh h
Ġn yesel
Ġfe w
e k
Ġhu gging
Ġs l
Ġint o
a ise
Ġp ow
Ġdis like
Ġl ang
Ġm akasi
Ġch ange
sh i
Ġrep l
as ing
ud e
Ġmas k
Ġthr ough
Ġt est
Ġ ent
Ġb el
Ġl ag
Ġevery thing
Ġansw er
Ġtast y
Ġa ss
Ġpacking nya
pppp pppp
Ġgl ass
Ġkr n
Ġwear ing
ac ed
v al
g er
od y
Ġmant ul
Ġc our
Ġdirect ly
Ġexp ensive
okok okok
Ġcle ar
Ġst itch
ic s
si der
j o
Ġfast er
Ġt idy
el f
Ġd g
Ġsc r
Ġsmall er
Ġk k
Ġr o
ou ch
Ġfor ward
Ġr ol
f or
Ġs ir
Ġhe avy
l ed
Ġsm p
Ġcre am
g s
l ine
Ġlo ved
Ġsatisfact ory
Ġh ot
Ġprovid ed
d o
Ġth ought
Ġan g
ther e
Ġm a
Ġl ng
Ġpo int
Ġcard board
re m
Ġy ellow
Ġth ing
st andard
ut ure
i a
Ġd one
Ġar ound
Ġlik ed
b h
bu y
Ġbe ing
Ġwe ight
us i
Ġother s
Ġfl ash
i z
Ġdisc ount
k d
arg er
Ġm il
ic al
Ġbot tle
et s
Ġg ener
is ed
Äł g
y e
Ġin side
Ġpl us
c ol
Ġt u
p s
v el
Ġn um
Ġwas h
p h
Ġproper ly
n i
Ġs ound
Ġal hamdulillah
st and
a ur
pp er
Ġserv es
Ġask ed
Ġa h
act ion
Ġnorm al
Ġu m
Ġdent ed
Ġe ach
un s
ch ange
urch ase
Ġac cept
Ġim pro
Ġf uture
Ġhe ad
eli e
Ġin s
Äł f
Ġcon sider
al e
Ġe at
Ġmk sh
Ġexpect ations
Ġn h
Ġde al
Ġa w
Ġc od
p ake
Ġh o
Ġte xt
Ġp ar
th usi
Ġt orn
Ġhigh ly
Ġship ment
k ak
or s
Ġphot os
r on
tr a
Ġs es
Ġpeng iriman
Ġd d
Ġd ear
b aik
Ġal most
Ġt ap
Ġm iss
ce w
Ġ end
Ġd ark
Ġn ge
at h
Ġen thusi
Ġpurch ased
Ġlu ck
Ġrest aur
Ġdeli cious
Ġturn ed
Ġr el
v v
Ġl l
Ġsu ch
Ġsi p
Ġact ually
Ġsi z
Ġl anded
ul ar
Ġcor rect
ori ginal
Ġrespon d
an n
Ġch in
Ġpicture s
Ġ10 0
Ġbatter y
f er
Ġst y
w w
Ġp ake
Ġdi k
Ġlo ose
Ġrestaur ant
t e
x x
ce pet
ach ed
Ġcour se
d is
k n
Ġd ong
Ġsm oga
Ġwh ile
Ġdr aw
ch e
m it
s orry
Ġs qu
Ġk er
i ble
Ġsever al
ol low
g it
Ġf ind
Ġm ark
Ġbuy er
j u
l ah
Ġcomp l
Ġs ide
ink ing
Ġin form
Ġdisappoint ing
jd jd
iiii iiii
a f
Ġsell ing
Ġle ak
Ġd ou
Ġpre v
b and
c p
ap a
Ġinc re
Ġd irt
ii i
shi pping
Ġtrim akasih
v or
odu k
ir ain
Ġy ears
an s
Ġn aman
Ġf re
Ġpok onya
tttt tttt
Ġsin ce
m b
Ġseem s
Ġl ack
Ġsubs id
dddd dddd
Ġreg ret
Ġbre ak
un t
Ġad min
Ġrep urchase
Ġeff ect
Ġp dh
Ġfun ny
Ġbri ght
Ġpur ple
ge ther
Ġjo b
Ġbagus s
Ġbg us
p or
Ġp ers
Ġex t
Ġmant ap
Ġhow ever
Ġs ya
Ġx l
Ġph one
h ope
o ice
Ġg uns
Ġc at
Ġf ollow
Ġh ouse
Ġse am
s end
Äł n
Ġsub st
Ġst at
r u
Ġb n
ck s
k g
Ġ od
al ways
Ġse k
Ġbanget t
Ġs le
Ġpl ay
Ġav ail
Ġpr aise
Ġb ody
no on
Ġbot t
o ver
Ġd ue
Ġc a
Ġu l
Ġcare ful
Ġb ng
Ġb a
Ġw a
Ġnum ber
t y
en u
Ġmay be
Ġh old
com fortable
Ġafter noon
Ġcom fort
m at
end ing
Ġy ah
pt y
k om
Ġb oun
Ġv ari
Ġs old
Ġha ir
Ġse al
p ict
ss s
Ġcom ing
Ġwork ing
Ġe h
ang at
all ah
v ely
Ġinc l
Ġhour s
Ġs il
Ġp es
Ġwait ing
Ġo h
Ġc all
th y
Ġno thing
Ġdur ing
Ġf all
Ġm ag
Ġcomp ared
Ġ ver
ut e
Ġde p
Ġpl ace
pr ice
ap s
Ġus ual
Ġsubs cribed
s y
Ġperfect ly
Ġpers on
Ġtext ure
Ġlik es
Ġs li
c u
it as
Ġw inking
Ġp aper
Ġfor t
s pe
an a
Ġk ok
com p
Ġbr own
mm mm
c il
Ġbr other
Ġdefect ive
c y
Ġn ar
Äł re
Ġpr ot
Ġk y
int ing
Ġhal f
m s
Ġd s
Ġto gether
Ġe xc
ri ed
tt t
o g
re ad
k y
Ġmu dah
h as
u ck
ic ult
u ka
ast e
Ġgl ue
Ġin d
ect ion
ne ak
Ġdt g
Ġbah t
Ġresult s
Ġg t
Ġb us
Ġscr atch
enu ine
Äł l
Ġ1 5
Ġtr ue
Ġout side
Ġsh ape
Ġbag s
Ġcr ack
o on
Ġm and
Ġexp ress
Ġrol ling
r a
order s
mant ul
Ġcushion ing
Ġth ree
Ġmur ah
Ġem pty
Ġty pe
Ġcod e
l m
s g
Ġm ah
bagus s
Ġavail able
Ġboun ced
Ġg ak
Ġf lo
Ġm em
pack age
Ġimp ort
Ġu k
Ġenthusi astic
Ġl eng
Ġunder stand
js js
Ġcle an
u ed
ay an
Ġa ble
ri p
Ġdirt y
b est
f ree
t im
Ġd on
Ġpu as
Ġs neak
Ġm is
Ġdiff icult
Ġlo vely
Ġinst all
rem ely
Ġsend ing
Ġpa id
Ġeas ily
Ġtem por
k an
Ġl am
Ġa ir
Ġqu est
Ġam az
Ġp ic
us band
al s
sh o
Ġs w
br g
Ġwee ks
e en
Ġnot e
Ġfeel s
Ġr ub
Ġbr oke
eeee eeee
az y
Ġconfirm ation
iv ely
ne w
ex p
Ġre ady
ap h
Ġn t
Ġy ear
a ir
a ff
Ġpr in
Ġrespon si
se t
Ġsp ark
j f
in y
Ġimp ress
Ġp ad
Ġn ag
ol es
i in
Ġf ood
mant ap
ain s
k u
Ġk id
Ġbu ild
at ur
em ent
p al
m er
u ai
Ġd et
Ġp ng
Ġh ell
b al
Ġmiss ing
ret ch
Ġpiece s
Ġre ad
Ġhu h
Ġu g
n x
s ih
Ġhar ga
change able
p ar
Ġopen ed
Ġsamp ai
Ġt al
Ġt et
Ġli p
Ġdis t
Ġpow er
Ġnar row
Ġus ually
ny aa
Ġfin ally
u us
Ġa q
aaaa a
Ġgr ay
Ġclo s
Ġinter changeable
Ġp k
Ġc ap
Ġc ur
Ġup d
j e
Ġwith in
Ġm akasih
kw kw
Ġg enuine
respon se
Ġbal ance
Ġchin a
Ġwor n
m an
Ġon line
Ġfree b
spe ed
Ġ3 0
g k
Ġd ry
ant ially
ay a
Ġle ft
Ġwal king
Ġh usband
Äł w
tq tq
c or
Ġd ri
Ġbuy ers
Ġsome thing
hope fully
p cs
Ġp ol
Ġwr it
i gh
ab ility
we ight
in s
Ġk u
Ġsubst antially
Ġbng et
Ġincl ud
Ġfort unately
gg gg
Ġuse ful
Ġan t
kk k
Ġsatisf ying
Ġd u
Ġst retch
Ġbe t
Ġb at
Ġk irain
Ġa bs
in ya
in ess
Ġp cs
Ġseller nya
Ġr elie
Ġclo se
Ġt ell
c l
Ġa way
Ġp okok
Ġbox es
Ġbn gt
Ġf ound
ent ion
em as
m ore
e et
s atisf
t p
and a
Ġg am
Ġcont ents
Ġo ur
Ġc u
at ive
un ic
Ġterim akasih
p ite
Ġa j
ks ih
Ġh at
Ġbut ton
c c
it ude
id ly
ic ed
Ġtrans action
ver t
pp ed
Ġfa vor
ah a
Ġbig ger
g o
Ġs en
Ġp ush
Ġch arge
oo se
Ġsuccess fully
Ġrepl ace
Ġimport ant
Ġb ener
Ġsm pe
Ġsuk ak
Ġ20 2
d y
p esen
g ot
Ġc ant
ci ally
s a
Ġb h
Ġbuild up
Ġl um
Ġk l
Ġk m
Ġy e
Ġcont act
Ġsal es
che ap
Ġo b
Ġre kom
Ġsm a
Ġso cks
ect ed
Ġsc reen
Ġext remely
Ġrelie ved
p a
Ġg ap
Ġk al
Ġj di
Ġpdh l
Ġt om
Ġof ten
Ġkiss ing
g an
th in
Äł r
h m
Ġpair s
Ġsuk aa
Ġmand ate
Ġprin ci
g ed
i b
Ġp s
Ġprom o
wr ong
Ġto t
i ence
Ġc as
Ġw atch
Ġe qu
Ġfr ont
Ġswe et
Ġown er
gr aph
Ġsty le
s ome
Ġlg i
Ġm al
at ively
aa h
Ġany thing
m a
Ġc ot
ah h
Ġug ly
Ġs ampe
Ġb all
Ġpr oduk
Ġch arg
Ġcontin ued
Ġ4 0
Ġsuccess ful
Ġmonth s
e b
x l
it ed
p ly
Ġf ix
Ġn ight
Ġl ay
Ġcontin ues
Ġgift s
v ice
si ze
Ġmor ning
mat erial
c ok
s k
ul ly
Ġflo or
Ġt ill
Ġch oose
dh d
Ġd est
ter s
Ġs gt
Ġrub ber
Ġsho w
Ġdes pite
el ay
Ġpre ss
Ġfl ame
Ġsmp ai
Ġmil k
Ġdiffer ence
Ġtet ep
Ġm other
Ġfabric s
rr rr
Ġleng th
Ġtempor ary
d ed
Ġfragr ant
lo ad
Ġlag i
Ġpar cel
ith er
um p
Ġ eng
Ġs angat
Ġg ini
Ġl arger
pe cially
Ġ5 0
Ġhr ga
Ġs and
Ġp atter
et y
aaaa aa
Ġter m
Ġb t
Ġex tra
Ġtap i
Ġcot ton
or row
as ant
Ġr ope
lo ved
Ġr u
Ġfragr ance
Ġf low
ro ad
Ġbless ing
i pt
Ġam an
Ġk ay
Ġexp ed
Ġw ish
ad a
Ġj u
Ġmatch es
Ġadd ed
ir d
Ġpro b
Ġhehe he
Ġreg ular
w ill
Ġp ain
Ġp ick
Ġad vert
Ġphoto graph
Ġst and
Ġbr ush
c ust
Ġo l
Ġn ic
Ġsol id
j x
Ġa u
j ual
Ġo il
Ġl in
Ġfriend s
Ġsqu inting
o i
Ġsu n
l s
Ġd em
Ġr am
ang er
Ġsp ill
Ġadv ice
Ġn k
Ġso le
on es
Ġn er
Ġab road
oooo oooo
Ġs am
it ies
um e
Ġk ual
item s
Ġes pecially
b idly
c r
Ġg m
Ġb en
Ġcol our
ter im
Ġkak a
o h
f its
am at
Ġint act
Ġpake t
c ord
t op
Ġy aaa
un ya
Ġpesen an
sm all
Ġlo ss
Ġwr na
co ol
b at
b ang
d k
r or
c ome
t oo
Ġc am
Ġe t
ri ble
Ġcomm unic
Ġf il
Ġin de
uu u
Ġz i
c ial
u as
Ġs pr
re al
on est
Ġk h
Ġover se
p eng
at a
s er
es e
Ġny amp
Ġmak es
Ġw i
Ġst e
li er
Ġclos ed
Ġ ill
Äł di
Ġsu pp
Ġsk irt
Ġatt itude
Ġe v
Ġ1 3
pt een
Ġhe al
Ġmot if
h ow
Ġp al
Ġl bh
Äł j
Ġli d
ore d
Ġas ics
Ġsis ter
Ġprev ious
Ġtom orrow
Ġg ar
Ġmor bidly
b g
f y
in ation
on s
Ġga ve
Ġdou ble
Ġf ig
gg est
Ġmodel s
Ġfl aw
aw ang
Ġdefect s
Ġfin ished
Ġrel atively
el ess
k er
Ġp ast
Ġb i
Ġb any
il ar
nt ly
Ġgu ess
Ġsmooth ly
Ġbott om
b ad
Ġe ither
Ġfa ct
Äł st
Ġr ound
Ġ1 9
Ġsi gn
Ġex ist
Ġar ch
Ġlight weight
b t
b ack
k o
Ġh ahah
col or
Ġf an
ed u
Ġm ach
id d
Ġimpro ve
s el
Ġs ing
Ġi d
Ġproblem s
Ġbus iness
Ġs ch
comp let
p as
app ing
oo f
Ġprob ably
Ġt ip
Ġw om
Ġl au
ment s
Ġact ual
Ġstitch ing
Ġhe el
Ġany more
Ġmess ages
cust om
pteen th
s elf
Ġ il
Ġt au
Ġper i
Ġwe ve
av or
Ġstr uck
Ġstitch es
Ġsneak ers
Ġw id
Ġto e
Ġconsider ed
Ġel se
Ġcons um
f irst
l ong
Äł in
un ity
ee e
er ed
Ġn ak
Ġre mo
Ġple asant
Ġdent s
Ġf ur
Ġ2 4
Ġ2 5
g u
Ġu da
Ġj ga
ain ed
st ick
Ġmant ab
zz zz
Ġhal o
Ġd it
at es
Ġ1 6
m k
Ġin i
Ġpo s
Ġsem pet
l a
o ol
o ss
Ġsem oga
Ġtransport ation
Ġg old
bo x
Ġreal pict
Ġtrust ed
r g
Ġo pport
Ġli fe
Ġp n
el t
Ġor ange
Ġsu ggest
Ġexped ition
b x
Ġc art
Ġspe ak
Ġwill ing
Ġtr s
Ġarri ving
Ġsiz es
Ġlau gh
Ġg as
at ure
Ġex per
Ġle git
Ġperi od
Ġw in
Ġto ld
Ġcon ven
Ġterim a
s ent
Ġpr int
Ġre ached
le x
se m
Ġsho wn
sh ip
Ġtak es
Ġses uai
ak an
Ġpurch asing
Ġwhere as
Ġstat ement
c ute
y ed
Ġp ot
Ġh p
Ġtry ing
j ect
Ġpatter n
g i
u ished
Ġ ess
Ġme et
Ġd k
ar an
ar ant
Ġhe ck
Ġdem and
Ġh ur
Ġcr azy
Ġum pteenth
Ġk asi
Ġj ug
f l
Ġw on
llll llll
Ġoverse as
f o
Ġl ama
Ġlo st
Ġcon n
wr ap
Ġopport unity
w are
et er
Ġsim ilar
Ġver s
w ing
Ġn ear
Ġsle ep
complet e
Ġb as
Ġmant app
Ġfunction ing
o b
Ġb es
Ġcol l
Ġpo ck
Ġdet ail
Ġnic ely
t rim
Ġd elay
ain ing
Ġconf used
Ġkeep ing
satisf ied
m ing
Ġb ny
Ġin exp
Ġmot ive
Ġd ust
Ġpr iced
Ġkay ak
Ġlaugh ing
Ġa am
Ġst ay
Ġad dition
Ġsy uka
wh ile
Ġ20 1
Ġp an
Ġp ensive
Ġm akas
Ġkr na
Ġpoint s
in ary
Ġpack s
ace s
Ġreview s
Ġl y
Ġor d
Ġj ack
deli ver
Ġimpro ved
f r
Ġm ight
Ġde c
Ġlight s
Ġpat ient
Ġb ai
Ġcol le
Ġdo ang
ai ght
Ġred u
Ġexp ired
Ġke y
Ġpeng irim
Ġfo am
Ġrekom ended
Ġch oice
Ġr ough
Ġdes cribed
Ġgener ally
Ġt able
Ġc able
Ġ1 4
hhhhhhhh hhhhhhhh
ct ed
Ġau th
Ġwid th
m e
Ġpr od
ce pat
Ġe ye
Ġhe at
Ġpo ss
Ġstr aight
Ġstick y
Ġn ame
Ġen jo
Ġf ore
Ġh onest
st ill
Ġtr ail
Ġde cent
Ġcan cel
55 55
Ġpat ron
Ġrepl aced
Ġprinci pal
Ġinexp ensive
b gt
u ation
Ġrece ipt
sh s
Ġd in
Ġv is
Ġwh e
Ġcomplet ely
Ġwal k
Ġzi pper
s es
Ġ est
Ġd lu
Ġan ak
Äł su
Ġdi pake
Ġcl apping
Ġcorrespon d
Ġrap i
Ġsubsid ies
Ġkid s
j ab
n f
Ġp ak
Ġr ate
ic ally
Ġsamp enya
Ġmar ket
Ġfavor ite
d am
Ġsa u
Ġcl ass
Ġfre sh
Ġw aste
Ġseam s
c lo
m as
Ġs ist
Ġb ed
Ġm cm
Ġpacking an
Ġcomp any
yy yy
Ġgener al
Ġt ong
wh ere
Ġmach ine
al though
Ġl ist
Ġan k
us s
Ġag a
Ġdis ting
Ġbr ng
Ġinst ant
Ġmm g
00 0
Ġpatron ize
n ed
ok s
Ġeffect ive
Ġ3 8
Ġco ok
is ing
Ġm aint
ol l
Ġfeel ing
nnnn nnnn
i or
Ġsm ua
Ġr a
Ġho le
p os
Ġin it
Ġits elf
Ġpow der
Ġinform ation
Ġaam iin
i ff
o ve
p ut
Ġp p
Ġd n
en ed
Ġn d
Ġch arger
ust ed
li p
Ġbang eet
over all
Ġresponsi ble
Ġp ound
Ġm ed
Ġin v
Ġorder ing
cri be
Ġaccording ly
Ġexp ir
Ġfl at
Ġstr ap
Ġpart s
Ġbel ow
cew a
Ġincre ase
Ġfig ure
b all
i er
p ass
Ġf ive
Ġre eb
Ġfor get
ill ow
Ġtest ed
i ant
p un
ent ic
Ġsay s
Ġsub mit
d g
j k
ou l
Ġsy uk
od ity
Ġf our
Ġn avy
at s
ar p
Ġk asih
Ġr ice
Ġtri al
kkkkkkkk kkkkkkkk
Ġdisting uished
ar s
Ġori gin
iss ion
Ġconven ient
ag a
Äł e
Ġv s
Ġnorm ally
Ġaccept able
Ġamaz ing
Ġupd ate
d f
su ka
au ght
Ġadd ress
Ġstick er
Ġwa ist
Ġspark ling
n ja
Ġt a
Ġk an
Ġac com
Ġarri val
Ġab is
sho es
Ġgap apa
Ġbany ak
u i
u dh
Ġter baik
Ġtrans fer
Ġprot ect
s dh
al a
Ġfa ult
Ġch ang
Ġacc ur
Ġsim ple
g od
l am
Ġs it
el s
al u
qu ick
Ġne ck
wor thy
k in
Ġt ks
Ġp ul
Ġl ab
Ġmat ter
Ġdr op
Ġatt ached
Ġear ly
Ġear lier
Ġsur pr
Ġod er
Ġseal ed
c er
c le
Ġt ape
Ġg low
Ġbe h
un e
Ġny aa
Ġrun s
Ġexper ience
Ġs at
Ġh arg
t s
Ġb ul
Ġm et
Ġu r
Ġstu ck
Ġper h
Ġap pe
Ġner awang
Ġt en
Ġad a
Ġcont ent
r ant
Ġf elt
Ġm ksih
Ġso ap
Ġsaf ety
Ġfair ly
Ġpes anan
Ġds ni
k t
Ġt ear
Ġg el
Ġis s
se ver
order ed
dis appoint
Ġquest ions
p in
ic ation
Ġsand als
Ġbl is
Ġcheck ed
Ġnyamp enya
g ing
w a
er a
Ġd an
Ġj nt
id es
ang g
Ġter rible
Ġsec ur
j h
z ed
qu e
st r
Ġch o
Ġcharg ing
Ġsing le
h es
k h
Ġl em
Ġlo ck
p ak
Ġf ear
Ġw ind
Ġm en
Ġh ol
Ġi r
uuuuuuuu uuuuuuuu
Ġw et
Ġw ord
Ġst re
Äł se
ure d
ci e
c an
Ġb and
Ġj ne
Ġim ag
di rect
Ġtrust worthy
e very
u f
Ġb ase
Ġm sh
Ġm ult
qu ite
Ġr m
Ġ1 8
ush ed
Ġul tra
c ar
Ġm om
Ġn ih
Ġg ir
re w
Ġcont ain
Ġle ast
Ġgu arant
Ġinde ed
Ġauth entic
Ġth read
it ive
Ġh aha
Ġr ing
Ġr ating
Ġim ages
aut y
ih i
Ġreturn ed
b y
Ġf ill
hh e
Ġsmall ness
Ġsli pp
custom ers
b ought
c ing
r b
Ġt ouch
Ġfa ke
Ġsur ely
Ġp aint
Ġqu al
Äł v
Ġany one
Ġget ting
Ġbrand s
ph one
Ġfreeb ie
Ġadvert ised
Ġp in
Ġb le
Ġf lex
Ġm n
Ġwant ed
Ġbanget tt
Ġhelp ful
Ġsubsid ize
d s
in ed
Ġp illow
Ġd lm
ust ri
Ġsel ect
f un
Ġg aa
Ġre sp
eli ver
Äł o
Ġse wing
Ġbr ang
pppppppp pppppppp
y aa
Ġp et
re commend
Ġli ve
ssssssss ssssssss
dam aged
Ġk et
Ġst ain
Ġpackag es
aaaa aaa
Ġse en
Ġar om
Ġco at
Ġdest ination
Ġm g
Ġk sh
Ġse ed
he ad
dddddddd dddddddd
Ġabs or
m ess
Ġn in
ar ri
Ġposs ible
Ġexpect ation
und red
Ġdraw n
Ġscratch es
Ġhuh u
cord ing
b ud
p es
Ġd anger
un ch
ci f
m i
Ġsho ck
Ġsp end
Ġjg n
Ġro om
unt il
Ġquest ion
Ġtal k
e ed
Ġh ang
Ġst able
ap ed
Ġch ar
Ġad just
Ġcont r
Ġrecom end
Ġall ah
Ġoke e
g l
ot s
am b
Äł a
et t
Ġun like
per fect
Ġclo ck
Ġple ased
Ġdou bt
c al
re s
Ġc ount
Äł un
Ġpack et
pr oof
Ġker en
Ġreeb ok
Ġperh aps
Ġth ird
Ġc al
ft y
hehe hehe
Ġrap id
Ġcompl aint
pass able
f ab
Ġth or
Ġm ist
Ġevery one
Ġsur v
ru ction
Ġsil ver
Ġaccom odating
Ġt l
Ġt tp
al ah
ed e
Ġm idd
Ġh it
Ġag e
if ied
Ġtak en
Ġcam era
m p
Ġg re
Ġh undred
Ġal one
su it
Ġkual itas
b z
i o
i an
Ġa y
Ġas h
Ġthin ks
dh dh
fin ally
Ġdescription s
Ġp ke
Ġfe ed
ud ah
iv ing
Ġpe el
Ġsek ali
Ġpock et
Ġjack et
u ff
and om
Ġsa w
Ġbr o
Ġ3 9
Ġlip stick
Ġord inary
Ġf ully
il ah
ic ated
Ġcondition s
js j
Ġent er
Ġpng iriman
Ġwon der
g b
g anan
n z
re p
Ġn on
Ġcl ay
Ġbook s
wor th
Ġvers ion
disappoint ed
Ġc ake
Ġr ain
Ġrequest ed
okokokok okokokok
cew ain
Ġsek al
Ġlay er
Ġm b
as es
ort s
Ġcom pet
we en
Ġni ke
Ġprov ide
h ari
an ja
Ġv oice
Ġme as
Ġbo y
Ġiss ue
Ġh es
Ġbo ard
bar ang
Ġky k
Ġwom an
Ġst aff
ill iant
Ġshop pe
Ġam a
Ġle vel
ac cording
Ġer ror
tim es
Ġwrit ten
m ed
w ith
Ġcom fy
Ġpl ug
Ġmon day
Ġinter est
emas an
Ġm ind
ri ght
af ter
Ġd edu
as k
Ġdid n
Ġpay ment
Ġbet ween
s ung
il i
ot o
ent ly
Ġy o
Äł ch
Äł de
Ġr ow
ii h
Ġbr illiant
Ġ3 7
Ġbott les
Ġbeh ind
c um
j g
r n
Ġa ut
Ġl h
Ġk c
ad ing
Ġ2 2
c ur
m l
t a
Ġd ail
Ġc ir
Ġw l
Ġk ap
Ġj s
ur dy
so ever
Ġmin i
Ġpost age
Ġcomm odity
d id
l ish
v ious
Ġt iny
sh e
Ġwho le
Ġke k
Ġneed ed
Ġglass es
fab ric
Ġhes it
Ġde ch
Ġbl nja
app ropriate
Ġper o
nd nd
pl ay
Ġbah an
Ġgaa da
Ġb b
Ġb ur
Ġke pt
ahah ahah
Ġap a
Ġfrag ile
Ġ202 0
Ġglow ing
Ġdail y
h r
Ġ ut
is a
Ġde ad
iz ed
Ġbt w
Ġgas ket
1 0
so ft
Ġag o
Ġdis ini
Ġ3 6
Ġpl aced
Ġapp ro
Ġbg s
Ġste am
pos able
el et
re di
Ġl ed
ic ient
Ġte a
Ġwrapp ing
aaaaaaaaaaaaaaaa aaaaaaaaaaaaaaaa
price s
Ġfreeb ies
ustri a
al em
Äł ng
Ġv ol
Ġv ouch
Ġj um
im ate
Ġse ason
Ġhi jab
Ġcomplet ed
Ġneed s
rant y
h ad
ce s
Ġm ba
qu id
Ġnot ice
Ġspe cial
Ġr ock
Ġr andom
Ġtw ice
Ġsever e
Ġprod ct
Ġthor ough
Ġt eng
Ġo m
Ġk w
Ġac ne
Ġmat e
Ġde hh
sh irt
ssss s
bb bb
Ġcm n
Ġspark les
Ġg rip
Ġfa m
ion al
Ġlah h
Ġsay a
ra id
d r
g es
l od
s low
Ġwar ranty
Ġmar oon
ww ww
Ġsle e
Ġinclud ed
Ġcant ik
ker en
1 1
b ai
w ise
Ġc ell
Ġw are
Ġon es
Ġr ose
Ġr ada
Ġsc ar
pl aced
k it
n se
Ġd us
Ġamaz on
Ġtong ue
j ang
w ear
ol ut
Ġcol d
Ġdo or
iv es
Ġmil es
Ġgt u
Ġexpress ion
l er
Äł tr
Ġdis posable
Ġown ed
Ġinstall ed
Ġblis ters
c ase
m n
Ġsa ve
Ġle gs
Ġaf raid
u ri
at ic
Ġi ron
se c
Ġv ia
Ġtr ny
Ġhe fty
Ġlook ed
Ġsmell s
Ġhr g
Ġleak ing
Ġs ll
Ġs cent
Ġb und
Ġpr odu
or ge
pp p
Ġbe auty
Äł pr
Ġbl m
Ġbr u
Ġar t
Ġwal let
aught er
b ility
Ġm co
Ġh oles
Ġk at
Ġpl ant
Ġper form
Ġgu ys
Ġins ert
Ġnge cewain
Ġimpress ed
Ġexpression less
f h
j w
v d
Ġt uh
re ci
Ġd ont
ar ily
Ġsh aped
Ġst urdy
Ġ1 7
Ġpo bud
ha ve
mk sh
orge ous
2 0
h an
Ġs atur
Ġf em
Ġm ic
Ġst iff
Ġmin us
h at
Ġp em
Ġp ort
on ly
Ġsho pe
Ġfit ted
Ġlack ing
Ġfall ing
k ual
m ak
Ġn atur
Ġfa il
Äł sh
Ġsol es
Ġshipment s
Ġwhe ther
b ih
f ri
h s
Ġi de
Ġare a
thank you
Ġhand le
Ġmk asih
Ġdu per
b n
k al
r d
Ġp ouch
Ġc asing
Ġk s
Ġr eli
Ġsk rg
Ġx xl
Ġel astic
xx xx
Ġdraw ings
Ġwrit ing
Ġmaint ain
g ar
l h
Ġp ag
Ġc up
es h
Ġm all
st em
Ġex change
Ġby k
Ġsubs cribe
ist ry
vv vv
Ġaccur ate
direct ed
Ġt ired
Ġb reat
at t
Ġi p
Ġin sh
Äł y
bs bs
Ġ2 8
Ġgreat ness
Ġny o
Ġsome one
kw k
Ġtot al
Ġeng ga
Ġju ga
Ġram ah
Ġs lo
ver s
on y
Ġser ious
ort ed
su b
day s
br ang
Ġ9 9
Ġear r
cor respon
Ġfur ther
Ġc ent
Ġl ens
Ġsh arp
Äł ke
Ġevery day
Ġfollow ing
Ġheal thy
Ġd aughter
Ġm aa
Ġm ix
ri but
gin i
Ġsamp le
Ġmak ing
Ġwar m
Ġreplace ment
v id
Ġt t
Ġh op
ah an
Ġde vice
ca re
oun ter
Äłd is
Ġess ent
a ve
l um
Ġp el
Ġm s
Ġn one
Ġl ain
Ġk em
ass es
Ġdep ending
mmmm mmmm
d es
er nya
Ġa a
Ġp ull
Ġli quid
Ġme ets
Ġx a
uh u
Ġsn ug
Ġsli p
Ġs s
Ġw ire
Ġh ihi
as a
as y
th at
ot op
id ent
Ġse par
Ġsatisf y
si p
Ġsel amat
Ġstick ers
bg us
Ġo t
Ġw ood
ut es
Ġmate ial
3 3
Ġo ath
Ġk t
Ġsu ng
ah it
Ġ2 3
Ġwr n
Ġplastic ity
Ġtem per
Ġma x
Ġconn ect
Ġaddition al
r at
re nt
th en
Ġno se
Ġpro fit
Ġpl ain
Ġmem uas
Ġlab el
recommend ed
lod ged
c ul
n et
w ow
is m
Ġsome times
Ġmo ga
Ġsc rew
Ġpost ed
Ġd ng
Ġl aa
um er
ant i
oo o
Ġgl ad
packing nya
Ġprom pt
Ġlang ganan
fri end
correspon ding
Ġt on
Ġb eli
Ġm ain
Ġn nt
Ġe val
ap oint
Ġdis lodged
Ġab ove
Ġed ge
Ġmur mer
Ġbri an
p y
Ġt el
Ġm us
Ġm sg
Ġi c
Ġbe ar
Ġbe ating
em ber
Ġcom b
Ġtran sm
Ġprom ot
Ġpokok nya
Ġgam bar
Ġhat i
Ġsch ool
k at
s ell
Ġm el
as m
ol ving
Ġv iew
Ġj ait
im a
all er
Ġper f
Ġterim akasi
Ġev ent
trim akasih
ow ning
Ġsp ending
Ġle g
Ġsy stem
Ġthink ing
ser vice
Ġslipp ery
n nya
Ġg orgeous
ver age
Ġsm g
Ġr an
li es
Ġrecommend ation
Ġgr owing
Ġcrack ed
Ġsatur day
p ants
v m
re com
Ġw ore
or ing
Ġh h
Ġre cie
Ġk ya
Ġdis s
Ġdis play
Ġfr owning
ac ing
Ġmin istry
Ġatt ention
Ġcum a
bd bd
Ġwash ing
suit able
h i
Ġl amp
Ġu d
der s
Ġsa vor
Ġpre fer
tim e
Ġob vious
Ġspill ed
Ġsavor ing
y m
Ġw kwkw
Ġst ate
Ġspe cif
Ġex ha
Ġtr ade
Ġunt ried
Ġapp reci
Ġbar g
Ġmin utes
Ġlow er
Ġwash ed
Ġg ab
is ion
Ġto w
pr aise
ang nya
Ġcom ment
ic y
out ing
Ġoke h
ns ns
Ġconfirm ed
Ġmark otop
Ġpdh al
Ġfix ed
Ġsubmit ted
1 2
h ar
th umbs
Ġk as
Ġk om
ff er
Ġun comfortable
Ġ2 9
Ġle ather
Ġapp l
av es
mant ab
v s
Ġd l
Ġwr ite
ece w
Ġrev olving
Ġing redi
Ġguarant eed
Ġmidd le
Ġfem ale
a im
Ġb ol
st ore
Ġsy g
jd j
Ġincre asing
Ġmis placed
Ġphotograph ed
Ġhahah a
Ġchang ed
Ġjum bo
h igh
o c
s le
x h
Ġb elie
Ġf ish
Ġm ng
as uk
ar in
Ġstar t
Ġlu cu
Ġsim ply
iiiiiiii iiiiiiii
Ġhur t
h and
Ġp ity
Ġo ption
Ġf i
Ġc k
Ġe e
Ġor g
Ġlo se
com ing
Ġtr ack
Ġse ction
Ġbl anja
rim an
Ġcut ting
ait ed
Ġmatch ing
Ġcl ick
Ġtight ly
Ġanswer ed
Ġds ini
Ġb ir
Ġd um
ur ing
Ġce pe
Ġ5 55
wh ich
Ġdr ink
Ġcou ple
Ġlum ayan
lam ation
Ġsurv ived
olut ely
a o
b f
b i
Ġp outing
Ġl ap
Ġin k
Ġar m
Ġint r
Ġcons ist
Ġca use
sever ing
Ġvouch er
5 0
k i
y u
Ġg at
Ġm eng
Ġco ins
Ġad em
wh y
Ġexc lamation
Ġcart on
Ġcolle ction
Ġsung l
a ustria
k ok
l it
el ent
Ġf ing
Ġw ed
Ġw ow
ak ak
app y
rim p
Ġdoes n
wh o
av el
Ġfl avor
Ġlast ing
Ġt as
an j
en se
Ġn ut
ell ed
Ġk ar
ch at
Ġthin ner
Ġper severing
gg u
tttt t
Ġinst ruction
Ġve il
Ġsuk aaa
Ġpart y
Ġexc ited
Ġinclud ing
Ġsecur ely
a way
o f
Ġg er
Ġpr act
Ġha ven
auti fully
ab les
Ġng ak
Ġnyampe k
Ġdesign s
Ġdt ng
Ġbutton s
Ġbai kk
Ġsungl asses
Ġm ir
Ġst rip
Ġu h
Ġj a
Ġpackaging nya
are nt
Ġke cewa
Äłc on
Ġbny k
m akasih
Ġf irm
Ġc ord
en ing
Ġdi b
Ġke cil
bo ok
Ġoff ers
ik in
ign ed
Ġaccept ed
Ġearr ings
s lightly
Ġb ak
Ġf ire
Ġm int
Ġh or
Äł th
ak sih
Ġbl ame
Ġfri day
Ġwait ed
Ġlag ii
Ġincreasing ly
e v
n k
r ated
el d
ce p
ur s
Ġlo ad
Ġ2 7
Ġbl ock
sh sh
Ġco ff
Ġus b
Ġbag uus
Ġmant ep
Ġlg sg
Ġ6 0
Ġbook ing
g y
y ok
al hamdul
an e
ce ed
Ġst ains
Ġme at
li ed
os ed
Ġtrim s
Ġrem ain
Ġfeed back
m u
Ġ 000
an h
Ġis su
Ġ2 6
Ġmou se
Ġresponsi bility
Ġexist ing
Ġjug aa
Ġfam ily
m ay
n h
s amp
Ġl aces
Ġk ur
Ġfor got
Ġv ict
ic ial
Ġstar ted
Ġsoft ware
Ġcr oss
Ġoff ice
Ġwar p
Ġsun day
bang et
Ġcontr ol
Ġnatur al
t i
Ġt il
Ġproduct ion
Ġy ong
Ġbr a
Ġus er
Ġad e
Ġlu v
Ġmin im
Ġoke y
Ġstat us
Ġflow ers
Ġqual ty
Ġarom a
Ġexha usted
Ġingredi ents
f air
Ġs d
Ġt i
Ġw ent
Ġn et
Ġl ol
Äł x
so le
gg age
Ġak o
Ġhr s
Ġpu ass
gggg gggg
Ġpaket an
Ġpengirim anya
Ġinit ially
Ġresp nse
k x
Ġb ing
Ġl azy
Ġy un
Ġv an
Ġj ap
Ġne g
um pl
Ġr ot
ance s
su k
ne at
ple ase
Ġsur f
every thing
Ġgir l
Ġabsor b
k ali
al hm
ri es
Ġde f
Ġde ce
Ġrece ntly
Ġsp ent
nn n
Ġmo ve
Ġ9 0
Ġtransm ission
b ab
k l
Ġs aller
Ġt ag
Äł sp
Ġv ide
Ġr ange
ant aran
ang an
ex pect
Ġhesit ate
o e
Ġt ing
Ġa x
Ġd im
ell a
il a
lo ok
Ġdi e
Ġexpect ing
hhhh h
bag uus
Ġmo ist
Ġthick ness
Ġshirt s
Ġfin ish
fun ny
o per
Ġs light
Ġm ail
Ġqu ant
Ġst ability
Äł br
Ġco in
Ġro ad
Ġker ry
Ġsw itch
Ġcho col
uf act
Ġbase ball
Ġmult ip
Ġreli able
Ġcoff ee
r al
al am
Ġm ace
Ġst ri
Ġv i
lo ves
Ġsuper b
Ġslow ly
Ġoff er
Ġmakasi hh
pake t
tttttttt tttttttt
tqtq tqtq
e ven
f avor
o id
Ġsh rimp
Ġbe come
Ġlo g
Ġse gini
Ġbl i
Ġad hes
Ġkn p
Ġlu ggage
Ġsamp a
Ġap art
Ġenjo y
d t
e f
Ġm i
ut ion
Ġk ain
Ġli ps
Ġha ving
Ġrece ved
Ġat e
ig e
Ġbang ee
Ġkn e
Ġcr ushed
Ġsuk aaaa
Ġmis directed
Ġpk ok
Ġwi der
Ġnear ly
Ġbelie ve
Ġbir th
e g
Ġp ant
Ġto ys
Ġk aa
Ġcon st
Ġex cept
Ġcheap est
Ġpen jual
Ġwater proof
Ġho ok
Ġissu es
Ġchocol ate
m ar
n ers
x y
ak k
Ġtr us
iiii i
Ġnin ja
Ġperform ance
Ġt d
Ġp m
Ġfr ame
Ġwor ried
Ġrece iving
Ġall ow
Ġlot s
Ġset s
Ġconsider ing
Ġbreat h
9 9
r m
u w
Ġt ough
Ġb w
Ġw kwk
on a
Ġy aaaa
Ġbe gin
am s
Ġsm ga
ul ting
Äł ter
ol og
Ġtim ely
ng at
Ġexp l
Ġke pake
Ġbook ed
Ġcepat t
Ġdateng nya
Ġang ry
git u
Ġprot ection
Ġ201 9
Ġsit uation
Ġmeas ure
Ġvol ume
e xt
h appy
al so
Ġc pet
Ġh g
Ġl d
Ġre c
ar n
Ġfa de
id ed
Ġbu ble
ong rat
Ġ2 00
Ġcomp act
Ġsp ong
Ġadv ance
Ġsneak er
Ġessent ially
Ġs ang
Ġs ana
Ġt v
Ġt ree
Ġa verage
Ġd ic
Ġw all
il t
Ġtr action
ks ks
ist ics
Ġwhich soever
ire s
Ġgive away
Ġrefund ed
Ġtu be
Ġant i
Ġfil m
Ġkap ok
Ġinsh a
g iriman
n ow
t u
Ġs ides
Äł al
est ed
Ġ3 2
ail and
Ġdown load
Ġseem ed
Ġsty lish
Ġod or
Ġhell o
Ġexpir ation
Ġstre ng
Ġbund led
d it
j z
k us
k irain
Ġb ass
Ġc lip
Ġn ail
Ġk es
Ġag k
Ġle ave
Ġbubble wrap
Ġz ip
Ġlik ely
Ġel ect
Ġsem ua
Ġsatisfact ion
ky u
Ġdedu cted
Ġp aste
Ġf al
Ġf at
Ġpr inting
Ġre ach
ul ations
Ġsho vel
ur an
ir nya
Ġun i
Ġbr ing
Ġdi am
Ġpro f
wh en
Ġbagus sss
Ġbg tt
Ġgu y
Ġrespond ed
how ever
j c
k en
w as
Ġ ice
Ġs us
Ġg ym
Ġd il
Ġd oll
Ġc li
Ġm h
Ġn ad
Ġk it
im e
Ġr ust
Ġother wise
Ġ2 1
Ġdi pak
Ġco vid
ny ampe
Ġwear y
Ġle aves
Ġter ms
Ġwant s
Ġapp ly
ex act
Ġclear ly
sel ves
Ġdetail s
h o
p n
t ry
Ġp un
Ġg x
Ġn ature
Ġh y
Ġin f
ad i
Ġwr ink
Ġsupport ive
Ġyour self
Ġaw aited
Ġdik irim
eeeeeeee eeeeeeee
Ġsen se
Ġdust y
w ould
Ġt reat
Ġt uk
Ġt read
Ġn s
at or
Ġwh oles
Ġdo g
pt ed
Ġam in
Ġaff ection
Ġsel er
Ġed ges
Ġperf ume
h ouse
k f
Ġb ased
Ġd alem
Ġh d
un fortunately
id as
Ġcom ments
Ġmy self
Ġco cok
Ġslow er
Ġcar ry
Ġbless ings
Ġins ya
Ġdist ance
Ġol shop
deliver ed
Ġappe ar
h d
m ur
n c
p el
r s
Ġs ama
Ġe y
Ġsu ks
Ġch est
Ġsi h
Ġdis in
Ġat ion
Ġgr ow
Ġres ist
ced ent
Ġrem ember
Ġabs olutely
Ġtot ally
Ġspr ay
b c
c us
r an
ing nya
Ġm ad
Ġn are
Ġpack ging
Ġsi i
int ed
Ġcan not
ab il
Ġsay ang
if y
Ġgu ide
Ġform er
val ue
Ġaw ful
kn own
Ġgm n
Ġs our
Ġg ame
or ies
Ġh s
Ġe c
Ġi h
Ġin complete
Äł ad
Ġj os
Ġser um
ang et
Ġsi hh
Ġcolor ful
su bs
Ġsel f
Ġsel ected
Ġman ufact
wor k
Ġenthusi asm
Ġequ ally
Ġflow er
Ġbny ak
Ġtrny ata
m on
Ġs ak
Ġp d
Ġg anda
Ġf ell
Äł per
Ġyou ng
Ġch ance
Ġbr ac
Ġter bai
Ġhehe hehe
Ġmas ks
Ġstretch y
Ġchar act
recom ended
b it
c pt
i ful
o y
r as
r ang
Ġg one
re am
Ġh um
Ġto y
Ġe id
Ġj ak
ful l
Ġco z
Ġpur se
Ġdes ired
Ġoverall s
ph ones
Ġfollow s
Ġpk p
Ġcu cok
Ġequ al
b es
c ast
Ġt ues
Ġp age
Ġth ailand
re qu
Ġd pt
Ġan te
Ġi gn
Ġk sih
ak es
Ġch ick
Ġclo thing
Ġmant aa
Ġlu c
Äłb l
Ġpart ic
Ġvari ation
Ġredu ce
mess age
Ġscar f
Ġadhes ive
ongrat ulations
n ah
p on
Ġo s
en cy
Ġto es
Ġbe autifully
ul it
Ġeven ing
ac y
Ġbanget ttt
Ġthick er
Ġint imate
Ġkal o
Ġword s
Ġcontain er
Ġappreci ate
u y
u it
Ġs ust
Ġb ow
Ġn or
ast ed
Ġst ated
ap ak
Ġser ve
Ġbal es
Ġbel t
Ġpol ite
some what
Ġexpir y
rep ant
Ġbarg ain
Ġgat au
favor able
k ap
Ġa aa
Ġpr ior
Ġl mb
Ġbe y
Ġfa ded
Ġshop pee
Ġworth while
Ġen vel
si ble
respon sive
Ġres eller
ner ed
Ġchin ese
Ġmem ory
Ġye ah
Ġdest ro
Ġet c
Ġcommunic ation
Ġremo ve
Ġcompet itive
Ġnnt i
Ġspong e
b ell
m akasi
Ġt k
Ġp c
Ġb an
Ġc and
Ġm old
Ġal i
ant ik
Ġcon cer
Ġwor ry
Ġhe ight
Ġlight er
Ġkm rn
Ġmal em
Ġsampe k
Ġtues day
Ġante cedent
9 0
s c
Ġ 00
Ġp ig
Ġn gg
ar ely
ent ive
id ay
Ġbo le
Ġacc ount
ber y
Ġreason ably
Ġbarang nya
Ġcons ulting
Ġsl im
Ġsurpr ised
Ġhop ing
1 5
b les
Ġs an
Ġt id
Ġm nt
Ġis h
ar a
Äł i
ok o
Ġser ies
Ġac cess
Ġhas sle
gg ed
art a
Ġstr ange
Ġcl aim
Ġmod er
Ġcompl ain
Ġprodct s
b less
i der
m d
r ap
Ġb d
Ġi b
Ġin ch
Ġj am
Ġfri ed
Ġen c
bu ka
Ġsem u
min ate
Ġsn ack
Ġluck y
Ġcas es
Ġru pt
Ġmakas ii
Ġseed s
Ġaut om
g d
Ġp apa
Ġc y
Ġm ine
ke ep
Ġlo go
ic ations
Ġtr aining
Ġover load
ro ss
Ġsecure d
Ġpen cil
Ġje ans
Ġtal aga
Ġdelay ed
Ġvide o
a x
b ers
j i
m et
o x
p d
r act
Ġ ers
Ġw el
Ġm ks
Ġsh are
good good
Ġj ar
Ġli mit
Ġun known
Ġtr ou
Ġgr ab
Ġng k
con s
Ġimpress ive
sa fe
Ġhol iday
Ġconsist ent
Ġbirth day
m iss
Ġt re
Ġp ump
it i
is es
us ing
ke y
Ġsu mm
Ġup on
Ġori gn
com fort
Ġdo ing
ter n
Ġbl s
Ġri g
si zed
aw a
Ġdent al
Ġcm a
pal ming
cepat an
Ġlog istics
s ame
w al
Ġa st
Ġc ity
il ing
Ġe ating
pp y
Ġal hamdul
Ġface palming
Ġtr avel
Ġad ult
Ġtq vm
Ġem g
Ġatt entive
Ġman ual
Ġwar na
Ġlam aa
oooooooo oooooooo
Ġvis it
Ġeval uation
Ġorign al
n es
t w
y et
Ġs j
it o
Ġb ent
Ġl and
Ġsh ell
Ġi phone
Ġnot es
lo oks
Ġship ing
Ġwe ak
ne ver
Ġtri p
Ġbrg nya
Ġfre qu
Ġind ones
terim akasih
Ġsleep y
Ġthorough ly
asuk asuk
umpl ed
c ame
l ace
m pe
o pped
er o
Ġth o
is k
Ġl un
ri d
Ġi i
Ġor gan
pr om
Ġrep lies
ham d
ll l
Ġcomm and
Ġsound s
Ġrecie ved
Ġstreng th
Ġbey ond
g m
q q
r ather
s on
Ġt ur
Ġb ored
Ġf ant
Ġc atch
Ġm ap
am used
Äł be
ere ply
Ġpo p
act ually
Ġcomp an
Ġgu est
Ġact ive
Ġimpress ion
ob ain
Ġquant ity
b ody
e y
Ġa in
ke cil
Ġbl ank
Ġsk ali
su kak
Ġaff ect
br ow
Ġhigh er
Ġz ig
Ġav oid
Ġbatter ies
Ġtip is
Ġflex ible
sub mit
Ġmemuas kan
ecew akan
Ġfing er
Ġwholes ale
Ġrupt ure
in ch
Ġp ed
Ġpr op
Ġl ear
Ġl ace
Ġan ya
ast y
ay ay
Ġst op
um b
Ġun amused
Ġ3 1
ai red
he w
Ġgod bless
Ġmake up
Äłp eng
Ġass ess
Ġcomplaint s
Ġs ite
al al
Ġm ention
Ġn b
Ġto ler
Ġr arely
Ġtr u
Ġbl om
Ġno on
Ġbr ought
Ġ3 5
Ġco oper
Ġsp ot
aaaaaaaa a
wor ks
Ġpake k
Ġinform ed
Ġhold ing
Ġwom en
sec ond
Ġdiss apoint
b ow
Ġ ens
Ġg and
Ġst ep
aa k
ak a
Ġne ut
Ġdis app
Ġfr ust
li k
Ġter us
any way
Ġexp elled
Ġpe ach
Ġcard s
bl ed
rrrr rrrr
Ġben e
Ġtemper ed
Ġdestro yed
h ol
Ġs z
Ġg g
Ġh ote
Ġk en
ch y
Äł le
Ġpre sent
Ġad idas
Ġby e
au iful
Ġoff line
Ġact iv
Ġcompl icated
Ġba ju
Ġsil ic
Ġcrack s
Ġprinci p
la ju
Ġbrac elet
Ġjak arta
Ġa i
Ġi on
Ġu dah
Äł ny
ter baik
Ġhope ully
ous and
pack ages
dul illah
Ġgar nered
Ġinstruction s
Ġvict ory
Ġmultip le
c ell
m any
Ġa while
Ġd eng
Ġn ga
ell y
Ġto ol
Ġsh oul
Ġi e
ak ing
ak en
st ar
Ġun favorable
ic ing
Ġcomp ar
Ġcomp are
Ġsp ace
Ġgi ving
Ġjo ss
Ġcr is
Ġlu x
mant app
Ġreturn s
arri ved
mi um
Ġtl g
sell ers
Ġax ial
Ġsuks es
b ah
c ont
Ġg e
Ġo pp
Ġc ash
ce t
Ġm ending
Ġn at
Ġk ud
ag us
Ġv el
im b
Ġr at
Ġme an
Ġpre p
Ġhehe h
Ġdisc repant
jj jj
Ġtempor arily
Ġlay ers
Ġcir cum
Ġton er
Ġcompan ies
Ġs su
Ġg h
Ġb un
re g
Ġo per
Ġd ed
Ġan no
Ġal ong
em ic
pr oduk
Ġmerch ant
Ġthem selves
nn d
Ġpurch ases
kkkk k
Ġdid nt
Ġhapp ens
mm m
Ġatt ract
Ġimp act
Ġ8 0
Ġrequ ired
Ġeff orts
Ġmag anda
Ġball oon
Ġil ang
zzzz zzzz
Ġcoll ap
Ġmist ake
Ġslee ve
Ġneut ral
c ate
p an
Ġt ail
it a
al in
Ġm lm
Ġe k
Ġch ain
Ġas sem
Ġcol ored
be cause
Ġbad ly
Ġcomm on
stand ing
Ġconsum ers
jang ka
Ġmir ror
Ġprincip ally
b bery
p ose
s l
u an
y an
Ġa pr
Ġb ath
Ġc un
Ġm w
Ġm ul
Ġi g
Ġin fo
Äł ex
ah hh
ii k
Ġout er
Äłp l
bb on
Ġreg ard
Ġpen gh
Ġmur ce
Ġsiz ing
dis like
Ġplay ing
Ġbh an
7 7
e gr
j am
r el
u ous
in es
Ġth ousand
Ġf ather
Ġm ent
or a
Äł co
ak allah
ff icient
Ġun it
Ġex cess
Ġde cor
Ġcont ribut
Ġ4 5
Ġoff ered
if ication
Ġrem ote
Ġhead set
Ġaw et
Ġpes os
Ġscratch ed
Ġcur rent
Ġflaw less
a an
s n
Ġb br
Ġsh eep
Ġk li
Ġlo cal
ess ional
Ġpl s
Ġx de
Ġdam ned
ro om
Ġak u
Ġmot ives
Ġseam less
Ġcas ual
Ġconsum er
Ġimag ine
expect ed
w l
it ure
Ġg em
Ġm ac
Ġin coming
Äł lo
Ġfr uit
Ġover sized
Ġen ak
Ġbagus ssss
Ġoff icial
tr an
urch ased
con om
kd kd
5555 5555
Ġest im
Ġey el
p uas
w ar
od ing
Ġp and
Ġm am
Ġm esh
ck ing
Ġk in
ch ed
Äł u
Äł en
Äł gr
ad es
Ġv ac
ant ap
Ġbag uu
Ġper t
Ġkak k
amp oo
Ġpesen nya
Ġopen ing
Ġem p
Ġrepe ated
dah al
do es
Ġbet ul
Ġpos laju
Ġeye brow
Ġenjo yed
Ġsll u
Ġintr odu
Ġrig id
f s
i ah
u ul
Ġs ed
ce ption
Ġin sole
am az
Äł pe
Ġj er
Ġj az
Ġso re
Ġwor ld
Ġsp icy
Ġkn ee
ud a
ind i
con y
Ġass igned
Ġdiscount s
Ġcall ed
Ġinstall ation
jf jf
Ġbh n
real pict
Ġfore ver
high ly
Ġbing it
Ġinsya allah
1 6
e xc
Ġg on
is on
Ġc t
Ġc ounter
Ġm esen
Ġre j
Ġk ore
im an
Ġlo c
Ġpre mium
act ory
Ġ5 00
nt ik
Ġple ading
Ġcr umpled
Ġcover ed
Ġpen yok
Ġ0 9
Ġmot or
Ġcushion ed
Ġrem ains
Ġfre ight
Ġbus y
Ġ202 1
Ġcommunic ative
Ġredu ced
Ġpound s
Ġcontain ers
Ġsurf ace
Ġresist ant
Ġec q
Ġchick en
a j
a at
g ener
i et
m is
p ic
y o
Ġb ank
Ġo u
Ġm id
Ġre ar
th ick
ent y
Ġi k
Äł ac
Ġj une
ap at
st er
Ġbl um
Ġpl a
Ġpl an
Ġper for
aaaaaaaa aa
Äłs m
Ġpeng emasan
mo ga
Ġcons ult
Ġdiscount ed
bal oi
Ġsen der
Ġlin es
Ġta unya
Ġpract ical
Ġssu ai
b ot
u c
z en
Ġs oul
an ced
Ġk lu
Äł pro
Ġr ude
Ġdi bal
Ġri bbon
Ġwrap nya
ung kus
Ġmo b
Ġconf orm
Ġ7 0
bl ack
Ġmak sih
Ġtrust ful
Ġeff icient
Ġrap ih
Ġnge pas
Ġperson al
air s
Ġcap t
Ġpokok ny
Ġgm br
Ġremo ved
Ġbas ic
Ġclass y
mess ages
Ġpeel ing
friend ly
Ġgab isa
a bs
b is
p m
p hew
t urn
Ġh nd
Ġk il
Ġk irim
Ġin ner
Ġbl oss
ac ity
iiii ii
rece ive
Ġhel d
Ġprovid ing
Ġid ent
Ġdng n
Ġwed nes
Ġbloss om
j r
z ing
Ġs ke
Ġs ngat
Ġt in
Ġto s
Ġi ve
Ġk ere
Ġse wn
Ġco b
Ġstr aw
Ġte ch
Ġbg d
Ġcover s
Ġtak ing
Ġent ire
Ġstand ar
Ġheal th
Ġprevious ly
Ġspeak er
Ġware s
Ġwednes day
a ud
i w
n am
Ġs ou
Ġs ket
Ġt ank
Ġf und
Ġw o
Ġm l
Ġre cord
Ġal as
Äł im
Ġne phew
Ġch r
un ggu
Ġcon cent
Ġwe igh
ult ra
eeee e
Ġdat a
Ġ0 8
Ġba j
Ġmag net
Ġank le
Ġmed ical
Ġslo bbery
Ġmus ic
4 5
b et
c ah
d at
h ang
r os
Ġp dahal
Ġo p
Ġo cc
Ġpr iv
Ġm os
Ġm ount
Ġn am
Ġh oney
Ġon gk
Ġso al
Ġya udah
Ġfl av
ne xt
Ġcor ona
Ġask ing
Ġsn gt
Ġrol l
Ġvari ant
Ġcommunic ate
Ġsuggest ions
Ġneck lace
Ġide a
Ġkom pl
eg ant
Ġb kn
Ġun used
ate ver
Ġar ms
Ġbo s
Ġlight ning
Ġny mpe
Ġwear s
Ġsp ir
Ġwe ather
Ġbagus bagus
Ġcor ner
Ġtransp arent
Ġkind a
Ġdark er
Ġsiz ed
Ġleak ed
Ġtow el
h ere
k z
p ot
r ain
s ing
s angat
Ġre ward
th x
Ġdeli cate
Ġsh ampoo
ent le
Ġnot iced
ok ed
un ting
kk w
li g
Ġrecommend ations
av ing
Ġsc am
Ġint ention
ash ion
Ġsamp les
Ġterim akas
pro x
Ġcost s
Ġty pes
Ġregret s
sy uka
Ġps bb
Ġaman ah
peng iriman
Ġwi fe
edu le
Ġinit ial
Ġwonder ful
b ul
g ress
i fe
n ight
en ance
ar ang
Ġe conom
se mb
ak nya
ap pe
ir king
Ġtr ous
ope e
Ġle ad
Ġter ny
any aa
Ġab ras
Ġdur ability
Ġke cepatan
ip is
Ġbg et
co ver
Ġret ri
bl um
Ġprom ised
Ġ0 5
Ġmar ks
col ors
Ġluck ily
Ġdik asi
Ġ15 0
Ġcap acity
Ġben der
Ġste el
urs day
8 8
b re
i pped
m ag
t ooth
in a
Ġp ing
Ġp ark
is i
Ġh n
Ġk el
Ġal right
Ġfor ce
ur y
Ġch er
Ġch an
end s
Ġsi x
Ġtr a
Ġse gitu
Ġde g
Ġdi chat
Ġ3 4
ab l
Ġrep aired
ail ing
uuuu u
di ffer
Äłs y
do or
mer ch
Ġjug ak
Ġcancel ed
yyyy yyyy
Ġfill ed
Ġobvious ly
Ġdipak enya
Ġmob ile
b ly
g f
l and
p ay
y al
Ġt nx
Ġa ch
Ġa prox
re pe
Ġd en
Ġm ash
at an
Ġl my
Ġv end
un der
Ġr ace
Ġser ing
Ġdi g
uuuu uu
Ġlet ter
Ġsol ution
Ġcost umer
Ġass ured
Ġum br
Ġclean ing
Ġlin ing
Ġcoll ar
Ġpul ak
Ġsat ified
Ġdissapoint ed
3 0
b il
c ise
e h
f und
l ay
n is
p ad
y ung
Ġs dk
Ġp t
Ġf ee
Ġsm irking
Äł si
Ġli ft
et ic
im ately
Ġco ated
dh dhd
Ġworth y
av a
ik es
Ġsiz enya
jdjd jdjd
Ġvari ety
Ġdon k
Ġcur t
Ġcharg ed
Ġsau cy
Ġsecur ity
Ġnad eliver
Ġsust enance
Ġenvel ope
Ġindones ia
Ġdisapp inted
Ġtrous ers
e asy
f low
Ġt f
in ce
Ġg ede
Ġb il
Ġw asted
Ġl m
Ġsh all
Ġne x
Ġlo h
Ġbu d
Ġtr mksh
Ġwor se
are ntly
Ġmay an
av an
Ġint egr
if i
Ġbg ttt
Ġtrim a
Ġear s
che ck
Ġcompl im
Ġvari ations
je je
Ġps en
Ġtable ts
Ġsau cony
Ġnd ak
Ġmg kn
keep ing
b ble
j ek
o st
s im
v i
Ġt ie
Ġg rim
Ġb ait
re kom
Ġc ongratulations
Ġw ip
en e
or able
Ġl bih
Äł ne
ang in
Ġex ceed
Ġfr aud
Ġbo ther
Ġpl ate
Ġsubs idy
Ġ4 2
Ġab u
Ġkn own
Ġbub bles
Ġke ce
Ġke buka
di kit
tttt tt
Ġsel alu
Ġshort s
lu cu
Ġrem aining
Ġdist orted
Ġupd ates
Ġfil ter
Ġsch edule
Ġdec ided
Ġfore ign
Ġjait an
Ġevent ually
Ġappl ication
Ġperfor ated
b w
d c
r ation
Ġa th
Ġth er
Ġg lo
Ġpr icing
Ġh ood
Äł an
Ġsho ot
un y
Ġr ated
Ġbu ck
Ġtr aff
Ġsa ving
app ed
ure s
Ġam en
Ġpur pose
dd d
ne ath
Ġcr o
Ġwork out
Äłb u
Ġel egant
Ġshe et
Ġprovid es
material s
Ġpaket annya
eter minate
cul ated
Ġbangee et
Ġelect ric
Ġtrou ble
c ut
d u
j l
z h
Ġa head
Ġth ursday
it u
al an
Ġo pin
Ġc er
Ġm dh
Ġk ot
ve t
Ġwh atever
Ġup side
Ġcon str
Ġ5 5
aaaaaaaa aaaa
hhhh hhh
ound ed
Ġdr opped
Ġmo th
sm iling
Ġpok o
Ġhelp s
Ġro be
Ġca ve
Ġol der
clo thes
Ġlem but
Ġscent ed
Ġminim al
ext remely
Ġaccess ories
Ġkud os
b ig
Ġt ang
Ġb ner
is ter
Ġf ul
Ġd er
Ġm ild
Ġh am
Ġh indi
om on
ank u
Ġsu dah
Ġj ual
ap ers
Ġne cess
Ġso ck
Ġtime out
ca ke
Ġacc oding
Ġus ers
Ġad ap
deli cious
hhhh hh
Ġke cew
ction s
Ġneed le
Ġkind ly
Ġvari ants
sho e
Ġinclud es
Ġadvert ising
Ġsam sung
Ġcolle ct
nf nf
Ġcent er
Ġlap top
Ġger cep
Ġbegin ning
Ġpig ment
Ġsumm er
g w
r nya
Ġ eli
Ġt ee
Ġg w
Ġg entle
Ġu pper
aa p
Ġsm art
Äł am
wes t
ang ka
ic ulous
Ġde vel
Ġdes k
Ġint ent
Ġfo cus
Ġdown cast
Ġpok oke
Ġind eterminate
satisf actory
Ġ202 2
Ġinde x
llllllll llllllll
Ġnin j
ev able
Ġngg k
Ġattract ive
c d
d us
m z
m ission
n ks
p u
s ale
re ntly
Ġf ond
Ġm au
Ġn ie
Ġe gg
Ġbe ige
Ġon g
ort ion
Ġshipp er
Ġsi pp
kk s
Ġar my
Ġmu ken
Ġhe y
op ened
Ġdes er
Ġph ys
nn s
ssss ss
iv id
Ġng am
Ġbreak ing
Ġsupp osed
Ġgir ls
dddddddddddddddd dddddddddddddddd
Ġgre y
Ġteng kyu
Ġmax im
ism illah
Ġkar na
Ġtoler able
Ġpand emic
4 4
m h
s ay
Ġs na
Ġb is
Ġf urn
Ġc ntik
ce ive
Ġl an
qu ito
th eless
ar se
Ġan nya
ut er
Ġal hm
ill aah
Ġag ed
Ġex tr
Ġsa v
ab led
Ġab it
Ġsy ek
Ġkn ife
Ġdur ation
ber ry
ash ed
bb y
Ġmon key
Ġsel ection
Ġunder neath
Ġwar n
Ġincre ased
Ġincl ude
baguss baguss
Ġpn jual
Ġprotect or
Ġapr il
Ġgon na
Ġumbr ella
1 3
j v
k asih
Ġc s
Ġn ap
Ġh ay
ar m
Ġk ed
Ġy ng
Ġj w
em p
Ġch art
Ġch ose
Ġpro ject
ih ih
Ġrep ut
Ġhi king
ung si
Ġlot ion
Ġwork ed
da pet
Ġpoint ing
Ġses ua
Ġku ri
Ġvis ible
Ġfault y
Ġcand y
Ġguest s
Ġretri evable
differ ent
Ġopin ion
c as
f irm
h al
i u
p c
q w
al itas
is y
Ġf ashion
Ġd ora
en der
Ġm ile
Ġn ha
or ance
Ġu u
um in
ir a
pr int
Ġde form
Ġget s
Ġstr aps
de fect
tr usted
Äłp re
Ġsuk aaaaa
Ġz ero
Ġfo ol
Ġev il
Ġbi as
Ġorigin ally
Ġsurpr ise
Ġsekal ii
Ġpromot ion
Ġkne w
Ġpkok nya
Ġprof essional
requ est
Ġsilic one
Ġshoul der
jangka u
4 0
a we
b ank
k on
Ġt dk
Ġa hh
in c
Ġp atch
Ġk d
Ġy an
Ġin put
Ġbe auiful
Ġfor ced
ain ya
Ġas semb
Ġtr m
Ġse ger
Ġ3 00
Ġat ed
Ġdisappoint ment
Ġrun ner
Ġmo on
Ġcr amp
Äłc r
Ġown ers
Ġkr m
Ġwal au
Ġber baloi
Ġses u
Ġmand ailing
Ġunderstand able
Ġupd ated
Ġkm ren
Ġprint ed
Ġmet al
lum ayan
c ard
e ch
n j
Ġs ca
Ġg ag
Ġb ill
Ġl ink
Ġan n
Ġe p
Ġsh ade
pp ers
un like
ir eless
ic le
Ġdis ni
Ġpre par
Ġco py
Ġgr ad
dd en
Ġpeng emas
oke e
Ġprom ise
Ġansw ers
Ġpengiriman nya
Ġfollow ed
Ġspr ing
Ġdetail ed
Ġlist ed
Ġimag ined
Ġappro x
Ġdus nya
Ġuni que
Ġdalem nya
Ġtos ca
Ġtraff ic
1 9
1 00
s al
Ġ rim
Ġs ini
Ġp ear
Ġd m
Ġw ang
Ġre ject
Ġk ing
Ġin qu
Ġst ory
Ġbe g
se qu
Äł so
Äł li
em on
Ġup set
Ġacc orance
Ġga es
Ġarri ves
Ġrecommend a
Ġapp arently
Ġshe ets
Ġeff ort
Ġeff ic
Ġty p
Ġdri ve
Ġpress ure
Ġcook ing
Ġguarant ee
Ġarom atic
Ġmix ed
Ġwkwkw k
Ġbow l
Ġbbr p
Ġcher ry
k asi
l illah
m en
v c
v w
v iew
er g
Ġa ction
Ġp w
Ġl at
Ġqu iet
ot a
Ġk on
Äł bo
ad o
Ġj oint
Ġlo os
Ġun expected
Ġagain st
Ġno ise
Ġdi p
Ġcan cell
Ġar row
Ġpl ants
Ġstu d
ist mas
amp le
br ng
Ġem br
atter ed
Ġdt ang
unt ried
gi ven
Ġinstant ly
Ġcell s
mar ket
Ġfal con
Ġassess ment
amaz ing
gener al
Ġspir it
c antik
e er
l g
l ack
p ress
r ng
r ereply
Ġt ar
od s
Ġg est
al hamd
Ġb um
Ġo w
Ġf ile
Ġd ull
Ġc ow
ct ure
il ed
Ġsu fficient
Ġj ahit
un o
ir us
Ġbu ilt
Ġun fort
Ġpacking annya
Ġus age
Ġce pa
Ġen han
Ġgr and
Ġri de
Ġ4 3
pack aged
Ġke c
Ġcr ow
Ġpoor ly
Ġap olog
Ġprot ected
mantap mantap
Ġcur rently
Ġmantapp p
uuuuuuuuuuuuuuuu uuuuuuuuuuuuuuuu
Ġmom ent
Ġinsert ed
rap id
b ener
f g
f gh
h old
r ating
w ait
Ġp end
Ġd ee
Ġk ul
Ġst ing
Ġbe at
Ġsu gar
Ġyou tu
Ġch ip
pr odu
Ġme ans
Ġmu d
Ġ3 3
Ġus eless
Ġlight ly
Ġfe ature
Ġrep ort
si a
Ġsuit ed
Ġfl u
Ġke ith
Ġshort er
Äłt o
Ġnum bers
Ġcomfort ably
jsjs j
oi der
Ġbas ically
Ġprotect ive
Ġhol der
Ġlmb t
Ġmos quito
Ġgrim acing
defect ive
h ee
k nya
p ick
v as
Ġt ick
Ġa z
Ġa aaa
Ġp g
Ġp or
it ter
Ġg os
Ġg love
re ply
Ġf f
Ġn ood
Ġl unch
Ġsh elf
ast er
Ġst or
Äł lu
Äł over
Ġr p
ir r
Ġse bel
Ġgr ound
iss ue
gg er
Ġsp ort
Ġsp read
wh ite
bag s
Ġdr ug
light weight
nd a
Ġcou d
Ġko q
Ġref er
bl m
Ġbarang ny
sa o
Ġgm na
Ġflaw s
Ġpock ets
Ġpatient ly
hhhhhhhhhhhhhhhh hhhhhhhhhhhhhhhh
nnnnnnnn nnnnnnnn
Ġrock ing
Ġwrink led
Ġabras ions
Ġninj avan
b gs
u um
Ġs ss
Ġs dikit
ver se
Ġpr a
Ġpr ize
Ġj el
Ġj un
um ah
ore s
Ġfr act
Ġad o
Ġce p
Ġsk it
Ġwe ird
Ġapp le
ile ver
Äłs a
ash es
Ġblue tooth
bu bble
Ġterim aksih
Ġbri ef
Ġer r
Ġadv ised
Ġins oles
Ġpuas ss
Ġcepe tt
Ġneg ative
Ġdiam ond
Ġcharact er
Ġemp lo
Ġpriv ate
Ġintent ions
Ġdora emon
Ġassemb ly
h ir
s ed
w an
Ġth row
Ġd un
Ġm ill
ch arg
ch arge
ah al
id ence
Ġdi ke
Ġsome how
gg ings
Ġx s
Ġcar pet
eeee ee
Ġmin or
Ġpart ying
Ġsem og
po st
ha ir
ted ly
Ġprocess ing
Ġla ju
Ġsn i
Ġbat am
ged e
ib ility
xxxx xxxx
Ġbreath able
Ġterbai kkk
Ġchr istmas
i y
i at
p art
v is
Ġs dah
Ġt n
Ġth igh
it ation
el er
Ġg aper
al k
Ġw an
Ġn an
Ġsh iny
Ġy ang
Äł qu
Äł ber
sp ort
st ac
Ġso f
tt q
id s
bs h
ff ff
Ġex er
Ġmat te
Ġche ese
sh ort
Ġpo ol
Ġam pe
Ġkak ak
Ġx ia
ssss sss
Ġsc uff
ik an
rr r
Ġhel met
Ġrequ ire
Ġcreat ed
hehe he
Ġcorrect ly
Ġsil ky
rip si
Ġkl w
Ġrekom end
Ġnak ak
Ġdit er
Ġpos ition
gi ft
Ġess ence
Ġbes ar
wwww wwww
kual itas
Ġpel apak
Ġdum ating
Ġstrip ed
Ġjap an
Ġintegr ity
Ġenhan ced
b an
n ic
t asty
Ġs g
Ġt it
Ġt am
Ġg un
Ġb urn
Ġc ry
ed y
en ess
Ġh an
Ġl ma
ent ed
Ġy h
am in
Ġli e
ak s
Ġsi ch
Ġtoo th
Ġpo pper
Ġny obain
Ġsp lit
kkkk kk
Ġbanget tttt
Ġ10 00
pppp p
Ġeas ier
mant ep
Äłm u
Ġret ur
Ġed it
Ġrap ii
to ok
Ġthrough out
Ġhead s
Äłf l
fer ence
Ġeffect s
Ġheel s
Ġpos itive
Ġwin der
Ġwin ter
Ġhur ry
Ġconn ection
Ġsat u
Ġcontent ed
Ġhang ing
Ġcount ry
Ġcal culated
nz nz
ident ally
paket an
Ġpengh antaran
turn s
Ġconstr aint
Ġmaxim um
3 9
d ou
j an
l in
m g
p ort
r ing
Ġt issue
Ġb int
Ġo o
Ġf le
Ġc el
Ġm ass
Ġh hh
Ġto k
se e
Äł as
Ġsu dden
Ġorder an
em s
ic ate
ard us
per s
Ġhand y
Ġcomp ens
Ġsp oon
Ġ4 1
aaaaaaaa aaa
Ġkn it
Ġsay ing
Ġcheck ing
gr am
Ġatt ach
Ġdat ang
Ġ0 6
Ġprocess ed
ward s
Ġcons ign
Ġhar ap
Ġrem ind
Ġbre ad
te bel
Ġincre di
Ġpes an
Ġexc elent
Ġgam es
hm hm
Ġowner nya
Ġmaint ained
Ġfail ed
vvvv vvvv
Ġmeng ecewakan
mu ch
Ġneg lig
tw o
Ġvel vet
Ġcollap sible
Ġcomplim ents
2 2
g al
m int
m ber
p ed
Ġb ers
Ġf u
Ġf to
Ġw ise
Ġn anya
Ġh mm
Ġan e
le m
ri f
Ġi rr
am ed
ad d
um my
yes terday
Ġmat t
Ġse at
lo ck
fe el
Ġcp at
Ġpro gress
Ġunt ested
Ġout standing
Ġhand ling
Ġrep air
Ġle af
Ġbang t
Ġgi ao
Ġdr ag
art ment
js bs
Ġbar u
Äłs k
Ġng el
Ġtast es
Ġoke ee
Ġshort age
Ġcepat tt
Ġbs a
Ġbal ikin
Ġadv ent
Ġnh anh
Ġstat es
Ġdon ated
Ġhuh uhu
Ġsuggest ion
Ġmult i
Ġbur st
Ġplant ing
Ġoption s
Ġsampa ii
Ġtreat ment
Ġpartic ular
Ġfant astic
Ġflav ors
Ġdevel op
Ġcancell ation
m ot
p ric
p urchase
w el
w ant
Ġs ear
Ġs ort
Ġg il
Ġg ud
Ġb ay
Ġw ool
en y
at ically
Ġan cur
pe kt
ri ct
Ġk ali
Ġst amp
Äł ce
ak i
em por
st ers
ant er
com es
Ġex ample
ord inary
Ġny angka
ens ion
Ġsend s
ac commodating
ac cept
Ġmant ull
Ġgo es
Ġbar ng
Ġcl oud
Ġwrapp er
Ġmas i
bl ue
Ġca used
tp i
cr ption
Ġsupp lier
Ġbed a
sever e
Ġpem giriman
Ġanno ying
Ġfund s
dat eng
Ġkompl en
Ġapprox imately
d ear
er ous
od e
in al
Ġf ly
Ġre comm
ou p
Ġan x
Ġbut ter
se y
Äł com
Ġthank ss
ol ved
Ġv ent
Ġj an
Ġyou thank
ok an
ir on
Ġserv ed
Ġse hari
Ġce aaa
Ġrep urchased
Ġle ggings
Ġbang at
br oken
bagus bagus
ence ng
Ġatt em
zz y
bl on
Ġ0 1
Ġdt eng
Ġtrans it
iz er
Ġlack s
Ġperson ally
Ġmurah h
igh b
Ġob stac
Ġnyamp ai
Ġelse where
Ġbes ides
Ġpan el
Ġaccur acy
Ġrating s
Ġpet ite
Ġinterest ing
Ġslee ves
Ġware house
suk aa
exact ly
Ġali as
Ġmoder ate
Ġwel come
Ġfurn iture
Ġembr oider
Ġgos end
6 7
a cious
b v
b eli
g el
h y
l ate
n orm
r am
Ġ ell
Ġt ut
Ġa ri
Ġc ast
en ak
Ġn n
Ġn ude
Ġh anger
as uka
Ġk emas
Ġy rs
se k
Äł mant
Ġch a
Ġlo west
pr od
Ġag re
Ġtr ash
Ġpre s
Ġpl enty
ng iriman
Ġout door
Ġthan x
Ġstuff ed
aw l
Ġcontin uous
Ġback hand
Ġhu ge
co hol
bb d
Ġset ting
Ġbarang x
Ġcat s
Ġpad ded
jx jx
Ġflaw ed
fr om
fr ag
Ġra ised
kkkkkkkkkkkkkkkk kkkkkkkkkkkkkkkk
Ġrain bow
Ġserious ly
Ġbw t
abil ities
Ġlimit ed
Ġphys ical
i ri
j el
j jd
k es
w ah
Ġs b
Ġt s
Ġt une
in ci
Ġp ure
Ġth us
el ah
Ġd apat
an other
an nn
Ġn x
Ġn mn
Ġh ri
Ġh tt
Ġdeli ber
Ġsh a
Ġy arn
ch ang
ch ers
Äł bag
Ġyou u
Ġok ros
Ġr ab
Ġun ited
Ġun box
Ġbl ur
Ġbo ots
Ġpre st
Ġany where
ng an
Ġdisappoint s
Ġny am
Ġny ari
Ġen gin
Ġrun ners
Ġres ell
oke oke
Ġbab ies
Ġsmell ed
Ġlast ed
Ġdress ing
Ġma j
Ġhead phones
Ġdraw ing
Ġplace s
Ġpatter ns
Ġwi pe
Ġrm h
Ġslipp ers
Ġappear ance
miss ing
Ġblank et
Ġconcent rated
Ġath let
Ġsca red
5 7
h t
m ah
r in
s ound
s af
v est
od er
Ġb anan
Ġd eep
Ġw ireless
en ced
Ġn yes
Ġh m
il bab
le ct
Ġin e
se tt
Äł ar
Ġv irus
ah i
im ar
end ar
Ġhear d
Ġdi per
Ġpa c
ist ed
Ġsy ang
kkkk kkk
Ġret ail
Ġber kali
Ġnge b
aff ordable
nx nx
Ġcontact ed
Ġshow er
terim a
ming gu
clo th
Ġband ung
Ġautom atically
Ġvac uum
Ġbaguu us
Ġeconom ical
b ok
c ap
k ah
m nt
n an
p aper
v a
Ġt ul
in h
in it
Ġp ang
Ġo ct
Ġd p
Ġc ya
Ġc ore
Ġpr ay
Ġm r
on ce
Ġsh ot
Ġsell s
Ġal cohol
Äł exp
Ġex pet
Ġdis abilities
kk d
eng er
Ġnew s
Ġgi ves
ist ic
Ġexp ire
br ush
Äłc l
uh uh
Ġflash sale
Ġfort une
Ġky ak
Ġpad ding
Ġsen eng
Ġshow s
peng irim
bad an
fr ont
Ġra ising
Ġbangeet t
Ġten der
Ġwind ow
vd vd
mmmmmmmm mmmmmmmm
33 33
Ġbol t
Ġrust y
Ġgaper nah
pric ed
c ertain
j sh
m x
r un
r ass
Ġs edi
in st
Ġd om
Ġn di
at o
or rect
Ġl aah
om i
Ġre ality
Ġre order
Ġsh s
le git
aa hh
ch a
ul ate
Ġpack ets
ad v
Ġsu dh
ah in
Ġch amp
Ġr ack
Ġr ush
Ġac ross
Ġcan s
Ġper cent
Ġpa ce
okok ok
Ġcle ans
lu ck
Ġfunction s
Ġsmp i
iz uno
Ġrel e
ann el
Ġleak y
Ġlam bat
Ġnt ar
Ġstretch ed
Ġkey board
Ġmidd ling
Ġinterest ed
Ġpag kak
Ġsepar ate
Ġmel ted
lit tle
samp ai
Ġmoist uri
Ġbuble wrap
subs cription
Ġenc ounter
Ġdibal es
Ġcob ain
Ġongk irnya
Ġcramp ed
Ġyoutu be
a ing
j ahit
Ġt an
Ġg oo
Ġb in
Ġb ju
Ġb isa
re sh
Ġd are
Ġpr oof
Ġm ang
Ġm op
at i
ay y
Ġin ii
Ġst one
Ġsm u
ol f
Ġun responsive
Ġun opened
Ġse w
Ġsa blon
Ġpl ast
ny am
Ġter uss
Ġab al
Ġdr pd
ja j
iiii iii
Ġcar go
Ġsal amat
Ġsal omon
Ġbar ok
Ġcl amp
Ġcl inch
Ġ6 2
Ġdent ist
pl astic
Äłd r
ori gin
Ġkind s
Ġent ry
Ġsqu ee
Ġul tim
Ġwa ve
Ġind ivid
par cel
Ġpush ing
Ġkl au
ses uai
Ġten nis
Ġflex ed
Ġshock ed
Ġide al
Ġtel a
Ġfi eld
Ġinsha allah
prom pt
Ġlux uri
Ġsudden ly
b on
g ive
g enuine
n ag
o om
o ff
v z
w arp
Ġ ity
er v
Ġp um
Ġp elay
Ġg ed
Ġo us
Ġf oto
Ġc g
en nya
Ġm ick
ice ps
Ġk enceng
Ġu rg
Äł z
Äł ab
Ġsu ck
ap i
im sy
Ġr y
Ġdis h
Ġdis abled
Ġse pat
ih in
Ġny e
pack ed
be en
let ed
Ġhands ome
br u
Ġput ting
Ġ6 3
sm p
ari zed
Ġsub mission
Ġdesign ed
Ġhelp ed
Ġcream y
mb ol
Äłre s
Ġuk ur
Ġnt n
Ġdist ortion
Ġpower bank
Ġdu ct
Ġmal ay
Ġball s
Ġsam pee
bx bx
Ġprod ak
Ġsau ce
Ġdrop ship
med ical
Ġappl ications
Ġkit ty
Ġcontribut e
Ġmount ed
Ġsdk it
Ġpigment ed
Ġstor age
Ġmatt ress
Ġanx ious
Ġclinch er
d own
f i
g as
i ries
m f
v ent
y i
Ġt end
Ġa aaaa
in ing
it ing
Ġg loves
Ġb iceps
Ġo re
is an
Ġd ul
Ġd ense
Ġc i
Ġc ac
Ġm ab
Ġm gk
qu is
Ġan ce
us an
ah ank
st uff
ore m
Ġsi ii
Ġbl ouse
Ġbl amed
Ġad mit
Ġdoes nt
Ġdam ages
Ġknow s
up as
Äłb ang
Ġcustomer ku
Ġwal a
Ġ7 5
ba ek
Ġrol ls
Ġprev ent
Ġgar a
Ġkey ch
ising ly
df gh
Ġble m
Ġpillow s
ssssssssssssssss ssssssssssssssss
care fully
Ġsepar ated
Ġeval u
Ġfinish ing
Ġfrust rating
Ġrej ected
Ġconsult ants
Ġsket chy
repe at
a as
b en
d ate
g us
l ang
l ama
v h
v able
y ang
Ġt all
od dy
it al
Ġg im
Ġd ar
Ġc ation
Ġis n
Ġre co
Ġto wn
Ġk aya
Ġst all
Ġu w
Ġfa cial
Ġr g
Ġun load
Ġtr ain
Ġtr uck
comm odity
Ġam p
are t
ny aaa
Ġri d
ll h
Ġbagus sssss
nd ed
fin itely
bo th
Ġpe cah
ull ah
Äłs c
Ġinc orrect
Ġhr us
Ġ0 3
Ġ0 4
Ġmust ard
Ġhim self
shi pped
kd k
Ġtap ii
Ġmiss ed
Ġpower ful
Ġbas ket
Ġchoice s
Ġsyuk ak
Ġbanyak in
car a
Ġshock proof
Ġmist aken
Ġdisin ii
Ġtru th
Ġtail oring
h el
h ard
h our
j os
k sh
in nya
al og
Ġb end
Ġc aps
Ġm ali
Ġqu ota
ar ch
Ġe a
Ġsh ad
ent al
Ġk i
Ġk eli
ag al
Ġseller r
Ġal to
Ġbe came
Ġu re
Äł ag
ill ed
ap on
ur ance
Ġso o
Ġwh it
Ġr as
Ġun satisfactory
Ġun ilever
Ġex ception
Ġdis comfort
ter rible
Ġbl ush
Ġdi apers
ate ful
Ġus d
Ġad s
Ġpl is
Ġfl imsy
Ġte am
aik um
Ġsc iss
Ġdeliver ies
sm ile
Äłd es
Ġend s
Ġsqu are
jdjd jd
Ġpol arized
Ġpokok nyaa
Ġcant i
small er
Ġpal m
Ġfact ory
Ġmed ic
Ġinv oice
cle ar
Ġappe ars
pppppppppppppppp pppppppppppppppp
bbbb bbbb
Ġblock ed
Ġvi br
Ġcharact ers
Ġcris py
Ġathlet ic
s au
u in
v ular
Ġt ai
al ing
re ng
Ġc aught
Ġl aw
Ġis t
Ġre n
Ġre ed
ar ies
ul a
Äł pen
Ġfast est
Ġv iv
Ġv oi
Ġshi ft
Ġrespon ding
st al
ur a
un ate
ant age
ir y
so s
Ġcon c
Ġdis appe
Ġsk rng
Ġgr oup
Ġri der
aaaaaaaa aaaaaaa
Ġmant uul
Ġfl our
Ġgo jek
js ks
Ġsal ty
Ġcheck s
Ġlu on
ash ip
Ġem ang
Ġem ng
Ġsoon er
Ġreg ister
zz z
Ġrest ock
uh un
bl ic
Ġhar m
Ġmakasi hhh
Ġbel ong
Ġbn r
Ġind icated
Ġclos ely
Ġstretch able
Ġwatch es
Ġimprove ment
Ġhonest ly
Ġinf lu
mur ah
Ġnare ceive
Ġfrequ ently
Ġprep are
Ġassem ble
Ġdecor ation
Ġrepeated ly
Ġjer sey
exc elent
Ġcro oked
Ġsear ch
Ġresell ers
b ol
d om
j n
m ark
u x
Ġ ended
re st
is like
Ġd ot
Ġd jd
Ġc ri
Ġc ok
Ġc ab
es an
Ġm im
at nya
Ġe ase
us ion
Ġit u
Ġy ak
Ġal tern
Ġfa v
ill s
Ġne ighb
Ġr isk
ant ly
Ġno isy
Ġwor st
Ġme jo
ig ent
fast er
are n
Ġgr ade
gg g
Ġsp l
Ġsp ots
Ġ4 8
be be
Ġkn owing
Ġapp lied
Ġke b
uuuu uuu
Ġte bal
ip ment
Äłp h
no thing
pl us
Äłc ont
Ġswe ater
gr own
oke y
Äłt e
Ġpay ing
Ġweek end
Ġstock s
Ġq c
Ġmar ch
Ġrem edy
packaging nya
Ġdh l
Ġlng sung
iz ing
Ġhouse hold
Ġyah h
Ġsw im
Ġob ject
ump ah
Ġpal ace
Ġsleep ing
Ġbul ky
Ġstre et
fun ction
arri ving
Ġgre asy
Ġaut o
Ġteng ky
Ġslo ppy
Ġsnug ly
Ġcomb ination
Ġrecie ve
Ġtil es
Ġdece iving
Ġbole h
Ġish ip
Ġtre es
Ġactiv ities
Ġprepar ation
Ġnood les
Ġscuff ed
Ġconstraint s
b j
f ot
k ir
l ap
m em
n ak
n yesel
t ot
v k
x k
Ġo sh
Ġd ream
at able
Ġl n
Ġl ing
qu a
Ġqu e
Ġto ko
le y
Ġal ly
ul ated
Ġv o
Ġyou uu
Ġrespon ses
Ġlo yal
Ġsi ya
Ġde ket
ation al
Ġover night
ny amp
ist les
Ġkn ock
iv al
ung ent
Ġmo ved
bo ss
Ġsuk aaaaaa
bb ing
ug ly
oooo o
Ġpost al
Ġmost ly
Ġinter net
Ġpad ahal
Ġtal king
Ġcas enya
Ġpal a
fo ot
Ġtrail s
quick ly
Ġharg alah
sec ure
Ġspecif ied
Ġ555 5
alhamdul illaah
dt g
Ġrec com
Ġbene fits
Ġjaz ak
Ġkuri r
Ġmaj or
6 2
h n
l on
l alu
l ilah
m al
m edi
p ok
t es
z er
al nya
Ġb aa
Ġd ad
Ġd ried
Ġc cok
Ġw ard
Ġpr on
Ġm ama
Ġh ari
Ġl es
ut an
Ġi es
Ġk eter
Ġal us
Ġal lo
Äł or
Ġj adi
ap alah
em er
ok k
Ġr up
Ġshop ing
sh opee
op es
gt ly
Ġpro sp
Ġover priced
su c
Ġexp ires
Ġmess y
Ġfl uff
Ġhad e
und ry
Ġtri gger
Ġhu b
Ġbah annya
Ġpat ience
kak a
Ġul it
Ġdist ribut
Ġant s
Ġequ ipment
Ġeng lish
Ġsangat t
Ġra pet
Ġdevice s
Ġkur ang
Ġdiam eter
Ġcooper ation
Ġcurt ain
Ġwip es
Ġadap ter
Ġhtt ps
Ġdeliber ately
Ġchamp ion
Ġalto gether
2 4
a q
b bs
b ali
d ress
f ungsi
g c
m ash
n ut
s is
w y
y ah
Ġ ely
Ġs ong
in er
Ġp ale
Ġth nk
it es
Ġg it
al ot
Ġb c
Ġb ell
Ġd y
Ġd ir
Ġd ua
Ġc oun
Ġpr im
Ġh unting
as ure
om er
ut ed
Ġst o
Äł he
Ġj aya
im p
Ġr us
Ġun s
Ġun damaged
Ġun even
Ġtr c
Ġde hhh
Ġdi badan
Ġco arse
op en
Ġsk li
Ġcomp at
Ġgr at
aaaaaaaa aaaaa
Ġsec ret
Ġsy mbol
Ġke kecil
ne ed
Ġstr u
Ġpost s
yy y
Ġ12 0
Ġsl h
ye es
sy uk
Ġuk uran
Ġpad s
Ġbat re
Ġaj ah
Ġben ar
Ġmotif s
Äłsu k
Ġlist en
Ġsyuk aa
Ġhor ns
Ġallow ed
Ġexpl an
Ġtid ak
Ġmnt a
Ġcircum ference
rel atively
Ġocc as
Ġgrad ually
Ġcepa at
subscription s
b as
c les
c reen
f ant
g x
m akas
p id
s il
t eng
u kk
Ġs r
in ter
Ġp ics
Ġo i
is inya
Ġm izuno
Ġn xt
Ġn imb
Ġre ci
Ġe ee
le ad
Ġal ot
Ġu e
Äł ri
Äł comp
Ġok k
ur ang
Ġr ates
ee k
Ġbr istles
Ġat o
Ġus es
Ġunt uk
Ġout grown
Ġgr ateful
Ġsp o
Ġle bih
ud ung
Ġsuit s
uuuu uus
Ġsc al
Ġhapp en
Äłs el
tr ue
ep h
pl ace
Ġprov ider
Ġhard ly
min a
itch en
Ġsad ly
Ġman a
Ġadmin nya
Ġnag rereply
pesen nya
sem pet
Ġconn ected
Ġpengirim n
Ġrapi hh
Ġmet iculous
Ġport able
Ġtrack ing
Ġkne es
house keeping
Ġconcer n
Ġped es
jam as
Ġkore a
Ġglo ss
Ġcrow ded
Ġerr ors
Ġneglig ee
Ġpelay anan
Ġmick ey
Ġunload ing
Ġosh awa
a ult
c id
c ated
c ream
f ine
g ak
k as
m aa
m ayan
Ġ xt
Ġp nt
Ġo ily
Ġd j
Ġc c
Ġc d
Ġn u
Ġn ka
Ġn ikes
as er
as an
Ġe ight
Ġsh ut
ent ial
Ġk si
Ġy as
Ġu uu
Ġsho ope
Ġv it
Ġj ad
ap ai
em pty
Ġok okokokokokokokok
un used
Ġun us
Ġfr o
ii hh
Ġpre c
Ġpre ser
op s
Ġbag et
Ġover lay
Ġter jangkau
ci es
aaaaaaaa aaaaaa
Ġapp oint
Ġfl ushed
Ġmo ving
Ġte ach
Ġhapp ened
de p
Ġtri ck
Äłm e
Äłb ar
Ġpu zz
Ġla undry
Ġthankyou u
Ġplay ed
go ing
Ġye a
Ġtouch ed
Ġbro ad
Ġtrny ta
Ġrot ten
Ġconst ruction
Ġnail s
Ġmanufact ur
Ġban ality
Ġcompar able
Ġloc ation
Ġlmy an
Ġextr as
Ġexer cise
init ially
Ġblem ish
6 0
b elie
c reat
j js
m ksih
er r
Ġp ungent
Ġth nks
Ġb old
re tt
Ġd aw
Ġc us
Ġw at
ed ay
us ah
Ġk ah
Ġk cewa
ag i
Ġfa ith
ul ed
Ġsu mp
Ġv ed
Ġv ote
ow er
ak u
ir ation
Ġlo pe
Ġbl g
per t
Ġad ek
Ġstar ting
Ġnew sp
Ġgr ain
be auty
Ġdr ill
Ġdr inking
Ġback pack
bo oks
if ic
Ġgl ued
Ġconf ident
packing an
Ġkeep s
hhhhhhhh h
seller nya
Ġeat en
Ġfall en
Ġnag deliver
sk irt
Ġdifference s
Ġbrush es
Ġ25 0
Ġ16 0
Ġconven ience
clo se
Ġsist a
Ġblis ter
Ġdedu ct
Ġtt ep
Ġjait annya
Ġbangee eet
Ġfal se
Ġalhamdul ilah
Ġprep ared
tran sport
bre ak
flow er
Ġbud get
Ġnecess ary
Ġdeser ve
Ġpear l
Ġlat est
Ġpanel ed
Ġunbox ing
Ġmalay sia
Ġshad ow
Ġsciss ors
b ahan
g anda
j t
j ad
l ic
s en
z y
er ic
Ġt ub
Ġt sk
Ġa pe
in able
Ġg in
Ġg anti
Ġb j
Ġf ellow
Ġw ifi
Ġn c
Ġn ed
Ġh em
th ose
Ġe hh
Ġsh r
ri ers
Ġit e
Äł ok
Äł sho
Ġor th
ak n
ap al
Ġval orem
un a
un k
Ġr in
Ġr aya
Ġcon cl
Ġex am
Ġse ats
Ġche ated
Ġbr oo
Ġim ut
Ġsk y
rim a
Ġdes ire
deli ery
Ġjg k
Ġsc re
respon sible
Ġpe king
Ġcou p
Ġpeng irm
ro id
Ġref lect
sm ell
ren cy
pre s
Ġak uu
Ġlag iii
Ġcour te
rem e
Ġdik it
Ġdep leted
Ġread ing
Ġlum yan
Ġpain ful
Ġlin ings
bat ory
Ġprint s
Ġlem on
car f
Ġcir cle
had ow
dr aw
Ġstrip es
gggggggg gggggggg
Ġtd ak
Ġconcer ned
Ġlear n
Ġtee th
Ġdeform ed
alhamd lillah
Ġnimb us
b orn
d est
f lex
g am
h ell
i ency
l arge
s ad
t em
el alu
Ġg n
Ġg ant
Ġg da
al thy
Ġl ar
Ġi ons
Ġk ill
Ġy u
Ġin sp
Ġbe comes
ch an
Äł em
Ġj ump
all oh
Ġwas n
Ġsi ip
Ġdo zen
sh shs
Ġhe av
Ġco sm
Ġpo le
ab g
Ġmore over
Ġsubs crption
ci k
we et
ja z
uuuu us
Ġstr ing
Ġjo gging
pppp ppp
Ġpass ed
Ġ6 5
ret e
Äłd o
Ġunder wear
Ġear phone
lu v
Ġbarang nyaa
Ġfunction al
Ġ11 0
Ġbre ast
Ġent ered
Ġthought ful
iz es
Äłg u
Ġdik irm
Ġcat tle
lm n
Ġkid ding
Ġbat ik
Ġru gged
Ġdk rm
Ġdelay s
Ġ201 8
Ġpak enya
Ġimag inable
Ġgre et
Ġmic ro
Ġscrew s
Ġprompt ly
Ġtow els
Ġck up
Ġtuk er
Ġsnack s
Ġassem bled
iat as
Ġditer ima
Ġcac at
Ġcompat ible
Ġexplan ation
Ġcourte ous
g em
l ast
m ill
m ade
m idd
m udah
p ing
s ur
s ince
x n
Ġs blum
Ġt g
Ġt m
Ġt um
Ġp ins
Ġb oring
Ġf ight
Ġd pet
Ġd rying
Ġw il
Ġw ild
Ġm lh
or ous
Ġh ag
Ġh ah
ice pat
Ġk z
Ġk itchen
Ġy aaaaa
Äł it
Äł el
Ġj ud
Ġj ilbab
Ġas i
Ġag ree
Ġcon v
Ġsi ck
Ġbr p
ab arin
oun ced
Ġstu pid
ks i
Ġsp and
Ġsp orts
Ġcut s
Ġbang ed
be k
av ail
Ġfl atter
Ġcar eless
Ġint ended
Ġbar akallah
Ġcheck out
tr act
Äłm o
Äłb g
Ġmas cara
Ġear phones
oooo oo
uh an
Ġbless ed
Ġhar vest
Ġbs k
ba j
bar rass
Ġsl amat
Ġtu i
Ġdik asih
dis c
Ġmag n
Ġleng kap
jsjs js
iny aa
cor rect
Ġsgt u
Ġpal ms
Ġbi asa
Ġspeak ers
Ġmeet ing
Ġdk rim
Ġwhe els
Ġsurpr isingly
hhe he
Ġboy friend
Ġport ion
Ġlens es
Ġmaa p
Ġnone theless
Ġterimakasi hh
alhm d
Ġland ing
rid ge
Ġmention ed
Ġens ure
Ġcash back
Ġvend ors
sequ ently
Ġurg ent
Ġmedic ine
fot able
suc cess
1 7
3 5
b ng
e qu
j ah
k m
k lo
l anded
p i
q r
s and
w ood
x j
er ies
Ġt ed
Ġa ud
Ġp ly
Ġg ri
an x
Ġc ub
Ġm ush
Ġan a
ot ch
us es
ent ious
Ġi ii
ag ger
Ġprice y
Äł app
Äł int
Äł out
Äł ind
ad ding
Ġsu ns
Ġj at
Ġj elly
et ric
ear t
Ġok okokokok
Ġch i
Ġso oo
Ġr os
ant ong
Ġbu anget
Ġtr ay
Ġdis ability
Ġdi zzy
ab ar
Ġgreat er
ng e
Ġny aaa
Ġya ch
Ġ4 9
Ġwe b
Ġmess enger
ress ed
tttt ttt
Ġbar ely
if orm
Ġhu g
ple asant
kw kkw
ket nya
Ġpen y
Ġpen ny
bd b
Ġsol ve
Ġsl ick
Ġtest ing
Ġscr ub
Ġmil o
Ġgener ous
Äłf r
Ġdeal s
ru cted
cc cc
Ġnic er
Ġcolour s
Ġsch ed
mk asih
Ġmakas iih
Ġpak ai
Ġchang es
Ġharg anya
Ġmb k
Ġrock s
Ġinsert s
Ġnyo ba
Ġessent ial
Ġnet work
Ġhg aaa
Ġkes el
Ġluc uu
Ġfried ly
Ġkil o
Ġreward ing
rekom ended
Ġsav ory
Ġfeature s
Ġtit le
1 8
b um
b ismillah
c ou
d ri
g ir
l us
m il
p ink
s gt
w t
w ed
w ang
y d
z i
Ġs ulit
Ġa ck
Ġa ustria
re fund
Ġc x
Ġc ul
Ġw ag
as o
qu ired
ar r
Ġe ks
Ġk ayan
Äł terim
Äł sem
Ġor y
im al
Ġas li
ff ect
Ġare as
Ġdis hes
Ġdi aper
uu h
ab aya
Ġany ways
Ġgr ams
Ġri p
be fore
let ing
os en
Ġph ones
Ġimm ac
light s
art an
Ġgo al
Äłs l
eeee eee
uk er
Äłm an
Ġoke eee
Ġbonus es
Ġmk asi
Ġla en
Ġbal m
Ġlang u
Ġker dus
Ġod d
Ġpng irim
Ġpress ed
Ġoverse a
Ġarch es
Ġcart oon
jk lmn
Ġchang ing
Ġbul b
Ġlock er
Ġstain less
Ġpeel ed
Ġsekal iii
Ġcompet e
Ġdead line
shirt s
Ġmaa f
Ġdisplay ed
Ġmng kin
tqtqtqtq tqtqtqtq
xy z
Ġlmb at
Ġmks i
umb en
mis directed
bul an
Ġtra ders
Ġbis cu
Ġado pted
Ġemplo yees
67 8
Ġengin e
saf ely
3 8
a ja
j ait
m r
m ers
m ake
r ate
r ori
s ng
v y
w o
x jx
y our
Ġp on
Ġp om
it an
Ġb elly
Ġo pt
Ġm ung
Ġn ess
Ġn da
as ics
Ġqu eries
Ġre se
Ġre ss
Ġre apon
th r
ri bu
Ġk kk
Ġk au
Ġu a
aa ah
am g
Äł is
Äł ga
Äł ha
Ġj h
Ġj kt
ap un
st ances
Ġch air
Ġr om
Ġcom fotable
Ġun able
Ġdo gs
Ġse git
Ġar y
Ġbo ys
sh ould
Ġpre gn
ig nya
Ġad di
Ġrep lied
Ġsp artan
any ak
Ġpa jamas
Ġdiff rent
ert y
ne y
Ġbanget tttttttt
Ġblack head
Ġcar s
Äłs al
Äłm in
bl om
Ġ8 5
lu c
Ġcre dit
Ġhar der
jj f
Ġsl ot
Ġdeal er
xx l
Ġexc use
Ġdtg nya
Ġlam aaaa
sho pping
Ġdet er
Ġcur rency
Ġpol ish
Ġfound ation
Ġfavor able
Ġbh annya
Ġstand s
Ġstand ing
Ġkasi hh
Ġbanyak k
str ong
Ġart icle
Ġsepar ately
Ġfing ers
Ġabsorb ent
alhm dulillah
Ġpant as
Ġadult s
asukasuk asukasuk
Ġcris p
Ġintrodu ce
Ġkore an
Ġstraw berry
Ġbaj unya
Ġchip s
norm al
chang ed
Ġevalu ate
Ġconc rete
Ġbelong ings
1 4
2 5
c ere
c ross
e ach
j dh
k ar
k ul
l ng
m od
Ġp ere
Ġg b
al o
Ġd ol
Ġc uk
Ġm ing
Ġm eter
Ġn anti
Ġh he
Ġre action
il et
ck ck
Ġsh awl
ot ic
le h
Ġi a
Ġi v
ack ed
Ġnot ification
Ġbe ware
Ġbut t
se ctions
ke k
Ġsu ction
Ġj i
Ġj ava
ill a
ok nya
ur ah
Ġr ay
ong ru
Ġas l
Ġag es
Ġac comp
Ġdis kon
Ġbl ood
Ġno body
comm od
Ġat ing
Ġam ong
ks k
Ġsuper market
Ġri pped
Ġbang kok
Ġimmedi ate
Ġbagus ssssssss
Ġint ell
Ġcl ar
Ġz any
Ġsel al
Ġsub ject
ha ul
ha ven
Ġsur abaya
Äłk ak
Ġcre ase
Ġmar ath
Ġdapet nya
Ġaw ett
Ġho sp
Ġsty les
Ġext reme
Ġsli gtly
tqtq tq
Ġaj aa
Ġju ice
Ġpick up
Ġharg aa
Ġhesit ant
Ġprodu ced
Ġpromot ional
service s
Ġsan it
Ġtool s
Ġident ical
Ġvend or
Ġgede an
Ġinqu iries
Ġunfort unate
Ġfract ure
charg ed
Ġjapan ese
Ġretur ning
inci ble
Ġbanan a
Ġprosp erous
fant astic
Ġflatter ing
0 9
f oto
g ant
h ab
i jklmn
s an
s ol
u j
w ash
Ġ ere
Ġ ust
Ġ ings
Ġs ag
Ġp arent
Ġg d
Ġb nt
Ġf t
Ġd pat
Ġpr t
Ġm es
Ġm na
Ġh ose
Ġsh in
Ġk un
Ġfa cil
ch o
am i
Ġsm s
ul es
Ġspeed y
ke cewa
Ġj j
Ġval id
um ed
Ġup gr
Ġcon sequently
Ġse h
Ġbl ender
ord in
sh d
ig a
Ġus able
ven ess
Ġny aman
Ġle cet
Ġter rain
Ġx d
Ġsuit ble
okok o
Ġbanget ttttt
Ġjo in
Ġsupport ed
au th
mm g
Ġevery where
Ġpe ace
up ulous
Ġng er
Äłp o
Äłm ak
co at
Ġconf ounded
Ġni o
Ġtrim akasi
Ġsmell y
Ġpu blic
Ġpok on
Ġboss ku
ys is
Ġsl ah
Ġrel ax
Ġcat alog
Ġseal s
Ġmurah an
Ġnarrow er
kwkw kwkw
Ġproduk nya
Ġsam eday
Ġskirt s
Ġsign al
Ġbai kkk
Ġdan cing
hehehehe hehehehe
Ġwl w
Ġwl au
Ġvouch ers
Ġbund le
Ġinsh allah
Ġpromot ions
Ġmint a
Ġcli ent
Ġsemu aa
Ġbene fit
Ġopp o
Ġded icated
Ġregard ing
Ġexcess ive
Ġtech n
Ġgest ure
Ġxia omi
Ġembroider y
rori ate
b dhd
b tedly
c at
d rop
e kk
f ood
g z
g le
l z
m t
p ods
t ies
w ide
w ater
in o
Ġp ap
Ġp ens
it ate
Ġg ad
Ġg ni
Ġb ite
Ġb kal
re ason
Ġm lah
Ġn uhun
Ġh hhh
Ġh idd
qu ate
th u
Ġto ilet
Ġe uy
ut nya
Ġsh ar
Ġit ch
Ġk re
Ġin ya
Ġin appropriate
ul us
ke e
Ġj x
ow ow
ah un
st u
Ġr ings
Ġserv ing
Ġacc eler
ai h
Ġce a
Ġam ann
Ġam eric
dd y
Ġ4 00
Ġskin care
Ġfree gift
Ġaff airs
Ġcr unch
ber apa
ond ing
Ġpass ble
Ġdah h
Ġve get
Ġres pect
Ġem barrass
ret urn
Ġstick s
Ġdress es
Ġadv ise
Ġang le
iz ation
Ġins pect
Ġtap ed
Ġdraw back
Ġcrack le
Ġnt ah
Ġaj h
Ġju ly
Ġhehehe h
Ġlin en
Ġram ahh
Ġbi ke
Ġtip iss
Ġhp nya
Ġbes ok
Ġwhe el
Ġreeb oks
Ġauthentic ity
Ġran cid
Ġspecif ic
store s
Ġbak al
neat ly
Ġcli ents
mon th
Ġcompar ison
Ġestim ated
bet ter
Ġreput ation
Ġsof ter
pekt asi
Ġagre ed
nyam nyam
Ġkeych ain
hour s
Ġfluff y
Ġsuns creen
b age
c ant
c ongratulations
d en
f ace
g aa
h ance
h usband
k ids
p ur
p urch
s li
v x
w on
Ġ ze
Ġs icepat
el e
Ġc b
Ġc ert
Ġpr nh
Ġm ga
Ġm sih
on n
Ġl ps
Ġan al
Ġand roid
ag ue
Ġin box
Ġst an
Ġnot ed
Ġpack aing
ad ed
sp r
um ullah
Ġr ag
id ing
Ġbu at
Ġha vent
Ġun certain
Ġme al
Ġar rang
Ġat a
Ġgreat ly
xt ure
Ġam ik
Ġhand ed
ree bok
Ġcont empor
Ġ4 4
Ġle ap
Ġle ash
Ġwant ing
br a
mm etric
Äłs w
de finitely
Ġlu am
Ġgl itter
tr ans
Ġref ri
rece ipt
Ġreg rett
Ġfin al
Ġdisc uss
Ġweek ly
Ġmot ion
Ġpok ony
llll l
Ġadv anced
con dition
Ġdh d
Ġbel um
Ġgener ation
Ġpar ah
Ġmark ed
Ġlum ay
ded u
Ġsupp ly
Ġsupp le
ons um
Ġhahah aha
Ġdipake k
Ġbrng nya
df s
Ġta x
kt u
Ġplug s
Ġappro ach
Ġtemper ature
Ġbol ong
Ġforgot ten
Ġting kat
subs cribe
Ġhum an
Ġign ore
Ġautom atic
Ġintrodu ced
Ġmash allah
Ġshoot ing
Ġbuck le
Ġmuken a
Ġsyek ali
Ġdee h
Ġdevelop ment
sett led
creat e
Ġscre aming
midd ling
Ġsched uled
Ġlangu age
b ungkus
d ist
i ver
m ic
m ali
u z
y allah
Ġs x
Ġs ling
Ġt at
Ġp il
it tle
Ġb atch
Ġb kin
is in
Ġf ans
Ġd nd
Ġd uh
Ġc amp
Ġpr ime
Ġm sk
on k
Ġn est
at ors
Ġh ide
th etic
Ġto pp
le ading
Ġk ase
ag er
ast ing
Ġst ap
am ah
Äł wh
ap or
im pro
st ock
st itch
st ars
Ġch osen
Ġr aw
ant ies
Ġun happy
Ġun dou
Ġun iform
Ġeyes hadow
Ġbl ade
Ġdi in
Ġar d
Ġbo om
Ġpre t
Ġat s
Ġco ck
Ġacc identally
Ġpl u
Ġcomp uter
ass alam
ist ent
Ġdam per
Ġmo cha
Ġstr ay
Ġcr a
jd nd
pppp pp
Ġreal pic
de fgh
Äłp a
Äłm at
Äłc ol
Ġak hir
ns n
bd j
Ġtrans act
Ġstrong er
Ġsn ow
ye ay
Äłf a
Ġbright er
Ġext ended
Ġwa x
Ġpuas sss
Ġlam b
Ġpng riman
Ġimportant ly
Ġsukak k
Ġgap apalah
Ġequ ipped
Ġram ad
Ġspr ti
Ġpast u
Ġcart ons
Ġdk it
Ġkasi an
Ġpak ingnya
Ġcook ed
Ġthread s
Ġadjust ed
Ġadjust able
Ġbur ning
mak ing
Ġip ad
har ga
Ġadem m
Ġsurf aces
Ġexpl ain
Ġwrink les
Ġdalem an
Ġlear ning
Ġhn di
Ġlmy n
Ġjw b
Ġstud ents
Ġmgk in
Ġtai wan
Ġdisappe ar
Ġspand ex
Ġrefri ger
2 9
b ay
c w
g at
g ann
h ong
j ur
p om
p aste
r ance
u hh
v l
y ee
Ġs atis
Ġa ce
Ġa ka
Ġth umb
it is
it nya
it ute
Ġg en
Ġg ently
al ed
re es
Ġo ak
Ġf uck
Ġd elet
Ġc ia
ing in
en n
Ġm ik
Ġm ale
Ġm elt
Ġn om
Ġn ah
Ġn man
Ġh ic
Ġi z
Ġk ahit
ag ement
Ġal hamd
Ġsm ok
Ġor ch
Ġsu ffer
Ġv ar
Ġj f
Ġr ama
Ġcan vas
Ġar mp
fe els
op ard
op qr
rim e
Ġsp are
dul ilah
Ġke gede
Ġhi p
ail ah
Ġcr it
Äłs er
Ġpeng ir
Äłm er
Ġmin ute
Ġmon it
Ġsamp i
Ġni hh
sm ooth
bel um
Ġcm an
Ġwal ks
Ġdat es
Ġtrim aksih
Ġway s
con n
Ġanswer ing
Ġscr upulous
ph oto
ath ers
Ġrel ated
lah h
mb ali
Ġvari ous
pesen an
Ġregular ly
Ġ13 0
Äłst r
Ġmach ines
Ġremo vable
Ġ16 5
Ġmantapp pp
Ġest imate
Ġpul a
Ġultra fast
arri ve
gl ue
io let
ask ed
Ġwl ang
Ġkap an
hat i
Ġhor rible
Ġminim um
Ġslight est
Ġtrip od
Ġcollap se
Ġmul u
Ġkli atan
Ġske chers
Ġtank s
mag anda
merch ant
Ġcompens ation
Ġconsign ee
Ġobstac les
Ġrab bit
Ġrele ase
Ġsmu anya
nyamp enya
Ġimmac ulate
Ġparent s
c op
d et
d ish
g or
h ing
m ist
m ond
t ake
Ġt ide
Ġt arg
Ġb or
Ġb ending
Ġb ismillah
Ġf as
Ġf oul
Ġd ang
Ġd ili
Ġc z
ct s
en yaa
Ġh nya
Ġsh oddy
ent a
Ġk hair
Ġy uan
ag uuuuuus
ack ing
ack et
Ġst om
Ġnot if
Ġbe gan
Ġsm oke
ul ation
Ġfor th
Äł good
Äł ap
Äł no
ad min
Ġsu ede
et nya
im akasih
Ġok i
pr ot
Ġag an
Ġag ad
ee z
hh ee
Ġtr ace
Ġdis charged
Ġdi v
Ġdi pesen
Ġbo ot
ab alot
Ġce aaaa
Ġen er
su pport
Ġle opard
Ġexp end
nt i
Ġapp s
ind ing
Ġmant af
Ġdr ain
av i
Ġdam n
ja ja
ail s
Ġbagus ss
Ġte bell
Ġaff ord
ip un
Ġsens or
und ant
de h
Ġrecom en
Ġgot ten
bb b
Ġel ok
wr apped
Ġhal us
Ġinter sections
Äłk n
Ġcons ci
jj dhd
Ġstrong ly
Ġsin cere
Ġadv antage
do y
Ġlng ganan
Ġtu ck
ann ed
Ġsle ek
Ġdep artment
Ġnag send
Ġbnget t
Ġcharg es
bang ett
Ġsupp ose
custom er
Ġremo ver
Ġpot ent
Ġwidth s
Ġsyuk aaaa
Ġsyuk ron
Ġlock ed
cie ve
gl ad
Ġsekal iiii
Ġmeas ured
Ġlevel s
Ġkc wa
oc re
Ġfi ber
Ġfirm ly
Ġhor se
ane ous
Ġpuass elalu
bab y
Ġvi et
Ġhook ed
Ġdic obain
Ġsak in
Ġnor th
Ġholiday s
Ġtru ly
Ġcooper ative
Ġfrust rated
Ġcircum stances
45 678
merch andise
Ġminimal ist
Ġdesk ripsi
Ġparticular ly
Ġindivid ual
Ġnewsp aper
Ġheav ier
Ġaud io
Ġhidd en
Ġundou btedly
2 8
f d
f all
g ment
h b
h x
h ur
h onest
k irim
s ang
y ak
z bz
Ġs bs
Ġa se
Ġth nx
el ves
Ġd uck
Ġc ing
Ġw ats
Ġw ktu
ce ived
Ġm ong
Ġn en
Ġn ua
Ġh ee
Ġis land
th an
Ġsh ades
Ġy s
Ġin j
Ġst er
aa at
ch ild
Ġbut i
Äł thank
Äł jo
Ġspeed cross
Ġj l
et te
ow s
Ġok lah
Ġval vular
ok a
st one
Ġch ili
Ġso ph
Ġr are
ang gan
Ġas al
Ġcon di
Ġun its
Ġun yu
ess ion
ess ert
Ġsi kit
hh d
lo s
per ed
Ġus ah
Ġad ain
Ġpl at
Ġunt ung
ng n
eng g
Ġhas il
Ġ5 8
Ġnew born
Ġen ya
Ġgr ass
Ġdes ir
Ġsp ite
Ġle an
Ġbang eeee
Ġwe bs
Ġab ility
Ġcust umer
Ġsy n
Ġsy aa
Ġkn pa
Ġfl esh
Ġlah at
Ġhi ke
ual aikum
Ġstr ings
di ff
Ġcor ru
jd g
pat ch
Äłs pe
Ġve h
Ġsee ing
Ġmatch ed
Äłm ag
super b
Ġ9 5
Ġshort ly
pro f
Ġak an
Ġcomm anded
Ġ0 2
Ġinter n
Ġbel nja
Ġmantul mantul
Ġhot el
ye y
Ġnh ung
Ġmantap keren
Ġsubst ance
Ġcall s
Ġbus ui
Ġdist rict
Ġgam is
Ġkm rin
ipt op
Ġpain ting
Ġsun flower
Ġkh aki
mas k
Ġpul se
Ġmet ers
Ġfill ing
res onding
Ġcal endar
Ġshope ee
iiiiiiiiiiiiiiii iiiiiiiiiiiiiiii
which soever
Ġmint ak
Ġbaguus s
Ġti en
Ġdece mber
Ġkain ya
olog y
Ġmantaa p
bell s
Ġinch es
Ġfrequ ent
Ġfant a
lik ely
Ġlux ury
bil ities
Ġsemog aa
nic ely
Ġheads carf
Ġirr it
Ġsedi kit
Ġsquee ze
Ġultim ate
Ġdream y
Ġketer ima
Ġgloss y
Ġfro zen
hell o
Ġblackhead s
Ġanal ysis
7 0
d ur
e pp
f ill
f ake
k aa
k ere
l im
l ist
m ya
n b
p ens
s ii
s moga
Ġs ar
Ġs nd
Ġt umpah
Ġa ah
el a
al most
Ġb ird
Ġb unch
Ġo y
an ny
Ġc ape
Ġc akes
Ġw ah
Ġpr ang
es ter
Ġn ung
Ġh t
Ġh mmm
as p
Ġl ite
il ang
Ġto long
pe k
Ġdeli ered
ut y
aa an
Äł pack
Äł bagus
ol ve
Ġv es
Ġli ving
ear ly
st ood
Ġch ipped
um ble
Ġr ad
Ġr ise
Ġex agger
Ġde ath
Ġsa ved
pt op
Ġdi y
fe it
Ġlit er
Ġus h
Ġout let
Ġny lon
Ġ5 5555
out s
other wise
ie u
Ġcr op
jd kd
Ġcar bon
rop h
Ġhigh light
ro fo
Ġcle ats
Ġmod e
Äłc ar
Ġact ivity
gr ound
Ġear n
Ġpost ing
Ġdown side
Ġreason s
Ġcomm od
lu cent
Ġman aged
Ġbel anj
Ġcream nya
Äłg l
Ġsubsid ized
Ġbreak s
Ġext ension
Ġavail ability
Ġind ic
Ġresponsi bilities
Ġpk onya
Ġphotograph s
Ġpast el
Ġsign ific
Äłin c
Ġsuggest ed
gi an
Ġ201 7
Ġinv incible
Ġsyuk aaa
df g
cie ved
Ġqual ities
amb ah
dhdh dhdh
care ful
Ġms lh
Ġpract ice
Ġdeng an
Ġanno yed
Ġeyel ashes
Ġbil is
Ġsock et
Ġreput able
Ġsesua ii
umin um
Ġsting y
accept able
Ġvent il
Ġattem pted
Ġmoisturi zing
bru ary
quis ite
Ġviv o
Ġgrat itude
Ġkekecil an
Ġcoup ons
Ġpregn ant
ongru ous
ijklmn opqr
Ġinspect ion
Ġstom ach
6 3
c ode
f ir
o j
o ba
p end
p urchased
u ar
w aw
Ġa ya
Ġb one
re dd
Ġo g
Ġd ab
an ch
Ġw t
Ġw ak
Ġw oke
es a
Ġm ai
Ġn em
or ious
Ġh ung
Ġh ence
Ġqu arant
om b
pe ople
Ġi u
Ġk im
Ġy y
Ġal ert
Äł at
Äł comm
Äł wr
ad s
ad em
Ġsu cks
Ġv c
ak y
ur ut
Ġch u
Ġch annel
Ġlo ving
Ġthat s
all l
Ġcon fortable
com ings
Ġsi e
Ġtr aces
Ġse pt
Ġse ven
pt o
Ġche at
app ro
Ġmu ddy
Ġco ating
ab at
Ġany time
are na
Ġen hance
Ġmer ah
Ġcont ains
Ġcont ained
Ġdes cribe
Ġle pas
nn x
Ġapp roriate
Ġdr ool
di ri
Ġjo g
ip u
ange et
Ġchat nya
Ġhu bby
Ġpeng er
Ġlet ters
co st
Ġinc ongruous
Ġset tle
Ġtight en
Ġman is
jj e
fit ting
nnnn n
Ġrap idly
ix ed
ron ic
jdjd j
Ġleak age
Ġba aguuuuuus
Ġsil k
Ġwrit ings
Ġkal au
Ġwatch ing
Ġkual iti
terim akasi
Ġkh imar
Ġsupp lied
Ġbi ar
Ġconsum ables
Ġnak a
Ġgold en
Ġcoll ision
Ġpan as
Ġmakas iiii
Ġdin eliver
Ġabsor bs
ili ar
Ġappro ved
Ġwire s
Ġwrn anya
Ġbarg ains
Ġcord ial
Ġload s
may be
Ġtread mill
bit r
Ġign ored
Ġenc our
goodgood goodgood
Ġorgan ized
Ġpop ular
submit ted
Ġopp os
reg ular
55555555 55555555
Ġestim ates
Ġterny ata
Ġping in
Ġfraud sters
Ġproject s
qw qw
Ġfool ed
Ġapolog ize
Ġmill ion
Ġincredi bly
Ġprest ige
Ġnyes ell
Ġrus ak
Ġbroo ch
Ġdikasih nya
Ġcrunch y
defgh ijklmnopqr
Ġviet nam
Ġcommod ities
c j
c v
c ro
c ases
f k
f old
f sg
j q
m oney
m ile
n m
p ac
x d
Ġs gitu
Ġt b
Ġt gk
Ġt ires
Ġa e
in der
Ġth ks
Ġg ing
al er
Ġb ou
Ġb kl
Ġf ate
Ġd ag
Ġd essert
en a
Ġm p
Ġh k
Ġl sg
qu et
Ġis e
Ġre charge
ar om
il iant
pe m
Ġsh anties
Ġk us
Ġk ac
Ġk cil
Ġk ardus
ag ain
Ġal a
Ġal ive
Ġu j
ve ment
ad ala
Ġsho el
Ġsu kk
Ġv iolet
Ġj au
ap es
st ery
Ġch g
um n
Ġr ug
ant ed
Ġcom bo
Ġun equ
Ġun likely
ic les
ee ks
Ġsi ap
Ġac commod
ard s
Ġsa b
Ġno v
Ġthere fore
Ġad orable
ng nya
Ġpi pe
ven der
ition al
Ġcomp on
Ġfe bruary
Ġen ce
Ġwear able
Ġ4 7
Ġbang e
be autifully
ud uk
Ġwhat soever
Ġmess aging
Ġshopee haul
Ġaff orable
Ġcor k
Ġback up
jd b
pat ient
aaa as
Ġfold ing
uk an
Ġhehe hhe
Äłm ar
co al
Ġko in
Ġproblem atic
Ġgu id
Ġem s
Ġshort comings
gr ine
oooo ooo
Ġmak a
Ġbarang g
Ġtrans lucent
Ġ12 3
Ġsn ap
Ġro b
Ġrel ative
Ġsqu ish
Ġmantap lah
cu cok
Äłre p
Ġmurah hh
Ġclean er
Ġpng emasan
Ġps anan
Ġsand al
Ġru bbing
Ġconsum ption
fl ated
trim a
Ġdec re
where as
Ġir responsible
Ġble ak
okokokokokokokok o
Ġkyk nya
Ġteng ki
11 11
Ġhrg anya
Ġbreat he
des pite
Ġsour ce
Ġpartic ip
Ġenvel opes
miss ions
Ġzig s
Ġprop os
zzzzzzzz zzzzzzzz
Ġthousand s
Ġpert ahank
Ġident ify
Ġexceed ed
Ġpengemas anya
Ġmosquito es
Ġincredi ble
rif ic
origin ally
smp ai
Ġdar ling
Ġreco gn
mash allah
Ġstru gg
Ġappoint ment
cou rier
Ġwebs ite
Ġquarant ine
b os
b right
c ush
d ry
g old
h irnya
i um
j ak
l eng
m other
o q
p oint
s d
s am
s um
t nya
v ably
w he
x kh
Ġt tt
Ġt ers
Ġt long
in form
Ġg um
Ġg ard
Ġb eng
Ġo x
is o
Ġf h
an cel
Ġc ous
ed ed
Ġn ant
Ġn ila
Ġh mmmm
oduct ion
ot es
Ġk p
Ġy uk
Ġy uhu
ag ak
ast ik
Ġsm ud
Ġsm ashed
xc v
Äł ak
Äł up
Ġor s
Ġor t
Ġli me
and s
ap t
em ed
Ġok el
st y
un in
un yaa
Ġr od
Ġr ang
Ġr ereply
Ġr umah
Ġsi g
Ġex changed
ter ed
Ġse x
lo vely
Ġche er
app p
Ġwr ist
per h
int a
Ġar gu
Ġco p
Ġpo h
dh s
he avy
Ġbit ter
Ġmer iah
ny aaaa
su pp
Ġbox ed
Ġthem es
thing s
Ġke ys
Ġsc ary
Ġdeliver ing
Ġcar rying
Ġpe cking
Ġfold s
up date
Ġgl ut
tr o
Ġbg tttt
Ġsuk aaaaaaa
Ġem ot
Ġshort ages
Ġpart ner
Ġcard ig
Ġsub tle
Ġap pet
Ġrefund s
Ġsever ance
nnnn nn
jo b
bh an
Ġins yaa
Ġaw are
ww w
Ġsil ent
jsjs jsj
Ġmis leading
Ġcu ff
Ġsen ang
eb ih
Ġexper i
llllllll llll
Ġbas is
Ġredu ction
Ġest ate
Äłsu b
Ġtear ing
pppppppppppppppp pppppppp
Ġhang ers
Ġrain y
Ġmeas uring
Ġkw alitas
Ġwood en
Ġti ba
jjjj jjjj
Ġbath room
abs olutely
Ġkere een
Ġsoal ny
Ġworkout s
bagussbaguss bagussbaguss
Ġsesu ailah
Ġeffic iency
Ġtyp ically
Ġjoint s
Ġgest uring
Ġkec ill
iron ment
sound s
Ġbarok ah
Ġluxuri ant
Ġpum a
Ġcab in
Ġsto pper
Ġoccas ion
Ġpere grine
won der
Ġcontempor aries
Ġtransact ions
Ġconsci entious
Ġwats on
Ġdesir able
Ġoppos ite
5 4
7 6
8 0
c ca
c our
c jc
d l
d ue
f a
m el
m uk
p w
p okok
v ironment
x g
Ġ ert
Ġs well
Ġt un
Ġt ire
Ġt shirt
Ġt umben
Ġp ee
Ġp ash
Ġg ust
al ag
Ġb ail
Ġb ik
Ġd ial
Ġd ung
Ġw olf
Ġn cc
or o
Ġh ate
th ought
Ġan s
us ually
Ġk ir
Ġy r
Ġal s
Ġal uminum
Ġu al
ve y
ch er
am bar
Äł the
Äł we
Äł respon
Äł ret
ap r
em ents
Ġok s
Ġso il
Ġr r
Ġbu ang
Ġbu agus
Ġserv is
Ġ1 55
Ġdis apoint
Ġbl ind
Ġme chan
Ġar r
Ġbo cor
Ġco ba
oun ting
Ġstu ds
ks kd
Ġfe athers
Ġred mi
ine x
Ġmerch ants
Ġsp ider
be auiful
Ġx xxl
ll ah
ud ing
ac c
Ġbub bl
Ġmant aaaa
ach e
ual itas
aik in
Ġcor resonding
Ġsupport ers
fin ished
Äłs ur
Ġput ih
mant aap
Äłp u
Äłm is
pl ah
Äłc or
Ġel dest
Ġprov in
Ġdirect ive
pro b
Ġka os
Ġmak enya
Ġpu aas
Ġdt o
Ġbal anced
con f
Ġbatter ed
Ġsqu id
ju in
Ġca using
Ġboun ce
Ġdri ver
Ġcu ri
Ġpush es
Ġbh nnya
Ġshow ing
Ġpick ed
Ġpick ing
Ġlin er
Ġgar bage
Ġmakas iii
me al
iff on
ui op
Ġbul k
Ġble ach
Ġabsor bed
gl ass
Ġkeren n
Ġcal m
aaaaaaaaaaaaaaaaaaaaaaaaaaaaaaaa aaaaaaaaaaaaaaaaaaaaaaaaaaaaaaaa
Ġplant ed
ahan in
Ġpull ed
Ġspecif ications
12 9
Ġnut s
umpl it
Ġmove ment
Ġmeasure ment
Ġmanufact uring
tern al
Ġgand os
Ġpresent ed
tran sm
Ġsyek al
Ġwalau pun
Ġunexpected ly
Ġrefer ence
Ġcleans er
Ġencounter ed
Ġcok su
pok onya
Ġrup iah
Ġyas udah
Ġprec ision
Ġkayan o
mmetric al
Ġrefriger ator
Ġcondi ion
Ġunequ al
a ii
b ing
b ak
b atter
d ig
h u
h on
h ri
i j
i ft
l an
m ate
m ac
n ately
r w
t aste
y g
Ġ ile
Ġs pt
Ġs js
er al
Ġt iptop
Ġa es
Ġa ug
Ġa unt
Ġp b
Ġp ages
Ġb od
Ġb ali
Ġo un
Ġf ol
Ġd av
Ġm t
Ġn gt
Ġl ha
Ġre min
eli pin
Ġdeli v
Ġsh ame
Ġi x
Ġk b
Ġk ut
Ġk ka
ast ip
Ġbe aut
Ġbe ef
Ġu mm
aa i
am er
Ġfor um
Ġfor give
se ems
Äł on
Äł rem
Äł ins
gh nt
Ġor ang
Ġj aw
st e
Ġch iffon
Ġup front
Ġas a
Ġag ak
Ġun ic
Ġun clear
Ġex elent
Ġmoney good
Ġ2 000
Ġshop ie
Ġsa ch
lo g
Ġbr ow
Ġdi et
Ġdi git
Ġmu a
Ġpo ly
Ġce aaaaaaaaaaaaaaaa
Ġout break
Ġover come
Ġhand sh
Ġrep orted
su dah
Ġbang us
Ġexp osed
Ġph p
ll u
ja w
Ġsal t
Ġreal pick
Äłs amp
Äłs eller
Ġlu vv
Ġres erv
Äłp i
Äłb el
co ok
Ġinc on
Ġref ill
Ġref used
Ġcover ing
Ġnever theless
Ġla unch
Ġrap iii
bar an
jo j
ni vers
Ġpengiriman x
Ġfind ing
mb ah
Ġhouse keeping
Ġsw ear
Ġnt i
Ġpk ai
Ġlay ered
Ġmother s
Ġadvert is
Ġet s
Ġdk t
Ġvers us
Ġinv est
Ġappe ared
Ġir re
Ġresp os
amb oo
Ġsurv ive
Ġrain coat
Ġboard s
bai kk
kual it
kual iti
bn rnya
Ġhop ed
des ign
Ġconnect or
Ġappreci ated
bf ounded
Ġstri ke
Ġuni vers
Ġdikirim in
eeeeeeeeeeeeeeee eeeeeeeeeeeeeeee
Ġtra der
Ġcurt ains
check ed
Ġchart s
vw xyz
Ġcow bells
Ġjahit anya
jel as
Ġnyam pee
Ġexpet ed
Ġvibr ant
Ġreccom ended
Ġsecret ly
Ġbiscu its
Ġmarath on
Ġplu gged
Ġramad an
Ġdrool ing
Ġargu ably
b us
b ounced
c ock
c defghijklmnopqr
h p
j ss
j di
l x
l ens
l amp
p ng
s at
t ell
u ct
u bs
v o
v ari
w atch
Ġs id
Ġt int
Ġa il
Ġa aaaaa
Ġp our
Ġp itch
Ġg c
Ġg itu
al ala
Ġb ungkus
Ġd au
Ġc et
ed ing
ing ly
Ġm ut
Ġn ing
Ġl il
Ġl cd
om en
th n
Ġto wards
le k
Ġi y
Ġi cal
Ġit chy
Ġk so
Ġk ab
Äł aw
Ġv apor
Ġj k
ow bat
Ġon ion
ah nya
ap an
ok i
ant ul
Ġlo sing
Ġbu ka
bs hs
Ġsi ih
Ġsi hhh
Ġac quired
Ġdo cum
Ġdis satisfied
Ġall erg
Ġme th
Ġbo ong
Ġco y
ab ab
he h
Ġrecommend ing
ny ata
Ġskin ny
other s
ist ration
ait as
bag u
Ġwrap s
Ġke bes
ach es
aw ak
Ġsupport s
Ġsc ars
nd n
Ġwork man
Ġpe yok
Äłs es
up i
up un
Ġcou riers
Ġpeng riman
Äłm al
Äłb a
Ġconf idence
Ġni a
Ġsecond s
bu h
Ġpart ies
ahah ah
min us
Ġrequ ires
Ġ0 7
Ġ0 99
ori z
Ġla vender
ead ily
Ġhar us
Ġtem en
Ġtem pl
Ġdress ed
Äłh i
con sider
Ġins yallah
Ġdong g
Ġbright ness
Äłn ag
Ġsubst itute
pict ure
Ġver ry
Ġmem ang
Ġcur ved
Ġbat alin
Ġye ay
Ġob t
Ġps an
rrrr r
Ġru ined
Ġfil es
Ġkh o
Ġspeak ing
Ġlab els
Ġhit am
ahahahah ahahahah
Ġfail ure
Ġelastic ity
gar a
Ġkem ana
Ġcomb ined
Ġkas o
Ġmeng ecew
Ġload ed
Ġsang aat
Ġfinger print
Ġsilic on
Ġeyel iner
Ġweigh s
Ġmagnet ic
Ġkot ak
Ġnecess arily
cake p
Ġegg s
Ġwang i
Ġsebel um
wel ry
Ġattem pt
frag rant
Ġtul ip
stal g
Ġsymbol s
belie vably
Ġned a
avail able
Ġstap le
child ren
prob ably
nivers ary
2 3
9 5
b dh
c g
e o
f u
g re
k c
k p
m or
m os
m atch
o ved
p ol
r ust
r ai
r ock
s cr
t ried
v in
Ġs ink
Ġt is
Ġp gn
Ġb amboo
Ġo c
Ġo pa
Ġc ain
Ġc act
Ġc ents
Ġm uter
on ant
Ġn nya
at un
Ġh on
Ġl ying
th eart
Ġan niversary
ut ter
ri age
Ġi ba
Ġk ad
Ġk os
Ġy i
Ġsell eer
Ġin fer
Ġst eadily
Ġal bum
Ġbe ans
ch i
ch u
se ason
Äł che
Ġsho opee
ol nya
et tt
ur t
ss h
Ġch il
Ġso b
Ġso ak
ant ing
ir an
all ow
Ġun pleasant
hh s
Ġtr f
Ġdis adv
Ġde flated
Ġsa iz
Ġdi ret
Ġar bitr
Ġship s
ca w
Ġhe a
Ġpre cise
fe k
Ġco con
oo s
pet asi
Ġlight ing
eng iriman
ven ir
Ġfe b
rim n
Ġpa vement
Ġab x
ud ed
Ġhi bis
ie ie
ish ip
Ġsc an
Ġsc ale
Ġcr ash
Ġsuc ceed
pat utan
Ġsal er
mant ull
Ġ6 4
Ġtop s
Ġz z
Ġgu ard
Ġmas angnya
Äłd it
ahah a
Ġsub missions
Ġset t
Ġdisc onn
hhhhhhhh hh
Ġbrand ed
to y
ix ix
Ġrequest s
Äłh u
Äłh ar
Äłh and
Ġlang gan
led ge
che aper
ju an
Ġsubst ances
Ġpes ann
Ġcall ing
Ġdu o
cl aim
cl adding
Ġru ff
Ġwish es
Äłdi k
pas ang
shs j
ses end
Ġclass ic
Ġra ises
lip stick
Ġmed yo
Ġflat ten
Ġflex ibility
Ġmist akes
Äłng e
Ġprodu ce
Ġmic a
Ġip od
bsbs bsbs
Ġot g
Ġprefer red
Ġintr oduction
ox ox
Ġtravel ing
Ġballoon s
Ġweigh ing
Ġsoal nya
mz mz
Ġlan car
Ġwan na
Ġrequire ments
Ġmass age
Ġngel upas
Ġcontinuous ly
Ġsablon an
Ġobject s
Ġcoun sel
Ġpnt ing
Ġpeny ot
Ġmung kin
thr ough
erty uiop
stu vwxyz
Ġstan ard
dedu cted
Ġboom ing
Ġopa que
3 6
7 129
c am
c ss
c ould
c oo
c up
d n
f x
f an
g low
g reen
i as
k ind
k urang
m esen
m sm
n um
o pp
p ie
p illow
r ub
s ngat
t ip
x s
Ġt ad
Ġt ied
Ġt unic
Ġa qu
Ġa ke
Ġp da
Ġth b
it ted
Ġg de
Ġb orn
Ġo ce
Ġf est
Ġf ist
Ġd el
Ġd gn
Ġd alam
Ġc ables
Ġw ig
Ġw ine
Ġw asting
Ġpr izes
Ġn ich
Ġh ous
Ġl ady
Ġqu a
Ġqu ran
om pl
Ġi deliver
ag en
ag ram
Ġin fl
Ġst ained
Ġnot ify
Ġu b
Ġu ang
aa ak
Ġfa int
am it
Ġsm e
Ġsm w
Ġspe c
Äł for
ke ke
Ġthank fully
Ġv en
Ġli f
ak er
ak in
ok in
Ġch em
un gin
un ction
um es
Ġlo op
Ġup load
so ck
so cks
Ġas ide
Ġun less
ic able
Ġtr lalu
Ġdo s
Ġse xy
Ġbl ow
Ġdi bat
sh dh
li que
Ġco s
Ġco co
ab i
Ġbag uuuuus
dh a
Ġstore d
Ġout fit
Ġrep o
Ġcont n
Ġsubs cri
Ġsp in
su ch
Ġter baek
Ġsaf er
Ġcust mer
Ġke cik
Ġbefore hand
Ġlg s
Ġlg sung
Ġmo i
Ġmo v
Ġcomplet eness
nd ing
Ġback ground
Ġpe g
Ġint end
js is
pen ya
Ġreal flex
de c
Ġhehe hehehehe
Ġres ale
Äłp ar
Ġz onk
Ġrecom nded
Ġmod est
bu ble
Ġsel ebih
Ġprov ince
zz le
Äłt w
bl s
Ġman ner
Äłk er
ub ble
Ġsol ved
Ġform at
Ġrem ark
Ġthankyou uu
Ġ11 1
Ġrol led
Ġrespond s
Ġinform ative
Ġadmin ya
Ġba e
Ġind ent
je j
Ġbat t
peng emas
Ġfan cy
Ġstay ed
Ġexpired nya
Ġpak ing
Ġank les
Ġinv ent
pes anan
Ġchar coal
Ġwonder ing
Ġbur u
Ġappro batory
Ġseason ed
olut ion
Ġpem beli
des cription
Ġton ight
Ġbear ing
hi jab
samp enya
Ġtil ted
kx kx
Ġpant ies
Ġprof ile
Ġhd mi
Ġhum id
Ġmold y
oooooooooooooooo oooooooooooooooo
qq qq
Ġshoul ders
Ġek sp
Ġloc ated
Ġmotor cy
Ġdeg ree
Ġnie ce
Ġwarn anya
firm asi
Ġunfort nately
Ġapolog y
Ġjun cture
Ġtooth paste
Ġbint ang
mint a
Ġmim in
ival ent
Ġscal es
Ġvit amin
Ġmanufactur er
Ġlar is
Ġcub ic
Ġintell igent
Ġsanit izer
Ġupgr ade
reason able
thu gh
Ġtarg et
oriz ont
Ġinfer ior
Ġcocon ut
a ang
b uk
e a
f ish
h arg
k out
l ot
m ach
r us
s ampe
t age
t ahun
u ing
Ġ edi
Ġ ery
Ġs od
Ġs ns
Ġt ent
Ġt anger
Ġa ha
Ġp od
Ġp is
Ġp am
Ġp st
Ġp ong
it t
it ui
al f
Ġb ung
re view
Ġo od
Ġo bs
Ġw k
Ġw ont
ct ive
es uai
Ġm d
Ġm enu
Ġm umer
Ġn v
Ġn asty
at ives
Ġh ih
Ġl ad
Ġis ol
Ġqu ar
Ġre ass
il an
Ġe eee
Ġsh it
Ġsh elves
us in
Ġi ck
Ġk ick
Ġk ung
Ġk onsum
Ġy aaaaaa
Ġst abil
Ġal ter
Ġbe an
Ġu ulit
Ġspe cially
Äł deli
Äł jd
Äł not
Äł super
Äł ket
ol ute
Ġsu da
Ġv est
Ġj im
Ġj our
Ġli pt
Ġon t
im ars
Ġyou uuu
Ġch t
un ning
Ġso ooo
ir ely
id a
id eliver
Ġas ap
Ġtim ing
Ġcon ce
ee theart
Ġsi u
Ġtr ad
Ġtr uss
Ġdis k
Ġse a
Ġbr anch
Ġrece iver
uu ka
gt u
gt ech
Ġpro ven
ig ay
Ġus a
Ġad ding
Ġga usah
Ġbag u
ng s
Ġover al
Ġover size
Ġarri ed
Ġsk s
Ġhand bag
Ġcomp artment
Ġnew ly
Ġen vironment
Ġpur case
Ġsp y
Ġsp at
Ġpicture d
ist s
Ġsy ng
ult ry
Ġbagus an
Ġgo ood
Ġte en
Ġcar ved
js n
js ns
Ġsal ah
Äłs ay
Ġng ay
uk ur
Ġres id
Äłb anget
Ġsuk aaaaaaaaaaaaaaaa
Ġsuk asuka
Ġko g
Ġfo c
Äłc ons
Ġsel et
Äłd ist
Ġterim ak
Ġunder stood
po ss
Ġsmell ing
uh uhu
Äłt em
Ġdisc ont
Ġmonth ly
Ġcons cious
Ġbs ok
Ġwar ning
Ġthr u
Ġber kah
Ġsn diri
Ġsl ack
Ġsl am
Ġass orted
Ġmantul ll
ia o
Äłg o
Ġnh g
cew akan
Ġdik antong
Ġkok o
og og
Ġdon ate
Ġdifficult y
Ġant ic
Ġgam au
Ġcu y
Ġkm aren
Ġequ ivalent
Ġpal atable
ship ments
fl ash
Ġanak u
Ġdipake in
Ġlist ening
Ġinit i
Ġinv olved
Ġamazing ly
df jdg
Ġtransfer red
Ġdrop s
Ġpin ch
Ġmg nda
pes an
Ġcontr ast
Ġcake p
Ġwl pn
Ġplant ar
mak sih
Ġmemuas kn
anti kk
Ġkur g
Ġade quate
Ġabsorb ing
Ġbuble warp
Ġpun ct
makasi hh
Ġsumm ary
Ġindones ian
Ġken a
Ġgem es
Ġrej ection
Ġkil at
Ġsou p
Ġyaudah lah
Ġterny ta
cover ed
Ġbil angnya
rekom end
Ġkecew aa
Ġalhm d
Ġked ep
Ġflu id
Ġjel as
Ġbrief case
ttq tq
Ġobstac le
prod cts
Ġtrash y
Ġluxuri ous
dfgh jk
Ġwhit ening
sau cy
Ġregister ed
Ġaltern ating
Ġshr ink
Ġpengirm an
sand als
Ġpokon yaa
Ġkegede an
Ġplat form
Ġbou quet
Ġsquish y
Ġcact us
Ġhibis cus
6 5
b ear
d ark
e c
e as
f j
f ig
h mm
i q
j ng
j dd
k ot
k hh
l al
l ly
n ment
p ri
p ower
s ya
t d
t as
t ks
t iny
Ġ ents
Ġs ack
Ġs bb
Ġs ultry
Ġt ables
Ġa o
Ġa sp
Ġa tle
in n
in ks
Ġp y
it ung
al ang
Ġb on
Ġb are
Ġb ared
re sp
Ġd kd
Ġc ip
Ġc rime
Ġw w
Ġw est
Ġw ings
Ġpr one
Ġm ood
Ġm un
Ġn il
at ory
qu es
Ġproduct the
om s
pe tt
Ġe co
ut t
Ġsh ine
Ġi ya
Ġk am
Ġk aaa
Ġk pn
Ġk ira
ag at
Ġin ce
Ġst ress
Ġnot ified
Ġbe kasi
ank s
aa m
Äł us
ke m
Ġsu d
Ġv ing
Ġj ars
Ġok ok
Ġok la
st ay
ur ate
Ġch am
Ġwh om
ir ing
Ġup right
Ġas ih
Ġori g
ee et
Ġde v
Ġbl nj
Ġsa o
Ġno vel
int s
Ġbo ost
li ance
Ġim patient
Ġhe hee
ft en
Ġam b
Ġam bil
Ġsk i
Ġcomp le
Ġcomp ress
Ġstar red
Ġless on
Ġdes cent
su d
pack et
Ġph ase
Ġbub l
Ġfl or
Ġke cepat
ail ed
Ġgo ver
br own
Ġoff set
js k
Ġreal ized
Ġbar s
Ġng at
Ġng et
Ġres olved
Ġcou pon
Äłm em
ret ion
Ġni pp
Ġref use
Ġel ection
Ġel eph
Ġstick ing
Ġsem p
Ġcum ulus
Ġmouth ful
Äłt rim
wr n
Ġpu ff
Ġman age
Ġmur aah
Ġmar in
Ġfoot wear
Ġsl ide
Ġass ume
Ġass urance
Ġwash able
Ġpar a
Ġcompl ained
Ġfall s
Ġmag ic
Ġind icate
jsjs jsjs
Ġpuas ssss
Ġclos er
Ġupd ating
Ġbat s
Ġcu co
ib ly
ib atun
ma x
Ġparcel s
terim akas
Äłin ter
Ġsuggest s
Ġcoll aps
Ġ201 6
Ġdec is
Ġtable t
Ġenjo ys
str ing
pes os
Äłun der
okokokokokokokok okokokokokokokok
Ġdedu ction
cum an
aaaaaaaaaaaaaaaaaaaaaaaaaaaaaaaa aaaaaaaaaaaaaaaa
Ġom g
Ġnatur ally
Ġfail s
Ġcent ral
Ġkem bali
Ġbeli i
Ġconsist ently
Ġwed ding
Ġvict orious
Ġmoist ure
tttttttttttttttt tttttttt
Ġexpl ained
Ġsang t
ho st
nc nc
Ġhum orous
Ġcoz y
Ġct ion
yyyyyyyy yyyyyyyy
Ġelectric ity
Ġmuken anya
say ang
Ġalhm dulillah
Ġbrief ly
Ġfle et
mot if
Ġexpet asi
luck y
Ġplis ketnya
Ġacceler ated
Ġexperi enced
Ġcuri ous
transm ission
Ġdav id
Ġjaw ab
Ġhandsh ake
Ġmeth od
Ġworkman ship
Ġatle ast
7 5
b ee
b ie
c ot
d on
d ga
d iss
d ge
f ly
f ied
f aat
f resh
h xh
i us
k ad
l angg
m th
n ar
o ot
p ant
r ot
s cent
t ap
x bx
Ġs ng
Ġs leting
er ine
Ġa kk
Ġp nya
Ġp kk
Ġth ri
it ar
Ġg ear
Ġg ain
Ġg ila
Ġb f
Ġo me
is ely
is nya
Ġd ated
an ah
Ġc ed
Ġc ate
Ġw ks
Ġpr oud
ing gu
en jo
Ġm f
Ġm um
on nya
Ġn un
Ġn ine
Ġn aship
at ile
at annya
Ġh v
Ġh ap
Ġh ong
Ġh ushed
Ġl acing
Ġre fin
Ġre aso
th o
Ġan ther
ut up
Ġsh attered
Ġsh redd
ot ed
ot tes
Ġi an
Ġi ed
Ġi ght
Ġk emasan
Ġk arena
Ġk umplit
Ġy ummy
ay o
Ġin y
Ġst ation
Ġbe ads
se ams
Äł ent
Ġspeed s
gh antaran
ad is
ke ce
ah abat
em e
Ġok ie
Ġso brang
Ġr um
Ġr out
tt e
bs v
ff af
Ġbuy back
Ġse p
Ġbl a
Ġno stalg
Ġche ating
per f
Ġdi pengiriman
comm unic
ca pe
Ġpacking ny
Ġat ions
Ġpro ses
ng a
Ġam e
dh f
Ġout come
ight ly
Ġgi a
let s
Ġwe althy
hamdul ilah
ci itis
br as
br oke
Ġsc attered
its kg
Ġsuc ces
not e
pen jual
Ġinst agram
Ġnow here
Ġtast ed
Ġcl a
Ġ6 8
Ġ6 00
Ġwrapp ings
Ġmin n
Ġfo x
Ġref resh
Äłc ust
Ġmas ing
bu ying
Ġtrim akas
Ġtrim ksih
Ġmedi ocre
Ġap al
min i
Ġak n
ns nns
Ġpen j
Ġpen et
Ġna order
55 0
Ġcush ions
ub ah
jj j
nnnn nnn
Ġproper ties
Ġje welry
uuuuuuuu uuuu
Äłg i
Ġhead phone
Ġpengiriman ny
xx h
iiiiiiii i
Ġeffect ively
Ġext end
ru it
Ġhair y
comp act
Ġds n
Ġmah al
Ġimport ed
Ġpng r
Ġku at
Ġpaket nya
Ġexist s
Ġconsum ing
ship ing
Ġpot s
Ġbes ide
Ġredu cing
Ġpul aa
Ġsat in
Ġble h
Ġay an
jg dfjdg
ndnd ndnd
fh fh
bn m
Äłdis c
Ġscrew dri
Ġmain ly
Ġdum bfounded
Ġcepe et
Ġbak ing
Ġdef ault
look ing
Ġquant ities
Ġswitch ed
Ġpant y
Ġconst ant
Ġallow s
Ġhg aaaa
Ġmanufact ured
Ġyoung er
Ġluc uuu
Ġclaim s
Ġmoder ately
cons istent
rrrrrrrr rrrrrrrr
Ġnat ry
Ġgh t
Ġcontribut ion
Ġbaguu uus
Ġcounter feit
Ġdibal ikin
Ġsdk t
Ġpsen an
Ġsav ings
Ġloos ely
mot ive
Ġpray er
Ġplast ik
Ġfoto in
Ġadmit ted
Ġgim na
Ġcanti kk
Ġneighb or
Ġallo cated
Ġshut tle
Ġpreser ved
sad ly
jaz ak
luc uu
Ġfacil itate
Ġregrett ed
Ġtax able
Ġdili at
45678 90
Ġshoel aces
Ġappet ite
Ġremin der
Ġunic orn
Ġiniti ative
Ġgover nment
7 13
b arg
b onus
c ch
c ain
c ation
c ra
h ome
i ate
i que
k r
k ai
k rang
n el
o a
o op
o ber
s un
t ion
t ong
y rs
z a
Ġs iss
Ġs sss
er ved
Ġa aaaaaaaaaaaaaaaa
in complete
Ġp j
Ġp anda
it ip
Ġb ant
Ġf b
Ġf om
Ġd al
Ġd ick
Ġd amp
an ut
Ġc es
Ġc ased
Ġw oo
on ed
Ġn od
Ġn as
Ġn tr
or ial
as ss
Ġl az
qu est
om g
ar ik
Ġi al
Ġi bu
Ġk ata
Ġst en
Ġst opped
Ġst acked
Ġal am
ve mber
ch l
Ġfor given
Äł fe
Äł order
Äł you
Ġor de
ke mas
Ġj astip
Ġli able
Ġon s
and y
the ir
st ik
ur se
Ġch oo
Ġso bek
Ġr n
ant ar
ant ages
ir annya
pr on
all eng
Ġag ent
Ġcon dt
Ġun ya
Ġex ter
Ġtr ap
Ġtr ading
Ġdis patch
aaaa ah
Ġde cl
Ġbl h
sh aped
Ġmu at
Ġat ely
Ġpl acing
Ġpi er
Ġout put
Ġny ala
ga ve
Ġmer cy
Ġsome where
Ġsuper r
Ġpur pos
Ġsp ikes
Ġle aving
Ġbang bang
Ġbox nya
Ġpa cif
Ġx ie
nt s
Ġbig g
Ġimm ed
Ġhi ps
Ġgod s
Ġstr oll
ip s
Ġknow ledge
Ġreal ize
Äłs n
Äłs ell
Ġsee k
Ġplastic s
up in
Ġtri be
Äłm on
co z
mo g
dddd ddd
Ġadd s
Äłc ut
irt y
Ġel bow
Ġshe er
Ġreg istration
ari o
Ġunder sell
Ġbonus nya
pro v
Ġcepat ttt
Äłt ri
Ġcomm er
Äłk o
Ġcush y
Ġent irely
Ġass ist
do ors
Ġyellow ish
Ġtu itui
Ġho i
Ġho oks
Ġker ing
iiiiiiii ii
mb eli
Ġbng tt
Ġhair pin
cu it
Äłre g
mantul mantul
jf g
aya an
Ġpol l
Ġcu z
Ġhat s
sa id
Ġtom b
Ġkh imars
Ġkasi hhh
Ġdec ision
Ġ14 0
hhhhhhhhhhhhhhhh hhhhhhhh
Ġreceipt s
Äłsu bs
Ġfour th
Ġharg any
angg ung
Ġlem es
hhe hehe
hhe hehehehe
Ġbro oks
Ġcompet ition
Ġbahan ny
hat iin
Ġspecif ication
Ġkecil in
Ġmeat ball
Ġdef ense
Ġmace m
Ġconst antly
Ġelect ronic
Ġhy d
abil is
Ġclaim ed
Ġmakasii hh
Ġcatch ing
lik ed
Ġbaju x
Ġmul us
war na
Ġsou th
Ġlift ing
gw gw
Ġsupposed ly
cas enya
Ġinqu iry
Ġtyp ical
Ġconsign ment
vvvvvvvv vvvvvvvv
pengirim anya
vdvd v
dfgh dfg
Ġrid iculous
draw n
Ġinsp iration
Ġconv ention
Ġvar ied
Ġexpend iture
Ġirrit ated
Ġindic ator
Ġuj ung
Ġguid ance
Ġcous in
Ġpash mina
jaw ab
Ġunivers al
cdefghijklmnopqr stuvwxyz
Ġchem ical
Ġdibat alin
Ġtrad itional
3 2
9 8
b nt
c aya
d uring
g en
h g
h op
i pe
j dhd
k ss
l my
m am
m ng
o es
o ad
p are
p ient
q y
r ada
s bs
s ens
t om
t ow
t ions
v iv
w j
x itskg
Ġ eller
Ġs ja
Ġt ack
Ġt ama
Ġt ttt
Ġt unggu
Ġp li
Ġp ket
Ġth u
it er
Ġg s
Ġg host
re cieved
Ġf ot
Ġf lip
Ġd ann
Ġm x
Ġm ounting
Ġn dk
Ġn urs
at u
Ġh ga
Ġh df
Ġh orizont
Ġh dfghdfg
Ġquality original
Ġre e
ar at
ou red
Ġan j
Ġan gg
Ġto te
Ġe g
ot ics
us us
Ġi in
Ġk ai
Ġk kkk
Ġy er
Ġy ing
ag s
ay s
ay os
Ġst ale
Ġal mond
Ġbe gging
am ent
ul illah
Äł q
Ġpack ignya
Ġface book
sp here
Ġorder annya
et ics
Ġon ions
ak al
ap ack
ain able
Ġok okok
Ġok okokok
Ġne on
ya allah
um pteenth
Ġr s
Ġr t
Ġr ules
ant e
id i
pr os
ang k
Ġun finished
Ġex quisite
Ġex ternal
Ġmat ters
Ġbl es
Ġno vember
est rated
Ġbr acket
Ġrece nt
Ġdi pl
Ġme ow
Ġmu antap
Ġ3 000
atisf ied
ab a
Ġcheap ly
act iv
ven ient
Ġbgt u
Ġcomp ly
ks bs
Ġcont aining
ny e
Ġher bal
Ġcondition er
Ġsp oke
dul ent
Ġsend alnya
Ġx x
Ġx ii
Ġab ly
nn z
Ġsy mmetrical
Ġke jahit
Ġbanget bagus
Ġgo i
di k
Ġaff ixed
Ġjo sss
br is
Ġhapp ier
Ġcr otch
au ai
Ġwork ers
jd n
Ġcar ing
Ġpe pper
js jj
Ġpesen annya
de cent
mant aa
Ġtast ing
Ġres il
Äłp ad
Äłm as
Ġmin h
Ġrecom anded
Ġcle ared
Ġlik ing
Ġ9 00
Ġsel esa
Ġel ement
ahah h
Ġterim kasih
Ġyaa h
Ġtrim ksh
Ġear th
ex ception
Ġtight er
Ġdisc retion
Ġman agement
Ġ12 5
Ġthr owing
Ġreview ed
ba ju
wor king
Ġadv is
Ġent ity
ye ah
col l
ni ke
Ġum p
Ġconsider able
Ġcod es
Ġpengiriman n
Ġend ing
Ġnge cas
Ġnge pres
unt usan
Ġmantap mantap
Ġseal ing
has anah
ra ud
Ġclean ed
Ġpad in
Ġnag ana
Ġnag sesend
par ably
gggg g
Ġabs olute
cl oud
Ġbutton ed
Äłr el
Ġproduk ny
Ġlin ed
Ġsam apai
Ġben ang
small ness
Ġcam er
Ġzi ppers
Ġzi gtech
uas kan
Ġgar ment
Ġhahah ah
Ġdit unggu
Ġcolle ge
Ġvis ual
Ġwalk ed
Ġinv ited
kkkkkkkkkkkkkkkk kkkkkkkk
Ġorigin all
Ġsit ting
jh d
pak ai
Ġhol o
ett i
Ġkualitas nya
Ġpngiriman nya
ili ver
Ġrow s
Ġjs jsjs
Ġbahan x
Ġfam iliar
bn gt
Ġkt nya
recom end
Ġwkwkw kwkw
12 3
Ġnut r
makasih makasih
Ġvan illa
Ġdef ic
Ġmail ing
paket annya
Ġsampa iii
Ġpant es
Ġkaa k
Ġdipak ai
Ġinf ant
Ġtreat ed
Ġresist ance
Ġnare ceived
Ġjam med
Ġcy cle
cons um
ayay ayay
Ġregard less
77 77
Ġmac am
Ġpert ahanin
mis placed
Äłac c
bot tle
Ġsou venir
Ġdeg rees
ifi able
Ġkecew aaa
44 44
Ġloos en
Ġjahit an
Ġpor k
wel come
Ġembroider ed
3333 3333
Ġuw u
lap is
tot ally
Ġunus ual
skirt s
gem es
Ġjud gment
Ġjat oh
Ġcul ottes
Ġsegit uu
Ġaccomp any
auth entic
assalam ualaikum
Ġfas ciitis
Ġsept ember
Ġpenger iman
Ġsig ns
Ġglut en
Ġwolf is
Ġprovin ces
Ġbeaut ful
Ġdigit al
Ġadvertis ement
Ġarbitr arily
toy ibatun
Ġruff led
Ġinvent ory
Ġtanger ang
Ġince nse
Ġcondt ion
3 7
4 7
b k
b or
b ya
c un
c ers
d ong
e es
f okan
g nya
h ag
h ib
j em
j ection
k q
l k
l as
l ings
l iness
m ended
n ant
o at
o cc
p ngiriman
s lo
t ul
t ail
t ipis
u ci
v g
v j
v ous
w d
w k
w jw
x jj
y er
y ellow
er ing
Ġt x
Ġt or
Ġt us
Ġt ig
Ġa le
Ġa weet
in cl
in appropriate
Ġp it
Ġp ending
el in
el ine
Ġb x
Ġo oo
Ġf s
Ġd w
Ġd ai
Ġd dd
an anya
Ġw ai
Ġm art
Ġm aster
Ġn f
Ġn m
Ġn ii
Ġn avi
at in
Ġl s
ell ing
om ed
Ġre si
il is
il ater
il angin
Ġan an
Ġan get
Ġe i
Ġe u
Ġe ur
Ġe hehe
ut ions
Ġi ble
Ġi iii
Ġk f
Ġk q
Ġal ah
Ġal oe
Ġspe ech
Äł ear
ke c
et ers
im pen
Ġok o
ok es
st able
Ġch op
Ġch ine
Ġso fl
Ġr b
ful ness
id id
id emic
Ġas hes
com pet
Ġdis hope
Ġfr ail
Ġbl n
Ġsa i
Ġbr ake
Ġbr iliant
kk u
Ġdi anter
Ġar a
Ġim itation
aut erine
Ġpro gram
ft ed
Ġbag gy
Ġby r
Ġunt idy
eng an
act ual
Ġ5 6
Ġrep ack
Ġpict res
Ġper u
Ġgr own
Ġher bs
gg y
pack s
Ġpa pe
Ġx i
Ġx r
Ġexp and
Ġexp ens
si z
si zing
Ġimm ature
Ġmess aged
Ġhi ya
Ġjo hn
Ġreply ing
Ġsal ute
Ġjd nya
Ġjd inya
Äłs cr
Ġcl ub
Ġpeng em
Äłp es
Äłp ur
Äłb al
Ġz en
Äłc le
Äłd at
gr inning
Ġsem i
Ġcum e
ug s
Ġpost er
bl h
Ġsur g
Äłk h
Ġmur a
Ġpok oe
Ġpiece meal
Ġq r
Ġes p
Ġsl mt
Ġsl iding
Ġdg an
Ġma en
stand ar
kak ak
Äłl um
Ġmem ber
Ġair y
Ġair pods
Ġclos ing
Ġcap ital
Ġpol icy
Ġkal ii
ib ir
some thing
sk in
Ġaman nn
Ġloss es
Ġkh it
Ġev ents
bg d
Ġsing ap
Äłin st
Ġkasi hhhh
Ġsimilar ly
Ġvers ions
Ġcoll agen
Ġpan jang
Ġbai kkkk
Ġsit u
Ġsit es
Ġcontr act
Ġcount ed
barang x
Ġcir cuit
Ġwl pun
ahahahah ah
Ġprodu kk
Ġ17 0
Ġselamat t
trimakasih trimakasih
Ġblock s
Ġdece ived
baguus s
Ġstreng then
Ġcli ps
ho le
Ġmad am
mon ious
Ġstep s
Ġmean ing
Ġjaz akallah
Ġou ch
Ġmid night
Ġcapt ion
Ġcapt ure
Ġske wed
88 88
abl ished
pu ass
Ġeffic acious
Ġpw d
Ġtar o
irr ah
wwwwwwww wwwwwwww
39 713
Ġindivid ually
Ġexception al
Ġjazak illah
jad iin
Ġcosm etic
bng et
Ġmush room
mod el
Ġhosp ital
wash ing
Ġveget ables
Ġsatis ied
Ġarmp it
Ġventil ation
Ġenhance ment
Ġjau h
Ġchg aaaaaaaa
Ġcompon ents
okokokokokokokoko okokokokokokokoko
Ġparticip ate
xcv bnm
Ġcardig an
Ġspider man
Ġirre parably
Ġhea ven
Ġflatten ed
Ġkonsum en
Ġngat ung
Ġreaso able
Ġrefresh ing
Ġexter ior
2 00
a der
b im
c re
d ent
d ag
d ont
f al
f ol
f ic
f jh
f ruit
g ri
g orgeous
h or
h ot
i ka
j ck
j ik
k el
k ed
k uu
l ol
m c
m ad
n one
o bat
p ast
p ow
s in
s us
s dah
s ana
u ch
u per
u riman
w ire
y uu
Ġs aa
Ġs ap
Ġt ah
Ġt ng
Ġa qua
Ġth ro
Ġg all
Ġg olf
Ġb am
Ġb ound
Ġb ert
Ġb order
Ġb ikin
Ġb ila
Ġf er
Ġd f
Ġc in
Ġc int
Ġc ba
ct or
ing kat
Ġm c
Ġn z
Ġn ang
at ahi
Ġh anya
Ġh bis
as al
Ġqu iz
ar ap
Ġan ten
Ġto h
Ġe ager
Ġsh ed
Ġsh ake
le ction
Ġi o
Ġi re
Ġk hasanah
Ġy aaaaaaaaaaaaaaaa
Ġin no
Ġst ove
Ġal o
Ġfa d
ch oose
ch nge
Ġsm oo
Ġsm og
se moga
Äł all
Äł ni
Äł att
Ġor ng
Ġthank z
Ġv irt
Ġj r
Ġli es
et ive
Ġon to
ah s
im ah
Ġrespon ya
st ive
Ġch ill
Ġch ic
ant an
Ġlo s
all alal
Ġas dg
Ġha i
Ġcon d
Ġun d
com fy
ld ld
Ġdis e
aaaa an
Ġbl end
ii ih
Ġno va
Ġche ater
ca i
Ġpo ke
ab ove
ai an
Ġsk a
Ġ5 7
Ġ5 9
ens urate
ass igned
Ġen clo
Ġclo set
Ġsp acious
any an
Ġx pe
Ġcust emer
ci bed
Ġwhat s
wh wh
Ġfl ag
Ġlah hh
Ġmo hon
Ġaff ected
Ġcor ners
respon d
au dulent
pat an
order an
ik u
Ġsis ters
uk nya
Ġcl ue
Ġhu ft
mo sphere
bb x
shop s
Ġoke eeeeeeee
Ġsecond ary
sm s
Ġbot ol
Ġcum n
Ġtrim ak
ex pl
Ġmk n
pre vious
Ġ8 8
Ġprom os
wr it
bed a
bd nd
Äłk al
Ġhar sh
Ġsever ely
Ġsol o
llll ll
Ġform s
ba ca
Ġpat ah
Ġro bot
gs g
Ġang uished
ph p
Ġho ly
te xture
Ġmark oto
iiiiiiii iii
Ġba iik
Ġyah hh
Ġdep ends
Äłre f
Ġflo at
Ġdet ect
Ġdist ur
cl ass
Ġpokok x
Ġkal inya
Ġmal owbat
Ġsampe ee
Ġextra ordinary
Ġsam sek
peng emasan
Ġill ust
Ġev idence
Ġgar lic
ko in
Ġtip u
Ġcart ridge
Ġpot ato
Ġbangeet tt
Ġappe al
disappoint ing
Ġlock down
Äło ff
amb ahin
Ġcount less
Ġbro c
did n
fabric s
Ġgasket s
Ġnotice able
mak a
sub st
Ġlabel ed
Ġmng ecewakan
Ġintr auterine
anj ut
Äłcon f
alhamdul ilah
Ġvide os
Ġdim ens
Ġstri ct
Ġbreath ing
Ġelect ions
Ġmh n
Ġnad in
Ġsak to
bell ine
gm x
Ġlear ned
Ġgand o
Ġpresent able
Ġterny at
jl jj
dddddddddddddddddddddddddddddddd dddddddddddddddddddddddddddddddd
Ġhay s
emp ol
Ġpear ls
lack ing
mantapmantap mantapmantap
produ kk
Ġtick s
hmhm hmhm
Ġsetting s
Ġblur red
Ġoct ober
Ġcleans ing
Ġmang o
Ġultim ately
Ġinflu enced
Ġcri b
Ġque ue
Ġreccom end
tes y
Ġuns ightly
Ġbatre nya
Ġmanufactur ers
sen eng
Ġorth otics
Ġmush y
Ġpngirim n
Ġdeter min
Ġlumay ann
Ġhide ous
Ġsmok ers
Ġorch estrated
Ġmonit or
diff icult
prof essional
Ġrad io
inex p
batter y
Ġallerg ic
caw akan
Ġlipt int
Ġeleph ant
Ġshredd ed
550 76
Ġconvention al
Ġhdf jgdfjdg
0 8
5 6
b ur
b reat
b int
b angeet
c od
d v
d jd
g un
h nd
h rg
i is
i ap
i veness
j as
j kk
k re
k ay
k ann
l ab
n ua
n atur
o ath
p dh
t an
u ary
u arin
v ouch
w ag
w all
Ġs f
Ġs aran
Ġs bnrnya
Ġt gn
Ġt gl
Ġt mbah
Ġp ill
Ġp per
Ġp jg
Ġth ich
Ġth oi
Ġth rew
Ġg al
Ġg or
Ġg ong
Ġg ada
Ġb id
Ġo order
Ġd ing
Ġd ug
Ġd jdjd
an ak
Ġc it
Ġw es
Ġgood good
Ġgood the
es ive
Ġn amp
Ġn kak
Ġn aikin
Ġh atur
Ġh ihih
Ġl en
Ġl ai
Ġl arg
Ġl aser
ell i
Ġis a
th ird
ou ter
il ty
Ġe xcell
ut i
ut u
ut ch
us a
us age
ri ved
Ġand a
Ġi er
Ġi ih
Ġit ung
Ġk x
Ġsell ler
ast ernya
ay ang
Ġin di
Ġu i
Ġu uuu
se am
Äł ca
Äł ka
Äł pat
Äł oke
Äł red
Äł unt
ke ith
Ġthank ssss
ol er
Ġv ul
Ġv nd
Ġv ary
Ġj z
Ġj alan
et ies
Ġon d
Ġon ya
st ru
Ġr asa
Ġlo ading
ff h
Ġcon dit
Ġun believably
Ġun available
Ġsi a
Ġsi ppp
Ġex pektasi
ter angan
aaaa h
Ġse gtu
Ġde ck
Ġde hhhh
Ġde emed
ick ing
Ġsa ver
Ġbo sk
sh ock
Ġhe h
Ġat mosphere
op un
ab ubble
Ġpro ceed
Ġpl ated
Ġam at
Ġam pun
Ġhand led
Ġred undant
Ġrep on
out standing
Ġle gging
urn a
os ity
Ġsy uu
Ġtw itter
ment ation
ind eed
Ġcool ing
aw an
ie f
ish able
Ġte ball
Ġsc ore
bo leh
Ġsal mon
aaa an
Ġbar ter
if ying
Ġng abarin
Ġtri ang
Ġcl imb
Äłp ag
Äłp ol
Ġlet s
co ba
Ġconf using
ro gant
bb ed
pl enty
Äłc an
Ġmas a
Ġprov ision
gr ams
pro per
Ġtight ening
Ġlast s
Ġgpp a
Ġhal uss
bd jd
Ġcre m
Ġla id
Ġbs r
Ġform ed
Ġthr own
Ġrem ained
Ġer nya
Ġlater al
ek an
Ġsl it
Ġent rance
Ġbel anja
Ġcour tesy
kd nd
Ġhead band
Ġins urance
Ġnh an
baik in
Ġdik rm
ru pt
Ġdep os
Ġexc lus
Ġcrack ers
Ġflo ating
Ġclean ly
Ġsw eetheart
Ġprin ter
bal o
bal anced
Ġbat rai
Ġtell ing
Ġfavor ites
Ġkal eng
Ġshow ed
Ġner d
Ġner vous
Ġkual it
terim aksih
Ġspr t
Ġgar ter
sem u
Ġhur ts
Ġpan ic
shs bs
Ġpak aging
clo ck
Ġpp ing
Ġbanyak kk
Ġmg anda
head set
Ġabsor ption
Ġsurv iv
Ġama an
Ġreli ability
Ġearr ing
Ġlaa ah
Ġterimakasi hhh
Ġdiss appoint
Ġdiss onant
Ġprefer ably
Ġappl icable
Ġnyampek nya
fair ly
alam in
Ġkain x
ksks ks
kf kf
Ġmanufact ure
Ġterbai kkkk
Ġcand le
Ġali ke
Ġconcer ns
sc reen
Ġshare s
Ġtre nd
Ġorgan ization
Ġstrength ened
Ġtur ning
Ġactiv ated
cont in
Ġoper ators
Ġconcent ration
Ġden im
Ġbud dha
sim ilar
Ġwip ed
card board
Ġep idemic
Ġpend ant
Ġflu ent
Ġtn pa
Ġknit ting
Ġcloud s
dateng nya
57 39713
Ġdp ke
Ġsepat unya
gas ket
Ġdul u
Ġswim ming
function ing
Ġward ah
Ġprim ary
Ġreci pient
Ġspo iled
Ġlebih in
Ġexam ined
Ġmagn ets
Ġcuk up
Ġdiskon an
Ġwlau pun
Ġtechn ical
stitch es
Ġdelet ed
mist aken
Ġener gy
kere en
Ġrecharge able
Ġaccommod ate
Ġpertahank an
cush ion
perh aps
Ġsett led
Ġquar ter
Ġuulit in
Ġnipp le
Ġcollaps ed
Ġdecis ive
Ġcate g
xxh dd
Ġscrewdri ver
Ġlaz ada
xitskg xn
Ġanten na
2 1
a ay
b ung
c x
c ounter
d ab
d uk
e at
e ye
f raud
g il
g art
h f
h ill
h ear
i ke
k ck
m ain
m ine
m pun
o ci
p od
p ag
p ul
q n
r ings
s ir
s ure
t b
t or
u o
u at
u he
u ks
w eek
Ġs om
Ġs by
Ġs ided
Ġs belum
er rr
Ġt es
Ġt ab
Ġt ny
Ġt di
Ġt ends
od or
Ġa jj
Ġa hhh
Ġa ined
Ġp up
Ġp ony
el ds
Ġg ala
Ġg ores
Ġg nti
al th
Ġb ord
re et
Ġo on
Ġo und
Ġf ren
Ġd ow
Ġd ough
Ġd ens
Ġd ating
Ġd rip
Ġd uty
an cy
Ġc ong
ce n
Ġm it
Ġm nd
Ġn j
Ġn aa
Ġn ick
Ġn nn
Ġn ative
Ġn apak
Ġl ak
ell ent
Ġre submit
ice s
ar nya
ar ched
Ġan ge
Ġan imal
Ġe tt
ut in
ri g
Ġi ze
Ġi ous
Ġk or
Ġk agak
Ġy uh
ag ues
Ġin n
Ġin se
Ġnot ch
Ġu c
Äł ass
Äł delivery
Ġor ginal
Ġthank ful
ol ong
Ġsu cking
Ġv v
Ġj ang
Ġj ngn
Ġli ver
im ag
Ġrespon e
Ġok kkk
Ġok elah
ur o
Ġch ap
Ġch alleng
end able
ant u
Ġlo v
Ġlo vers
ang a
Ġnice very
all hamdulillah
Ġwas nt
ee en
Ġoriginal s
Ġbl az
ial s
est ic
per son
Ġdi ak
Ġme ant
Ġcan ned
Ġar g
Ġar an
Ġbo gor
sh ot
sh oddy
Ġmu da
Ġpre di
Ġat i
Ġco il
Ġpo ison
Ġpro s
Ġus s
Ġpl ush
Ġam iin
Ġam by
he althy
Ġny et
Ġny ah
Ġfe es
Ġ5 4
Ġen akk
Ġri ject
su fficient
any ain
Ġexp lod
Ġsy antik
Ġtw in
Ġtw ist
ound ing
Ġdr o
Ġfl annel
we ve
ka u
Ġke berapa
ink le
ne g
Ġsc atter
js b
Ġsal am
Ġsal ted
Ġbar code
Äłs us
Ġlu ar
if th
Ġng an
Ġng anter
tr ust
Ġpeng iri
Äłm ur
Ġsuk ab
Ġz oom
but ton
co cok
dddd d
Ġni ya
Ġcould n
sm sm
Ġsel am
ahah ahh
oke h
Ġrest ore
uh a
Ġak ak
Ġfar m
Ġprocess es
ner able
Ġhelp ing
Ġhar ini
Ġbs ar
Ġpat h
Ġpat i
bar ng
ict uran
Ġber fungsi
Ġber lapis
Ġfew er
Ġmask er
Ġstitch ed
jo ss
Ġro y
Ġro yal
bh n
Ġflash light
ps en
ni er
Ġhead ache
Äłf ri
Ġaw al
Ġses ui
Ġtap iii
Ġnge fek
Ġrel ation
Ġside wal
Ġfre es
tttttttt t
Ġul tr
Ġba ek
Ġhold s
Äłre al
ky uu
Ġflo ors
Ġunderstand ing
Ġmis under
Ġinstall ing
Ġamaz ed
Ġpad d
Ġob lique
thin ner
Ġexped isinya
Ġspill s
cr ition
ser v
Ġwi per
Ġbany aak
Ġfact ors
Ġround s
Ġbusiness es
Äłin f
stick s
Ġpattern ed
Ġdk asih
fo am
Ġstay s
cepat cepat
Ġfore foot
Ġest ablished
Ġrapi hhh
Ġkasih terima
Ġwaist band
cle an
kh xj
Ġ18 0
Ġpillow case
Ġpillow cases
bz bz
Ġmb ak
Ġprodu ck
Äłpr om
Ġart if
Ġmic roph
Ġpel ayan
Ġdng an
Ġlangganan n
jdj jd
Ġck p
Ġtrack s
Ġgat el
shsh shsh
Ġcoin c
Ġstri pe
Ġwall paper
Ġwrink le
oy x
Ġpartic les
sc am
Ġmoder n
Ġvisit ors
Ġregard s
Ġestim ation
Ġkin der
Ġeyebrow s
Ġpokokny aaa
Ġkere en
Ġop ens
Ġocc ur
Ġach ie
nfnf nfnf
Ġfashion able
awe ed
Ġtrm ksih
sal es
Ġdrug s
charg ing
Ġdike mbali
xxxxxxxx xxxxxxxx
Ġcry stal
Ġsort ing
Ġcha otic
prod ak
run ning
Ġpagkak abalot
Ġgoo gle
Ġhousehold s
Ġswim suit
Ġpron ation
Ġoi ya
Ġspo il
Ġunus able
luv luv
Ġtm pt
gir l
Ġrese arch
Ġhosp it
sol id
Ġbnt ang
Ġtechn ology
Ġembarrass ed
trans fer
Ġsuffer ing
conn ect
aneous ly
honest ly
Ġliter ally
Ġsignific ant
Ġhung ry
pto pto
appro batory
Ġgard en
Ġbubbl enya
Ġaes thetic
Ġ099 7129
rub ber
Ġmotorcy cle
Ġmarin ade
Ġrefin ed
adis appoint
chl xxhdd
Ġpurpos es
Ġtomb stone
Ġdishope e
Ġkhasanah toyibatun
writ ten
b aa
c ous
c asing
d in
g uns
g iving
h ous
k v
k ain
m ks
n akak
p apa
p air
q h
r aph
s ai
s bd
t et
t oday
w ord
x i
y w
y ears
y uhu
Ġ ily
Ġt su
Ġt ons
Ġt mn
Ġa ter
Ġa aaaaaa
Ġa aaaaaaa
in ations
Ġp ine
Ġp imp
Ġp oured
Ġg us
Ġg ul
Ġg ate
al aaa
Ġb out
Ġb au
Ġb aret
Ġd ak
Ġd ud
Ġd ash
Ġd ots
Ġc ure
Ġw aw
Ġpr nah
Ġpr ngiriman
ct ory
Ġm ol
Ġm io
on al
Ġn r
Ġh ok
Ġh unt
Ġh inh
as sem
Ġl av
Ġl atter
Ġqu een
Ġre ng
Ġre set
Ġre verse
Ġre claim
ar o
ar ar
Ġan o
Ġan nd
Ġto re
Ġto ll
Ġto ptop
pe c
ri an
ri ch
Ġi di
Ġy aaaaaaaa
Ġy aaaaaaa
Ġin door
Ġbe e
Ġu y
Ġsm lm
Ġfor k
se pat
Äł light
Äł great
Äł shi
gh h
Ġpack ng
ad ar
Ġsho pp
Ġsu ke
Ġv ill
Ġv ain
Ġv id
Ġj n
Ġj ah
ill h
ak t
Ġrespon s
ant iik
Ġserv ces
Ġas ia
Ġhear ing
Ġcon vers
Ġun ison
Ġori i
Ġtr jangkau
Ġmat ur
Ġse qu
Ġfr audulent
Ġbl ades
Ġbl oom
Ġsa ke
Ġsa usage
Ġno zzle
lo ss
Ġche wy
app le
Ġbr apa
Ġlong est
Ġlong gar
kk oj
Ġdi a
Ġdi refund
Ġme als
Ġar rogant
sh od
Ġat c
op i
Ġlit ter
Ġpro ved
ig ig
Ġce pt
Ġpl ng
Ġpl ague
ake t
Ġpi e
Ġout ward
Ġout going
Ġover flow
Ġhand les
Ġsuper ior
Ġbang get
pack ging
be b
Ġter jangka
Ġter rific
any aaa
Ġmay belline
Ġwho se
Ġph arm
Ġsy m
ll q
Ġtw isted
ac cur
av ings
ert i
Ġgo sh
Ġmo ca
br and
nd j
bo hong
Ġevery hing
Ġoff season
Ġint ense
pen ed
Ġinst ructed
aaa at
up on
Ġtri ple
Ġcl ing
Ġres olve
Ġbg ttttt
Ġpeng en
Äłm ot
Äłb re
Äłb at
Äłb ut
ro be
Ġgu itar
Ġgu ilty
Ġmon o
Ġmas ih
Ġmas uk
bu at
Äłd u
Ġel der
Ġshe af
Ġpart ially
Ġkr udung
gr ow
Ġsem arang
Ġear ned
Ġpost man
Ġap s
Ġ8 9
Ġprom ises
Ġmak er
Ġmak lum
lu x
Ġhr p
Ġgpp lah
Ġhal al
Ġman lang
Ġcre ased
Ġq w
Ġhar ha
Ġpas ang
Ġfair y
Ġfoot print
Ġty m
Ġber man
Ġber patutan
uuuuuuuu uu
Ġbre wing
Ġlang gann
shi eld
Ġent ertain
Ġang an
Äłg am
col our
Ġtext ed
Ġtext ing
Ġpar ang
Ġsty ling
Ġdik irain
Ġdik ardus
Ġker i
Ġbreak fast
Ġbgus s
Ġmantap s
Äłn h
kg kg
Ġvari eties
Ġver ifiable
spe cial
ana an
Ġky anya
jf j
Ġtet eh
Äłw ar
cl xitskgxn
Ġour selves
Ġsen stive
sa ve
Ġkal a
Ġflow ing
Ġoil s
Ġram aah
ser ious
Ġsupp lies
Ġtip s
Ġfur ing
Ġdit o
Ġexpedition s
Ġ201 5
Ġbai j
Ġfore cast
dam age
Ġclass ified
Ġcook ies
dg d
kin ese
Ġdlm nya
Äłde c
Ġjs j
Ġkek nya
Ġut k
Ġvol tage
Äłtr an
Ġperform ed
Ġlaa hh
ooo ood
bf j
akak akak
Ġpract ically
Ġrot ate
alhm dulilah
tttttttttttttttt tttttttttttttttt
Ġallow ance
Ġbegin ner
Ġbegin ners
Ġsus pect
Ġdil ute
Ġkit a
Ġinsya alloh
Ġnare cieve
Ġtid k
Ġenc aps
Ġmakasii ih
Ġtre asure
Ġfrequ ency
Ġblank ets
Ġkud u
Ġheheh ee
Ġmam ah
Ġou ght
Ġplan ning
Ġentire ty
Ġwo ven
Ġongk ir
sim ple
Ġjw ab
Ġkon fir
Ġdike mas
ffff ffff
Ġexer c
Ġtooth brush
dou ble
Ġcompens ate
Ġagre ement
Ġbarok allah
Ġmab ait
Ġtrain er
Ġmistaken ly
Ġkeli atannya
Ġtengky uu
Ġjazak umullah
Ġbaa ik
Ġdistribut ion
Ġgit uu
Ġpedes nya
Ġsump ah
Ġconcl usion
Ġreflect ive
Ġsubscrption s
Ġgreet ing
Ġgreet ings
Ġhah aa
Ġcareless ly
Ġdol ls
Ġclar ity
Ġprt ma
month s
Ġarrang ement
Ġdiin fo
Ġintern ational
rofo il
Ġging er
arom atic
Ġpropos al
Ġarr ange
Ġyasudah lah
Ġaug ust
Ġkos ong
Ġdisconn ected
Ġnostalg ic
Ġdick ite
Ġforgiven ess
Ġchoo sing
Ġpacif ier
exception al
Ġsingap ore
Ġwhats app
5 8
a verage
b ent
c ih
c art
c led
d ic
d irty
e u
f re
f ers
f kh
j ok
j bs
j ne
j ama
j reng
k j
k ripsi
l p
l at
l ak
l mb
l aah
m ba
r ice
r eli
r ay
r ol
r uns
s ign
s neak
s weet
t orn
u ish
v ity
w at
w ent
w id
w aited
w arn
w eeks
x pect
z s
Ġs jsj
Ġt ens
Ġt gg
Ġa ins
in v
in correct
Ġp ond
Ġp pa
Ġth k
el ets
Ġg ok
al ers
Ġb ater
Ġb kan
Ġb omb
Ġo te
Ġf y
Ġf ont
Ġf yi
Ġf ifth
Ġd x
Ġd pake
Ġc aut
Ġc ai
Ġc ug
Ġc inch
Ġw n
Ġw ired
Ġw kwkkw
Ġgood job
en omen
Ġm end
Ġm uted
Ġn ong
Ġn he
Ġn ire
or k
Ġh et
Ġh ny
Ġh its
Ġh ollow
Ġh ahh
Ġh ills
as dfghjk
Ġl ll
Ġl aaa
Ġre nt
Ġre con
ar ind
ar ma
Ġe to
Ġsh aking
us nya
us ai
le ft
Ġi iiii
Ġi cs
Ġk up
Ġk uk
Ġy og
Ġin do
Ġst ith
Ġal thugh
ch ar
ch arger
Ġsm pet
ul lo
Ġthank sss
Ġsu rr
Ġv n
Ġj ord
Ġli ed
Ġli ar
et an
Ġshi eld
im annya
ok kkkk
Ġne h
st ep
Ġch ann
Ġso cial
um an
Ġr c
Ġr ata
ir am
Ġserv ce
bs k
bs ks
Ġup hol
yes al
Ġun lucky
Ġsi ght
Ġbuy s
Ġac id
Ġtr av
aaaa k
Ġse blum
Ġse gel
Ġse aweed
Ġfr ay
Ġbl k
est im
per i
Ġdi jadiin
Ġbo o
Ġokay y
Ġmu ant
ab out
ig ious
Ġga is
ft ing
Ġce aaaaa
ih an
ng k
Ġam id
Ġam ple
Ġam een
dh e
Ġstore front
cri pt
Ġny mp
Ġcomp lex
ks n
rim annya
ass ih
Ġen ed
Ġgr atis
Ġgr oss
Ġexpect tions
let ingnya
nt a
Ġcust mers
nn f
si pp
ud i
ud ge
Ġsoft en
Ġsoft ness
Ġfl ood
ja u
Ġcool er
okok oko
Ġdid alem
ish ing
di es
Ġcr ay
nd nnd
Ġpe c
Ġpe giriman
Ġpe anut
Ġsal em
Äłs am
ik it
Ġlu ama
if unction
Ġng u
mant uul
Ġtast eless
ock s
Ġcou pl
Äłp art
Äłp okok
Äłm a
Äłm y
Äłm en
Äłb ng
Ġmin es
co y
Ġem ail
Ġinc identally
Ġsamp ain
Äłc u
Äłc ur
Äłc lo
sm pe
Äłd im
Ġshe ath
Ġkr ng
Ġsem iga
Ġwal ang
ug i
Ġed ition
Ġcomm ensurate
tq vm
Ġmak apal
wr na
Ġman ipis
Ġcre di
Ġla j
jj h
Äłh o
Ġtak pe
uuuuuuuu u
Ġass isted
val id
val vular
jo jo
Ġro asted
ph ot
Ġaccept ability
Ġdeal ing
Ġpar ahh
Ġses ame
Ġcorrect ed
Ġsqu e
unt ested
hope ully
Ġsek ale
Ġsil ence
Ġver t
Ġtexture d
Ġsli pped
cu ous
Äłre com
Ġexc l
Ġflo ss
Ġnag ih
Ġpk i
Ġcu c
dy o
Ġye y
Ġproduk nyaa
Ġkay o
Ġpain ted
Ġkual iatas
Ġspr ung
peng irm
Ġpast i
Ġfact or
sel ect
Ġperiod s
Ġdk sh
Ġmantapp pppppppp
Ġposs ibility
Ġposs ibly
Ġpp ed
Ġfigure s
Ġorigin a
Ġaccom od
Ġlab or
Ġbeh alf
Ġcho co
direct ly
Ġpin adala
Ġmn urut
ustri an
Ġdanger ous
ede an
rep urchase
cur rent
Ġled s
Ġrandom ly
thankyou u
Ġmaa ci
Ġtt g
Ġpel anggan
cul ation
Ġtel eph
Ġlamp s
Ġspecif ically
Ġexha ust
Ġbol ts
Ġdtng nya
alhamdul lilah
Ġcross fit
Ġmultip ly
Ġsampa iiii
Ġconst ructed
Ġpenjual nya
Ġdoll ars
Ġmh on
nyampe k
Ġhy dr
mur mer
bc bc
Ġmad eliver
Ġluc uuuu
sc rew
Ġmnt ap
cons ign
wal itas
Ġast on
Ġalhamdul illaah
Ġalhamdul lilah
Ġorgan ic
Ġmac ar
Ġbagusssss ss
Ġeyel ash
Ġvac ation
Ġbetul lll
Ġdig un
Ġcostumer ku
Ġexceed s
Ġcer am
Ġkot or
Ġjual an
Ġdeser ves
inc redi
Ġeffic acy
Ġdip ke
Ġnood le
Ġsport y
Ġfract ures
Ġcep aaat
39 39
Ġstamp s
Ġbarng nya
Ġjan uary
Ġtut orial
mnt ap
inst all
quis ition
Ġgim ana
Ġplis ket
Ġinflu ence
Ġaltern ative
makas ii
teng kyu
Ġprec isely
smell s
disc repant
alhmd llh
mil k
hab ited
kee per
Ġameric a
return ed
Ġluam ayan
condition s
Ġnest le
Ġpret end
Ġcock ro
Ġcrit ic
Ġtuck er
Ġveh icle
dur able
Ġkhimar nya
xkh chlxxhdd
wonder ful
mel on
Ġrespos ive
lx gmx
Ġtempl ate
Ġcounsel ing
num ber
Ġfest ival
Ġhous ing
Ġjour ney
Ġcomple ment
perf ume
Ġcommer cial
Ġhyd rofoil
Ġtack y
Ġtig er
Ġvul nerable
khxj clxitskgxn
Ġpimp les
2 7
6 6
a id
a ders
b id
b ny
c ling
c aps
d j
e ber
f am
f ault
g ard
g ab
g ud
g jk
h ood
h aving
j ks
l t
p ang
p ua
r ack
r up
r ali
s ory
t el
t ri
t am
t ight
t ested
u if
y n
y ong
y ata
z n
z ens
Ġs sh
Ġs ssss
Ġs dg
Ġs ession
Ġt kt
Ġt angg
in ii
Ġp giriman
Ġth a
it in
it ary
el nya
Ġg om
Ġg aming
Ġg bu
al es
al ham
Ġb able
Ġb ush
Ġb ull
Ġb ib
Ġb pom
Ġo se
Ġo em
Ġo ren
Ġf ert
Ġf uss
Ġd ice
Ġd up
Ġd ye
Ġc n
Ġw ing
Ġw lo
ce pe
en th
es pecially
es pon
Ġm ents
Ġm abilis
Ġn ay
Ġn kk
Ġn sa
Ġn lng
at um
Ġh hhhh
Ġl bc
Ġqu i
Ġqu it
om ons
Ġre q
Ġre ze
Ġre cording
Ġre checked
th ree
il nya
Ġe ct
Ġe th
Ġe ast
le aking
Ġi zed
Ġi kh
Ġi riman
Ġit ion
Ġk ip
Ġk ona
ag et
Ġin a
Ġst unning
Ġu v
Ġu hh
Ġu ppers
aa kk
am m
am es
am ab
ul u
Ġspe ct
Ġspe ci
se kal
Äł ve
Äł fast
Äł eng
Äł ru
Äł soft
Ġthank y
Ġthank yu
sp end
sp ark
Ġj t
Ġj us
Ġj oo
Ġj ngan
Ġorder r
ill es
ak hir
ain nya
Ġval ve
st urdy
ur u
ur angin
Ġch alk
Ġso p
Ġso pee
Ġso oooooo
um a
Ġr er
Ġr is
Ġr aise
Ġr oof
ir o
Ġbu k
Ġbu zz
pr ly
ang o
bs b
bs i
bs us
Ġtim ber
Ġag ing
Ġare d
Ġcon du
Ġun stable
ic a
Ġac quisition
Ġdis mant
Ġdis har
Ġde bris
ii vity
Ġche w
Ġwr ab
per ti
uu ul
sh eet
Ġim poss
ca ve
Ġpacking x
Ġco habited
ase h
ab ay
Ġthere in
Ġga ess
Ġbag ua
Ġce w
Ġpl ump
Ġout doors
ous y
Ġper man
Ġper ishable
Ġkak kk
Ġgr ades
Ġgr anted
iss apoint
be h
Ġx per
Ġx da
Ġx boleh
Ġab c
Ġab l
os aur
Ġsy ukk
ting kat
si hh
Ġslow s
wh w
wh oles
Ġfl ick
ert o
Ġple asure
okok kkoj
ult aneously
Ġgo at
Ġcr ummy
jd id
Ġsay aa
Ġchat ting
Ġbar ag
Äłs ol
ik i
ik nya
Ġgl ance
Ġng isi
Ġbg i
Ġbg ian
Äłp ng
Äłm ay
Äłb i
Äłb y
Äłb arang
Ġconf etti
ence s
Ġem boss
az z
az ard
Äłd et
oke id
Ġwal o
Ġtrim med
Ġunder t
oooo ood
Ġrest ri
Ġka eo
Ġ7 9
pre par
ns bd
Ġcomm only
Ġ8 00
lu gg
Ġpen ju
Ġna ideliver
Ġinter ior
Äłk r
Äłk as
Ġcre ases
Ġsol utions
Ġ12 8
Ġpas mina
Ġthr illed
Ġtem an
Ġrap iiii
kkkkkkkk kkkkkk
Ġlow bat
Ġes e
Ġber et
Ġber ry
Ġber kualiti
Ġlang sung
Ġmakasi hhhh
shi pper
Ġlag iiii
Ġass oci
Ġglass ware
Ġmantul lll
Ġscr ubs
Ġlng sng
ye ye
Ġrel atives
vv v
Ġpake in
Äłn at
pict ures
Ġmag enta
Ġdep th
Ġdep ressed
Ġscratch ing
Äłl a
Äłl am
Äłl ang
tim ely
Ġsw ing
Ġsw atch
brg nya
eeeeeeee ee
exp ired
Ġpad ah
mer ic
Ġdet ached
Ġhuh uhuh
Ġdist in
Ġdist ances
uus s
Äłw al
Ġpol ka
Ġtell s
Ġterimakasih terimakasih
Ġ202 3
Ġbh anya
dhd hh
Ġju jur
real pic
Ġkh ay
Ġheal ing
Ġsch eme
Ġdit oko
Ġdit rima
Ġdit ingkat
ob ic
deliver ies
Ġenjo ying
ses u
Ġmed jo
dg es
Äłe xt
Ġta jem
Ġbul let
angg at
can not
hhe hehehe
Ġket ek
Ġtl ng
Ġfeed ing
Äłde p
wear ing
Ġpag i
lum ay
Ġmateial s
ism aya
sell ing
har ap
har med
Ġkas iih
bi as
ki u
Ġmeng e
Ġmir r
Ġdib ibir
Ġ60 8
Ġgirl friend
Ġmi ke
uw uw
Ġdic as
Ġdic oba
Ġwall s
Ġappear ances
Ġey eli
Ġdisin iii
Ġhehehehe he
kecil in
alal alala
Ġterus ss
Ġken e
Ġnga juin
Ġvel cro
Ġrat io
reg ret
Ġoper ation
does n
Ġ09 55076
Ġkirim nya
Ġrecord ed
Ġbaj uny
Ġmount ain
pot ong
Ġterimakas iii
gress ive
Ġkel uar
uuuuuu us
Ġglo bal
Ġtang led
Ġsudah h
Ġeli minate
Ġked ua
40 5739713
lumayan lah
Ġkec wa
Ġgun a
Ġirr itation
jsbs jsbs
Ġfly ing
Ġtut up
Ġts ka
Ġngeb ass
Ġbaguuus ss
Ġukur anya
Ġukur annya
mf mf
Ġsoo thing
Ġras anya
Ġshift s
Ġthnk you
Ġpuzz led
Ġcosm etics
ffect ive
Ġrese arched
Ġiv ory
Ġrelax ing
Ġameric an
Ġembarrass ing
bungkus an
Ġmsk ipun
Ġkhair an
sii p
Ġhighlight er
muk en
Ġgust o
alag ay
Ġbungkus an
glow ing
Ġmov ie
Ġindent ation
Ġconce aler
Ġpunct ual
Ġambil is
Ġelement ary
Ġholo gram
Ġtus pin
Ġchine ck
Ġsurg ery
Ġbroc ade
Ġdimens ions
inexp ensive
Ġdikembali in
Ġcaut ion
Ġchann els
Ġteleph one
xkhchlxxhdd lxgmx
Ġdishar monious
4 3
b are
b urn
b ath
c ult
c ond
c ub
d ating
d uh
e ck
e br
f b
f il
f ur
f ame
f ire
f ix
g v
g im
h ah
h em
h ai
i hh
i kk
i ation
i ors
k il
l is
l agi
m eng
m ind
m ult
m au
m eter
m oder
n al
n are
n ha
o ar
o ong
o ften
p ig
p ock
q wr
q llq
r um
s qu
s ke
u ge
v sh
w b
w ish
x nya
x jd
y r
y uk
Ġ xc
Ġs ce
Ġs uture
er en
Ġt le
Ġt nya
Ġt anya
Ġt ali
Ġt inted
od od
Ġp pp
Ġp aa
Ġp ile
Ġp ores
Ġg aling
Ġb k
Ġb ac
Ġb aw
Ġo ck
Ġo ts
Ġf m
Ġf ir
Ġf ung
Ġd b
Ġd aa
Ġd eee
Ġd coba
an gh
Ġc ak
Ġc ere
Ġc ess
Ġw is
Ġgood very
Ġgood delivery
Ġgood ness
Ġpr ng
en ough
en cing
es y
Ġm ort
Ġm ig
Ġm mm
Ġm sa
Ġn antap
Ġn ational
Ġh b
Ġh in
Ġh okey
as ii
Ġl ashes
Ġis ed
Ġre all
ar ing
ar ga
eli ght
eli min
pe ed
Ġdeli ght
le g
ri bly
Ġi kl
Ġit a
Ġit ed
Ġk ang
Ġk edi
Ġk iriman
Ġk ulit
Ġy ee
ag k
ag xk
ack s
ack ets
ch ing
am el
am am
Ġsm penya
ul nya
Äł ver
Äł ya
Äł ant
Äł shop
Äł af
Äł new
ad just
ad vert
ol or
Ġsu p
Ġv a
Ġv ine
Ġv otes
Ġj bl
Ġj angan
et as
ak it
ak ang
ear rings
Ġyou uuuuuuuuuuuuuuuu
Ġok y
Ġne k
Ġne ither
st art
ur unin
ss uai
un n
un favorable
Ġso oooo
Ġr ash
Ġr az
Ġr aces
Ġr adi
ust uhan
Ġser ial
Ġlo hh
Ġas y
Ġas ed
ff f
ff y
Ġheart ed
Ġex it
ld l
Ġse auai
Ġsa bah
ii e
ii in
Ġno i
est r
Ġbr as
Ġbr ittle
Ġdi bls
Ġcan cer
uu us
uu hh
Ġmu g
Ġmu dh
Ġim a
Ġat es
Ġat ive
Ġco pot
Ġmuch thank
Ġhere in
Ġga jelas
Ġpl g
cri f
Ġthan you
Ġny aaaa
Ġny sel
Ġfe ather
Ġquick er
Ġbit s
Ġkak i
Ġcont rived
Ġgr o
Ġgr ace
Ġgr inding
Ġri ck
Ġri pened
Ġpur su
out fit
Ġsp an
ge ant
ge ge
su le
Ġle h
be ing
Ġab dom
Ġph u
our ite
Ġkn apa
Ġmant a
Ġmant u
Ġdr ama
Ġdr inks
av ior
Ġfl ush
we g
Ġke p
Ġke baca
Ġcare ully
Ġdam aging
Ġtran port
Ġmo ss
Ġstr ob
own ess
Ġjo ke
Ġevery body
Ġpe jual
Ġoff ense
js jd
js bd
Ġsal omons
Ġneed les
Ġjd jd
Ġbar an
Ġbar anh
Ġput s
if ling
mant af
uk uran
Ġres ent
Ġ6 1
Ġ6 9
Äłp an
Äłp as
Äłp ok
Äłm akas
Äłb ul
Äłb et
Ġem er
Ġinc ome
Ġ9 8
rece nt
gr ab
Ġtransport ing
Ġcover age
zz iness
Ġsub tract
Ġ7 00
Ġak asih
Ġsur plus
Ġpu aa
Ġpu aaaas
Äłk ual
Ġcloth s
ner nya
Ġstock ed
Ġsim ultaneously
jj r
Ġform ula
Ġdress nya
ssssssss sssss
Ġdapet in
Ġber k
cm a
Ġass ure
Ġmantul llll
okokokok okokok
for get
Ġsmp a
kd ks
Ġnge cil
xx x
Ġdraw string
Ġsqu ashed
Ġinform ing
Ġleak s
mb cch
Ġplay er
Ġca uses
Ġcomfort abl
mat ure
Ġmag reply
Ġsli pper
cu c
spe cif
Ġbrother s
Ġnar r
ms on
Ġenthusiastic ally
Ġlam aaaaa
Ġlam aaaaaa
Ġair pay
Ġsw ipe
exp ed
jf jjf
Ġfood s
Ġcur ly
satisf ying
Ġcant iik
pa id
Ġkal im
thin ks
Ġpress ing
ls ls
Ġcommunic ates
Äłst ar
Ġil ove
Ġtau ght
Ġnak abubble
Ġremo ving
Ġjug aaa
fl ly
trim akasi
Ġord ee
fr m
Ġdec ide
clo thing
Ġbed room
nnnnnnnn n
Ġinv ite
Ġforget fulness
Ġbul bs
wa ist
can cel
every one
uf uf
by k
Ġtouch ing
Ġchar m
cal culated
Ġcal f
Ġfeed er
jsj kskd
Ġenter ing
barang ny
Ġwl upun
keren n
Ġrose gold
Äłtr ans
jw jw
kal ine
esh ip
Ġ99 0
Ġcent im
Ġkem ek
asm ine
Ġperf umed
Ġwkwkw kwk
nsns nsns
Ġcollection s
Ġmeasure s
dit khxjclxitskgxn
however the
Ġhy per
Ġsuks ess
Ġterbai kk
Ġmantaa ap
md md
Ġbd n
Ġwel ding
Ġtrou bles
Ġtipis ss
Ġken apa
Ġdeng ann
Ġoper ator
nnd nd
pan jang
Ġtail or
sl im
Ġpengh nt
Ġment ang
Ġbbr pa
Ġseamless ly
Ġmam i
amaz on
bot ol
uc ino
Ġtos ka
Ġsket ch
Ġsket chers
Ġreward ed
Ġintention ally
Ġbangeeet tt
cut ting
Ġham mer
Ġextr act
hal f
hal t
Ġpatch es
Ġcepa att
Ġgrand mother
uuuuuuuuuuuuuuuuuuuuuuuuuuuuuuuu uuuuuuuuuuuuuuuuuuuuuuuuuuuuuuuu
Ġjel ek
Ġemplo yee
Ġbint ng
Ġtok onya
Ġharap an
Ġdrag on
Ġdevelop ed
Ġprest igious
Ġrele ased
Ġkeych ains
Ġinvoice s
Ġmajor ity
Ġgant o
Ġsblum nya
Ġwil ted
Ġaddi cted
Ġaccomp an
Ġsag gy
Ġrelax ed
Ġkre na
nyamnyam nyamnyam
purch asing
Ġdiin fokan
Ġdelet e
det ailed
Ġdiv ision
Ġafford ed
Ġcing krang
Ġsoph ee
los ion
Ġbangeeee eet
Ġveh icles
Ġexagger ated
Ġencour age
Äłthe m
Ġreserv ation
Ġdocum ent
Ġcontn ue
Ġsod ara
Ġpam pers
Ġreass uring
Ġantic ip
Ġasp halt
Ġcip ut
Ġrout ine
Ġshuttle cock
Ġbigg est
Ġnurs ing
ilater al
Ġthro at
chnge able
Ġenclo sed
vouch er
Ġlarg est
Ġexcell ence
Ġdissappoint ed
Ġgala xy
Ġchalleng e
Ġpadd ling
alaaa jan
Ġreclaim ed
Ġvill age
Ġaston ished
Ġspeci fy
Ġstrob es
0 99
2 6
a allah
b gg
c in
c ak
c pet
c orn
c ntik
c antikk
d um
d bd
d ented
e ither
f at
g gh
h uhu
j m
j adi
k rn
l ag
l un
l bs
l enya
l itas
m ust
m cm
o il
o ok
q o
r k
r x
t able
t id
t est
u hhh
v b
v ol
w i
w ok
w ind
x kx
y ay
Ġs ok
Ġs ci
Ġs orts
Ġt od
Ġt tttttttt
Ġa id
Ġa tter
in ence
Ġp ect
Ġp oles
Ġth un
Ġth ik
el astic
Ġg y
Ġg ut
Ġg ue
Ġg ang
Ġg ather
Ġg ata
al y
al ty
Ġb z
Ġb ust
Ġb by
re c
re inya
Ġo ll
Ġo bras
is is
is ss
is her
Ġd ile
an cing
Ġc aa
Ġc em
Ġc age
Ġc ks
Ġc ult
Ġw ort
Ġw ound
Ġw kw
ed om
ce k
on i
Ġn aw
Ġn la
Ġn unggu
Ġn ipis
at ip
or ong
Ġh un
Ġh hhhhhhhh
Ġl t
Ġl v
Ġl on
Ġis i
Ġre tro
ar ks
Ġan h
Ġe b
Ġsh am
ot y
us sy
ri dges
Ġi ke
Ġi rim
Ġk uu
Ġk ond
Ġk ha
Ġy oga
Ġsell e
Ġsell u
pp a
Ġin inform
Ġst em
Ġst ones
Ġst ifling
Ġal arm
Ġal kaline
Ġbe c
Ġbe ars
Ġu us
Ġfa u
ch g
ch ron
am nya
am ura
ul ul
Ġspe cs
Äł um
Äł dh
Äł ori
Äł aff
Äł ob
Äł head
gh xjj
Ġpack ged
Ġor n
ad dition
Ġthank sssss
Ġsho pper
Ġfast ing
Ġfast respon
ol o
ol ished
Ġv h
Ġli at
ah am
ap isin
im ent
Ġyou th
em bang
Ġok oko
st retch
un expected
un opened
Ġr w
Ġr on
Ġr op
Ġr ac
Ġr mo
Ġr ushed
Ġr opes
ere p
Ġser geant
Ġbu ff
Ġbu kan
Ġbu ffer
bs g
so on
Ġas pect
Ġun harmed
com b
com pat
com pl
Ġmy stery
Ġtr l
Ġtr act
Ġtr baik
Ġtr llu
Ġdo ck
Ġdo ble
Ġmoney fast
Ġdis g
Ġdis gu
Ġmat er
Ġse har
Ġde b
Ġbl own
Ġcolor ing
Ġbr pa
Ġall er
kk f
Ġdi verse
Ġdi kecilin
Ġar ab
Ġpre m
Ġ3 50
op y
Ġkg edean
oo ves
Ġpro prly
Ġad aa
Ġbag i
Ġce pee
ry lic
Ġout s
Ġout skirts
Ġsk ull
Ġbgt au
ks a
Ġstar ts
Ġ5 3
rim ental
Ġstuff ing
Ġen k
Ġen ing
Ġpict re
Ġgr avel
Ġri dd
Ġri ps
ric an
su da
Ġwhen ever
Ġter ba
Ġpa ced
ist rat
Ġx h
Ġx iu
Ġexp losion
Ġdiff e
os ition
Ġkn ot
Ġkn ob
ich at
ich eck
ment ed
Ġafter wards
wh uif
bag os
Ġmant epp
av ent
Ġfl ask
Ġke pakai
Ġbubble warp
Ġdam a
ja jaj
ne ck
Ġbanget tttttt
Ġjo bs
iiii h
Ġcomplet ion
Ġcr own
great ness
Ġpe o
Ġpe kinese
Ġint ensive
Ġint imately
pen ghantaran
Ġpesen ya
Äłs qu
uk ak
Ġcl utch
tr action
tr mksh
Ġres olution
Ġpeng uriman
Äłp in
Äłp el
Äłp al
Äłb ack
Ġz zzzz
Ġem ina
Ġem erg
Äłd am
Ġdirect ed
ari z
Ġtrim kasih
Ġcepat tttt
Ġak hirnya
bl n
Ġmak ass
lu ed
wr ote
Ġman ners
bd bxbx
cept ive
Ġinter chngeable
Ġcre w
Ġwater y
Ġsim pen
poor ly
Ġbah anya
Ġbal ot
Ġtem ple
Ġer ed
ba agus
Ġamount s
Ġber p
Ġlang g
Ġmantul llllllllllll
jo y
Ġrol ler
Ġsir a
Ġang nya
kd j
Ġins isted
Ġconsider ate
Ġho st
Ġtap os
Ġker asa
Ġker udung
ju ga
iiiiiiii iiiiii
Äłn ak
Ġul t
Ġver ified
Ġky nya
Ġmem bers
Ġuk urn
Ġnote book
exp ress
Ġnag us
Ġpng n
Ġhuh uhuhu
Ġdist ant
Ġcap sule
Ġdry er
Ġpol itely
Ġaj ja
Ġkm arin
Ġkal er
Ġkal inyaa
Äłr ap
ib ay
Ġps n
Ġps nan
Ġball ot
rrrr rr
Ġsangat baik
Ġbt l
Ġflow y
Ġol ive
cr azy
Ġfil thy
uuu ul
Ġpal ette
Ġgar nier
Ġpast ed
Ġbottom s
Ġfur ry
Ġ25 63
Ġpot o
Ġhur ried
Ġnear by
Ġstay ing
Ġmakas h
Ġjack ets
Ġtable ware
shs hh
Ġcook ie
Ġinv is
Äłe xc
Ġterbaik lah
Ġbeh avior
sever al
Ġwind s
Ġqual ified
Äłv is
Ġket uker
gl asses
Äła j
Ġdoubt s
Ġtl ga
Ġhundred s
barang nyaa
Ġlh at
Ġjs js
hr s
Ġslee ved
Äłpr odu
Ġkat anya
Ġcup s
bdbd bd
Ġingredi ent
xh xjx
asuk asuka
Ġcepe tttt
Ġbak a
alhamdul il
Ġade em
Ġbing its
Ġtag s
oe oe
oper s
Ġtd nya
Ġbw ah
ext ra
Ġdoll ar
Ġtreat s
Ġwholes alers
Ġcocok k
Ġhs d
Ġbrac elets
ider atum
Ġwel ded
Ġtur meric
Ġcooper ate
Ġintrodu cing
Ġsed ih
gener ally
Ġpla que
Ġconsult ant
jr jr
Ġtin h
Ġchr ome
Ġweigh ed
Ġscam mer
Ġterimakas iih
abl on
Ġtrima asih
Ġcomplim ent
Ġther es
Ġhood s
llllllllllllllll llllllllllllllll
Ġwalau pon
Ġpengemas annya
Ġbum per
Ġkul ay
vas ive
Ġpor ridge
nnnnnnnnnnnnnnnn nnnnnnnnnnnnnnnn
Ġsof a
Ġburn t
Ġhan cur
Ġtok ony
Ġbers ihin
accept ed
Ġrecomm eded
norm ally
Ġblur ry
okeoke okeoke
endar at
Ġwindow s
Ġsiii p
Ġbasket ball
hel p
Ġneighb ors
tot al
Ġsong s
Ġpuzz le
transport ation
Ġtub es
Ġbj unya
zi pper
Ġmkasi hh
Ġaddi ctive
Ġwlw pun
Ġalhamd lillah
Ġarmp its
Ġinj ury
Ġhasil nya
Ġsnd ri
terimakasi hh
Ġstrugg le
Ġcabin et
Ġoccasion ally
conf used
Ġsach ets
Ġpoly ester
Ġmengecew ak
Ġdisadv antage
Ġdiret ur
pie ce
Ġsme ared
Ġpst i
Ġlad ies
Ġfoc used
Ġalhmd llh
Ġski pper
Ġbubl le
Ġkembali in
nar row
Ġstation ery
Ġpngr mn
Ġimmed ately
Ġmeatball s
Ġaccompany ing
Ġchop sticks
Ġdise ase
natur al
Ġsurviv or
Ġcateg ory
Ġdiak alin
Ġrelation ship
Ġnr awang
asdfghjk lz
udge on
phot os
Ġimposs ible
okokkkoj kkkk
lugg ish
Ġmirr ors
1 50
2 62
3 4
b anyak
c akes
d oll
d ental
e w
e ve
f um
f ive
g j
g ter
h dh
h ns
j ut
j ol
j shs
j aga
k id
k ud
k ins
m and
n v
n od
n sh
o ard
p k
p ap
p ain
p op
p ile
r bu
t al
t ent
t empor
u v
v r
w ad
y h
y t
z k
z ip
Ġ ute
Ġs orted
Ġs blm
Ġs luggish
Ġt our
Ġt tttt
Ġa er
Ġa it
Ġa ks
Ġp orts
Ġth ai
it ively
Ġg f
Ġg es
al as
Ġb wh
Ġb ile
Ġb icy
re comm
Ġo er
Ġo pe
Ġo ul
Ġo int
Ġd ap
Ġd ers
Ġd he
Ġd ual
Ġd item
Ġd bd
Ġd jual
an annya
Ġc il
Ġc ad
Ġc ater
Ġc ured
Ġw aving
Ġm are
Ġm ka
Ġm ari
Ġm mmmm
Ġm suk
Ġn ive
at en
at iin
Ġh ing
as per
as dga
Ġl er
Ġl ok
Ġl ush
Ġl ousy
Ġqu es
Ġqu ilt
Ġre ct
Ġre ve
Ġre cy
eli very
Ġan w
Ġan im
Ġan ter
Ġe yed
ut s
Ġsh apes
le ak
le aders
Ġi ves
Ġi ket
Ġit ies
Ġk ri
Ġk kkkk
Ġy ay
Ġy aaaaaaaaa
Ġy estr
ag anda
Ġsell r
Ġsell ee
Ġst alk
Ġst elah
Ġbe b
Ġbe ud
Ġbe ber
Ġbe times
Ġu f
Ġu ally
Ġu uuuu
Ġu jan
aa ann
aa att
ch in
ch ch
ch ief
ul s
se al
se kali
Äł ro
Äł quality
Äł val
ad ain
Ġsho cks
Ġsu m
Ġsu uu
Ġv d
Ġj m
Ġj ag
Ġj em
Ġj asmine
Ġli m
ak hirnya
and ar
im i
ain er
ain is
Ġrespon t
Ġok ke
ok ia
ur g
ur h
end ala
un gg
un responsive
Ġso s
Ġso ale
Ġr ah
Ġr ant
ust ry
Ġbu ah
pr it
pr op
pr act
bs ns
Ġag us
Ġag gressive
Ġha ist
Ġha bis
Ġcon ve
Ġun ch
Ġthanks giving
ess ent
Ġdo zens
Ġde vi
Ġbl unt
Ġbl udgeon
Ġsa bar
pt ical
per form
per caya
Ġall owing
Ġall size
Ġdi em
Ġdi vid
Ġme i
Ġar k
Ġar s
Ġbo iling
Ġbo iled
li ers
Ġim ple
Ġtp is
Ġco ach
Ġco pper
pet an
Ġce aaaaaa
ake un
he y
he at
Ġsk ip
Ġstu dy
Ġny em
Ġny atu
Ġcomp ressed
Ġfe ast
Ġfri dge
Ġred e
rim akasih
ass is
Ġnew er
Ġper vasive
Ġmer i
Ġcont nts
ny ah
Ġgr oc
Ġclo ver
Ġri b
Ġri ver
Ġsubs cibed
dd agxk
ge her
Ġgi e
be vdvd
Ġter min
Ġab t
Ġab iss
Ġexp anded
Ġexp esive
Ġcust ku
Ġph il
Ġsy e
ud es
Ġapp ar
Ġapp les
ac quired
we we
Ġke g
Ġke jait
ink an
art ments
Ġhi ks
iv el
ung nya
Ġtq sm
di pake
Ġjo a
Ġcor n
Ġsupport ing
ip her
Ġcr ap
Ġoff ic
pen cet
wn s
Ġfold able
Äłs is
Äłs il
Äłs le
item ent
de cor
Ġdah hh
Ġlu ong
ash fjh
Ġng ant
Ġcl one
Ġcl adding
Ġres end
Ġres inya
Ġres eler
Äłp n
Äłp ut
Äłm od
Äłb ing
Äłb es
Äłb ah
Ġsuk aaaaaaaa
Ġsuk aaaaaaaaa
Ġz a
ro x
Ġem ph
Ġcle ver
Ġcle mson
pl en
Äłc al
bu ang
Äłd t
Äłd ig
Ġel s
bel nya
Ġsem alem
Ġdirect ion
po bud
Ġpost pon
Ġpost card
Ġsub ordin
min ated
Ġ7 50
pre sent
Äłt q
Äłt u
Äłt ur
Ġak ing
ns j
Ġson y
Ġmak ai
Ġpen h
ali zed
Ġgan un
Ġpu ppy
asi in
Ġdt oko
hhhhhhhh hhh
jj w
jj z
jj cjc
Ġsol ar
Ġsol omon
ama an
Ġcost ly
Ġbri ck
Ġbal ik
Ġfair ness
Ġrap iih
Ġfoot ed
to ys
Ġsin cer
Ġber go
Ġsn ee
Ġdh il
Ġent r
Ġlag ih
okokokok okok
do g
Ġtu juan
Ġnum b
ph in
Ġimpro per
Äłf o
Ġaw ait
Ġpengiriman nyaa
baik i
Ġend e
Ġdik rim
te ch
iiiiiiii iiii
Ġprev iew
Ġfre eship
mb al
unt led
send ing
over s
mat es
kom sel
Ġver a
Ġver ification
Ġnar o
Äłre st
Äłre kom
Äłl ag
Äłl eng
Ġleng k
Ġsw ift
aph azard
mantap lah
Ġdet rimental
Ġpk o
je ans
Ġbalance s
Ġhusband s
Ġpol o
Ġku yang
Ġabs ence
Ġcu be
aha ja
Ġpush ed
Ġsukak kkk
ib i
some times
sk alaaajan
ada an
Ġju ar
Ġpick y
Ġfil ing
Äłdi b
Ġ19 9
Ġil i
Ġnak ap
Ġcart ridges
ship ment
Ġvers atile
Ġmantapp ppp
trim s
Ġord r
Ġcolle agues
Äłsu pp
mas ks
oll er
overall i
Ġwaist line
Ġpesanan n
Äłse k
Ġimag ination
ssssssssssssssss ssssssss
arri val
Ġadjust ment
jg jg
Ġseason ing
Ġscar ves
Ġtrny t
Äłpr ot
Ġwallet s
20 20
ony m
Ġcent ury
Ġpel angg
Ġslip shod
Ġmax i
Ġmemuas kann
cul ate
Ġsyg nya
Ġfish y
Ġbir u
Ġlumayan lah
bi jik
Ġadem mm
Ġbak alan
Ġrot ation
Ġdece ption
Ġting gal
Ġenjoy able
ef icial
mar ks
Ġtough ened
Ġzip lock
Ġdil igent
Ġhy gi
Ġamin n
Ġsak anya
bes ides
Ġbales nya
Ġaccount ability
Ġish ed
oooooooooooooooo oooooooo
sukak k
Äłle m
Ġactiv ate
imb urse
Ġoper ate
Ġsed uai
Ġjaz aak
exc use
pic ious
Ġou gh
turn ed
Ġkere eeen
Ġtech no
Ġrecord s
Ġpriv acy
repe ated
dhdhd bdbd
zh z
Ġconstr ained
kks ks
Ġpnjual nya
Ġnap icturan
Ġpend ek
Ġkul ang
Ġtick ets
Ġsebel ah
vis it
Ġtam arind
Ġburn ed
nznz nznz
mg anda
Ġbers ahabat
Ġbutter fly
Ġcha os
frag rance
Ġbanan as
Ġdom in
Ġdom estic
Ġmoisturi zer
Ġgoo ood
Ġsablon annya
Ġreco very
Ġstall s
Ġincorrect ly
Ġexception ally
bbbbbbbb bbbbbbbb
medi um
Ġallo cation
Ġdir ap
syuk ak
Ġpnt g
Ġteach ing
Ġfaith ful
Ġconcl uded
tem pered
Ġkill er
sur pr
Ġming gu
Ġbutt ocks
Ġselal uu
okoko jojo
Ġtingkat in
Ġtat too
gat au
Ġnom inal
jjdhd jsjkskd
hur ry
Ġmong ers
Ġpainting s
Ġsignific antly
Ġsukk a
Ġdecre ase
leng th
Ġincon venient
Ġlaunch ed
Ġkho iron
mor bidly
Ġchil ren
Ġsoak ed
Ġsubscri ber
Ġresid ue
cot ton
quest ion
Ġsten cil
Ġpier ced
Ġtote bag
Ġadvis able
Ġcamer as
Ġdefic it
Ġcondit on
gart en
Ġbord irannya
Ġfren ch
Ġartif icial
Ġmicroph one
accur ate
grow th
Ġtgg l
Ġyog urt
Ġsurr ounding
Ġcritic ism
xkhchlxxhddlxgmx mbcch
Ġvine gar
Ġngecil in
Ġaccompan ied
Ġgata unya
Ġfau cet
Ġridd ance
Ġyestr day
Ġgroc ery
0 2
3 50
4 2
a e
b in
b dd
b ound
b ye
b rid
c nt
c elled
d nd
d anger
f ar
f lo
f urn
f ind
f lu
f ollow
f jf
f elt
g on
g own
h ou
h um
h aha
h avent
i able
i ans
j al
j en
j at
j kn
j ected
k ut
k am
l ity
l ication
m om
m art
m aap
n r
n in
n at
n avy
o z
o an
p aint
q jq
r ah
s ist
t n
t is
t dk
u ality
u ble
v n
w ore
w aste
z ic
z ard
Ġs jsjs
Ġt c
Ġt ggu
Ġt gian
Ġa ust
Ġa we
in an
in side
Ġp unya
Ġp unch
Ġp ppp
Ġp aired
Ġth ou
el p
el it
el ing
Ġg bs
Ġg oooooooo
Ġb q
Ġb ast
Ġb ok
Ġb day
Ġb da
Ġb ella
Ġb inding
re h
Ġo red
Ġo wl
is cuous
Ġd ump
Ġd yed
Ġd asternya
an o
Ġc ue
Ġc auti
Ġc ough
Ġc ree
Ġw ww
Ġpr id
ce nd
ing redi
Ġm ast
Ġm ens
or ily
Ġh ill
Ġh id
Ġh gt
Ġh dd
Ġh mp
as li
as sss
as ssssss
Ġl ame
Ġl oun
Ġl any
Ġl awa
Ġis es
om antap
th nk
Ġan ch
Ġto ppp
Ġto ken
Ġto geher
pe h
Ġe eeee
Ġe cer
Ġe cho
ot t
ri r
ri ve
Ġi kan
Ġi dk
Ġit as
Ġk ee
Ġk nya
Ġk aaaa
Ġk aw
Ġk de
Ġk pd
Ġk abarin
Ġy ap
ag ag
ag ang
ast es
ay as
Ġin o
Ġin sufficient
Ġst ere
Ġst age
Ġst ab
Ġst ems
Ġal ity
Ġbe er
Ġbe ach
ome ters
Ġu let
Ġu ll
Ġu ka
Ġu de
Ġsm tp
se wing
Äł fit
Äł wor
Äł set
Äł work
Äł mantapp
Ġor m
ad le
ad idas
Ġthank u
Ġthank ssssssss
ol a
Ġj v
Ġj ut
Ġj iw
Ġli ves
et ly
et ime
and um
ap y
em bali
Ġok kkkkkkkkkkkkkkkkkkkkkkkkkkkkkkkk
ok ke
ok ie
ss j
Ġch ed
Ġch un
Ġch airs
Ġch assis
end ment
Ġr ok
Ġr acing
Ġr umpled
Ġr lly
ere commend
Ġbu ds
bs j
ong nya
all u
all aah
Ġas ic
Ġare n
Ġha b
Ġha o
Ġun safe
ic o
ee eet
Ġac rylic
Ġmy be
Ġcol umn
Ġdo i
Ġdo ain
Ġdo ctor
Ġdis pens
ter baek
ter rific
Ġmat ure
Ġde fe
Ġde gan
Ġfr ost
Ġsa ja
lo ose
app ly
est al
Ġbr ass
Ġbr ings
int ely
Ġall hamdulilah
kk ww
Ġdi bubble
Ġdi zziness
Ġar ise
uu d
sh ell
sh ope
li est
li quid
ab it
ab isan
ab cdefghijklmnopqrstuvwxyz
oo ze
pet nya
Ġcheap ness
Ġmuch h
ig ree
Ġbag o
Ġce aaaaaaaa
Ġce kout
Ġpl ing
Ġpl ates
Ġam s
Ġam ing
Ġpi x
Ġnext ime
ks l
Ġworth less
Ġen qu
Ġper nh
Ġmer on
Ġkak kkk
Ġcont our
Ġgr a
Ġgr an
Ġgr ape
Ġgr aph
Ġsome hat
Ġdes cri
Ġsp inning
Ġsp lay
Ġle bar
Ġle baran
Ġbang ttt
be gin
Ġter ang
Ġter ribly
Ġsend iri
Ġx u
Ġab undant
Ġph enomen
Ġsy antiik
ll er
Ġtw ins
Ġeven though
Ġapp arent
ac in
wh el
Ġmess ges
Ġsuit case
bag gus
Ġmant eb
Ġmant abs
Ġsoft lens
Ġdr ained
Ġke ci
Ġke potong
light ning
own er
Ġcor al
Ġsc ored
Ġfeel ings
au pun
mm s
Ġdifferent ly
Ġcar ried
bagus d
pat ched
Ġsens iivity
Ġcertain ty
Ġbar r
Ġbar rel
Äłs at
Äłs im
Äłs erv
Ġpass es
Ġpass ion
Ġsee ped
up up
Ġng on
Ġng asih
mant aps
mant epp
Ġcl asp
na o
Ġres erved
Äłp k
Äłp ast
Äłp ak
Äłp ost
Äłm el
Äłm eng
Äłb gt
ep it
ep as
00 00
Ġko h
Ġinc rust
bb ly
dddd dd
pl s
pl ug
Ġsamp eny
ener in
Ġ9 6
Ġbot ched
Äłd a
Äłd il
Ġel f
Ġpink y
rece ved
Ġpart ial
Ġbrg ny
Ġterim ksih
Ġcm co
Ġtransport s
ex cept
Ġmk ch
Ġed ited
Ġap h
Ġ7 7
Äłt y
Äłt el
Äłt oo
Ġdisc unt
Ġak ut
Ġak alin
Ġpay s
bl ank
Ġcomm it
wr iting
Ġman ila
bd n
bd ly
hhhhhhhh hhhhh
Äłk om
Ġq a
jj x
Ġsol der
Ġthx x
Ġrem pel
Ġes c
Äłh al
Äłh ad
bar angg
ys y
Ġlang angan
Ġtest im
pppppppp pp
Ġscr ape
Ġkk b
gs gs
bh s
Ġflash y
Äłg m
Ġah an
Ġhead ing
Ġnh iu
Ġnh ieu
Ġaw ang
Ġtap es
Ġrestaur ants
vv s
Ġpake e
dis app
iiiiiiii iiiii
Ġdou bled
band ing
Ġsubsid izing
Ġpers ist
Ġsek li
Ġplay ers
Ġbng eet
Ġpes etas
Ġperson nel
comp ared
Ġexc itement
Ġind ustry
Äłl ong
Ġ15 6
Ġ15 8
Ġmem or
Ġpuas sssss
Ġair port
Ġresponsi veness
Ġlip cream
Ġcur ve
je ie
kwkw k
Ġdu rian
Ġstretch ing
Ġsukak kk
Ġcant ek
Ġsales man
cheap est
pa at
Äłr am
Ġsukaa k
aah ahh
Ġproduk x
Ġcharg ers
Ġru bs
will ing
Ġspill ing
Ġsam aa
Ġgm ana
Ġben eficial
oh an
Ġpaket anya
bat re
Ġfil a
Ġste pped
Äłdi p
Ġbi o
color ful
sel alu
Ġ16 4
Ġbes tt
Ġaam in
Ġkey pad
Ġmarket place
Ġsubmit ting
Ġaddress ed
Ġharg aaa
Ġharg anyaa
Ġur n
Ġir regular
Ġmult ifunction
rb an
Ġqual itas
Ġresp in
Ġcount y
Ġkeren nn
bz dag
okokokokokokokok ok
Ġboard ing
barang nya
with in
with out
Äłch ar
jg z
Ġaut umn
Ġjs jsj
Ġhesit ated
ndnd nd
Ġbur g
Ġvol umes
Ġjum per
bbbb b
Ġcell phone
Ġscent s
fh fgh
hat an
bih in
Ġpag k
Ġmall s
Ġmaa m
mmmmmmmm mmmm
Ġkt anya
Ġterimakasi hhhh
Ġgab akal
Ġmng kn
Ġmng gu
Ġdum at
bi ji
who le
Ġmir ing
Ġbaguus ss
mu at
Ġminim ize
Ġrot ating
Ġax is
favor ite
Ġadhes ion
mar oon
uw u
uw ai
Ġkes ek
ho ok
hd bd
Ġdisin fect
Ġself ie
Ġmantaa pp
Äłbl ack
uy en
kap ok
Ġprior ity
Ġpc x
Ġcand les
md kd
Ġib ng
gd bh
Ġcy cles
Ġtrou bled
comfort abl
asukasuk asuka
Ġorgan ize
Ġtur f
Äłpeng irim
Ġtoler ate
Ġcompar ing
cont act
Ġnat o
Ġbun ny
reg ard
Ġattract ed
Ġmul a
Ġcontribut ions
kdkd kd
Ġkin v
Ġpokokny aaaa
Ġnam ed
Ġflav our
Ġbos qu
Ġterimakas ii
Ġeconom y
Ġpark ed
Ġach illes
Ġshall ow
jeje jeje
Ġkece e
Ġhood ie
Ġcer ah
Ġdevel opers
Ġdeser ved
say s
qw ertyuiop
Ġlat te
Ġstud ent
Ġstud ying
eer ing
Ġkul itas
Ġaz a
Ġcharacter istics
hehehe h
rif ied
Äłcom pl
Ġvent ure
mmmmmmmmmmmmmmmm mmmmmmmmmmmmmmmm
inst ead
Ġpagkak apack
Ġpagkak atahi
Ġclamp s
Ġsquee zed
Ġdish onest
ben ar
Ġdisappe ared
ooooo ood
okk okeid
Ġhade hh
yah hhhh
Ġbatre i
Ġoccas ions
Ġtub ers
alhmd lh
Ġted dy
Ġros ak
tqtqtqtqtqtqtqtq tqtqtqtqtqtqtqtq
Ġbiscu it
Ġopt im
Ġray on
Ġasl ii
Ġsupermarket s
Ġclar ify
Ġkun ing
Ġitch ing
purch ases
Ġrag u
Ġregrett able
Ġapproach ing
Ġtingkat kan
Ġbangeeee et
Ġcorru pt
Ġwak tu
Ġrecogn ized
Ġcabin ets
cour se
Ġswell ing
Ġreserv ations
joj okokkkojkkkk
Ġdocum ents
Ġcoy ne
Ġobt ained
css gf
mach ine
Ġstabil ize
Ġspat ula
ec ution
eas ily
fig ure
Ġcompress ion
langg anan
scent ed
Ġpkk nya
Ġwoo zy
Ġhorizont ally
Ġdipl astik
123 4567890
Ġsouvenir s
Ġlos ers
ffh ghxjj
Ġtriang le
Ġexplod e
Ġpati ents
Ġkinder garten
Ġcoupl ed
Ġqui eter
Ġemboss ed
nsbd skalaaajan
Ġketek uk
Ġnarr owness
Ġcentim eters
Ġdisgu ised
Ġcepee et
262 35
Ġbicy cle
xkhchlxxhddlxgmxmbcch ditkhxjclxitskgxn
Ġcauti ous
Ġincrust ation
6 9
8 2
b ac
c all
c ci
c row
d ly
d ust
d alem
d mh
f one
f av
f ans
g ap
g eez
h w
h dhd
h oh
i ude
j um
j id
k ipun
l aces
m es
m ir
m aint
m jk
m ffaf
n on
p g
p rid
q lo
r er
r od
s id
s ab
s oles
s ablon
t x
t ang
t ouch
t umben
v it
v il
v dfs
w s
w et
x ia
y f
y el
y un
Ġ oduk
Ġs ought
Ġs elipin
Ġs anggat
er ve
Ġt ib
Ġt gu
Ġt angan
Ġa an
Ġa ve
Ġa per
Ġa ik
Ġa ahh
Ġa aaaaaaaaa
Ġp im
Ġp ai
Ġp ny
Ġp isa
Ġp isan
Ġp mbeli
Ġth n
Ġth ui
it z
it ious
el o
el oved
Ġg rew
Ġg ene
al uu
al uation
Ġb p
Ġb v
Ġb anh
re ck
Ġo mb
is ode
Ġd od
Ġd ii
Ġd ite
Ġd ance
Ġd art
Ġd uk
Ġd lam
Ġd dddddddddddddddd
Ġd ddd
an it
an ing
an der
Ġc j
Ġc low
Ġc ass
Ġc kit
Ġw ad
Ġw ake
Ġgood luck
Ġthe best
Ġpr ick
Ġpr uduk
en gin
es ss
Ġm ya
Ġn ab
Ġn asi
Ġn apa
Ġn cl
Ġn asa
Ġn kaka
Ġn alang
Ġn okia
at aran
or al
Ġh en
Ġh sh
Ġh ilt
as inya
Ġl om
Ġl ice
Ġl ur
Ġl aaaa
Ġl ane
ell e
Ġis o
om an
Ġre ck
Ġre pet
th ink
ou der
il alamin
pe king
pe cah
Ġe hhh
ck le
Ġsh ab
ot nya
le ather
ri b
ent ity
Ġi j
Ġi os
Ġk ent
Ġk um
Ġk ong
Ġk oo
Ġk ta
Ġk antong
ag ana
ag ht
Ġseller rr
ast s
Ġst orm
Ġst ik
Ġst ories
Ġst airs
Ġst iap
Ġal k
Ġu red
Ġu uuuuuuuu
Ġfa ding
Ġfa cing
ch ure
ch air
am ental
ul um
Äł er
Äł es
Äł ut
Äł packing
Äł ju
Äł lah
Äł price
Äł cepat
ad ismaya
Ġsu pr
Ġsu nn
Ġv ai
Ġv ape
Ġv agus
Ġj aa
Ġj aga
et ion
ill ing
Ġon y
Ġon time
ak at
ak itas
ah hhh
Ġshi mm
im age
im press
im medi
em br
ur d
un ities
un suitable
Ġwh isk
um ing
Ġr d
Ġr ely
Ġr outer
ir it
Ġbu gs
Ġbu rem
Ġbu ku
Ġserv icing
Ġcom el
Ġcom ent
so ap
ff ic
Ġha ul
Ġcon ver
Ġcon si
Ġcon cave
Ġun k
Ġun y
Ġun pack
Ġun read
Ġun professional
Ġun balanced
use ful
hh x
Ġex fol
Ġex ecution
Ġtr li
Ġdo bel
Ġdis elipin
ter y
Ġmat agal
Ġse bl
Ġsa j
pt ing
lo y
ure t
kk a
kk xhxjx
Ġdi h
Ġdi ab
Ġdi packing
Ġcan celled
Ġar ang
uu i
Ġship awesome
Ġtoo p
sh a
sh arp
li e
li x
Ġim e
ca u
Ġtp ii
Ġpre order
Ġat w
Ġco ordin
Ġpro ve
ig o
ig are
ig ma
Ġad m
ft o
Ġcomfortable and
Ġgreat and
Ġbag ian
ake tnya
Ġpi pel
he el
Ġsk n
Ġhas n
Ġny h
Ġny an
Ġya e
ks ms
Ġfri ction
Ġstandard ized
Ġen akeun
Ġper sp
Ġclo gs
Ġsuper fast
Ġri c
Ġri ding
Ġdes crption
Ġdes crition
Ġdes ideratum
Ġher b
Ġsp a
ge et
su ggest
Ġcut ee
Ġle ading
Ġbang ey
Ġbang eeeeee
Ġter i
Ġter r
ham ed
any ya
Ġph om
nn c
Ġsy udah
Ġsy nc
si f
Ġkn ives
Ġapp liance
ind o
ac le
Ġwrap ing
Ġsoft case
av s
Ġke cewain
ach ute
Ġbanget s
uuuu ul
Ġtq tqtqtq
ish ment
di kirim
Ġte al
Ġsc oop
respon si
Ġcr ank
Ġcr ashed
Ġcr avings
au an
ber ries
Ġcar riage
Ġint est
pat h
Ġgift nya
Ġinst ep
Ġreal nya
Ġreal istic
Ġchat s
Ġchat t
Ġhigh way
Äłs in
Äłs ens
de al
ik h
ik n
ik asih
Ġlu chu
Ġgl are
Ġgl itch
Ġng irim
Ġng rereply
Ġng asal
mant ao
Ġcl ana
Ġhehe hehehehehehehehe
ade quate
Äłp ot
Äłp le
Äłp ass
Äłm k
Äłm ic
Äłm ult
Äłm ark
Äłb ad
Ġsuk aaaaaaaaaaaaaa
Ġz zz
rt i
packing annya
Ġgu i
az a
Ġsamp ainya
Ġmod ified
Äłc re
Äłc ou
Ġact ully
Ġswe ating
sm a
Ġsel ernya
Äłd ri
rece i
Ġbrg x
Ġcard i
Ġsem inggu
Ġunder growth
Ġdown s
Ġrest ored
Ġrest rict
Ġmodel ny
Ġmedi a
min ation
Ġset up
pre d
Ġrev aluation
Äłt ak
Äłt ap
Äłt op
Äłt eng
ns angat
Ġpay ments
Ġcomm unity
Ġ8 7
tq q
Ġprom iscuous
Ġmak in
wr apping
Ġcreat ive
Ġna o
Ġpu bl
Ġpu cet
Ġdt rima
Äłk u
Ġbarang ya
Ġhome made
ten ance
Ġstock nya
Ġq q
Ġtrans fers
Ġbah ann
Ġthx u
ama at
Ġmar gin
Ġbal as
aaaaaaaaaaaaaaaa aa
aaaaaaaaaaaaaaaa aaaaaaa
Ġtem pted
kkkkkkkk k
kkkkkkkk kk
kkkkkkkk kkkkk
ba ag
Ġthankyou uuu
wor st
Ġsin end
Ġsin ii
Äłh y
Ġber hati
Ġsn ooze
cm n
ek nya
ek ung
Ġsl alu
Ġsl ime
shi per
Ġtest s
Ġcour rier
Ġro i
rem ember
kd fs
Ġmil itary
Ġnum erous
ni at
pper ware
Äłf ree
Ġaw l
kak s
Ġses e
Ġpengiriman nnya
Ġend less
Ġsiz able
cepet an
che ese
mit tent
Ġbreak able
ty pe
Ġyah hhhh
spe aker
Ġmurah hhh
Ġuk h
Ġunderstand ably
eeeeeeee e
eeeeeeee eee
Ġprin cess
jf he
jf nf
iny aaa
Ġdet ox
Ġpng en
Ġhuh uu
Ġpol ar
Ġku ya
Ġdu oc
Ġbat tle
Ġrelie f
Ġgam ba
cc c
Ġsukaa ak
Ġequ ation
Ġmal a
dhd fs
rrrr rrr
Ġru bbed
Ġfragrance s
Ġstand art
cr ack
Ġgm bar
peng en
Ġste al
Ġsupp liers
Ġev ident
Ġhahah ahahahah
Ġimprove ments
Äłin v
Ġnak ed
zzzz z
zzzz zz
Ġdit ambahin
sem ua
Ġjug aaaa
fr ame
Ġkey cap
cepat t
Ġhonest y
Ġdin osaur
ses ua
Ġanak q
Ġcorrespond s
Ġsau cer
Ġbed ain
yyyy yy
lip op
Ġinv itation
lam bat
cle ans
Ġperh atiin
Ġwind shield
Ġmen y
Ġir m
Äłse c
Äłse kal
Ġband ana
Ġble ber
ssssssssssssssss ss
Ġseed lings
head phones
Ġshock ing
Ġchar ity
Ġrecomend et
amb il
amb ot
res pect
res ult
dhdh dhd
Ġsekal iiiii
Ġmb aknya
ili pp
Ġ22 0
Ġcir cles
Ġbahan e
Ġ36 0
ces ories
uri ous
Ġfem in
kual iatas
Ġks ks
Ġmix er
Ġms gs
Ġkem arin
Ġsepar ating
Ġlabel ing
Ġprompt ed
Ġbeli in
Ġmus lim
Ġtransm itted
Ġmel on
Ġview ing
bdbd bdbd
nsns nsnns
oc ado
Ġsection s
Ġcepe ttt
Ġtas nya
Ġdib enerin
Ġbak ed
Ġkur ng
alhm dul
kl wl
Ġoffer ing
Ġpkok ny
Ġpenjual ny
Ġkepake k
Ġuni qlo
jc jc
Ġdil apisin
Ġolshop nya
pel in
Ġmantaa app
Ġsust ainable
Ġcy cl
goodgood good
Ġbent uk
gm gm
Ġped estal
Ġprop osed
Ġstop s
Ġens ures
Ġgand oss
Ġded eliver
Ġded icate
iik um
Ġmurce e
Ġdecor ative
wl w
Ġkin ancel
Ġsed ap
Ġsore x
Ġconform ity
Ġcapt ain
Äłim m
Ġnam n
rain ya
Äłsy uk
Ġmash ip
Ġpt ion
Ġlm ayan
Ġnex s
Ġwip ing
Ġther mal
Ġpigment ation
Ġtee imakasih
Ġsesua iii
Ġprepar ations
Ġwang ii
Ġgrand son
Ġcel ebr
ped isinya
bagusbagus bagusbagus
Ġpres ence
jxjx jx
Ġengin eering
Ġdiper hatiin
Ġpum as
yi ap
Ġtend on
Ġsiii ip
Ġtrain ers
jdjdjd kd
Ġvibr ation
Ġfav ourite
mem uaskan
Ġward robe
Ġpreser ve
jad ah
Ġorth otic
Ġply wood
Ġkayan os
drop ship
Ġshar ing
pur ple
Ġcert ification
Ġpokony aaa
Ġcra ft
Ġbor ne
Ġexpend able
doy doy
Ġsyn thetic
Ġcorru pted
lim ited
Ġsar awak
Ġwt f
qwqw qwqw
fold ed
xd ashfjh
Ġbkl n
Ġdecre ased
1111 1111
Ġsmud ged
sty lish
Ġcheer leaders
bagussbagussbagussbaguss bagussbagussbagussbaguss
xg dh
Ġmechan ical
mate ial
rw ffhghxjj
Ġsach et
Ġfingerprint s
Ġlady fame
Ġdiscont in
ogog oh
Ġflor al
Ġflor als
dhf nf
jfg ddagxk
Ġresil ient
Ġjsjsjs jjdhdjsjkskd
Ġeur ope
Ġexpens iveness
Ġmushroom s
Ġkonsumen ku
Ġillust ration
Ġternyat aa
pdh l
gasket s
imag ine
Ġokkkk okkkkk
Ġdro pping
Ġterjangka uu
Ġdikardus in
Ġexerc ising
reli able
sneak ers
Ġuphol stery
consign ee
Ġikh las
Ġcondu ct
Ġperman ent
Ġassoci ated
Ġpadah l
qllq nsbdskalaaajan
elimin ary
Ġresent ful
Ġkalim antan
Ġanticip ated
Ġike a
bevdvd vdvdv
Ġpostpon ed
okokojojo jojokokkkojkkkk
Ġhmp ir
Ġpipel ine
4 8
a ann
b q
c ay
c ir
d ss
d ir
f w
f le
f ter
f dg
g and
g loves
g iao
h ip
h ade
h eld
h indi
h eart
i ya
i ated
i iman
j ar
j ee
k ang
l n
l q
l w
l oud
m us
m nya
m ab
n gin
n kak
o bs
o ise
p q
p ah
p ond
q a
q t
r f
r man
s ak
s ust
s we
s aw
s cal
s umpah
t ur
t ory
t annya
t ys
t nx
u anya
w is
y on
y uh
z ds
z nz
Ġ illah
Ġs ul
Ġs ess
Ġs ory
er k
Ġt ile
Ġt gal
Ġt anyain
Ġa us
Ġa ak
Ġa ther
Ġa int
Ġa aaaaaaaa
in ent
in ous
Ġp iss
Ġp ains
Ġth ab
it ting
el ect
Ġg ig
al h
Ġb wes
Ġb ong
Ġb ie
Ġb ump
Ġb awak
re k
Ġo at
Ġo engiriman
Ġf ed
Ġf et
Ġf ib
Ġf ussy
Ġd ude
Ġd ko
Ġd buka
Ġc v
Ġc one
Ġc ee
Ġc nt
Ġc ik
Ġc ions
Ġw aves
ed s
Ġpr eloved
Ġpr eliminary
ing g
Ġm una
Ġm endarat
Ġn al
Ġn ch
Ġn im
Ġn ets
Ġn iii
Ġn itip
Ġh x
Ġh all
Ġh ind
Ġh hhhhh
Ġl is
Ġl as
Ġl uu
Ġl ac
Ġl mp
ell l
ell ar
Ġis nt
Ġre cover
Ġre imburse
th us
ar ting
ar ming
ou zi
il in
pe er
pe mb
Ġe en
Ġe ie
Ġe cted
ut as
Ġsh ining
us eless
ri k
Ġi w
Ġi ct
Ġi ent
Ġi ch
Ġit h
Ġit i
Ġit o
Ġy ard
Ġy yy
ag nya
ast ikin
Ġin ih
Ġin sider
Ġin imah
Ġst lah
Ġal an
Ġbe ut
Ġbe am
Ġbe auti
aa hhh
Ġfa c
ve il
ch ick
Ġsm aa
Ġsm apai
ul in
se aled
Äł any
Äł fin
Äł na
Äł air
Äł cep
Ġor nam
ad ih
ad mit
ke w
ke ting
ol shop
Ġsu w
Ġsu ff
Ġsu pper
Ġsu me
Ġv y
Ġv as
Ġv ice
Ġj et
Ġj ur
Ġj ee
Ġj ls
Ġj empol
Ġorder ly
Ġli ability
et ed
ap rox
im ut
Ġyou uuuu
Ġok kk
ok y
ok er
ok annya
st an
ur al
ur able
ur nya
ss ed
Ġr ere
Ġr ame
ant ic
ant ial
ant umin
ust ing
id b
Ġlo ver
Ġbu g
so brang
ong rass
Ġas hamed
Ġag ency
Ġun a
Ġun be
Ġun cle
Ġun healthy
ic ious
ic ular
Ġsi pppp
Ġsi plah
Ġdis aya
Ġdis may
Ġmat ured
Ġse pert
Ġde ceptive
Ġfr yer
Ġbl ink
Ġsa crif
Ġche kout
Ġche esy
est y
Ġbr ut
Ġbr fungsi
Ġbr untusan
Ġhis tory
Ġar in
uu pd
sh ine
li f
Ġim pe
Ġhe hhe
thank ss
Ġat as
Ġat ch
fe eding
Ġco als
ab is
ab ras
Ġpro ced
Ġpro fits
ig at
ig ue
Ġhere after
Ġad uh
oun ce
Ġbag t
Ġbag is
Ġce aa
Ġsmall est
Ġpl ans
ng ak
Ġam g
Ġam i
dh ood
dh and
Ġout board
act er
Ġsk id
Ġsk ills
Ġhand ic
Ġhand written
Ġny er
Ġny erep
Ġya uda
Ġcomp liance
Ġcomp artments
Ġrecommend s
Ġ5 1
Ġ5 2
Ġ5 55555555
Ġrep ellent
Ġen aak
Ġper ipher
edi ent
pect ive
dd n
dd s
out side
Ġcondition ing
gg anan
Ġsp f
su w
Ġcut eee
Ġshoe box
be y
be at
Ġter k
cess ions
let e
Ġpa w
Ġab and
Ġfree ong
Ġfree zer
Ġph arma
Ġsec on
amp un
si k
ac cess
bag ian
astic ally
Ġdr unk
Ġfl as
Ġke je
Ġcare flly
Ġhi kes
ush ing
Ġbanget z
Ġgo yang
aw o
aw aited
Ġ10 5
Ġte eny
br ary
Ġcr umbs
Ġcr ane
jd bd
bo le
not ch
ond a
Ġsal ad
Ġsens ation
Ġjd j
Ġreal me
Äłs ome
Ġpass ably
de fin
Ġput us
Ġng l
Ġng n
Ġdefin ite
uk atnya
Ġhu awe
Ġres leting
Ġbg ni
Ġ6 7
Ġpeng giriman
Ġpeng ennya
Äłp ict
Äłm ed
Äłm ad
Äłb h
Äłb ur
Äłb aik
Ġz h
Ġz inc
Ġconf iration
Ġret ain
bb c
Ġsamp aai
Äłc y
Äłc at
Äłc ir
Äłc oll
Ġswe ets
sm g
Ġung u
Äłd ah
Ġel ev
Ġreg ion
Ġda iry
gr untled
Ġterim am
Ġatt end
Ġyaa mpun
onus in
Ġdat ng
Ġdown hill
Ġrest arant
Ġmk in
Ġmk as
min istry
Ġhel m
Ġnever mind
Äłt al
Ġfin eness
Ġdisc red
Ġak in
ns js
Ġ8 6
Ġprom ote
lu am
Ġpen alty
Ġman ually
asi o
cept ible
hhhhhhhh hhhhhh
Ġinter mittent
Äłk m
Äłk ed
Äłk ay
Äłk ere
Ġmur aahh
Ġla ff
Ġcons ul
Ġcons ume
Ġq ng
Ġsever ing
anan a
ton er
Ġwar r
Ġmar sh
Ġform ation
Ġsatisfact orily
kkkkkkkk kkkk
kkkkkkkk kkkkkkk
Ġboss s
Äłh arg
Äłh ahah
con tr
Ġber at
Ġber kualitas
Ġsn ail
Ġmor bdly
Ġdh dhd
Ġsl mat
Ġent ah
pppppppp p
ger i
ger cep
Ġdg ambar
Ġro ots
Ġsmp k
Ġsmp aii
Ġlng gann
iz ers
Äłg ar
Ġtu pperware
Ġins ist
Äłf il
Ġnh ah
Ġnh ug
Ġho ax
Ġfind s
Ġincre ases
tttttttt tt
tttttttt ttttt
Ġbreak age
Ġbreak outs
Ġadmin istrat
Ġstat ements
Ġba ca
Ġpes n
Ġdep ok
Ġdep endable
Ġsli ps
Ġbrown ish
Ġgt uu
Ġ15 9
Ġ15 00
Ġmand atory
Ġgak papa
jsjs jsjsj
Ġsw allow
Ġsw ivel
Ġpad et
Ġnag message
Ġdri es
Ġdri ving
Ġdri vers
Ġpol ice
Ġdu itnya
Ġbat man
Ġye u
Ġgap ap
Ġnight s
Ġgini an
Ġterm urah
Ġkay u
Ġphotograph y
Ġsolid s
ls l
Ġdem olished
cr ative
Ġben ch
Ġfil ms
peng ir
Ġpal er
Ġpal embang
Äłst re
ko q
Ġwid ely
Ġmantab b
Ġdit uker
Ġ16 2
Ġ16 3
box nya
rg dfs
bx jx
Ġdk irim
fl at
Ġbas reng
ob aa
ob ilalamin
Ġpan o
Ġdec line
Ġfore st
Ġdin ing
Ġpak cing
Ġclass ification
Ġdisting uish
Ġcook er
Ġmaint aining
oll en
Ġbangeet ttt
Ġkan cing
Ġur ng
angg anan
Ġcho c
Ġcho ppy
kh imar
Ġstre ets
Ġring an
Ġpet nya
Ġroom y
ett el
fab ulous
Ġbro th
Ġmb ilis
according ly
Äłde f
hr ga
Ġappro val
Ġware hous
sec ut
fh f
jw klwl
bn b
Ġbreat hes
bsbs h
sub mission
Ġtt up
lum aya
Ġlain kali
Ġot w
Ġmus ical
Ġgambar r
Ġview ed
Ġkom en
xh x
Ġee h
Ġdum ting
Ġlap aknya
akak ak
Ġnut upin
Äłth an
ev ity
mu ant
Ġkur angg
Ġvict im
Ġcross ed
Ġwarp nya
Ġlol lipop
Ġhrs nya
Ġdef intely
expect ation
Ġframe work
Ġmeasure ments
Ġsus ah
Ġcli pper
Ġapply ing
Ġhy brid
Ġinf ants
Ġdisin iiii
Ġspray ed
Ġmad ame
Ġluc uk
Ġmalem nya
90 6
Ġwel coming
wal let
Ġwarna x
prom o
Ġmap le
Ġprop ortion
aaaaaaaaa asssssss
Ġterus sss
Ġudah lah
Ġge gara
Ġregard ed
jam in
Äłco st
Ġheadset s
Ġbingit z
Ġrej ek
Ġconform s
Ġcapt ured
Ġske ptical
Ġbaj unyaa
Ġnympe k
kkw kwkw
Ġhn ay
Ġchan el
Ġdig ambar
Ġlm but
Ġther mos
Ġbuck et
Ġful fill
Ġjual annya
Ġphys ically
Ġwalau pn
Ġmill ions
Ġthigh s
Ġfle w
Ġattach ment
mint aan
Ġfu zzy
Ġrecomm ed
Ġkemas anya
kkd kd
Ġbin igay
ayy ayayayay
Ġcg aaa
Ġdish washing
Ġsepat u
Ġren der
Ġgojek nya
Ġspl ints
mem ory
Ġdistribut ed
Ġprim er
Ġuns ure
Ġstru cture
Ġteach er
Ġpuzz ling
Ġdaw n
bahan ny
jt gdbh
Ġrin se
Ġkill ing
Ġtum bl
Ġjud ge
Ġmagn itude
Ġokokokokok okkokeid
abar akallah
cccc cccc
Ġeks petasi
kar na
ckck ck
Ġji wa
Ġmarath ons
Ġmes ki
Ġgad get
Ġshar pen
Ġacceler ate
Ġarrang ed
Ġsupple ments
Ġpil ih
impro ve
impro ved
prot ect
support ive
Ġintern al
Ġrob ust
Ġtengki u
Ġtengki yu
Ġnant ab
Ġsmud ge
Ġrang ing
Ġsex ual
Ġcop ied
Ġemot ion
Ġdisapoint ed
Ġbulk head
Ġbrow se
Ġinvest ment
kualit ass
Ġtemen ku
Ġtempl ates
Ġdiret ly
Ġsucceed ed
Ġisol ated
Ġselet ingnya
Ġkedep anya
khh xdashfjh
enjo yed
Ġsucces fully
barg ains
Ġorde ed
Ġkering et
anggung jawab
lmy an
consum ables
hib ited
Ġsofl ens
Ġsitu ations
Ġjazakallah u
irrah im
pow der
Ġsmoo ther
Ġtrimak sh
breat h
Ġdepos it
Ġdens ity
Ġinse ct
Ġachie ve
Ġreng on
sepat u
Ġvid io
Ġoutward ly
Ġelder ly
Ġberman faat
Ġencaps ulated
Ġjord an
Ġsegel an
Ġceram ic
rali a
Ġfert il
Ġwlo pun
wholes ale
Ġmenge cawakan
muken anya
pock et
Ġsce ne
Ġraz or
Ġpursu ance
Ġabdom en
Ġaller gy
Ġprem ises
Ġdiffe ence
Ġmakass ar
bdbxbx hd
asdfghjklz xcvbnm
asdga weg
urh ase
essent ially
Ġdevi ation
Ġdivid ed
Ġsnee zing
Ġhygi ene
Ġloun ge
Ġlany ard
Ġstere o
Ġmemor andum
bzdag dhfnf
Ġreck less
kdfs ng
Ġhuawe i
0 1
5 00
9 10
a et
a ass
a ayan
b m
b ss
b un
b ff
b hh
b li
b ass
b ange
b ik
b ased
b kl
c b
c able
c ision
d an
d il
d em
d one
d ng
d ud
d ents
e ved
f on
f ord
f our
f illed
g th
g ay
g ng
g ible
g og
h ay
h anger
h ahahahah
h unting
j ack
j un
j ud
j ug
j ilbab
k cewa
l v
l up
m ap
m um
m ouse
m lm
n ce
n ity
n ame
n baik
n hm
o sp
p it
p nya
p ai
p annya
p rime
q whuif
r ad
r avel
r arely
s atur
t f
t us
t ak
t ee
t ng
u q
u ot
u ately
u be
v shs
w ireless
x v
z f
z hs
Ġ eliver
Ġs q
Ġs v
Ġs ah
Ġs ant
er el
er ima
Ġt ally
Ġt rem
Ġt ier
Ġt amb
Ġt ension
Ġt sampai
Ġt ester
Ġa at
Ġa pt
Ġa pl
in for
Ġp ck
Ġp ham
Ġp pl
Ġp mb
Ġp ede
Ġp cking
Ġp vc
Ġth y
Ġth ok
Ġth aks
it ic
it ty
el ve
el ines
Ġg own
Ġg aps
Ġg ained
Ġg unting
Ġg oooood
al ny
Ġb th
Ġb cs
Ġb orrow
Ġb coz
re v
re nd
re sent
Ġo e
Ġo en
Ġo oh
Ġo wing
Ġo ooo
is ins
Ġf d
Ġf en
Ġf ut
Ġd ach
Ġd na
Ġd ari
Ġd jdj
Ġd arn
Ġd foto
an cur
Ġc ay
Ġc st
Ġc rim
Ġc ny
Ġc iv
Ġc ities
Ġc uss
Ġc asio
ed isi
en thusi
es anan
Ġm pe
Ġm ggu
Ġm mmm
Ġm dyo
Ġn ir
Ġn gin
Ġn mr
at ially
or g
or r
or nya
or ange
or gan
Ġh il
Ġh ampe
Ġh orn
Ġh eee
Ġh ilang
Ġh aphazard
Ġl w
Ġl od
Ġl al
Ġl us
Ġl ion
Ġl ee
Ġl est
Ġl ake
Ġl alalalala
Ġis ing
Ġqu asi
Ġre at
Ġre bel
th j
ar ate
il of
Ġan ger
Ġe ve
Ġe et
Ġe he
Ġe ment
ck up
Ġsh d
Ġsh y
Ġsh ay
Ġsh ark
Ġsh ru
ot ine
Ġdelivery the
us er
ent uk
Ġi hh
Ġi red
Ġi iiiiiii
Ġk ast
Ġk bs
Ġk ite
Ġk ash
Ġk irm
Ġk ren
Ġk ats
Ġk aga
Ġy ed
Ġy am
Ġy aaaaaaaaaa
ag ers
Ġin ed
Ġin ess
Ġin valid
Ġin compat
Ġst im
Ġst eep
Ġal u
Ġbe ast
Ġbe ats
Ġu an
Ġu ck
Ġu ju
aa ii
aa ahhh
Ġwith drawn
ch h
ch ina
am ik
am sung
ul i
Äł ed
Äł and
Äł uk
Äł well
Äł love
ke cew
Ġthank k
Ġfast ness
ol s
Ġv m
Ġv om
Ġj c
Ġj ab
ue ue
Ġorder anku
Ġli bby
et qy
ak itnya
im ents
ain in
ok kk
st ic
st up
ur r
ur ur
Ġch ua
Ġch ains
Ġch eeks
Ġso be
um ph
Ġr ul
Ġr ation
Ġr da
Ġr ains
Ġr ats
ere fund
ort ing
Ġlo vel
Ġbu kak
bs is
bs bd
bs bbs
Ġup s
yes ell
Ġas d
Ġas us
Ġas dga
Ġtim er
Ġcon cessions
Ġun settled
ess uks
ic ut
Ġori ii
Ġac cent
Ġtr makasih
ard ed
Ġdis ney
Ġdis covered
ter ol
Ġmat s
aaaa at
Ġde ffect
Ġde odor
Ġshop keeper
Ġsa bi
pt enth
app arently
app ucino
int ell
Ġlong evity
Ġdi pe
Ġdi foto
Ġdi pengemasan
ope k
sh are
sh oul
ca but
ca cd
Ġhe ated
Ġhe hhehe
Ġpre mature
fe w
Ġco al
ite ks
op us
Ġkg a
ab al
ig ence
Ġad i
Ġad y
ai in
Ġce wa
Ġce aaaaaaaaaaaaaaaaaaaaaaaaaaaaaaaa
ng gk
Ġday light
Ġam endment
act ive
Ġover pron
Ġny m
Ġny u
Ġny al
Ġya allah
Ġcomp lied
Ġcomp osition
ks es
ks js
Ġred dish
Ġen a
Ġen e
Ġen light
Ġper ch
Ġkak good
Ġkak maka
ny aaaaa
Ġgr am
Ġgr umble
Ġgr apes
Ġgr ooves
Ġsome time
Ġsuper iors
Ġri es
Ġdes c
Ġsp arse
ge cewakan
su ede
su bhan
Ġbang eeeeeeee
be it
Ġter yata
Ġthem e
Ġpa jama
ist a
ist icated
ist uri
Ġx k
Ġab cdefghijklmnopqrstuvwxyz
ci y
os es
amp ir
si w
Ġeven ly
Ġmant e
Ġmant uuul
Ġsoft ened
Ġsoft ball
we h
we k
Ġke en
Ġke foto
Ġke ingin
Ġke abisan
Ġlah iran
Ġlg ii
Ġhi x
ja uh
Ġdid lm
Ġhad iah
Ġbanget tttttttttttttttttttttttt
aw at
Ġstr okes
Ġstr aght
ie ce
Ġjo ined
Ġjo sssssss
Ġsc oring
Ġhapp ily
alhamdulillah h
ip od
Ġcr ust
Ġcr ab
Ġcr adle
nd bd
Ġdeliver s
jd f
ber kali
bagus a
Ġpe ak
Ġint ends
Ġpoor er
wn w
Ġreal y
und a
Ġbar amg
Äłs en
Äłs ang
Ġpass word
de gan
Ġdah la
Ġlu crative
Ġsee king
Ġmatch a
if ier
ash ati
Ġwrong ly
Ġgl it
Ġgl uing
Ġng es
Ġng om
Ġng aret
Ġng ilangin
Ġdefin ately
uk aaa
uk uret
Ġcl na
Ġhu f
Ġbg itu
Ġpeng ep
Äłm ng
Äłb n
Äłb ed
Äłb en
Äłb as
Äłb ig
Äłb ub
no v
Ġz eng
Ġmin ion
but i
co ff
ro h
packing ny
Ġko yak
Ġgu ava
Ġgu cci
Ġem blem
Ġem pek
Ġem inence
Ġret reat
reen ya
Ġsamp nya
Ġmod ify
Ġni q
Ġni hhh
Ġoke eeeee
Ġoke eeeeee
Äłc ap
Äłc ard
Ġmas king
bu ild
bu bb
sm art
Äłd k
Äłd in
Äłd id
Ġprov ded
bel in
bel ah
gr an
gr ade
Ġcard oard
Ġwal nut
Ġunder shirt
pro cess
ex cess
ex quisite
Ġbook ings
Ġed e
Ġap i
min s
kw ard
Äłt im
Ġdisc olor
ns ive
bl end
Ġmak ny
Ġrefund ing
wr ite
Ġgan yesel
Ġna use
bd bevdvdvdvdv
asi ble
Äłk l
Äłk y
Ġmot ors
Ġmur aaah
Ġwater melon
Ġq o
Ġq wr
Ġhar med
Ġbs bs
Ġthx s
Ġmar keting
Ġbal er
Ġpas sss
Ġform al
aaaaaaaaaaaaaaaa a
kkkkkkkk kkk
Ġty sm
Ġav ocado
Ġes cape
Äłh g
Äłh s
Äłh igh
aman ah
Ġ11 5
ek sp
Ġsl ice
Ġsl id
Ġmakasi hhhhh
Ġrepl acing
Ġmask ernya
Ġbel om
Ġlag gard
Ġass yiap
val u
Ġclear ance
elf on
Ġscr am
Ġang at
Ġma f
Ġma id
Ġma ayos
Ġlng kap
col le
ph ys
Ġah irnya
Ġum pteen
Ġaccept ance
Ġimpro ving
Ġins ol
Äłf un
Ġpar ahhh
Ġpar achute
Ġses ek
Ġses usai
Ġnge chat
Ġnge press
Ġnge jreng
Ġrel uct
Ġdik sh
Ġdraw er
Ġmark ing
Ġmark ers
unt uk
Ġstat ue
ru ff
Ġbn aget
Ġod ds
Ġbng tttt
comfortable and
Ġsil a
Ġmag nda
Ġsli pping
cu ci
cu cu
Ġkok k
Äłre sp
Ġprot est
Ġky aknya
Ġbus es
Äłl g
Ġmis cast
Ġlam bt
Ġdet ach
Ġpng rimn
par ah
Ġpower ing
Ġcur ry
je ke
man ufact
Äłw a
Ġpol os
gggg gg
gggg ggg
Ġant ap
Ġdu it
satisf action
Ġaj ha
Ġpush pin
Ġbener in
Ġlum aya
Ġlum ayaan
Ġkm na
Ġtom ato
Ġcas an
some one
Ġmal u
Ġmal ady
Ġmal obat
Ġsampe eee
Ġproduk baik
load ed
aaaaaa for
Ġwish ing
Ġstand by
jx kkxhxjx
Ġsun ny
Ġnk alagay
Ġner ima
oooooooo oo
Ġkual ita
top s
Ġfil ed
Ġfil ters
Ġill umin
ker chief
Ġpast ing
Ġbi oa
Äłst ri
Ġ19 0
Ġnak akas
gu ard
Ġ16 9
box ed
Ġpn jang
Ġpn ghnt
bx b
Ġhur ting
fl ake
wrap nya
Ġmantapp pppp
trim ksih
Ġ201 4
Ġpan els
fr ust
Ġbai kkkkk
Ġauth or
me jo
Ġvis ited
Äłsu c
nf xkhchlxxhddlxgmxmbcchditkhxjclxitskgxn
Ġclass es
mas an
Ġlist ing
Ġpound ing
Ġexpir ing
Ġkan ak
Ġpul aaa
Ġpul ses
Ġdrop lets
cer ies
Ġperh antaran
wa jah
str ap
Ġhol ster
Ġstre ch
Ġmom s
hhe h
hhe hee
Äłv i
Ġket ipu
Ġket arik
Ġcontr action
Äła bs
Ġcal ar
hehehehe hehe
ede h
Ġsaw tell
Ġbro chure
Ġwonder ed
Ġ22 5
ndnd nnd
Ġspecial s
Ġdoor step
Ġhrg nya
fh ji
jw b
20 1
Ġfem ales
hat ikan
Ġport ability
kal ik
esh op
Äłke m
Ġprofit able
Ġmain stay
Ġmain tenance
Ġic ally
Ġgab e
Ġtow er
Ġkas iihh
sle ep
Ġarm our
Ġwed ge
Ġtas x
Ġnut ri
Ġkar n
Ġkar ma
Ġuh u
Äłcon st
Ġdib onusin
shsh sh
nh khh
Äłsp r
Ġmail s
Ġroad s
Ġmultip lication
Ġstri de
Ġstri king
Ġstri ps
Ġsampa iiiii
Ġapart ment
Ġmi xture
ige on
Ġpenjual x
olog ical
Ġsang ay
Ġdownload ed
jz jz
kus an
Ġprof ession
however they
Ġpun cture
Ġchest nut
Ġsii pp
Ġec pat
Äład v
Ġflower ing
Ġbales an
Ġreseller nya
Ġdestro y
Ġmnt app
Ġbd an
Ġsemu aaaa
Ġsemu anya
Ġgrab e
Ġrig orous
tw ice
terimakasih terimakasih
qq q
Ġtur unin
Ġpop sock
Ġain ing
Ġaffect ing
Ġped igree
Ġgand aaaa
Ġdeng am
Ġjoss h
pan as
wl qllqnsbdskalaaajan
tran sp
Ġbaguu uss
fs bfj
fs rwffhghxjj
Ġmesen nya
Ġperfor ation
Äłpro v
dat ang
Ġabras ive
Ġtie p
Ġgrim o
Ġexceed ing
Ġbuck ling
du per
jl k
Ġcer uti
Ġrobe k
Ġham ster
ihih ihih
Ġkuri rnya
Ġprofessional ism
inc re
sequ ent
Ġtyp ing
Ġpw ede
Ġgrand ma
fg zds
Ġbeat en
Ġmud der
Ġdike terangan
Ġsemog aaa
Ġnakak adisappoint
Ġditer im
Ġhan oi
Äłmu ch
Ġcel ananya
Ġneglig ence
Ġdrag ged
Ġgil aa
sek ian
Ġhtt p
Ġsha ft
Ġrab b
Ġbaguuus ssss
kkd kdkd
Ġseneng nya
jahit anya
fi ber
Ġore der
Ġadmit tedly
Ġevalu ated
hel m
Ġkeli pet
Ġlaw s
Ġsearch ing
bol ong
Ġspl end
Äłph oto
Äłcont in
Ġknock ed
Ġhade uh
Ġsto pping
syuk aa
bas ic
Ġpreser v
gggggggggggggggg gggggggg
Ġchi pping
Äłsem u
Ġkerdus nya
Ġbangettttttttt t
Ġray s
Ġprt ama
Ġfacil ities
gaa da
Ġrag ged
Ġdiscuss ion
Ġakhir nyaa
29 29
Ġnotif ications
Ġdeskripsi produk
Ġusah anya
dur ation
Ġbird s
roph obic
rofo am
Ġbelanj aa
Ġdab est
Ġkim chi
5555555555555555 5555555555555555
Ġvietnam ese
pem giriman
Ġcompon ent
Ġmaka ci
Ġ123 4567890
Ġpropos es
Ġrecogn ize
whe ther
Ġokel ahh
Ġkwalitas nya
apr il
Ġmechan ism
acc oding
Ġsyekal ii
Ġdeliv ry
joj okokojojojojokokkkojkkkk
Ġgc q
scr atch
cup s
Ġoce an
Ġupload ed
Ġmov ies
Ġhih ihi
Ġont ario
ttqtq ttq
Ġgear box
ffaf sbd
communic ate
Ġapal gi
Ġpenet rate
cra ft
Ġdecl ined
Ġpket an
Ġnutr ition
siz es
Ġcond ens
Ġpoke mon
Ġdetermin ed
bint ang
Ġexclus ive
ksksks bdbxbxhd
dab est
Ġgores nya
Äłfri end
Ġpelayan annya
Ġcoinc idence
Ġhospit able
assem bled
wid th
ullo h
Ġcredi bility
pengirm an
incredi bly
Ġcockro aches
Ġkhay ran
oar jo
Ġkedi ri
grab e
Ġtroubles ome
addition al
Ġsehar us
Ġberp ungsi
Ġanim als
Ġrede em
Ġtermin al
Ġawait ing
jgjg jfgddagxk
zic ouzi
Ġenqu iries
Ġphenomen on
bac co
mffaf dmh
prid uk
Ġomb re
Ġclow n
Ġnasi b
Ġfemin ine
Ġlmp u
uupd ate
Ġadministrat or
Ġdiscolor ation
Ġbioa qua
1 20
4 9
4 90
5 3
6 4
7 9
8 1
8 9
a js
a ign
c it
c is
c ion
c ure
c lip
c ats
c repe
d m
d im
d pt
d eng
d os
d ro
d elay
e ous
f ing
f ah
f ung
f cssgf
g ad
g ang
g oo
g si
g iv
g ila
h et
h one
h ide
j ing
j ja
j jdjd
j ump
k ur
k un
k anya
l aa
l au
l ots
l icate
m ou
m id
m ong
m sh
m ight
m ace
m dulillah
m ksi
n u
n as
n ap
n dh
n di
o le
o ya
o sh
p is
p il
p ill
p rim
r ough
r ab
r uding
s iih
s dikit
s bnrnya
t os
t ape
u blic
v av
v ention
w ich
w ahh
w ala
x a
x e
x o
y j
Ġ ility
Ġs its
Ġs gs
Ġs sssss
Ġs blh
Ġs letingnya
Ġt ass
Ġt az
Ġt aper
Ġt ones
Ġt nks
Ġt ambah
Ġt abarakallah
Ġa wes
Ġa aah
Ġa aaaaaaaaaaaa
Ġp ell
Ġp ent
Ġp ate
Ġp are
Ġp oduk
Ġth i
Ġth om
it ated
Ġg ah
Ġg ga
Ġg gg
Ġg any
Ġg br
Ġg ging
Ġg nda
Ġg inal
al m
al ain
al inya
al thugh
Ġb im
Ġb ree
Ġb ery
Ġb ones
Ġb gini
re mo
Ġo ve
Ġo ven
Ġo mm
Ġo val
Ġo cr
is er
is ters
Ġf c
Ġf ears
Ġf ence
Ġd v
Ġd ion
Ġd ks
Ġd ub
Ġd res
Ġd vd
Ġd dddddddddddddddddddddddddddddddd
Ġd apt
ver u
an ess
an no
an nnn
Ġc ct
Ġc ali
Ġc wok
Ġw la
Ġw att
Ġthe ses
ct ors
en in
en ne
Ġm ack
Ġm uu
Ġm aaa
Ġm az
Ġm aah
on et
Ġn l
Ġn ai
Ġn au
Ġn ama
Ġn ma
at as
at ang
at ry
or se
or iman
Ġh j
Ġh l
Ġh om
Ġh ue
Ġh ord
Ġh hehe
Ġh cm
Ġh dhd
Ġh hhhhhh
Ġh ampir
as l
Ġl k
Ġl bs
Ġl ord
Ġl age
Ġl unt
Ġl oka
qu oise
Ġis ion
Ġis ang
om y
Ġre act
th aste
th ailand
Ġe aster
Ġe hehehe
Ġsh p
Ġsh aa
Ġsh ari
Ġsh ared
Ġsh aken
ot ing
ot as
le tt
le bih
ri h
ent ea
Ġand ed
Ġi or
Ġi ik
Ġi rt
Ġi ps
Ġi ra
Ġk le
Ġk wn
Ġy upi
ag an
ag le
ag uin
ag amit
ag onal
ay ar
Ġin fect
Ġin dis
Ġst il
Ġst ok
Ġprice goods
Ġal le
Ġal igned
Ġal beit
Ġbe k
Ġbe et
Ġbe tt
ome ter
Ġu ai
ank ly
aa akk
Ġwith stand
Ġwith ered
Ġwith draw
ch r
ch us
am ide
Ġsm al
Ġsm akin
Ġsm inggu
ul is
ul ang
Äł ble
Äł ah
Äł bs
Äł nice
Äł av
Äł art
Äł hehe
Äł mantul
Äł origin
Ġor ing
ad ine
ad eliver
ke cepatan
Ġface s
ol ics
sp at
sp ace
Ġv l
Ġv aries
Ġv ague
Ġj b
Ġj ng
Ġj ung
Ġj oos
Ġli g
Ġli mp
Ġon kir
ak kkk
ah ed
Ġyou uuuuuuuuuuuu
em a
em an
Ġrespon n
Ġrespon ny
Ġok ed
Ġok kkkkkkkkkkkkkkkk
Ġne got
st at
st ri
st ain
st aff
st iff
Ġch ing
Ġch es
Ġch ac
Ġch urch
Ġch aff
un od
un nya
un os
un ik
un akan
ther n
Ġso y
Ġr amp
Ġr gb
Ġr ods
ust omed
ir u
ir th
ir ap
tt ps
tt ier
id ak
id ious
id uous
Ġlo i
Ġlo p
Ġlo ans
Ġlo cks
pr t
pr inci
ang ga
ang anku
Ġnice e
ff ron
Ġag in
Ġcon cept
Ġcon secut
Ġun e
Ġun willing
Ġun limited
ess age
ic ara
ee h
com ended
Ġsi k
hh r
Ġex sp
Ġtr k
Ġtr apped
Ġdo ank
Ġdis i
Ġdis patched
Ġse hat
ick s
Ġfr ames
Ġbl o
Ġbl ast
Ġbl ower
Ġsa udi
ii kk
lo ving
Ġche wing
app reci
Ġwr y
Ġbr oss
Ġbr ackets
Ġdi ed
Ġdi jual
Ġdi pesan
ate board
Ġme h
uu uus
Ġbo z
Ġbo gus
Ġship out
Ġmu gs
Ġmu atnya
li it
aut om
fe c
Ġco ats
Ġpo o
Ġpo sh
Ġpo pped
atisf actory
ab c
Ġmuch i
Ġsatisf ctory
Ġany aa
ai able
Ġbag os
Ġneat er
Ġce k
Ġce par
ih ihi
Ġpl ot
Ġpl um
Ġpl anggan
Ġlight en
ng et
Ġam d
Ġif ied
eng kap
are p
Ġout ernya
Ġover l
he ck
Ġsk en
Ġsk arang
Ġhand kerchief
Ġya w
Ġcomp ose
ous ly
Ġrep ent
Ġrep ay
Ġrep aid
Ġrep urhase
Ġbit es
Ġbit ten
Ġmer ry
ny ta
Ġgr oom
Ġgr asp
Ġless ons
pect ed
Ġri ed
Ġri bet
Ġcondition ed
gg e
gg s
Ġsp am
Ġsp ike
su dh
Ġskin s
pack ets
pack ignya
be el
Ġter li
urn uhun
Ġwe alth
Ġsaf i
Ġpa o
Ġx j
Ġx n
Ġx p
Ġx in
Ġab i
Ġab ayas
Ġdiff cult
Ġcust amer
Ġph ilipp
our ing
Ġsy antikk
Ġget away
Ġpurch sing
Ġkn a
ud y
Ġjg an
Ġjg ak
wh s
bag g
Ġsteady steady
Ġdr umah
Ġdr astically
we igh
ka os
Ġke adaan
Ġple asing
light er
art i
Ġhi jau
ja bs
iv ated
ung an
Ġhad uh
Ġbad ge
Ġmo g
Ġmo cca
Ġstr ain
Ġhands free
di kirain
Ġhow l
iiii ih
br ous
br iliant
Ġsc anned
ip al
Ġcr u
Ġcr oc
nd kd
ount ain
Ġsal able
pen gh
pen yok
Ġjd jdjd
und y
Äłs li
de f
de g
Ġdah al
Ġperfect ion
eeee en
Ġng r
Ġng order
Ġng deliver
Ġng adain
Ġthink ers
Ġdefin ition
Ġdefin itive
uk u
Ġres ulting
Ġ6 6
Ġcou zicouzi
Äłp s
Äłp ul
Äłp esen
Äłm b
Äłm aa
Äłm akasi
Äłm urah
Äłb is
Ġsuk i
Ġtop ic
Ġtop up
Ġz one
Ġlet oy
Ġrecom ent
Ġrecom ded
Ġko le
Ġem ak
Ġcle ft
Ġinc ons
pl ant
super fast
Äłc p
Äłc ant
Äłc our
Ġphoto book
Ġmas alah
Ġmas yaallah
sm ua
Ġung lued
Ġel et
Ġpart ly
Ġda an
Ġcard io
Ġatt iude
Ġwal ker
Ġhard ness
pro vid
ex ceed
Ġsub standard
Ġsub sequent
Ġbook mark
Ġmk apal
Ġed uc
Ġap es
Ġap aa
Ġap ric
kw alitas
uh in
Ġ7 2
Ġtight ness
pre fer
Ġak h
Ġak es
Ġak asi
ns ks
Ġpay ed
Ġmak sim
Ġsur vey
ever a
Ġpen ipu
Ġgan n
Ġna iship
Ġman ic
bd kd
Ġmust y
hhhhhhhh hhhhhhh
Ġinter face
Äłk es
Äłk asi
Ġcre pe
Ġcush ining
Ġcons ent
ner awang
Ġstock ing
Ġstock pile
Ġhar am
king nya
fit ted
Ġmar aming
Ġbal ing
Ġpas o
Ġpas ss
Ġpas min
Ġrem arks
Ġer aser
Ġreview ers
to e
wor se
Ġlow ered
ssssssss s
Äłh um
bar akallah
Ġber ubah
Ġje w
Ġsn ake
Ġsn ails
Ġlang anan
Ġrepl en
Ġtest y
Ġent ly
Ġbel ts
Ġbel ittle
Ġbel oved
pppppppp pppp
pppppppp ppppp
Ġglass nya
for got
Ġsmp ainya
Ġma o
rem ind
rem ote
Ġweight s
Äłg and
Äłg em
ye ayy
vel ess
Ġsound ed
Ġah ah
Ġum ptenth
Ġhead aches
Äłf re
Äłf lo
Ġconsider ably
Ġtext ile
Ġpar ag
ors es
Ġend ure
Ġrel oad
Ġcorrect ion
te a
kn ow
Ġdong ker
Ġker os
Ġker opi
Ġmark er
af ie
iii hhh
dddddddd ddddddd
Äłn ar
Äłn ut
Ġod e
Ġbott led
Ġincl ined
Ġmag order
Ġver mic
cu co
mmmm m
Äłre commend
has il
Ġind ustri
Äłl in
sg sh
Ġmah h
Ġmem o
Ġmem br
Ġimport s
Ġleng thy
ayan in
Ġmis car
Ġmis cell
Ġlam m
Ġlam in
Ġair s
sho el
Ġsw ollen
aph il
Ġdet erg
Ġharga x
aaaaa at
je ck
man irrahim
speed y
gk ir
Ġku cing
Ġant aran
Ġbat a
Ġgam as
Ġgam br
Ġbh gian
Ġkm n
Ġgap ing
Ġsukaa kk
Ġcas hew
Ġwatch ed
ump ung
Ġru le
Ġaman nnn
Ġadvert ise
Ġbrush ed
Ġlin ens
Ġsun light
Ġsun set
Ġspill age
Ġpaket ny
bang us
Ġinde finitely
Ġinde pend
ser um
Ġnyamp ainya
Äłdi ff
Ġ13 5
Ġlid s
Ġgar ments
Ġbany k
Ġbany aaak
Äłst u
Ġsign ed
sel er
Ġconsum ed
eee er
stick er
stick ers
Ġopport unities
Ġwin ner
Ġdk asi
Ġbes ttt
Ġkayak ing
Ġdec ade
Ġ14 4
hhhhhhhhhhhhhhhh hhhh
me as
Ġfore head
Ġdin ner
Ġbed aa
yyyy yyy
Ġtong s
Ġbrng ny
Ġra ft
Ġnd nd
Ġfigure d
Ġorigin alll
Ġaddress es
Ġbanyak kkk
Ġbul ging
ging nya
wa x
jh j
jh gf
jh khhxdashfjh
Ġlem ongrass
pak a
pak enya
pak sa
can vas
car pet
Äłv ari
recommend ations
Ġket ch
gl omer
amb i
amb les
ett es
perfect ly
Ġsurv ved
Ġkualitas ny
bz nz
bz vz
Ġay o
Ġwonder fully
hari an
Äłch o
Äłde fin
jg f
jg vdfs
Ġmini ature
Ġkek irim
Ġbahan nyaa
Ġappro ve
Ġkw kw
bbbb bb
uri r
Ġsll er
Ġ17 5
mak er
Äłsh ort
bn r
bn ant
Ġpouch nya
Ġcup board
Äłke ce
lum ayaan
Ġpel astik
Ġms alah
Ġkem bal
Ġpull ing
Ġliquid nya
Ġglad den
Ġton ic
Ġmain land
Ġtel komsel
Ġmus cle
Ġmus lin
Ġcomb ine
Ġmel ar
Ġjait anya
Ġterimakasi hhhhhhhhhh
Ġappreci ation
Ġkom p
Ġbol ster
jdj dd
xh xh
anj ur
Ġuh uy
Äłcon n
Ġfirm er
Ġbak all
Ġhor ror
Ġhor rified
Ġcontrol led
Ġti ada
kx j
Ġdef end
Ġdece ive
kl w
look ed
Ġvi ettel
tqtqtqtq tqtqtq
dt ng
Ġkain nya
Ġpant esan
uw ag
Ġtough ness
also the
Ġdic obaa
Ġbubblewrap nya
Ġsus picious
Ġdil apak
mur ce
Ġsii hh
Äład d
Ġsak ing
Ġpkp b
requ ested
Ġmantaa bb
Ġsust ain
Ġaccount s
Ġmoder ation
Ġsemu any
Ġsemu anyaa
Ġcy lin
ji w
Ġpump ing
key board
Ġast ic
prom ot
Ġtur tle
Ġpop ulation
Äłpeng iriman
Ġtoler ated
Ġdissapoint ing
Ġdisapp inting
Ġbene ath
Ġion al
Ġoper ating
Äłex pl
Äłpl ay
Ġawet tt
Ġenak kk
Ġbagusssss sss
jfjf jfjf
Ġloc ally
Ġcapt ions
Ġcob aa
Ġfund amental
Äłim p
Ġocc urs
appe ar
Ġden ied
Ġpt g
jdjdjdjd jdj
Ġintegr ated
sim ply
Ġbother ed
Ġbangeeet ttt
Ġelectric al
Ġtang ent
Ġbner an
Ġadap tor
Ġkecew aaaa
Ġalhm dulilah
Ġwarn anyaa
Ġbias anya
Ġprepar ing
okee okee
Ġpw ngiriman
Ġloos ened
Ġgrand children
Ġsting ing
Ġflu ores
hir obilalamin
Ġdun no
post age
alk hamdulillah
Ġnan o
Ġtam bh
Ġbangettttt ttt
Ġcel ana
Ġremind ed
feel ing
Ġdrag ging
want ed
Ġgil er
Ġgil ak
Ġbay i
blue tooth
Ġrecomm anded
bagusbagus bagus
Ġtut u
Ġari rang
Ġpres ident
frag ile
Ġsha ver
Ġprest o
ahi ya
inst ant
Ġbin der
Ġsuck ed
Ġwhit eness
sau cony
Ġflour ish
Ġinflu x
Ġmim i
bebe bdbevdvdvdvdv
Ġvo al
Ġpron ate
Ġdistribut or
Ġdir um
Ġcoun ting
need less
bas ically
makas iih
inter est
Ġspo ilt
Ġmeticulous ly
Ġjad ii
Ġokokokokokokokokok okokokokokokok
Ġtrick y
Ġdaw et
Ġnewsp apers
Ġconcl ude
Ġcoup les
Ġreflect s
Ġbreast feeding
Ġgri pe
Ġgri ppy
Ġokokokokok okokoko
Ġkilo gram
wang i
Ġeks pekt
Äłterim akas
Ġmksi hh
jait an
Ġpom pom
Ġaddi ction
asukasukasukasuk asukasukasukasuk
Ġasl inya
Ġmes kipun
Ġupgr aded
Ġpap aya
Ġkre se
owow owow
Ġveget able
sli gtly
Ġcert if
Ġbolong nya
Ġpret entious
assalam u
Ġakhir ny
Ġmik ir
Ġnom ernya
Ġsmok ing
Ġorch id
Ġster il
Ġjl n
Ġsoph isticated
engg ol
Ġcorru ption
Ġht m
Ġjog ja
arom a
Ġrug i
ooooooo ood
zzzzzzzzzzzzzzzz zzzzzzzz
Ġstrugg led
Ġgard ening
Ġcardig annya
Ġfol der
Ġinvest ig
Ġmut ually
Ġyi eld
Ġchil dhood
Ġdisconn ect
coo per
pillow s
ompl en
Ġinfl atable
Ġlif etime
pengemas anya
Ġhih ii
Ġjim at
Ġspat unya
Ġsemp urn
Ġsemp urna
Ġpngr man
Ġght k
hhehehehehe he
bnt u
Ġhorizont al
activ ate
Ġresil ience
Ġjatoh nya
incl uding
kec ill
Ġgall on
jljj tys
proper ly
Ġexclus ively
Ġpup pet
rig id
Ġchap ter
neg lig
Ġscatter ings
Ġsidewal k
Ġsidewal ks
Ġfrees ize
Ġmisunder standing
Ġbout ique
Ġdash ing
Ġidi ot
Ġconvers ation
Ġpharm acy
serious ly
Ġforecast s
jok erto
Ġstith ing
Ġcomplex ion
Ġsque ak
Ġoren s
spark les
Ġris ky
bsi bs
azz ling
Ġditingkat in
Ġeyeli d
405739713 405739713
Ġtuspin nya
Ġdelight ed
Ġyouuuuuuuuuuuuuuuuu uuu
Ġrick ety
Ġphu ket
chg jgjgjfgddagxk
Ġokoko okok
Ġdisg usting
tempor ary
Ġappar el
Ġende avor
Ġaust ralia
Ġcree k
ingredi ents
Ġanch or
Ġjut ek
Ġbarr els
Ġtestim ony
fhfgh fhji
Ġkinv ara
jum bo
Ġshab by
Ġconsi ered
jfhe fsbfj
Ġdiscontin ued
fdg dhdfs
Ġunbe atable
rgdfs fsrwffhghxjj
jwklwl wlqllqnsbdskalaaajan
aaaaaaaaaasssssss aaaaaaaaaaaaaaaaaaaaaaa
nhm fcssgf
Ġdeodor ant
mffafdmh bzdagdhfnf
3 1
4 50
7 3
8 6
a ci
a att
b ks
b ric
b jd
b ner
b fh
c ity
c ck
c ya
c int
c ope
c uu
c os
c ount
c pat
c ug
c anti
c andy
d gh
d ang
d ug
d kd
d ata
d eter
d aughter
e yes
e he
f ade
f uck
g ue
h l
h oney
h app
i very
i est
j b
j et
j gg
j bb
j dhdh
j epit
k b
k im
k dd
k os
k uk
k ira
k ardus
l ai
l astic
l ater
l arg
l bh
l arger
m kk
m izuno
n w
n ss
n js
n asty
o in
p us
p ure
p li
p ha
p kok
q v
q is
r h
r odu
r all
r ga
r ist
r ose
r oof
r andom
s v
s ou
s ama
s ump
s dk
s carf
s llu
t it
t ank
t ok
t alk
u ity
v an
v dh
v ide
v ac
w oo
w ife
x ie
x js
x ix
x nx
y ear
y nya
y ng
y ahh
z u
z el
z es
z bs
z jx
z ero
Ġ ody
Ġs ush
Ġs jd
Ġs gini
Ġt ies
Ġt bel
Ġt ask
Ġt ahun
Ġa ving
Ġa inya
Ġa aaaaaaaaaa
Ġa aaaaaaaaaaa
Ġa lem
in ct
in sh
Ġp q
Ġp us
Ġp ah
Ġp ist
Ġp amp
Ġp ods
Ġp igeon
Ġth s
Ġth ic
Ġth reat
it uted
el ed
el es
el em
el amat
Ġg ay
Ġg ion
Ġg nt
Ġg mb
Ġg gu
Ġg iman
Ġg ggg
al on
Ġb om
Ġb ain
Ġb ca
Ġb ake
re f
re jection
Ġo ol
Ġo ok
Ġo les
Ġf jf
Ġd or
Ġd ksih
Ġd aah
Ġd mn
Ġd andy
Ġd azzling
ver ised
an z
an nt
an cies
Ġc ga
Ġc aaa
Ġc ire
Ġc ted
Ġw b
Ġw it
Ġw ol
Ġw ahh
Ġgood fast
Ġpr i
Ġpr n
ce a
ce i
ing an
Ġm ice
Ġm ase
Ġm ny
Ġm ie
Ġm dah
Ġm iz
Ġm aps
Ġm umpung
on o
on ing
on line
Ġn p
Ġn th
Ġn gh
Ġn age
Ġn ers
Ġn ash
Ġn to
at tract
Ġh us
Ġh ti
Ġh onda
as is
as ya
as ic
as ik
as sssss
Ġl c
Ġl asih
Ġl aced
Ġl sau
Ġl ouder
qu al
Ġis an
Ġqu an
Ġqu aaaaaaaaaasssssssaaaaaaaaaaaaaaaaaaaaaaa
Ġproduct nya
Ġquality very
Ġquality the
Ġquality well
Ġre nd
Ġre new
Ġre submitted
Ġre wad
th nx
th anx
ar ab
ou ble
ou fl
il h
il o
il es
il ai
Ġan ku
Ġto ast
Ġto tt
pe es
pe et
pe ace
Ġe o
Ġe ed
Ġe ction
Ġe eeeee
Ġdeli ious
Ġsh u
Ġsh ri
Ġsh ambles
ot on
ot ive
Ġdelivery good
le ep
le gging
ri ck
Ġi gh
Ġi ally
Ġi kin
Ġk ag
Ġk ue
Ġk ard
Ġk rim
Ġk ont
Ġk ua
Ġk ute
Ġk dk
Ġk cepatan
Ġk aret
Ġy t
Ġy on
Ġy ab
Ġy ayay
Ġy yyy
ag ay
Ġseller x
Ġseller ny
Ġin ver
Ġin ev
Ġin pods
Ġst ood
Ġal um
Ġal esan
Ġbe be
Ġbe te
Ġu ed
Ġu es
Ġu ch
ank an
aa pp
Ġfa i
Ġfa re
Ġfa des
ch et
am age
ul ah
ul ist
Ġspe ckle
se x
se em
se mo
se mog
Äł end
Äł ir
Äł product
Äł act
Äł her
Äł ting
Äł fore
Äł js
Äł form
Äł cent
Äł ye
Äł ra
Äł mantap
Äł ship
Äł care
Äł expect
Äł comfort
gh ly
Ġor o
ad ong
ad hes
Ġsho ppers
good ly
ol ley
Ġsu e
Ġsu ma
sp l
sp oon
Ġv int
Ġv ials
Ġv xgdh
Ġj ing
Ġj en
Ġj eng
Ġj reng
Ġj aket
et in
ow o
ow sy
ak x
ak ers
ak ban
im m
Ġval u
st ed
st ated
ur uh
ss o
Ġch on
Ġch af
Ġch ances
Ġvalue product
un it
un known
un believably
Ġso aking
Ġwh ip
Ġwh iff
um i
um m
um ib
Ġr x
Ġr ank
Ġr rrrrrrrr
ust rophobic
ort ional
Ġlo o
Ġbu let
Ġbu cks
ang anya
ang annya
Ġcom for
bs jsjs
all ic
all ure
all hamdulilah
Ġas ing
Ġas eli
ff mjk
Ġwell and
Ġag al
Ġag ile
Ġha iz
Ġha bit
Ġcon vert
Ġheart beat
Ġun satisfied
Ġun subscribe
Ġun improved
Ġun ravel
ess ential
ic ly
ee ppp
Ġsi ep
Ġac ed
Ġac ing
hh u
hh w
Ġtr z
Ġdo ong
Ġdo orm
Ġdis p
Ġdis pose
Ġdis cover
Ġdis impen
Ġdis respect
ter a
ter baikk
Ġmat ibay
Ġse ka
Ġde w
Ġfr m
Ġfr ing
Ġbl j
Ġbl ah
ord ination
Ġsa pe
Ġsa ffron
pt us
pt ic
ii riman
app pp
Ġbr s
Ġbr ain
Ġbr av
Ġrece ption
Ġdi ch
Ġdi pack
Ġme pet
ope fully
Ġar ini
sh she
Ġim pr
ca wa
Ġpre cious
Ġat an
Ġacc ustomed
ab d
ig raph
Ġus in
Ġad her
Ġgreat est
Ġbag nya
Ġbag uuuuuuuu
Ġbag uuuuuuus
Ġce aaaaaaaaaaaaaaa
Ġce oat
Ġpl k
ng er
ng ah
dh x
ise x
eng ah
Ġover whel
ven ience
he ight
Ġsk rang
Ġny s
Ġny x
Ġny ep
Ġfe ct
Ġstar ch
Ġred em
Ġrep orts
Ġrep ublic
Ġen abled
Ġpict nya
ga us
Ġbit ch
Ġcont amin
Ġgr ind
Ġgr acious
Ġgr inder
Ġsome body
Ġclo ak
Ġsuper glue
iss a
Ġri z
Ġher o
ric al
ge h
Ġ4 6
Ġle k
Ġle go
Ġle bay
Ġbang o
Ġter n
Ġter jang
Ġter niat
Ġmay outfit
Ġx y
Ġx mas
Ġx pel
Ġx ixix
Ġab g
Ġab les
Ġexp res
nt y
Ġaf rican
os is
Ġph oned
Ġsec inta
Ġsy ari
amp ai
si an
Ġpurch aser
ac o
ac com
Ġbub bled
bag is
Ġmant aff
Ġmant aaaaaaaaaaaa
Ġcustom s
Ġdr p
Ġdr one
Ġfl utter
Ġple k
Ġimmediately will
Ġdam it
ail ang
Ġhad eh
Ġtran fer
Ġbad an
Ġmo h
aw s
Ġstr ang
Ġ10 80
di f
di am
ampe k
Ġsc otch
Ġhapp ening
ip in
Ġcr pat
Ġcr ates
Ġcr ops
Ġcr umble
nd ise
nd jd
Ġcontin uing
Ġback ing
jd k
bo y
not ice
Ġpair ing
Ġcar i
Ġcar ving
Ġcar amel
js jx
Ġsal icy
Ġneed ing
Ġjd jdj
Ġsay ah
Ġsay ng
Ġreal ict
Ġchat ty
Ġbar uu
Ġbar cod
Äłs ing
Äłs end
Äłs un
Äłs atisf
Ġdah il
Ġdah hhh
ik ir
Ġlu bang
Ġgl ide
Ġng s
Ġng ga
Ġng asi
mant abs
uk i
uk up
Ġcl im
Ġcl otes
tr u
tr nyata
Ġres on
Ġres igned
Ġ6 90
Ġpeng rim
Äłp ay
Äłp urch
Äłm n
Äłm il
Äłm et
Äłm ess
Äłm ac
Äłb it
Äłb ri
Äłb and
Äłb ab
Äłb ai
Äłb onus
Ġsuk aaaaaaaaaaaaaaaaaaaaaaaaaaaaaaaa
Ġsuk aaaaaaaaaa
Ġtop ical
Ġtop notch
Ġmin ato
Ġmin eral
mo on
Ġgu ddd
Ġem asan
Ġcle at
bb orn
ret ur
Ġfitting s
Ġni acin
super r
Ġoke hh
Äłc m
Äłc as
Äłc um
Äłc ro
Ġact ively
bu agus
sm ga
get ting
Ġsel mat
Ġsel anjut
Äłd em
Äłd ic
Ġel d
Ġel e
Ġel ess
Ġel mo
irm asi
rece ntly
Ġreg ulate
Ġkr ang
ahah aha
bel t
gr and
Ġterim aa
Ġyaa k
Ġdirect ions
ari an
Ġtransport ed
pro oted
Ġimp re
Ġap ak
Ġka ca
Ġka ung
Ġ7 3
Ġrecomended d
pre mium
Äłt l
Äłt p
Äłt en
Äłt ech
Ġak as
Ġsad istic
bl ings
bl nja
bl anja
Ġmak aksih
wr app
Ġpen gin
Ġgan ito
55 5
Ġpu bg
Ġman i
Ġman if
ori a
Ġwhere ver
Ġinter im
Äłk el
Ġmur aaaa
ub g
Ġpok ed
Ġq ty
Ġhar aga
jj k
ton ya
Ġbs oknya
Ġcost mer
Ġcost ume
Ġcost emer
llll lll
Ġcushion y
Ġtem p
Ġer ima
Ġthankyou uuuu
Ġsin iteks
Ġadv antages
ssssssss sss
Äłh r
Äłh as
Äłh ur
Äłh ard
Äłh app
bar amg
Ġtak de
con st
con firm
Ġber lang
Ġber untusan
Ġdh s
uuuuuuuu uuuuuu
Ġsl ender
Ġsl anted
Ġmakasi hhhhhhh
Ġrepl ica
Ġent re
Ġass ign
Ġass umed
Ġass uming
Ġmantul llllllllllllllll
Ġscr unch
do ang
Ġma ci
Ġpoint ed
Ġyellow ed
bh d
buy ers
iz iz
iz ernya
Ġgener ic
Äłg as
ye aay
Ġtu y
vel ed
ph on
Ġsound ly
uns atisfactory
Äłf oot
Ġconsider ation
Ġaw ry
Ġaw kward
Ġpar is
kak k
kak akak
Ġses uwai
ath ome
Ġdik iri
dis in
dis posable
Ġsqu at
Ġcompl ains
af i
unt a
Äłn akak
Ġsubst atially
kg x
Ġplay anan
Ġul ar
Ġver se
Ġfort unate
Äłre c
Äłre v
Ġhalf way
ky k
Ġind om
Ġind ented
Ġcrack ing
Ġmurah hhhh
Ġflo ps
Ġdifficult ies
Ġlam aaaaaaa
Ġpic nic
Ġsw ab
Ġprin ce
set s
jf d
Ġnag reply
oles terol
iin n
Ġbuild ing
pal ing
Ġdet ected
bal m
nx kd
Ġtet ap
Ġpower ed
uus ss
Äłw as
Äłw ith
Ġdri pping
Ġdri fted
Ġbat rainya
Ġgam uat
cc er
Ġlum p
Ġcontact ing
Ġob at
Ġgap ake
Ġkal u
Ġkal ok
Äłr un
Ġsweet ness
some how
Ġmal es
eb ak
dhd bd
Ġeng g
Ġsangat tt
Ġkay anya
Ġbrush nya
cust mers
jx bx
Ġdem i
cr is
cr acked
amat anya
Ġet a
Ġcommunic ated
Ġspr ings
Ġkh ong
peng er
Äłdi per
Äłdi ffer
bg tt
bg uss
ker ry
Ġbi y
Ġbi bs
Ġsign ature
bt b
Ġhahah aa
sel amat
Ġil a
Ġil ah
Ġtoe box
Ġconsum able
Ġ25 62
Ġpn h
fl on
ob vious
Ġmakas iiiii
Ġdec ry
Ġdec iduous
Ġpengirim aan
me at
Ġdecent ly
Ġfresh ly
nnnnnnnn nn
nnnnnnnn nnn
Ġra isins
put ed
Ġmed ication
pass ble
Äłe qu
Ġaccur ately
Ġsurpr ising
Ġsat uu
Ġbul u
Ġur an
Ġur ban
Ġjnt nya
Ġhol ders
Äłse e
Ġband s
Ġband age
Ġpin a
Ġbrang x
Ġket auan
Ġroom s
Ġadjust ing
Ġcontr oller
gl jljjtys
Ġcount ries
Ġay os
Ġpke k
jsj sh
Ġcake pp
Ġama ann
jg x
Ġlh oo
Ġkek ur
ndnd n
Ġbur den
Ġsteam ed
Ġrock et
Ġteng ah
Ġfam ous
Ġsave ty
Ġiron ing
Ġprodu l
Äłpr op
Ġkat any
Ġpem g
bn jj
Ġks ong
vvvv v
bsbs bs
vers ed
Ġearr ngs
Ġmaa ksih
Ġhop es
Äłdis in
lum yan
Ġpel an
Ġlain nya
Ġ23 0
Ġtemper ament
Ġton ed
Ġmus cles
Ġterimakasi hhhhh
Ġsystem s
bdbd bdhd
Ġlamp u
Ġprefer ential
nsns nns
Ġkas oh
ecew akn
Ġorg asm
Ġconsist ency
lit er
anj ing
Ġveil s
Ġdib eli
Ġfire works
ev ent
mu antap
Ġissu ed
samp aii
Ġkur angin
Ġdim ension
Ġdim ainin
Ġmail ed
alam ualaikum
Ġstri pping
Ġstri pped
Ġlips ick
Ġbangee ett
Ġsang ad
Ġanti que
jz h
Ġfat igue
Ġuni verse
Ġbring ing
pn jual
Ġcocok lah
Ġsii ppp
Ġsak en
Äłper t
bes aran
Ġchick ens
Ġtk ut
rap i
Ġcy cling
comfort ably
wal k
Ġast er
Ġmanual s
prom ise
Ġpop corn
Ġprop eller
Ġens uring
lik es
Ġterus ssss
Ġactiv ation
Ġdeng ab
Ġbun ga
reg ulated
Ġek petasi
Ġek pedisinya
Ġbbr apa
Ġgem ess
Ġeyel in
Ġvac ant
Äłpe m
Ġworld wide
Ġ09 26235
Ġbank note
Ġplan et
Ġconsult ation
bot tom
abs or
Ġstraw s
nam on
bet ul
Ġbagusbagus bagusbagusbagus
kz kz
pot an
sangat t
Ġping gir
Ġach es
nis free
pad an
jdjdjdjd j
Ġnex tt
zh fk
Ġlembut t
Ġtang ible
Ġful filled
Ġgentle men
dus nya
Ġmuken ah
mh kdfsng
13 9
emp lo
Ġann ual
Ġep isode
Ġrim med
sequ ential
ado in
amazing ly
Ġtar ik
alhamd u
Ġbum ps
Ġmoment arily
Ġpend ulum
produ ck
Ġtick et
Ġsport ing
hhhhhhhhhhhhhhhhhhhhhhhhhhhhhhhh hhhhhhhhhhhhhhhhhhhhhhhhhhhhhhhh
Ġjel ekk
Ġjun ior
Ġfract ured
Ġcep aaatt
Ġdun k
Ġtn p
Ġwan der
Ġnan em
Ġtit an
Ġtam pered
Ġfle ece
Ġmass ive
Ġremind s
Ġfu el
lem but
lem bu
ram ah
Äłmant aa
bbd bd
bbd bdbd
kes etnya
Ġsha ved
chang ing
Ġngeb antu
cap t
Ġoct opus
Ġlaah kre
Ġreorder ing
Ġrack et
Ġpercent age
luck ily
Ġtan pa
Ġplast ikin
Ġclamp ing
Ġged he
fi eld
gas us
Ġdul uu
ahank an
Ġrg aaaa
Ġrg aaaaaa
Ġtruck ing
hel ai
Ġcaps ules
rest aur
Ġdot ted
Ġvo ichat
medi ocre
Ġprosp er
iner ation
Ġgit uuu
sil ver
Ġjad iin
Ġshr ill
gam bar
Ġbarakallah u
disc ount
success fully
km rn
pi ents
Ġgri pping
Ġjat im
Ġeks pektasi
Äłterim akasi
Ġopt ical
Ġopt imal
kul aitas
ksk ss
Ġbagusssssssss s
Ġintell igence
Ġshin ip
Ġxd ak
reason ably
Ġze bra
Ġsupple ment
dfs fdgdhdfs
Ġdnd jd
photo graph
Ġtarg ets
avi ation
jjdhd jxkkxhxjx
Ġsyn chron
Ġexagger ation
Ġventil ated
Ġchu bby
Ġpenger imannya
Ġmakasiiii h
Ġencour aged
goodgoodgoodgood goodgoodgoodgood
Ġkus em
Ġsab unya
Ġgum agana
perh antaran
Ġcop ies
Ġinsyaa allah
jsjsjsj jsjsjsj
cca bly
muk ena
pokok nya
Ġtun ed
Ġmantaaaa p
hri b
Ġfol ks
Ġkut ukuret
Ġceaaaaaaaaaaaaaaaa aaaaaafor
Ġluvv v
watch es
Ġsid oarjo
Ġpour ing
Ġdau gter
Ġkebes aran
Ġharus nya
Ġkho ir
match ed
opp i
tip iss
Ġfaint ly
Ġcoco a
Ġbaguuuuus ss
Ġsubscri pt
Ġpaking an
Ġisol ation
Ġreass ess
Ġteen agers
Ġfoc allure
bear ing
Ġtables po
resp nse
Ġmun afie
ften oon
jazak umullah
Ġnod a
Ġimmed itely
Ġchemical s
lmy n
tow el
viv ogogoh
Ġthu ong
Ġdipl astikin
occ as
slo bbery
Ġdianter in
Ġexpens es
Ġzen fone
Äłcle an
jck kck
Ġcint aa
previous ly
Ġstrict ly
Ġgando sssss
Ġdetermin es
oler able
Ġbosk uh
Ġclimb ing
counter feit
eye brow
Ġnick ed
Ġkor an
Ġyuh uu
Ġsukab arang
Ġ0997129 15
Ġpine apple
Ġconvers ion
Ġkrudung nya
Ġmaklum in
lux ury
Ġhahh aha
Ġmines amsung
Ġsampain y
fault y
rup iah
Ġdup licate
Ġeth ics
Ġabl ution
Ġsyukk a
tingkat kan
Ġundert and
Ġdistin uished
lumay ann
cub ic
fb ffafsbd
Ġdeee h
Ġgro ceries
Ġmanta omantap
Ġmantu ull
Ġsketch es
Ġdama ed
Ġinvis ible
Ġnive a
Ġphil ips
Ġemph asi
Ġsubordin ates
dhdhdbdbd bebebdbevdvdvdvdv
Ġdomin ant
hou ette
elit ian
Ġbq sm
Ġbast a
Ġprid uk
Ġcommit ment
disapp inted
Ġkent el
Ġstik er
immedi ately
Ġtrli hat
Ġrestrict ive
result s
Ġcycl one
jdjdjdkd ksksksbdbxbxhd
scal es
Ġsess ions
Ġfib ers
Ġfac ility
admit tedly
Ġsuw un
Ġsecon dhand
Ġngl upas
Ġterimam akasih
Ġbench mark
906 77
Ġhampe h
Ġshru gging
Ġkbs aran
Ġincompat ible
cacd nhmfcssgf
Ġnges elin
Ġpengep akan
cuci vivogogoh
Ġnutri ents
jlk jtgdbh
fgzds jhkhhxdashfjh
Ġmack erel
Ġconsecut ive
Ġvermic elli
Ġmiscell aneous
Ġdeterg ent
jgvdfs nhkhh
Ġcylin der
Ġfluores cent
fhfghfhji etqy
Ġrewad ee
Ġinev it
2 50
3 00
4 6
9 6
a er
a el
a ver
a es
a ft
b p
b ill
b ord
b oo
b be
b nn
b ib
b dhdh
c n
c ue
c ii
c li
c osity
d ar
d le
d ol
d ak
d lm
e an
e ga
e pack
e bel
e ffective
f n
f ere
f ro
f ict
f ashion
g ul
g ah
g os
g ung
g aper
g mn
g entle
h c
h j
h en
h ck
h ic
h ahaha
i el
i bu
i jab
j ul
j ap
j uk
j bd
j ix
j empol
k iss
k aaa
k arena
l or
l id
l nya
l ines
m w
m ol
m ick
m dd
m ix
m ph
m aya
n or
n ii
n ie
n dhd
n han
o v
o ever
o ek
o ops
p ush
p ull
p ier
p airs
r c
r p
r om
r age
r ase
r ound
r ude
s ch
s nya
s uns
t k
t in
t ag
t ear
t um
t ic
t ough
t ai
t old
t ik
t idy
t itude
t ui
t ables
t lg
v f
v t
v dhd
v ision
v ita
w ak
w inder
x b
x z
x ic
z j
z mz
Ġ ild
Ġ ensive
Ġs or
Ġs ine
Ġs orrow
Ġs vs
Ġs bi
Ġs rm
Ġs ring
Ġs pert
Ġs perti
er er
er an
er et
er ves
Ġt ay
Ġt ss
Ġt act
Ġt amp
Ġt ung
Ġt aw
Ġt ik
Ġt aint
Ġt ko
Ġt sel
Ġt ahan
Ġt ayo
Ġt btb
od k
Ġa im
Ġa che
Ġa ces
Ġa ched
Ġa ustrian
Ġa ftenoon
Ġp ir
Ġp uu
Ġp pppp
Ġp apalah
Ġth q
Ġth ak
it or
el ver
Ġg th
Ġg eng
Ġg our
Ġg rid
Ġg eez
Ġg oooooooooooooooooooooooooooooooo
Ġb aaaa
Ġb ih
Ġb gg
Ġb owing
Ġb ond
Ġb bbb
Ġb geet
re co
re seller
re charge
re present
Ġo st
Ġo ss
Ġo eng
Ġo to
Ġo unt
is l
is it
Ġf g
Ġf k
Ġf on
Ġf ath
Ġf oll
Ġf urious
Ġf reenya
Ġd and
Ġd ition
Ġd ys
Ġd ana
Ġd ede
an f
an sw
an cial
Ġc ah
Ġc ang
Ġc ih
Ġc ung
Ġc ie
Ġc king
Ġc rimp
Ġc ongrat
Ġc igare
Ġw ins
Ġw oi
Ġw reck
ed ot
Ġgood ly
Ġgood goodgoodgood
very very
en ers
en akk
en cies
es end
es kripsi
Ġm ary
Ġm elet
Ġm eeeee
Ġn our
Ġn ac
Ġn av
Ġn we
Ġn ons
Ġn ito
Ġn urse
at ers
at vely
or ay
or ow
or ign
Ġh q
Ġh bs
Ġh int
Ġh atch
Ġh orses
as ain
as ui
as kin
Ġl ore
Ġl ately
Ġl ach
Ġl atch
Ġl ari
Ġl wt
Ġl td
ell as
qu in
qu een
qu alitas
Ġis iny
Ġqu ad
Ġqu icly
Ġproduct good
om a
om ic
Ġre ader
Ġre infor
Ġre versed
th s
th or
ar ne
ar anya
eli ke
il s
il ies
il bb
il ities
il ove
Ġan gin
Ġto ss
Ġto ward
Ġto kon
pe oduk
Ġe f
Ġe go
ut ny
Ġsh sh
Ġsh aker
ot er
ot in
ot or
us able
us ive
le men
ri ka
Ġi ri
Ġi gt
Ġi dd
Ġi ced
Ġi cy
Ġi ded
Ġi bang
Ġi yaa
Ġi iiiii
Ġi check
Ġof course
Ġit t
Ġit tt
Ġit ive
Ġk ck
Ġk end
Ġk ate
Ġk art
Ġk ale
Ġk cl
Ġk kkkkk
Ġk iy
Ġk dep
Ġy n
Ġy ess
Ġy abg
Ġy ards
Ġy ork
ag h
ag ree
Ġin es
Ġin fin
Ġin order
Ġin cent
Ġin ject
Ġin elastic
Ġin adequate
Ġin nisfree
Ġst d
Ġst ack
Ġst ir
Ġst ink
Ġst urd
Ġst igma
Ġal way
Ġbe ep
Ġu x
Ġu in
Ġu as
Ġu uh
Ġu res
Ġu uuuuu
Ġu prooted
aa ih
aa ha
aa kkk
ch amp
ch sia
am bo
am ins
ul ates
se a
se en
se ger
se arch
Äł ord
Äł nt
Äł ci
Äł like
Äł okay
Äł je
Äł shoes
Äł after
Äł book
Äł alhm
Ġspeed ing
Ġor a
Ġor ts
Ġfast ener
ol ored
sp ot
sp ent
Ġv in
Ġv anget
Ġj ck
Ġj sh
Ġj aketnya
Ġj ambi
Ġorder rr
Ġli brary
et ik
ill l
Ġon coming
Ġon ti
and i
and ahan
ap in
ap ia
em g
em pet
em pat
em ony
Ġrespon nya
ok ing
ok elah
Ġne y
st o
st ation
st ud
st als
ght er
ss fsg
Ġch im
ya i
Ġso aps
Ġso iled
um nya
um br
um ably
um ma
um ination
Ġr h
Ġr ly
Ġr ins
ant ek
id jd
Ġlo an
Ġlo oo
Ġlo gged
Ġlo vin
pr ay
ang n
ang kat
Ġcom ic
bs js
Ġup coming
so ph
so sos
ong an
all i
all al
all oc
Ġwas her
Ġas es
Ġas se
Ġas kew
ff g
ff t
Ġwell packaged
Ġag gri
Ġcon es
Ġun ik
Ġun ggu
Ġun friendly
Ġun lock
Ġun dies
ic i
ic ably
Ġsi y
Ġsi iii
Ġsi blings
Ġac ak
Ġac cesories
Ġmy im
hh sh
hh shsh
hh aahahh
Ġtr ang
Ġtr ns
Ġdis satisfaction
Ġse ized
Ġse gar
Ġse bener
Ġse ben
Ġde o
Ġde pict
Ġde bes
Ġfr u
Ġbl and
Ġbl akang
Ġsa fty
ii ik
Ġno bility
lo p
lo cal
per ak
Ġrece ives
int egr
kk dk
Ġdi f
Ġdi j
Ġdi ing
Ġdi ction
Ġdi order
Ġdi vers
Ġdi aku
Ġdi pasang
uu hhh
Ġbo il
Ġbo hong
Ġship ed
sh er
sh it
sh own
ca ution
Ġhe bat
Ġhe hhee
Ġpre ttier
thank fully
Ġat or
Ġat ic
fe et
fe iting
Ġpo oh
op ed
op ic
ab or
ab ol
Ġshipping good
Ġmuch hh
Ġmuch hhh
Ġshoes i
Ġpro suk
Ġpro hibited
ig ing
Ġlove e
Ġad ing
Ġad verised
ft een
Ġce o
Ġby ak
ih ed
Ġpl oduk
Ġpl anned
Ġpl stik
Ġlight est
ng am
ng eb
Ġam using
Ġpi k
Ġpi xy
Ġif y
eng nya
eng ers
Ġout sole
he a
Ġsk d
Ġstu bborn
Ġhand phone
Ġhand made
Ġbgt bgt
ning s
Ġny impen
Ġya ud
Ġcomp ound
Ġfe asible
ous es
ens ity
ass y
Ġfriend liness
Ġen se
Ġen nya
Ġper a
Ġper kir
Ġper mintaan
Ġmer ries
Ġkak aa
Ġkak akak
Ġgr ants
Ġclo the
Ġclo gged
Ġsuper rr
Ġri er
ric ane
Ġsp elled
Ġcut ter
Ġle y
Ġle is
Ġgi riman
Ġter in
Ġter uk
Ġter mantul
any un
Ġwe imar
Ġpa free
Ġx xx
Ġx pa
Ġx jx
Ġx nk
Ġx muat
Ġab iz
Ġexp nya
Ġexp os
os a
os ir
os kin
nn v
Ġwould n
si e
si u
si ch
ll a
Ġtw elve
ud rw
Ġprices good
Ġslow respon
ment ion
ind ivid
bag ua
Ġmant aaaaaa
Ġmant uuuuul
Ġdr ove
Ġdr mh
Ġdr owsy
Ġfl aming
Ġfl aky
Ġke ged
Ġke banget
Ġke pencet
Ġke buang
Ġke cepetan
Ġbubble wrapped
ach ing
ach at
ne x
Ġtq tqtq
Ġmo jokerto
Ġstr aining
ie p
orm ant
di o
di ct
di ke
Ġte ope
Ġlot us
iiii p
br o
br oo
br ac
Ġblack ened
Ġsc or
Ġsc oot
Ġhapp iness
Ġcr um
Ġcr ate
Ġcr appy
nd ks
nd nk
mm d
mm k
irim anya
ber baloi
ber fungsi
Ġpe as
Ġpe gasus
js nn
js nd
js nns
pat tern
order ing
und ou
Ġbar rier
Ġbar abg
Ġhigh lights
Äłs ch
Äłs and
Äłs low
Äłs af
Äłs mp
de an
ik ny
Ġsee p
up n
Ġgl am
eeee h
Ġfun cion
Ġng o
Ġng aaaa
Ġtri umph
Ġtast ier
Ġcl ot
Ġcl erk
tr ay
tr ation
Ġbg o
Ġbg ss
Ġpeng rimannya
Äłp ort
Äłp op
Äłp uas
Ġopen er
Ġopen ings
Äłm us
Äłb w
Äłb any
Äłb ias
Ġsuk aaaaaaaaaaa
Ġz ed
Ġconf usion
Ġrecom eded
ro b
Ġem an
Ġret ained
bb h
bb z
ple k
pl ane
Ġsamp ling
Ġoke eeee
Äłc ond
Äłc onsum
Ġ9 2
Ġsel ali
Äłd on
Äłd um
Äłd est
Äłd own
Äłd eter
Ġel ected
Ġshort fall
Ġprov is
bel it
bel ance
Ġrepe ating
Ġda isy
Ġsem o
Ġatt ack
Ġatt ahed
Ġtrim ss
Ġunder arm
Ġbonus nyaa
po in
po le
Ġbab el
Ġbab get
pro blem
pro cated
Ġpost ers
Ġbook marks
Ġ7 4
Ġcepat ttttt
Äłt a
Äłt i
Äłt ast
Äłt id
form er
Ġdisc reet
Ġak i
Ġak nya
Ġak ala
Ġak hr
Ġbaby ku
Ġ8 88
Ġprom ising
ha jwklwlwlqllqnsbdskalaaajan
Ġmak s
Ġmak an
Ġmak sh
Ġrefund able
Ġpen ang
cs cs
ali an
ali ke
Ġgan jel
Ġhr ap
Ġtrust ees
Ġpu ck
Ġman iss
Ġman nt
Ġman ik
bd nx
ori zed
asi a
asi hh
cept an
Ġinter ference
Äłk on
Äłk ar
Äłk ur
Ġcre me
ub ung
Ġwater ing
Ġfunction ality
Ġstock ings
Ġbs knya
Ġbah n
Ġbah us
Ġ12 9
Ġbri dge
Ġmar ble
Ġbal oi
aaaaaaaaaaaaaaaa aaaaaaaaaaaaaaa
aaaaaaaaaaaaaaaa aaaaaaaaaaaaa
Ġrem ax
Ġtem pel
cious ly
Ġfoot ball
Ġing nya
wor ld
Ġav aiable
red u
Ġpat ent
ssssssss ssss
Äłh at
bar u
bar ag
bar ic
bar anh
Ġtak nak
Ġber b
Ġber ik
Ġber puas
ek al
Ġsl ots
Ġmakasi hhhhhh
Ġbel ak
Ġlag iiiii
Ġlag iiiiii
Ġmantul llllllll
Ġscr ap
gs fbffafsbd
Ġang el
Ġma ju
Ġflash ing
Äłg an
Ġwash i
Ġwash es
ph om
Ġah aha
Ġum e
Ġum i
uns atisfied
Ġhead lights
Ġins a
Äłf i
Ġnh o
Ġaw ake
Ġses end
Ġses au
Ġtap iiiii
Ġmiss es
Ġnge cw
ath let
Ġrel ay
vv h
Ġsty rofoam
Ġdik o
Ġdik abarin
te xt
te bal
kn it
Ġdong gg
Ġker oppi
Ġtrimakasih trimakasih
Ġfre ak
Ġfre edom
mb ps
Ġbreak er
kg d
Ġsek arang
over night
Ġbng at
ty p
mat an
Ġhair cut
Ġmag hrib
Ġdep end
Ġdep art
sy g
sy udah
Ġkok onya
comp an
mmmm mm
cil an
cy on
Ġky o
Äłl ap
Ġuk r
Ġuk ran
Ġleng an
Ġleng ket
jsjs n
Ġpuas ssssss
Ġmis lead
Ġlam aaa
Ġair pod
Ġsw ak
exp iry
aff airs
Ġprin ipal
jf kf
iin ya
ku at
Ġhell ok
bal es
bal ance
Ġug reen
nx nnx
Ġlip stik
Ġcap able
Ġcur l
Ġcur led
gk usan
Ġdry ness
Äłw ater
Ġdri ft
Ġku walitas
Ġuseful ness
Ġant em
Ġant agal
Ġbet cha
Ġrelie ve
cl amp
cl cl
Ġpokok k
Ġpokok na
satisf y
Ġcu cum
Ġaj aaa
Ġhat urnuhun
cc ok
go sh
Ġlum ps
Ġkm asan
Ġye ayy
Ġcontact s
Ġrekom en
Ġscreen ing
Ġmal am
Ġmal ambot
Ġsampe i
Ġnight gown
Ġlay out
Ġsand isk
Ġbt re
Ġaman ahh
Ġexped ited
Ġau x
Ġau ction
Ġsam api
Ġkual ias
cr ushed
oh oh
bat es
bat rai
Ġcommunic ations
uas kn
peng riman
Ġnyamp enyaa
Äłj g
Ġgar is
Ġpast ry
Ġbi anget
Äłst e
Ġ19 99
Ġexist ed
ko j
Ġhahah ha
Ġhahah ahaha
Ġsing let
Ġid es
complet ed
long er
Äłin cl
Ġnak amura
Ġremo val
Ġpos thaste
Ġpn p
bx h
Ġwilling ly
Ġgas ampe
Ġmeet ings
fo f
fo y
Ġbas in
ob ile
trim ak
Ġcolle cted
Ġredu ces
Ġpengirim na
Ġrough ly
Ġtable cloth
me i
Ġdin aikin
Ġdin iliver
Ġwalk in
Ġest ed
Ġanak ku
Ġmarket s
mas uk
yyyy y
Ġmed j
Ġsyuk aaaaa
kkkkkkkkkkkkkkkk kkkkkkk
Äłe v
df zhfk
Ġta o
Ġprotect s
Ġdrop shiper
Ġbul uk
Ġur s
Ġur ch
Ġappe aling
Ġappe aled
Ġten kyu
jh s
str aw
kh jfhefsbfj
Ġwind y
Ġmen gh
Ġmen urut
Ġrm ah
Ġ18 5
by mi
hhe hehehehehehehehe
Ġpin aship
Äło pp
Äło cc
Ġket tle
Ġket utup
Ġchar ming
Ġrecomend eed
Ġkeren nnnn
Ġgre ase
dhdh dhdhd
jsj js
rep ond
Ġmb aa
Äłch at
Ġlh o
Ġcir culation
Ġjs ks
did nt
Ġkek urang
ahahahah ahh
hr hr
Ġslee veless
jw iw
han e
Ġstiff er
hs fsg
kal o
Ġpouch es
att ach
Ġinsh aa
orted ly
Ġtt ap
Ġwood y
33 3
Ġwrn any
Ġconnect ing
wow w
Ġscrew ed
Ġtel at
Ġtel ekung
Ġpromot ed
kat kan
Ġmel ting
Ġlamp unya
Ġprefer ence
nsns ns
Ġkas ii
Ġ29 9
vs vs
Ġbol sters
iiiiiiiiiiiiiiii iiiiiiiiii
Ġck ckck
Ġclick s
bf bf
Ġlap is
Ġarm rest
Ġger mination
Ġfirm ware
Ġdib ungkus
book ing
shsh shshs
Ġremain der
samp i
ti fin
Ġnet ting
kx k
Ġrot ary
Ġabsorb ency
Ġdef ets
Ġtag al
Äłsp l
Ġvi u
tqtqtqtq tq
Ġbw at
Ġrec ived
Ġspong es
Ġfal tered
Ġguy ss
however i
Ġdil uted
Ġmh al
Ġnature d
Ġhd ear
Ġnare cieved
Ġsour ces
subs id
Ġhum or
Ġmold ed
Ġtid al
Ġbd bd
Ġautom ated
Ġpencil s
met ic
ox o
Ġmks iih
Ġalhamdul ill
Ġalhamdul illh
Ġtur quoise
Ġskali an
inch es
Ġprop ortional
Ġtru z
Ġspot ty
Ġudah h
Ġdeng n
bah ann
cont ents
jjjj j
Ġoper ated
Ġded ek
Ġilang in
Ġcommon place
sn gt
Ġpert ama
Ġpert ma
exc ited
aj an
Ġmid sole
Ġpengemasan ny
Äłpro f
ungkus nya
Ġcapt ious
Ġtin ry
Ġnam es
Ġflav ored
Ġbos que
Ġspir al
Ġlead s
Ġretri eve
Ġpark ing
Ġkel uarin
vi ate
vi br
bw t
Ġcer uty
Ġder ived
Ġham dulillah
Ġjual anya
Ġadap t
Ġeli minated
Ġeli gible
pu un
Ġfurn ished
Ġwarn any
Ġnap kins
Ġproject or
Ġkd ang
Äłcr ack
Ġsesu ay
Ġspring y
Ġking dom
Ġbeg un
Ġgaes ss
Ġkon firmasi
brng nya
Ġbum mer
uuuuuuuuuuuuuuuuuuuuuuuuuuuuuuuu u
wait ing
Ġpend rive
Ġkul iatas
Ġbarangny aaa
Ġpra ised
Ġjun k
Ġxs ama
Ġnan am
Äłqu al
Ġpelapak nya
Ġburn s
ring e
Ġfle a
Ġtok ong
Ġcompens ated
Ġngel uarin
Ġstamp ed
Ġpres ents
jxjx jj
Ġsb nernya
Ġts aka
Ġngeb as
Äłexp ed
certain ly
adv antages
Ġgoo g
ati us
off ers
Ġore o
ssssssssssssssssssssssssssssssss ssssssssssssssssssssssssssssssss
Ġki el
Ġras p
Ġcanti kkkkkkkk
pppppppppppppppppppppppppppppppp pppppppppppppppppppppppppppppppp
Ġviv a
Ġharm ful
Ġfav o
Ġneighb oring
Ġkeb aya
Ġswim wear
vk v
Ġln car
Ġhade hhh
Ġdistribut e
wy wy
Ġgit uh
Ġdir aguin
Ġrus akk
sil ic
Ġnxt ym
Ġreci pients
maa ci
Ġxt au
Ġxt ra
Ġjad inya
Ġappoint ed
60 8
Ġwat ts
Ġsump ahh
Ġblg nya
Ġdeduct ing
Ġhem m
Ġpengirm annya
Ġdikit t
flex ible
Ġgn aw
shshs jjdhdjxkkxhxjx
Ġdikirm nya
Ġtm pat
tract able
sand al
Ġcub a
Äłapp ro
Ġcx a
Ġwag ner
Ġpon akan
ribu an
Ġpregn ancy
anyak in
Ġdeter mine
water proof
sli pp
spr ay
Ġapproach able
Ġtingkat kn
Ġbatch es
Ġcamp ing
stitch ing
Ġramad han
Ġsatis ying
Ġace h
Ġfuck ing
Ġcrit ical
Äłser vice
Ġmonit ored
dish onest
Ġdang o
eez ers
sang t
Ġhasil ny
pens able
Ġoutlet s
Ġnem u
fsg chgjgjgjfgddagxk
pem bohong
Ġbange ut
Ġbeng et
Ġox id
Ġemot ions
Äłsub st
dl ers
Ġbuang ett
Ġprovin cial
Ġrespos ible
Ġallerg ies
Ġmengecew akn
match ing
ieie ie
mzmz mzmz
cam era
kind a
Ġwig gle
Ġhous es
Ġspin ner
Ġpembeli ku
qqqq qqqq
Ġedi ble
Ġpod ium
Ġkick s
Ġbranch es
Ġenvironment ally
Ġselet ing
hmm hmhmhmhm
jdd n
terimakas iih
kad eliver
enjo y
Ġhap enya
Ġminn ie
Ġsiss y
Ġpier cing
Ġassist ance
tow els
idi ately
nnz nz
mantaa pp
Ġadvis ory
Ġwkwkwkwkw k
makasihmakasih makasihmakasih
Ġdefic iency
4444 4444
33333333 33333333
Ġtor ch
Ġmart in
Ġspeech less
okokokokokokokokookokokokokokokoko okokokokokokokokookokokokokokokoko
lol oko
Ġgall ery
Ġalo evera
Ġvirt ually
Ġdistur bed
Ġdistur bing
Ġpotato es
subst antially
Ġnamp ol
Ġheh eee
Ġampun nn
Ġkualit ass
fraud sters
uhe uhe
Ġmnd arat
Ġblaz er
person ally
Ġnganter in
scam mer
Ġjn ji
Äłbre ak
Ġmono cle
Ġdikemas nya
lp ote
Ġstith es
Ġrc vd
Ġtrav elling
Ġfray ed
Ġflood ing
Ġcray on
Ġaccomod ate
Ġmacar oni
Ġdigun ain
gab isa
pua as
cepe et
Ġreze ky
amab r
Ġspect ac
Ġjoo b
Ġxper lu
Ġrestri cted
Ġjujur r
meng ecewakan
Ġcere al
Ġkiriman nya
Ġgrace fully
Ġsci ence
Ġsham rock
Ġaspect s
Ġmater nity
Ġmengecewak ann
hns on
kud os
Ġoint ment
Ġmari a
Ġques ion
Ġrecy cled
pract ical
Ġimple mentation
Ġsincer ity
Ġentr usted
nin ja
Ġecho es
embali in
Ġdispens er
Ġdescri bes
Ġesc orts
Ġburg undy
Ġdumat ng
yahhhhh yahhhhh
mir ror
Ġgene ally
anit izer
Ġsunn is
Ġshimm er
Ġintest ine
cheese cloth
Ġikhlas in
chick en
Ġvas eline
esty le
lif ier
Ġimpe ccably
abras ive
Ġaband oned
luam ayan
Ġdkirim nya
Ġsharpen er
breath able
Ġfen ders
Ġrul er
intell igent
Ġkeingin an
Ġscram ble
Ġpopsock et
mou th
Ġphilipp ines
Ġincons istent
Ġpaso brang
asukasukasukasukasukasukasukasuk asukasukasuka
Ġcertif icate
Ġmiz unos
Ġvint age
Ġcomfor able
ffmjk hnd
Ġdoorm at
igraph y
Ġniacin amide
obvious ly
event ually
Ġeyelin ernya
Ġtitan ium
fhfghfhjietqy rgdfsfsrwffhghxjj
Ġcrimp ed
Ġscoot er
0 6
1 000
6 50
7 8
8 3
8 4
8 5
8 90
9 1
a ant
a ways
a annya
a ustrian
b ies
b js
b und
b ling
b angat
b uss
b isa
b lock
b inh
b antu
c ry
c ately
c red
c ular
d b
d p
d al
d ity
d nya
d apat
d asternya
e ating
e fficient
e conom
e cut
f c
f z
f im
f kk
f ac
f ried
f aded
f ailed
f lix
g ag
g ee
g est
g ks
g ous
g da
g emas
h k
h v
h ass
h uh
h cm
h atur
h ats
h undred
h uhuh
h ukk
i it
i vers
j or
j ag
j ie
j kd
j aya
j inal
k is
k um
k ong
k no
k lu
k gs
k mn
l ar
l anja
m v
m end
m all
m dh
m ately
m af
m eet
m arin
n l
n ud
n bnb
o ore
o ating
p um
p one
p ound
p ret
p itch
p ortedly
q c
q k
q ng
r j
r is
r ou
r ag
r ere
r ope
r ug
r aving
r ilateral
s z
s ar
s atis
s ks
s our
s ll
s anya
s ket
s can
s car
s aving
s ister
t at
t ly
t ol
t ab
t les
t ub
t akes
t astes
u le
u pp
u ah
u dd
u hhhh
u ations
u juan
v ry
v oi
v gljljjtys
w in
w ere
w orm
w kw
w ksbs
y k
y p
y ot
y uka
y ayayayay
z o
z v
z in
z an
z on
z oy
z xcvbnm
Ġ riman
Ġs ain
Ġs br
Ġs da
Ġs gn
Ġs okay
Ġs edu
Ġs care
Ġs sip
er ahan
Ġt sp
Ġt bh
Ġt ttttt
Ġt men
Ġt ngan
od i
od ol
Ġa ing
Ġa so
Ġa pping
Ġa irt
Ġa ward
Ġa yy
Ġa ksih
Ġa sem
Ġa ided
Ġa aaaaaaaaaaaaaaa
Ġa aaaaaaaaaaaaaaaaaaaaaaaaaaaaaaaaaaaaaaaaaaaaaaaa
in ny
Ġp ess
Ġp gi
Ġp ills
Ġp ketnya
Ġp pppppppppppppppppppppppp
Ġth ay
Ġth under
el iti
Ġg v
Ġg tt
Ġg uk
Ġg ged
Ġg gy
Ġg uud
al p
al ase
al sy
al mond
Ġb ble
Ġb bb
Ġb bd
Ġb orders
Ġb kt
Ġb anned
re ou
re ward
re cord
Ġo ud
is u
is ana
Ġf isher
Ġf iikum
Ġf ountain
Ġf tonya
Ġd th
Ġd le
Ġd ying
Ġd pa
Ġd ndnd
Ġd aster
Ġd kdk
Ġd bungkus
Ġd dddddddddddddddddddddddddddddddddddddddddddddddddddddddddddddddd
Ġd cek
Ġd ormant
ver ry
an i
an at
an ng
Ġc f
Ġc end
Ġc aw
Ġc if
Ġc ious
Ġc ement
Ġc aves
Ġc pett
Ġw d
Ġw s
Ġw aged
Ġw adi
ed er
Ġgood product
ce ng
ce cer
ce paat
ct ly
ing at
en o
Ġm odu
Ġm le
Ġm ls
on der
Ġn el
Ġn ation
Ġn up
at at
or ant
or thy
Ġh f
Ġh ers
Ġh eeee
Ġh ana
Ġh shs
Ġh uuh
as n
as aa
as se
as ak
as gas
Ġl r
Ġl ith
Ġl int
Ġl lll
ell o
ell ll
Ġis k
Ġis in
Ġis like
Ġis inya
om am
om ah
om ile
om uch
Ġquality good
Ġquality product
Ġre k
Ġre aaa
Ġre bates
Ġre tractable
th less
th read
ar ine
ar na
ar ket
ar ella
eli p
il ih
il aian
Ġto pppp
Ġe kk
Ġe ga
Ġe mm
Ġe ep
Ġe je
Ġe books
Ġe agle
Ġdeli vey
ut ers
Ġsh ld
Ġsh atter
Ġsh uff
Ġsh akes
Ġsh ushing
ot ant
ot ation
us j
us ss
le e
le ast
le ys
ri al
ri or
Ġi ence
Ġi jo
Ġi vely
Ġi hi
Ġit er
Ġit am
Ġit uu
Ġk ol
Ġk ks
Ġk amp
Ġk edu
Ġk ami
Ġk sekian
Ġy ar
Ġy oo
ag t
ag on
Ġsell rnya
pp l
Ġin h
Ġin ation
Ġin ert
Ġin love
Ġin secure
Ġin expl
Ġst ic
Ġst unk
Ġal h
Ġal ign
Ġal itas
Ġal titude
Ġbe gini
Ġbe coming
Ġu ri
Ġu kk
Ġu li
Ġu og
Ġu alitas
Ġu cucivivogogoh
aa ble
aa ap
aa annn
ch un
ch art
am n
am aa
am ong
am aaaa
Ġsm pee
ul an
ul ator
se ed
se cur
Äł od
Äł ing
Äł ast
Äł ul
Äł ill
Äł pet
Äł gt
Äł goods
Äł let
Äł mm
Äł ign
Äł kw
Äł aman
Äł ger
Äł shipping
Äł comfortable
Äł response
Äł box
Äł mantab
Äł alhamdul
Äł lik
Äł arm
Äł jaz
Äł recei
gh e
gh s
gh an
Ġpack e
ad ating
ad ia
ke o
ke p
ke cik
ol i
ol annya
ol okin
Ġsu uka
Ġsu kkk
Ġsu pin
sp ill
sp reinya
Ġv k
Ġv ivid
Ġj ect
Ġj ane
Ġj rs
Ġli ck
Ġli ved
Ġli zard
et ing
et ely
ill i
Ġon ge
ak is
ear ned
ah u
ah at
ah mat
ah olics
the best
ap o
ap ik
ap apa
ap olog
im g
im es
im id
ain i
ain y
em in
em bung
Ġne z
Ġne ci
Ġne geri
st rip
st aking
ur ely
ur annya
ur ahan
ss ion
Ġch ut
Ġch et
Ġch uan
Ġch uc
Ġch eek
Ġch ronic
Ġso ooooo
Ġso bra
Ġso gog
Ġso ccer
um ers
um urah
Ġr ising
ant aged
ant akan
ant arn
ust er
ir roh
id k
Ġlo ops
Ġbu h
Ġbu kaa
pr inting
ang ge
ang led
ang kan
Ġup regulated
so p
so ci
ong k
Ġas an
Ġas uk
Ġas ian
ff le
Ġag d
Ġag i
Ġha wa
Ġun fair
ic ip
ee een
com ple
Ġsi ve
Ġsi iiiiii
Ġsi pppppppppppppppppppppppp
product ion
Ġac i
Ġmy b
hh g
hh dh
hh dhd
Ġex asper
Ġtr og
Ġtr mkasih
Ġdo ve
Ġdo ctors
ld ls
ter m
ter nya
Ġmat a
Ġse g
Ġse cepet
Ġse bab
Ġse gede
Ġse bulan
Ġse bijik
Ġde pre
Ġfr og
Ġbl us
Ġsa ii
Ġsa ves
pt oms
ial hamdulillah
Ġno is
lo v
lo st
app roriate
app pppppp
est imate
Ġbr os
int imate
Ġall i
Ġall aah
Ġlong ish
kk ak
kk sk
Ġdi o
Ġdi re
Ġdi ap
Ġdi po
Ġdi bl
Ġdi harap
ate gy
comm and
Ġcan on
Ġar n
Ġbo at
Ġtoo o
Ġtoo oo
sh ow
li fe
li fting
Ġim o
Ġim an
Ġim per
Ġim ate
ca o
ca keep
Ġhe x
Ġhe ating
Ġpre form
Ġat is
Ġat ure
fe b
Ġpo ok
Ġpo ooo
op ll
op hane
ab b
ab as
ab et
ab ah
Ġshoes very
Ġpro bbly
Ġlove joy
Ġany how
Ġus ps
Ġad es
Ġad verse
Ġga an
Ġga uge
ft an
Ġcomfortable but
Ġgreat i
Ġuse able
Ġpl ah
Ġlight ness
Ġunt u
Ġday time
Ġam it
Ġam ah
Ġam aaaaan
Ġam puun
Ġout ing
Ġout fits
Ġover he
Ġover view
ven e
ven ue
Ġsk g
Ġsk al
Ġsk sk
Ġhand body
Ġny adar
Ġny edot
Ġnext nya
Ġcomp ass
ks an
ine al
ass ess
Ġrep urch
Ġrep resent
Ġen n
Ġen y
Ġen thus
Ġper baikin
Ġmer ely
Ġcont ro
Ġcont orting
ny ak
ny ari
Ġgr ill
Ġsome hing
irst y
Ġri jek
Ġri view
Ġmerch ndise
dd f
dd hh
dd os
Ġdes ig
Ġdes ires
out ed
ric ult
gg an
gg le
Ġsp on
Ġsp elling
Ġsp reinya
ge cawakan
su z
su ck
su gar
Ġ4 000
Ġ4 20
Ġcut ie
Ġcut eeeee
Ġgi an
Ġgi ant
be aut
be ware
Ġter t
any aaaa
Ġtry ta
Ġsend ri
Ġpackaged item
Ġx ah
Ġx pect
Ġx ada
Ġx inh
Ġfree ze
os y
Ġsy angnya
Ġsy ringe
ll s
Ġtw e
ud ud
ud ahh
Ġeven tho
Ġapp li
ind ones
ac cord
Ġimm ense
Ġmant aaaaaaaa
Ġdr amat
Ġke u
Ġke ke
Ġlah hhh
ert f
ink ling
Ġhi j
Ġhi kss
kkkk kok
ne ither
Ġdid eskripsi
Ġtq q
Ġtq tq
Ġgo als
Ġmo ves
aw ah
Ġstr ands
ish s
Ġte k
Ġte ens
Ġte flon
Ġjo ger
Ġcor on
Ġcor repond
br it
br ands
Ġblack list
Ġsc out
Ġsc ouring
Ġcr ave
Ġcr umb
nd e
nd id
au k
Ġwork er
Ġback ed
irim n
jd s
jd kf
ark an
ater lalu
not ify
Ġcar a
Ġcar riers
Ġpe ac
Ġpe ps
Ġpe ppa
Ġoff ing
js d
js g
pat hy
Ġsal h
Ġsuccess or
pen nya
Ġpesen anku
rop hy
Ġsay ank
Ġbar ber
Ġbar baric
Ġhigh est
Äłs ak
Äłs lo
Äłs we
Äłs au
Äłs ign
Äłs angat
Ġpass ing
Ġlu p
Ġlu pa
if a
if ah
Ġsis st
eeee een
eeee eet
Ġfun ct
Ġng eli
Ġng atur
Ġng emas
Ġng itung
Ġng irit
Ġtri ps
mant u
Ġcl in
Ġcl imate
tr c
tr ade
Ġhehe hhehe
Ġres in
Ġres our
Ġbg tttttt
Ġpeng iman
Äłp ed
Äłp un
Äłp ick
Äłp oss
Äłm om
Äłm ah
Äłb ot
Äłb ol
Äłb int
Äłb ers
Äłb uy
Ġz y
Ġz in
Ġz ag
Ġmin s
co arse
ro blem
Ġdent ing
Ġko sher
ence t
Ġem as
Ġem pt
Ġem eral
Ġinc ineration
Ġret i
Ġret ak
Ġret ired
bb f
bb al
Ġfo il
Ġadd it
pl ish
pl ings
Ġsamp enyaa
Ġni y
Ġni hhhh
Ġni yo
Ġref le
Ġref orm
Ġref lection
Ġoke okeoke
Äłc er
Äłc reat
Äłc li
Ġphoto cop
Ġ9 7
Ġmas y
Ġmas cul
Ġact s
Ġact ing
Ġcould nt
sm ud
Ġsel mt
Ġsel amaat
Äłd om
Äłd ou
Äłd ong
iriman nya
Ġshe en
irm h
Ġda un
gr at
Ġterim aaa
Ġterim aka
Ġsem po
Ġatt ribut
ari um
Ġdat en
Ġdat enya
Ġhard case
Ġtrim z
Ġbonus an
Ġbonus ny
po ly
Ġear ings
ex per
ex ha
Ġrest art
Ġmk ash
ren ce
Ġap lik
kw w
Ġcepat cepat
pre pare
Äłt ext
Ġfin s
row s
form ing
Ġdisc s
Ġdisc ard
Ġak t
ns k
ns v
ns ls
ns nz
Ġbaby nya
Ġbaby doll
bl a
Ġcomm ended
Ġcomm encing
Ġprom inent
ever s
Ġcreat ing
Ġna pe
Ġfrag ant
Ġpu ol
Ġpu aass
Ġpu ashati
Ġman e
ward ah
hhhhhhhh hhhh
Ġinter val
Ġinter fere
Ġeff etive
Äłk g
Ġnorm lly
Ġcre d
Ġcre st
Ġcre scent
Ġmot o
Ġmot iv
Ġmur h
Ġbarang y
Ġbarang anya
ub ungin
sw im
sw itch
Ġpok ona
Ġsim pl
jj ss
Ġtrans l
Ġsol asi
Ġsol idly
Ġsol atip
Ġwar nya
Ġwar ming
Ġwar ned
Ġcost omer
Ġmar riage
aaaaaaaaaaaaaaaa aaaaaaaaaaa
Ġtem pting
Ġer o
Ġrap iiiii
ba ar
Ġsin s
Ġsin esend
Ġav a
Ġproper ty
ssssssss sssssss
Äłh el
Äłh ol
Äłh uh
aman si
con venient
Ġber apa
Ġber kh
Ġber cak
Ġje an
Ġsn eng
Ġsn are
ys a
uuuuuuuu uuu
uuuuuuuu uuuuu
uuuuuuuu uuuuuuu
Ġbre ed
Ġent al
Ġent ed
Ġent ion
Ġmantul lllll
jo e
Ġscr oll
Ġkk ak
Ġro ot
Ġcream er
Ġpoint y
iz ar
Ġmil ky
Äłg re
Äłg ak
ye w
ye yy
Ġtu en
Ġtu ong
ps an
Ġalhamdulillah hirobilalamin
Ġah ihi
Ġins an
Ġins ane
Ġins ulation
Ġnh i
Ġnh aaa
Ġdeal t
Ġaw a
pake tt
Ġho op
Ġho arse
Ġho bby
Ġpar as
Ġpar aaah
Ġses ue
Ġses usi
Ġpengiriman nn
Ġtap s
Ġtap iiii
Ġrel ish
Ġdik urangin
te en
dis gruntled
kn pa
che at
Ġmark ings
Ġcompl aining
jdjd bd
jdjd kd
jdjd jjdhd
iiiiiiii iiiiiii
band o
tttttttt tttttt
Ġlack ed
dddddddd dd
Ġbright en
Ġext ent
Ġext ends
Ġxl nya
send alnya
Äłn am
Äłn are
Ġsubst antial
Ġbn k
Ġsek rang
Ġsle bih
Ġul a
Ġbng ttt
Ġba ar
Ġba im
Ġba uny
Ġwa jah
mat t
Ġincl usion
Ġsil ly
Ġpes o
Ġdep anya
Ġplace ment
sy ch
comp ress
Ġprot ruding
Ġky u
ms g
ms gs
ky uuu
Ġmudah an
Äłl it
Äłl ab
Ġmah hs
Ġmem e
jsjs jd
Ġpuas sssssss
Ġlam g
Ġair line
sho ot
Ġsw eep
Ġsw apped
eeeeeeee eeeeeee
aff iti
jf h
jf z
iny alain
Ġpad u
Ġpad an
Ġnag k
Ġnag chat
ku walitas
atur ing
pal a
mer ged
bal as
Ġread s
Ġread able
Ġhuh uh
par ate
Ġlip balm
Ġpk ony
je he
man faat
Äłw l
Äłw ear
Äłw ang
Ġku ching
Ġku akitas
Ġdu ly
Ġstretch es
cl ick
emas annya
Ġgam ble
Ġgam itin
Ġcu coo
Ġaj alah
Ġfavor ably
Ġsen ders
Ġbener r
Ġsmpe k
pesen ya
Ġbh sa
Ġlum inous
Ġkm u
Ġye ast
Ġob edient
Ġscreen shot
Ġkal oka
Äłr ot
Ġcas ually
Ġmal functioning
Ġcot on
Ġfix ing
Ġdest inations
Ġrubber y
ump y
Ġeng gk
Ġsangat bagus
Ġsangat te
Ġsand wich
Ġflow s
Ġaman h
Ġhehehe hee
Ġpick les
oooooooo o
bang t
bang ets
Ġcam ni
Ġet ong
Ġzi pped
Ġkh t
Ġkh og
Äłdi rect
Ġgar n
fy fy
ker nya
bad ly
ko ok
Ġsing ing
Ġsing les
Ġheel ed
Ġil t
Ġ16 7
Ġ16 8
la im
Ġpn as
Ġexpedition ary
Ġspeak s
Ġwin ce
sem pat
Ġpot ong
Ġpot onya
Ġpot ential
fl av
fo cus
Ġbas ag
Ġbes tttt
trim aksih
Ġinexp nsive
Ġkayak s
Ġ201 3
Ġpan cakes
Ġdec ades
Ġpengirim in
Ġdin a
Ġvis ion
Äłsu it
nf g
nf nd
nf nnf
Ġwaste ful
Ġbed ding
Ġbed sheet
where ver
nnnnnnnn nnnn
put er
Ġpp y
Ġsyuk aaaaaa
Äłe very
df h
Ġbanyak kkkkk
sdh lpote
lam aa
Ġlab elled
Ġdrop shipper
Ġur ing
angg ap
jh f
Ġcho pped
kh fs
Ġlem bu
pak ing
Ġfear ful
Ġwind ing
Ġmen yesal
Ġir nya
Ġmom my
Ġtouch screen
Ġpin ag
Ġble potan
ds d
Ġselect ive
Äło f
Äło per
yaa mpun
Ġadjust s
amb ling
Ġclock wise
Ġcal cul
mp ai
Ġgre aness
Ġgre entea
suit ble
bz jz
dhdh dh
dhdh shdh
Ġbro om
jsj ss
jsj jsjsj
rep air
Ġlh t
cur rently
Ġjs jdjdjdkdksksksbdbxbxhd
Ġbb w
Ġut nya
Ġled nya
Äłng eb
Ġhijab nya
Ġom ni
Ġmaroon nya
wwww ww
Äłtr ust
Ġiron man
Äłpr oduk
Ġart isan
Ġart icles
jw j
20 2
Ġsatur ated
Ġstiff ness
kual ita
mak ai
Ġide as
Ġcup nya
Ġip is
Ġserious ness
sub tle
correspon d
Ġcent ered
Ġmix ing
Ġms lah
Ġlain n
Ġwood s
Ġkt ny
Ġconnect ions
Ġconnect icut
Ġmus im
Ġcomb ining
Ġgambar nya
Ġwkwkw kwkwkwkw
12 8
Ġkas ar
Ġkas ut
Ġkas ya
mantab b
sle e
xh d
Ġmng ecewakn
hand ulillah
Ġfi brous
Ġcutting an
Ġclick ed
Ġcepe ett
Ġcepe ttttt
bi ar
bi ke
Ġlap isin
Ġarm or
Ġwed ges
Ġtas nyaa
anj aa
anj utnya
Ġger ce
Äłcon tr
Ġcord s
Ġdib ers
Ġdib anyakin
cep wt
shsh shs
Ġcoff e
Ġtil t
fair ness
Ġti pping
Ġrot a
Ġrot ated
Ġdece it
oe ke
Ġting gi
Ġdim in
Äłbr o
Ġswitch es
tttttttttttttttt ttt
Ġkaa ih
Ġexpl ore
Ġexpl ains
Ġsang aatt
Ġdic ancel
ksks ksks
Ġanti ques
Ġsus u
Ġsus ceptible
Ġdil akban
Ġkit ten
Ġhy pe
Ġinf onya
Ġtread s
mur a
mur ahh
Ġmad ura
Ġih in
Ġign oring
Ġign atius
Ġmantaa appp
uit ous
Ġsust ained
Ġbow ed
Ġprior it
90 50
Ġpig gy
Ġbole ella
Ġslim y
Ġmnt p
Ġmakasii hhh
pd uk
Ġjar ang
cons ulting
wal king
Ġorgan izer
Ġfant asy
Ġpop ulist
Ġzig activate
Ġprop ose
alal al
Ġspot ting
Ġgand aaa
Ġken k
cont empor
Ġge h
Ġopp osed
Ġgh n
Ġbun ions
Ġbun yi
nnd ndnd
Ġbath ing
Ġmul berry
Äłex per
Ġbhan ny
Äłco ok
Ġdecor um
sn ap
Ġkli hatan
Ġgem s
war m
war ning
Ġmam ak
Ġbetul in
jfjf jf
16 0
16 5
Ġct ions
Ġcounter feiting
Äłac com
ster ious
Ġkil os
Äłim pro
ultra fast
Ġ08 38
sangat baik
Ġscam mers
pengiriman nya
Ġeconom ically
Ġabras ion
bre aks
Ġsix th
Äłsy n
pay ah
Ġdig its
Ġdig amabr
uuuuuu uus
pad ala
Ġlift ed
Äłne ed
Ġforeign ers
Ġglo be
Ġbuck led
Ġtraff icking
Ġelectric ally
big ger
Ġham pered
Ġdesk ri
mz m
Ġfond ly
Ġnie ces
Ġsipp lah
Ġmaxim al
mh z
Ġbis aa
abled urable
Ġnap o
Ġhay y
hal us
Ġ300 00
Ġann ounced
sal omon
Ġrim a
vw vw
Ġkec ii
mantapmantap mantap
Ġfeature d
Ġpor ous
Ġstor ks
hhhhhhhhhhhhhhhhhhhhhhhhhhhhhhhh hhhhhhhhhhhhhhhh
Ġskit ar
hair pin
iat rist
Äłber k
Ġrequire ment
Ġnakak ad
Ġsg uro
Ġgun ung
Ġtooth pick
lin er
Ġfu chsia
Ġsear ched
Ġbay ar
Äłce pe
anter n
Ġcloud y
Äłcom pet
kkkkkkkkkkkkkkkkkkkkkkkkkkkkkkkk kkkkkkkkkkkkkkkkkkkkkkkkkkkkkkkk
jel ek
Ġnyes ek
Ġvirus es
Ġdiper t
nxnx nx
mnt a
Ġmr ah
pengirim n
jsh shs
Ġmoisturi ze
Ġtan am
Ġsmu aa
Äłdr aw
off s
off icial
Ġcg uro
Ġmick y
Ġurg ently
bxbx bx
Ġreco end
Ġamp lifier
Ġrid ge
Ġbasket s
Äłag ain
Ġsciss or
Ġist ic
Ġren spon
bol t
bol nas
Ġcri ck
Ġcri ption
Ġspl ash
Ġspl attered
Ġkeb ayar
Ġtengky uuu
Ġtoko x
Ġdad dy
mash a
Ġprim arily
Ġukuran ny
makas iihh
sil ky
Ġsr moga
Ġreci procated
Ġsump ahhh
gggggggggggggggg gggggggggggggggg
Ġgant ung
Ġinsp ire
Ġinsp ired
Ġjump ing
Ġheav ily
sur v
Ġjud ging
oooooo ood
baj unya
Ġjat uh
Ġokokokokok okokok
Äłfr ag
bismillah irrah
Ġack now
Ġress eller
Ġbangettttttttt tt
Ġpolish ing
kul itas
Ġdol phin
Ġbagusssssssss ss
Ġbagusssssssss sss
tqtqtq q
gant ung
okoko jojokokojojojojokokkkojkkkk
Ġtrimakasi hh
Ġwlw pn
cant ek
Ġcontempor ary
mic ro
Ġcamp us
Ġuniform ity
Ġmelt s
Ġhic cups
Ġtebell l
Ġafford ably
Ġexagger ating
Ġ55555 55
Ġbelanj an
Ġnem uin
Ġalert s
Ġsettle ment
Ġshoel ace
Ġsab un
Ġguid elines
Ġparticip ated
Ġstrugg ling
jak arta
point ed
sam pee
Ġbeng kok
Ġox ford
sty le
jjjjjjjj jjjjjjjj
ache ck
bing it
mac am
Ġaes th
Ġbod o
Ġoun ce
bus iness
sat ified
Ġcet ar
bagu yu
Ġ099 57
Ġsebelum nya
Ġhon or
Ġsett ling
bsbsbsbs bsbsbsbs
Ġcounsel or
ertyuiop asdfghjklzxcvbnm
Ġfest ive
Ġremark able
Ġpembeli an
Ġhumid ifier
Ġmotorcy cles
lot te
mach ines
sampe k
Ġobs erved
Ġstabil ization
Ġjour n
Ġenvironment al
Ġresid ual
pri or
power ing
Ġcip utnya
Ġnil ai
wrn anya
terimakas h
Ġrum ayan
Ġcla ustrophobic
Ġpenj ul
Ġbaguuuus sss
itip in
Ġbant uin
kemas nya
prov ide
gwgw gwgw
vvvvvvvvvvvvvvvv vvvvvvvvvvvvvvvv
vdvdv dhdhdbdbdbebebdbevdvdvdvdv
tom orrow
Ġpli able
Ġnurs ery
ante cedent
Ġditunggu in
cun cun
Ġkf c
Ġxr ugi
trimakasihtrimakasih trimakasihtrimakasih
Ġjazakillah u
past u
Ġbam get
Ġcin namon
Ġinno cent
Ġvirt ual
ldld ld
jljj fgzdsjhkhhxdashfjh
jas am
Ġpill ing
Ġnamp ak
Ġindi a
Ġbosk uu
shock ed
Ġlegging nya
Ġsyuu uk
Ġtriang ular
semu anya
clock wise
Ġtrend y
Ġtny ta
cen ce
Ġpredi ctions
Ġamby ar
button s
cepatcepat cepat
oyx oyx
Ġpharm ac
Ġjazakumullah u
fkh dfsfdgdhdfs
Ġbater y
Ġkup u
Ġcray ons
Ġcredi ble
Ġcockro ach
bny k
Ġgom awo
Ġdice k
amm ation
Ġdismant led
Ġundert one
Ġrestri ctions
Ġpenju all
Ġdepth s
Ġeyeli ds
regret s
jsbsjsbs jsbs
nare ceive
Ġbaw ah
angh ai
Ġmort ar
start ed
099 7129
Ġtod dlers
oty pe
unexpected ly
Ġzzzzz zzz
Ġemerg ency
mand ailing
Ġoer nah
uls ion
jjcjc jckkck
tech n
Ġlengk appp
Ġnakap lastic
Ġdirap ihin
Ġmast ers
Ġgrape fruit
0000 490
batre nya
Ġpim ple
Ġprick ly
Ġhen na
Ġsupr ise
loy ment
Ġbangeeeeee eet
Ġglitch es
nsangat nbaik
Ġsese uai
Ġukh ti
sesua ii
nsnsnsnns nsnsnsnns
Ġborne o
Ġpiss ed
Ġthab k
Ġnim ble
Ġsacrif ice
Ġperipher y
Ġpharma cies
Ġdiscred ited
Ġwarr nty
Ġrejek inya
Ġrender ed
satur day
Ġapl g
Ġcst mr
Ġciv il
Ġsobe kk
Ġdifoto in
Ġbangettttttttttttttttttttttttt ttt
excess ive
Ġnause ated
Ġqwr qwr
phys ical
Ġprofession ally
Ġpreserv ation
Ġcondens ation
fing er
Ġdion gkir
Ġcct v
Ġdisi ini
Ġgroom ed
Ġcroc od
provid ing
Ġapric ot
Ġmaksim al
Ġparag raph
Ġmembr ane
Ġmiscar ry
Ġgamas alah
Äłconn ect
Ġdirum ahaja
eyes hadow
sump ahh
attract ive
sex ual
Ġdisp ute
Ġdisrespect ful
Ġcontamin ated
Ġbarcod es
Ġkekur angan
mhkdfsng mffafdmhbzdagdhfnf
restaur ant
jlkjtgdbh khjfhefsbfj
jgvdfsnhkhh fsgchgjgjgjfgddagxk
represent ation
orign al
Ġlore al
Ġsturd iness
Ġaggri eved
Ġperkir aan
Ġkebanget an
Ġprovis ional
ffmjkhnd cacdnhmfcssgf
Ġenthus astic
Ġemeral d
Ġmahhs uuka
0 3
1 99
2 10
3 62
5 2
7 1
7 16
7 0000490
8 40
8 38
9 3
9 4
a oke
a unya
b th
[...]
