{"<s>":0,"<pad>":1,"</s>":2,"<unk>":3,"<mask>":4,"!":5,"\"":6,"#":7,"$":8,"%":9,"&":10,"'":11,"(":12,")":13,"*":14,"+":15,",":16,"-":17,".":18,"/":19,"0":20,"1":21,"2":22,"3":23,"4":24,"5":25,"6":26,"7":27,"8":28,"9":29,":":30,";":31,"<":32,"=":33,">":34,"?":35,"@":36,"A":37,"B":38,"C":39,"D":40,"E":41,"F":42,"G":43,"H":44,"I":45,"J":46,"K":47,"L":48,"M":49,"N":50,"O":51,"P":52,"Q":53,"R":54,"S":55,"T":56,"U":57,"V":58,"W":59,"X":60,"Y":61,"Z":62,"[":63,"\\":64,"]":65,"^":66,"_":67,"`":68,"a":69,"b":70,"c":71,"d":72,"e":73,"f":74,"g":75,"h":76,"i":77,"j":78,"k":79,"l":80,"m":81,"n":82,"o":83,"p":84,"q":85,"r":86,"s":87,"t":88,"u":89,"v":90,"w":91,"x":92,"y":93,"z":94,"{":95,"|":96,"}":97,"~":98,"¡":99,"¢":100,"£":101,"¤":102,"¥":103,"¦":104,"§":105,"¨":106,"©":107,"ª":108,"«":109,"¬":110,"®":111,"¯":112,"°":113,"±":114,"²":115,"³":116,"´":117,"µ":118,"¶":119,"·":120,"¸":121,"¹":122,"º":123,"»":124,"¼":125,"½":126,"¾":127,"¿":128,"À":129,"Á":130,"Â":131,"Ã":132,"Ä":133,"Å":134,"Æ":135,"Ç":136,"È":137,"É":138,"Ê":139,"Ë":140,"Ì":141,"Í":142,"Î":143,"Ï":144,"Ð":145,"Ñ":146,"Ò":147,"Ó":148,"Ô":149,"Õ":150,"Ö":151,"×":152,"Ø":153,"Ù":154,"Ú":155,"Û":156,"Ü":157,"Ý":158,"Þ":159,"ß":160,"à":161,"á":162,"â":163,"ã":164,"ä":165,"å":166,"æ":167,"ç":168,"è":169,"é":170,"ê":171,"ë":172,"ì":173,"í":174,"î":175,"ï":176,"ð":177,"ñ":178,"ò":179,"ó":180,"ô":181,"õ":182,"ö":183,"÷":184,"ø":185,"ù":186,"ú":187,"û":188,"ü":189,"ý":190,"þ":191,"ÿ":192,"Ā":193,"ā":194,"Ă":195,"ă":196,"Ą":197,"ą":198,"Ć":199,"ć":200,"Ĉ":201,"ĉ":202,"Ċ":203,"ċ":204,"Č":205,"č":206,"Ď":207,"ď":208,"Đ":209,"đ":210,"Ē":211,"ē":212,"Ĕ":213,"ĕ":214,"Ė":215,"ė":216,"Ę":217,"ę":218,"Ě":219,"ě":220,"Ĝ":221,"ĝ":222,"Ğ":223,"ğ":224,"Ġ":225,"ġ":226,"Ģ":227,"ģ":228,"Ĥ":229,"ĥ":230,"Ħ":231,"ħ":232,"Ĩ":233,"ĩ":234,"Ī":235,"ī":236,"Ĭ":237,"ĭ":238,"Į":239,"į":240,"İ":241,"ı":242,"Ĳ":243,"ĳ":244,"Ĵ":245,"ĵ":246,"Ķ":247,"ķ":248,"ĸ":249,"Ĺ":250,"ĺ":251,"Ļ":252,"ļ":253,"Ľ":254,"ľ":255,"Ŀ":256,"ŀ":257,"Ł":258,"ł":259,"Ń":260,"Ġs":261,"er":262,"Ġt":263,"od":264,"Ġa":265,"in":266,"Ġp":267,"Ġth":268,"it":269,"el":270,"Ġg":271,"al":272,"Ġb":273,"re":274,"Ġo":275,"ood":276,"is":277,"Ġf":278,"Ġd":279,"ver":280,"an":281,"Ġc":282,"Ġw":283,"ed":284,"Ġgood":285,"Ġthe":286,"very":287,"Ġpr":288,"ce":289,"ct":290,"ing":291,"en":292,"es":293,"Ġm":294,"on":295,"Ġn":296,"at":297,"or":298,"Ġh":299,"as":300,"odu":301,"Ġl":302,"oduct":303,"ell":304,"qu":305,"Ġis":306,"Ġqu":307,"Ġproduct":308,"ity":309,"om":310,"ality":311,"Ġquality":312,"Ġre":313,"th":314,"ice":315,"ar":316,"Ġvery":317,"eli":318,"ou":319,"il":320,"Ġan":321,"Ġto":322,"pe":323,"Ġe":324,"ly":325,"Ġdeli":326,"ck":327,"ut":328,"Ġsh":329,"ot":330,"Ġdelivery":331,"us":332,"le":333,"ri":334,"ent":335,"Ġand":336,"Ġi":337,"Ġof":338,"Ġit":339,"Ġk":340,"Ġy":341,"ag":342,"Ġsell":343,"pp":344,"Ġseller":345,"ast":346,"ay":347,"Ġin":348,"ack":349,"Ġst":350,"Ġprice":351,"Ġnot":352,"Ġal":353,"Ġbe":354,"ome":355,"Ġu":356,"ank":357,"ith":358,"aa":359,"Ġfa":360,"Ġwith":361,"ve":362,"ch":363,"Ġbut":364,"am":365,"Ġsm":366,"ul":367,"Ġfor":368,"xc":369,"Ġspe":370,"se":371,"der":372,"Äł":373,"xcell":374,"xcellent":375,"Ġspeed":376,"gh":377,"Ġpack":378,"Ġor":379,"ad":380,"ke":381,"wes":382,"ble":383,"Ġthank":384,"wesome":385,"Ġsho":386,"Ġfast":387,"Ġface":388,"good":389,"ol":390,"ion":391,"Ġsu":392,"sp":393,"Ġv":394,"Ġgoods":395,"Ġj":396,"ue":397,"Ġorder":398,"Ġli":399,"et":400,"ill":401,"ow":402,"Ġon":403,"ak":404,"and":405,"spon":406,"ear":407,"ah":408,"the":409,"Ġshi":410,"ap":411,"im":412,"ain":413,"Ġyou":414,"able":415,"em":416,"Ġsmil":417,"Ġrespon":418,"Ġok":419,"Ġval":420,"ok":421,"Ġne":422,"st":423,"ur":424,"ght":425,"Ġawesome":426,"ss":427,"Ġch":428,"Ġvalue":429,"end":430,"ya":431,"un":432,"Ġsmiling":433,"ther":434,"Ġso":435,"Ġwh":436,"um":437,"Ġr":438,"ful":439,"ant":440,"ere":441,"ust":442,"ir":443,"Ġpackag":444,"Ġresponse":445,"one":446,"tt":447,"ally":448,"Ġexcellent":449,"id":450,"ore":451,"Ġser":452,"ort":453,"Ġlo":454,"Ġbu":455,"pr":456,"ang":457,"Ġthat":458,"Ġserv":459,"Ġcom":460,"bs":461,"Ġnice":462,"Ġup":463,"Ġservice":464,"so":465,"ved":466,"ong":467,"all":468,"Ġwas":469,"ely":470,"Ġlike":471,"yes":472,"Ġas":473,"ff":474,"Ġwell":475,"excellent":476,"Ġtim":477,"Ġthis":478,"Ġag":479,"Ġare":480,"Ġhear":481,"Ġha":482,"Ġcon":483,"Ġheart":484,"Ġun":485,"use":486,"Ġthanks":487,"ess":488,"Ġother":489,"Ġalso":490,"gin":491,"Ġeyes":492,"ic":493,"Ġori":494,"Ġ1":495,"ee":496,"com":497,"Ġshipp":498,"Ġsi":499,"ady":500,"product":501,"Ġbuy":502,"Ġac":503,"Ġwill":504,"Ġagain":505,"Ġmy":506,"ginal":507,"hh":508,"Ġex":509,"Ġcol":510,"Ġtr":511,"Ġtime":512,"ard":513,"Ġoriginal":514,"Ġreally":515,"Ġdo":516,"nya":517,"oney":518,"ld":519,"Ġmoney":520,"Ġdis":521,"ter":522,"Ġmat":523,"aaaa":524,"Ġse":525,"Ġde":526,"ick":527,"ze":528,"Ġ2":529,"Ġfr":530,"Ġshop":531,"ive":532,"Ġbl":533,"Ġcolor":534,"reat":535,"Ġfit":536,"Ġpackaging":537,"ord":538,"Ġitem":539,"Ġhave":540,"Ġsa":541,"pt":542,"ii":543,"ial":544,"Ġno":545,"lo":546,"Ġjust":547,"way":548,"Ġwor":549,"fort":550,"Ġche":551,"app":552,"umbs":553,"Ġwr":554,"awesome":555,"est":556,"per":557,"Ġthumbs":558,"Ġbr":559,"Ġrece":560,"int":561,"Ġsize":562,"ure":563,"Ġhis":564,"Ġall":565,"Ġlong":566,"kk":567,"Ġdi":568,"ate":569,"comm":570,"ived":571,"Ġme":572,"Ġits":573,"Ġcan":574,"ope":575,"Ġar":576,"uu":577,"Ġbo":578,"erial":579,"Ġship":580,"Ġtoo":581,"Ġokay":582,"sh":583,"Ġmu":584,"li":585,"fully":586,"ame":587,"Ġim":588,"tle":589,"ready":590,"ca":591,"Ġhe":592,"Ġpacking":593,"Ġfrom":594,"ould":595,"Ġmaterial":596,"Ġtp":597,"aut":598,"Ġpre":599,"thank":600,"Ġ3":601,"Ġat":602,"fe":603,"Ġco":604,"Ġacc":605,"atis":606,"age":607,"Ġpo":608,"ase":609,"atisf":610,"Ġcp":611,"auti":612,"ite":613,"op":614,"Ġproducts":615,"Ġkg":616,"autiful":617,"ough":618,"Ġreceived":619,"ab":620,"oo":621,"fortable":622,"pet":623,"Ġcheap":624,"Ġshipping":625,"gt":626,"Ġthere":627,"Ġmuch":628,"Ġlit":629,"Ġshoes":630,"ation":631,"Ġsatisf":632,"Ġhope":633,"Ġalready":634,"cause":635,"Ġlittle":636,"Ġpro":637,"Ġaccord":638,"ig":639,"##":640,"Ġbecause":641,"Ġhere":642,"Ġlove":643,"Ġany":644,"Ġus":645,"Ġmore":646,"ers":647,"Ġad":648,"Ġga":649,"ft":650,"ai":651,"Ġcomfortable":652,"Ġgreat":653,"fast":654,"oun":655,"xt":656,"tty":657,"Ġuse":658,"Ġbag":659,"ied":660,"Ġneat":661,"oint":662,"Ġce":663,"Ġone":664,"Ġby":665,"Ġsmall":666,"ih":667,"Ġbeautiful":668,"Ġpl":669,"Ġthin":670,"Ġlight":671,"Ġunt":672,"Ġonly":673,"ake":674,"ng":675,"Ġday":676,"Ġam":677,"dh":678,"ise":679,"Ġstore":680,"Ġpi":681,"Ġif":682,"appoint":683,"eng":684,"are":685,"ry":686,"Ġout":687,"ance":688,"cri":689,"act":690,"andard":691,"Ġover":692,"ven":693,"he":694,"Ġyes":695,"Ġarri":696,"Ġthan":697,"Ġshipped":698,"Ġuntil":699,"Ġdisappoint":700,"Ġpretty":701,"ways":702,"Ġsk":703,"Ġhas":704,"Ġstu":705,"Ġhand":706,"Ġsatisfied":707,"commend":708,"Ġbgt":709,"ning":710,"Ġny":711,"ately":712,"Ġya":713,"ition":714,"Ġnext":715,"Ġcomp":716,"ks":717,"Ġfe":718,"Ġsent":719,"ous":720,"Ġworth":721,"Ġrecommend":722,"Ġstar":723,"low":724,"Ġhopefully":725,"Ġfri":726,"goods":727,"Ġred":728,"Ġ5":729,"rim":730,"ree":731,"her":732,"ine":733,"Ġstuff":734,"Ġquick":735,"ens":736,"Ġsame":737,"Ġstandard":738,"ption":739,"ass":740,"Ġalways":741,"Ġfab":742,"Ġrep":743,"Ġnew":744,"Ġfriend":745,"Ġen":746,"Ġpict":747,"ga":748,"Ġper":749,"ating":750,"Ġbit":751,"dition":752,"Ġmer":753,"Ġkak":754,"Ġcont":755,"ny":756,"Ġstill":757,"Ġgr":758,"Ġsome":759,"Ġlook":760,"Ġclo":761,"edi":762,"Ġless":763,"Ġsuper":764,"Ġthey":765,"irst":766,"pect":767,"Ġbeen":768,"iss":769,"Ġri":770,"Ġsubs":771,"cription":772,"Ġwear":773,"Ġpur":774,"Ġmerch":775,"dd":776,"akas":777,"old":778,"Ġdes":779,"Ġher":780,"Ġpackage":781,"out":782,"deli":783,"ric":784,"Ġcondition":785,"gg":786,"Ġsp":787,"andise":788,"ge":789,"su":790,"pping":791,"Ġ4":792,"Ġmerchandise":793,"Ġskin":794,"Ġcut":795,"Ġcepet":796,"Ġdisappointed":797,"Ġle":798,"ide":799,"Ġfirst":800,"Ġexpect":801,"Ġfriendly":802,"eady":803,"Ġwhen":804,"Ġbang":805,"ight":806,"pack":807,"Ġbox":808,"dul":809,"Ġgi":810,"Ġshoe":811,"be":812,"Ġter":813,"ham":814,"urn":815,"Ġaccording":816,"any":817,"cess":818,"let":819,"Ġwe":820,"Ġtry":821,"Ġmay":822,"Ġsaf":823,"Ġpicture":824,"Ġthem":825,"Ġsend":826,"Ġpackaged":827,"Ġwant":828,"illah":829,"nice":830,"other":831,"fect":832,"Ġarrived":833,"Ġpa":834,"Ġwho":835,"ist":836,"Ġx":837,"delivery":838,"hamdul":839,"Ġitems":840,"Ġfabric":841,"ought":842,"Ġab":843,"Ġexp":844,"Ġdoes":845,"Ġdiff":846,"Ġfree":847,"nt":848,"Ġcust":849,"ait":850,"Ġaf":851,"ci":852,"os":853,"Ġsafely":854,"Ġph":855,"nn":856,"Ġbig":857,"aaaaaaaa":858,"Ġsec":859,"hhhh":860,"odating":861,"ect":862,"our":863,"Ġthen":864,"Ġsy":865,"ting":866,"Ġwould":867,"Ġget":868,"amp":869,"Ġquite":870,"si":871,"thes":872,"Ġpurch":873,"hamdulillah":874,"pee":875,"Ġanyway":876,"ll":877,"Ġkn":878,"Ġtw":879,"ud":880,"ich":881,"Ġshopping":882,"Ġordered":883,"Ġprices":884,"Ġthese":885,"Ġtone":886,"ound":887,"Ġeven":888,"Ġaccordance":889,"Ġslow":890,"Ġapp":891,"Ġrun":892,"thanks":893,"Ġsafe":894,"Ġwhat":895,"Ġdeh":896,"ment":897,"ind":898,"Ġafter":899,"commodating":900,"ac":901,"Ġquickly":902,"Ġimm":903,"Ġjg":904,"wh":905,"fore":906,"Ġcute":907,"Ġdur":908,"Ġmess":909,"ssss":910,"Ġbub":911,"Ġsuit":912,"Ġaccommodating":913,"bag":914,"astic":915,"Ġcome":916,"Ġmant":917,"Ġsteady":918,"Ġshould":919,"day":920,"Ġorders":921,"Ġwrap":922,"Ġcustom":923,"Ġrecommended":924,"Ġdays":925,"Ġsoft":926,"Ġdr":927,"av":928,"Ġfl":929,"thing":930,"we":931,"ka":932,"pport":933,"Ġimmedi":934,"Ġshopee":935,"Ġke":936,"Ġbefore":937,"Ġlah":938,"ert":939,"Ġoverall":940,"ress":941,"Ġcare":942,"Ġlg":943,"Ġple":944,"light":945,"ink":946,"Ġwhich":947,"Ġimmediately":948,"art":949,"Ġbubble":950,"Ġbest":951,"ach":952,"esen":953,"Ġhi":954,"Ġdiffer":955,"Ġused":956,"ual":957,"Ġdam":958,"ja":959,"Ġcool":960,"Ġtwo":961,"kkkk":962,"ush":963,"ail":964,"iv":965,"okok":966,"ne":967,"ung":968,"Ġdid":969,"Ġhad":970,"Ġtran":971,"Ġkiss":972,"Ġbanget":973,"Ġbad":974,"ult":975,"rier":976,"uuuu":977,"Ġbagus":978,"Ġwait":979,"Ġtq":980,"Ġgod":981,"Ġgo":982,"Ġmo":983,"aw":984,"Ġstr":985,"ie":986,"Ġ10":987,"Ġsubscription":988,"ish":989,"Ġhands":990,"orm":991,"ace":992,"di":993,"Ġte":994,"Ġlot":995,"Ġhow":996,"ampe":997,"own":998,"Ġaff":999,"owing":1000,"Ġjo":1001,"iiii":1002,"Ġmake":1003,"Ġcomplet":1004,"rect":1005,"ose":1006,"aik":1007,"Ġcor":1008,"br":1009,"like":1010,"Ġsupport":1011,"Ġblack":1012,"Ġsc":1013,"Ġhapp":1014,"alhamdulillah":1015,"ip":1016,"respon":1017,"ange":1018,"Ġwere":1019,"Ġcr":1020,"Ġold":1021,"Ġfeel":1022,"nd":1023,"au":1024,"Ġwork":1025,"fin":1026,"mm":1027,"Ġright":1028,"tttt":1029,"Ġthick":1030,"ated":1031,"inning":1032,"Ġmessage":1033,"Ġcontin":1034,"Ġdeliver":1035,"ings":1036,"Ġback":1037,"Ġyet":1038,"this":1039,"irim":1040,"Ġdifferent":1041,"great":1042,"Ġexpected":1043,"jd":1044,"Ġbought":1045,"Ġgrinning":1046,"Ġhearts":1047,"Ġanother":1048,"ber":1049,"Ġreply":1050,"ark":1051,"bo":1052,"ies":1053,"akasih":1054,"Ġgk":1055,"ater":1056,"Ġphot":1057,"Ġevery":1058,"ild":1059,"its":1060,"Ġtimes":1061,"Ġsuc":1062,"not":1063,"Ġpair":1064,"Ġcar":1065,"bagus":1066,"Ġpe":1067,"ount":1068,"ond":1069,"pppp":1070,"ertain":1071,"ather":1072,"Ġoff":1073,"Ġint":1074,"Ġenough":1075,"js":1076,"Ġpoor":1077,"pat":1078,"ction":1079,"Ġsal":1080,"Ġdurable":1081,"Ġsuccess":1082,"Ġblowing":1083,"pen":1084,"order":1085,"lightly":1086,"Ġmany":1087,"Ġturn":1088,"Ġpesen":1089,"Ġsens":1090,"Ġhappy":1091,"rop":1092,"wn":1093,"Ġgift":1094,"Ġeas":1095,"Ġneed":1096,"Ġinst":1097,"ordable":1098,"Ġjd":1099,"Ġcertain":1100,"Ġknow":1101,"aaa":1102,"Ġsay":1103,"Ġneatly":1104,"Ġreal":1105,"ended":1106,"ile":1107,"ears":1108,"tter":1109,"und":1110,"Ġchat":1111,"Ġsensit":1112,"Ġfold":1113,"Ġplease":1114,"Ġbar":1115,"Ġaffordable":1116,"Ġhigh":1117,"ull":1118,"Ġbetter":1119,"Ġpurchase":1120,"Äłs":1121,"Ġpass":1122,"oken":1123,"item":1124,"ire":1125,"Ġyour":1126,"ropri":1127,"Ġslightly":1128,"Ġcheck":1129,"de":1130,"unately":1131,"aged":1132,"Ġwhite":1133,"Ġdah":1134,"ropriate":1135,"Ġput":1136,"ik":1137,"Ġlu":1138,"Ġve":1139,"Ġsee":1140,"Ġmatch":1141,"Ġcertainly":1142,"if":1143,"Ġplastic":1144,"ash":1145,"Ġperfect":1146,"up":1147,"Ġwrong":1148,"Ġsis":1149,"itely":1150,"Ġbroken":1151,"Ġgl":1152,"eeee":1153,"Ġfun":1154,"Ġng":1155,"Ġthink":1156,"Ġtri":1157,"though":1158,"Ġsuitable":1159,"Ġfolded":1160,"aming":1161,"Ġimage":1162,"Ġcomplete":1163,"mant":1164,"Ġdefin":1165,"uk":1166,"Ġnow":1167,"Ġsure":1168,"Ġtast":1169,"Ġcl":1170,"tr":1171,"ants":1172,"Ġclothes":1173,"Ġnyampe":1174,"na":1175,"Ġask":1176,"Ġhehe":1177,"ves":1178,"Ġcarefully":1179,"Ġdefinitely":1180,"ock":1181,"Ġhu":1182,"Ġres":1183,"Ġbg":1184,"Ġsmile":1185,"arg":1186,"Ġ6":1187,"ade":1188,"Ġrunning":1189,"Ġdelivered":1190,"Ġcou":1191,"Ġpeng":1192,"Äłp":1193,"Ġwrapp":1194,"Ġopen":1195,"Ġbeaming":1196,"Äłm":1197,"Ġwee":1198,"ign":1199,"Äłb":1200,"Ġsuk":1201,"Ġstandards":1202,"Ġappropriate":1203,"no":1204,"ep":1205,"they":1206,"Ġtop":1207,"ote":1208,"anya":1209,"ooth":1210,"Ġudh":1211,"Ġabout":1212,"Ġz":1213,"Ġmin":1214,"00":1215,"but":1216,"ory":1217,"orry":1218,"Ġlet":1219,"co":1220,"rt":1221,"Ġservices":1222,"ually":1223,"Ġconf":1224,"Ġblue":1225,"Ġrecom":1226,"Ġpassable":1227,"les":1228,"blem":1229,"ro":1230,"mo":1231,"Ġdent":1232,"Ġcolors":1233,"eep":1234,"packing":1235,"arge":1236,"Ġko":1237,"Ġcustomer":1238,"Ġcame":1239,"Ġgot":1240,"Ġproblem":1241,"Ġbaik":1242,"Ġgu":1243,"ence":1244,"Ġem":1245,"az":1246,"ason":1247,"Ġrather":1248,"ding":1249,"ues":1250,"Ġcle":1251,"Ġinc":1252,"Ġlik":1253,"Ġdescription":1254,"Ġret":1255,"Ġstars":1256,"bb":1257,"my":1258,"Ġfo":1259,"ple":1260,"ret":1261,"atter":1262,"Ġshirt":1263,"Ġmon":1264,"dddd":1265,"Ġsmooth":1266,"reen":1267,"Ġadd":1268,"ensive":1269,"Ġmm":1270,"Ġfitting":1271,"pl":1272,"side":1273,"Ġsamp":1274,"Ġmod":1275,"Ġni":1276,"Ġref":1277,"rying":1278,"shop":1279,"super":1280,"Ġoke":1281,"ener":1282,"Äłc":1283,"Ġphoto":1284,"Ġsecond":1285,"Ġthough":1286,"Ġ9":1287,"Ġmas":1288,"Ġalthough":1289,"Ġact":1290,"Ġswe":1291,"Ġown":1292,"Ġchild":1293,"ased":1294,"Ġcould":1295,"Ġeasy":1296,"bu":1297,"Ġtransp":1298,"Ġdamaged":1299,"fortunately":1300,"sm":1301,"ling":1302,"Ġbot":1303,"you":1304,"ations":1305,"get":1306,"Ġsel":1307,"Ġung":1308,"rr":1309,"Ġsellers":1310,"Ġfull":1311,"atch":1312,"irt":1313,"ced":1314,"Äłd":1315,"Ġel":1316,"Ġshort":1317,"iriman":1318,"Ġshe":1319,"Ġwithout":1320,"Ġsoon":1321,"Ġprov":1322,"Ġsecure":1323,"Ġmou":1324,"irm":1325,"Ġpink":1326,"Ġ20":1327,"ery":1328,"rece":1329,"Ġreg":1330,"Ġpart":1331,"Ġcrying":1332,"Ġbrg":1333,"Ġwrapped":1334,"Ġkr":1335,"Ġpacked":1336,"Ġstick":1337,"Ġaja":1338,"Ġcase":1339,"ahah":1340,"Ġgive":1341,"Ġlonger":1342,"bel":1343,"Ġrepe":1344,"Ġda":1345,"Ġkeep":1346,"gr":1347,"Ġcard":1348,"Ġterim":1349,"Ġsem":1350,"Ġatt":1351,"Ġcm":1352,"Ġyaa":1353,"oke":1354,"ulous":1355,"Ġdirect":1356,"onus":1357,"ari":1358,"Ġonce":1359,"Ġtpi":1360,"quality":1361,"Ġtransport":1362,"dah":1363,"Ġwal":1364,"Ġcontinue":1365,"Ġjoy":1366,"enya":1367,"Ġcum":1368,"Ġdat":1369,"ary":1370,"Ġcover":1371,"Ġhard":1372,"zz":1373,"less":1374,"Ġlooks":1375,"Ġtears":1376,"Ġtrim":1377,"Ġcourier":1378,"Ġunder":1379,"ug":1380,"Ġbonus":1381,"akasi":1382,"Ġdefect":1383,"po":1384,"Ġcorrespon":1385,"Ġbab":1386,"Ġsmell":1387,"Ġear":1388,"Ġunfortunately":1389,"Ġwrote":1390,"pro":1391,"Ġusing":1392,"what":1393,"oooo":1394,"Ġgiven":1395,"Ġpost":1396,"Ġdown":1397,"Ġcarrier":1398,"Ġfeet":1399,"ex":1400,"Ġimp":1401,"Ġrest":1402,"oud":1403,"these":1404,"ily":1405,"Ġreason":1406,"Ġmouth":1407,"Ġsub":1408,"Ġmodel":1409,"Ġmedi":1410,"Ġbook":1411,"Ġmk":1412,"ving":1413,"Ġed":1414,"ren":1415,"Ġrepeat":1416,"Ġap":1417,"iew":1418,"Ġpants":1419,"Ġtake":1420,"min":1421,"Ġyg":1422,"Ġset":1423,"Ġhel":1424,"Ġka":1425,"kw":1426,"Ġnever":1427,"Ġfits":1428,"ece":1429,"uh":1430,"Ġcheaper":1431,"Ġsubscriptions":1432,"Ġexact":1433,"Ġ7":1434,"Ġrecomended":1435,"Ġmedium":1436,"Ġcepat":1437,"Ġtight":1438,"Ġstores":1439,"Ġfabulous":1440,"Ġtried":1441,"pre":1442,"Ġmost":1443,"Ġrev":1444,"Ġwhy":1445,"ions":1446,"ious":1447,"Äłt":1448,"Ġfin":1449,"Ġfine":1450,"Ġreturn":1451,"row":1452,"Ġbuying":1453,"form":1454,"Ġdesign":1455,"ents":1456,"beautiful":1457,"Ġdisc":1458,"received":1459,"Ġak":1460,"ns":1461,"Ġdate":1462,"Ġnya":1463,"Ġpay":1464,"annya":1465,"Ġbaby":1466,"Ġweek":1467,"Ġlast":1468,"itch":1469,"avy":1470,"Ġsad":1471,"Ġson":1472,"ket":1473,"eller":1474,"bl":1475,"Ġcomm":1476,"Ġ8":1477,"tq":1478,"Ġsdh":1479,"Ġrequ":1480,"Ġsale":1481,"Ġfar":1482,"Ġprom":1483,"ha":1484,"Ġmak":1485,"Ġsur":1486,"lu":1487,"ont":1488,"Ġrefund":1489,"Ġturns":1490,"ever":1491,"wr":1492,"Ġpen":1493,"Ġcreat":1494,"cs":1495,"ali":1496,"Ġgan":1497,"Ġseem":1498,"Ġna":1499,"hehe":1500,"Ġhr":1501,"ness":1502,"Ġtrust":1503,"Ġfrag":1504,"Ġsensitive":1505,"55":1506,"Ġgpp":1507,"Ġthose":1508,"da":1509,"Ġhal":1510,"Ġloud":1511,"Ġmaterials":1512,"bed":1513,"oga":1514,"ted":1515,"Ġ0":1516,"Ġpu":1517,"Ġarrive":1518,"Ġman":1519,"ople":1520,"bd":1521,"ini":1522,"Ġmust":1523,"ori":1524,"Ġsaid":1525,"Ġmade":1526,"Ġcomes":1527,"asi":1528,"terday":1529,"oday":1530,"ages":1531,"Ġdt":1532,"Ġprocess":1533,"Ġwhere":1534,"cept":1535,"ward":1536,"hhhhhhhh":1537,"Ġinter":1538,"Ġeff":1539,"already":1540,"Äłk":1541,"Ġmonth":1542,"Ġexactly":1543,"sive":1544,"Ġnorm":1545,"Ġworks":1546,"Ġcre":1547,"Ġtoday":1548,"Ġpeople":1549,"Ġmot":1550,"Ġmur":1551,"Ġgoing":1552,"Ġla":1553,"Ġbarang":1554,"Ġbless":1555,"ape":1556,"Ġcush":1557,"ub":1558,"Ġhour":1559,"Ġcons":1560,"Ġcloth":1561,"Ġwater":1562,"sw":1563,"Ġlate":1564,"Ġreceive":1565,"Ġdc":1566,"Ġhome":1567,"Ġcustomers":1568,"ner":1569,"Ġcuman":1570,"Ġpok":1571,"Ġfunction":1572,"well":1573,"ten":1574,"Ġstock":1575,"ead":1576,"aging":1577,"Ġloves":1578,"Ġpiece":1579,"Ġyesterday":1580,"Ġq":1581,"Ġdateng":1582,"Ġsim":1583,"Ġhelp":1584,"Ġcreate":1585,"gging":1586,"Ġhar":1587,"Ġsever":1588,"jj":1589,"yy":1590,"his":1591,"anan":1592,"ivity":1593,"ton":1594,"poor":1595,"king":1596,"Ġbs":1597,"Ġtrans":1598,"Ġtheir":1599,"fit":1600,"ient":1601,"Ġprovid":1602,"Ġbah":1603,"aint":1604,"Ġsol":1605,"Ġthx":1606,"Ġwar":1607,"Ġlarge":1608,"Ġcpt":1609,"ama":1610,"products":1611,"Ġcorresponding":1612,"Ġ12":1613,"Ġcost":1614,"ua":1615,"Ġbri":1616,"Ġmar":1617,"Ġbal":1618,"steady":1619,"llll":1620,"Ġbrand":1621,"Ġpas":1622,"Ġever":1623,"board":1624,"Ġform":1625,"Ġamc":1626,"Ġcushion":1627,"Ġthr":1628,"ially":1629,"Ġhim":1630,"aaaaaaaaaaaaaaaa":1631,"Ġrem":1632,"Ġrich":1633,"just":1634,"Ġtem":1635,"nnnn":1636,"Ġsorry":1637,"Ġloudly":1638,"Ġsatisfact":1639,"orn":1640,"idy":1641,"Ġthings":1642,"Ġfair":1643,"gn":1644,"Ġinstead":1645,"Ġconfirm":1646,"really":1647,"cent":1648,"urch":1649,"cribed":1650,"Ġer":1651,"Ġrap":1652,"cious":1653,"Ġreview":1654,"Ġway":1655,"kkkkkkkk":1656,"ired":1657,"ba":1658,"Ġfoot":1659,"Ġsweat":1660,"okay":1661,"Ġtebel":1662,"Ġkind":1663,"cel":1664,"Ġgreen":1665,"Ġing":1666,"love":1667,"Ġline":1668,"Ġklo":1669,"Ġsomewhat":1670,"Ġty":1671,"yesel":1672,"Ġsensitivity":1673,"aper":1674,"Ġdamage":1675,"Ġresult":1676,"Ġdress":1677,"Ġvalues":1678,"Ġlater":1679,"Ġansw":1680,"Ġthankyou":1681,"to":1682,"pretty":1683,"wor":1684,"asih":1685,"Ġdeliery":1686,"Ġchildren":1687,"ix":1688,"most":1689,"Ġtook":1690,"onya":1691,"Ġsuka":1692,"Ġstrong":1693,"Ġsin":1694,"Ġav":1695,"ably":1696,"Ġlow":1697,"Ġadv":1698,"ished":1699,"Ġproper":1700,"Ġrequest":1701,"red":1702,"Ġboss":1703,"Ġes":1704,"Ġresponsive":1705,"Ġpat":1706,"ility":1707,"seller":1708,"ssssssss":1709,"Ġdapet":1710,"Äłh":1711,"ouse":1712,"Ġboth":1713,"anded":1714,"packaging":1715,"Ġyung":1716,"bar":1717,"Ġreasonable":1718,"Ġtak":1719,"ellow":1720,"aman":1721,"con":1722,"ict":1723,"used":1724,"Ġamount":1725,"Ġ11":1726,"Ġber":1727,"Ġbatter":1728,"Ġje":1729,"Ġsn":1730,"ys":1731,"Ġmor":1732,"Ġshops":1733,"ared":1734,"Ġdh":1735,"Ġtaste":1736,"ize":1737,"uuuuuuuu":1738,"cm":1739,"Ġwide":1740,"ying":1741,"Ġfragr":1742,"Ġbre":1743,"Ġlooking":1744,"hhh":1745,"Ġnyesel":1746,"Ġfew":1747,"ek":1748,"Ġhugging":1749,"Ġsl":1750,"Ġinto":1751,"aise":1752,"Ġpow":1753,"Ġdislike":1754,"Ġlang":1755,"Ġmakasi":1756,"Ġchange":1757,"shi":1758,"Ġrepl":1759,"asing":1760,"ude":1761,"Ġmask":1762,"Ġthrough":1763,"Ġtest":1764,"Ġent":1765,"Ġbel":1766,"Ġlag":1767,"Ġeverything":1768,"Ġanswer":1769,"Ġtasty":1770,"Ġass":1771,"Ġpackingnya":1772,"pppppppp":1773,"Ġglass":1774,"Ġkrn":1775,"Ġwearing":1776,"aced":1777,"val":1778,"ger":1779,"ody":1780,"Ġmantul":1781,"Ġcour":1782,"Ġdirectly":1783,"Ġexpensive":1784,"okokokok":1785,"Ġclear":1786,"Ġstitch":1787,"ics":1788,"sider":1789,"jo":1790,"Ġfaster":1791,"Ġtidy":1792,"elf":1793,"Ġdg":1794,"Ġscr":1795,"Ġsmaller":1796,"Ġkk":1797,"Ġro":1798,"ouch":1799,"Ġforward":1800,"Ġrol":1801,"for":1802,"Ġsir":1803,"Ġheavy":1804,"led":1805,"Ġsmp":1806,"Ġcream":1807,"gs":1808,"line":1809,"Ġloved":1810,"Ġsatisfactory":1811,"Ġhot":1812,"Ġprovided":1813,"do":1814,"Ġthought":1815,"Ġang":1816,"there":1817,"Ġma":1818,"Ġlng":1819,"Ġpoint":1820,"Ġcardboard":1821,"rem":1822,"Ġyellow":1823,"Ġthing":1824,"standard":1825,"uture":1826,"ia":1827,"Ġdone":1828,"Ġaround":1829,"Ġliked":1830,"bh":1831,"buy":1832,"Ġbeing":1833,"Ġweight":1834,"usi":1835,"Ġothers":1836,"Ġflash":1837,"iz":1838,"Ġdiscount":1839,"kd":1840,"arger":1841,"Ġmil":1842,"ical":1843,"Ġbottle":1844,"ets":1845,"Ġgener":1846,"ised":1847,"Äłg":1848,"ye":1849,"Ġinside":1850,"Ġplus":1851,"col":1852,"Ġtu":1853,"ps":1854,"vel":1855,"Ġnum":1856,"Ġwash":1857,"ph":1858,"Ġproperly":1859,"ni":1860,"Ġsound":1861,"Ġalhamdulillah":1862,"stand":1863,"aur":1864,"pper":1865,"Ġserves":1866,"Ġasked":1867,"Ġah":1868,"action":1869,"Ġnormal":1870,"Ġum":1871,"Ġdented":1872,"Ġeach":1873,"uns":1874,"change":1875,"urchase":1876,"Ġaccept":1877,"Ġimpro":1878,"Ġfuture":1879,"Ġhead":1880,"elie":1881,"Ġins":1882,"Äłf":1883,"Ġconsider":1884,"ale":1885,"Ġeat":1886,"Ġmksh":1887,"Ġexpectations":1888,"Ġnh":1889,"Ġdeal":1890,"Ġaw":1891,"Ġcod":1892,"pake":1893,"Ġho":1894,"Ġtext":1895,"Ġpar":1896,"thusi":1897,"Ġtorn":1898,"Ġhighly":1899,"Ġshipment":1900,"kak":1901,"ors":1902,"Ġphotos":1903,"ron":1904,"tra":1905,"Ġses":1906,"Ġpengiriman":1907,"Ġdd":1908,"Ġdear":1909,"baik":1910,"Ġalmost":1911,"Ġtap":1912,"Ġmiss":1913,"cew":1914,"Ġend":1915,"Ġdark":1916,"Ġnge":1917,"ath":1918,"Ġenthusi":1919,"Ġpurchased":1920,"Ġluck":1921,"Ġrestaur":1922,"Ġdelicious":1923,"Ġturned":1924,"Ġrel":1925,"vv":1926,"Ġll":1927,"Ġsuch":1928,"Ġsip":1929,"Ġactually":1930,"Ġsiz":1931,"Ġlanded":1932,"ular":1933,"Ġcorrect":1934,"original":1935,"Ġrespond":1936,"ann":1937,"Ġchin":1938,"Ġpictures":1939,"Ġ100":1940,"Ġbattery":1941,"fer":1942,"Ġsty":1943,"ww":1944,"Ġpake":1945,"Ġdik":1946,"Ġloose":1947,"Ġrestaurant":1948,"te":1949,"xx":1950,"cepet":1951,"ached":1952,"Ġcourse":1953,"dis":1954,"kn":1955,"Ġdong":1956,"Ġsmoga":1957,"Ġwhile":1958,"Ġdraw":1959,"che":1960,"mit":1961,"sorry":1962,"Ġsqu":1963,"Ġker":1964,"ible":1965,"Ġseveral":1966,"ollow":1967,"git":1968,"Ġfind":1969,"Ġmark":1970,"Ġbuyer":1971,"ju":1972,"lah":1973,"Ġcompl":1974,"Ġside":1975,"inking":1976,"Ġinform":1977,"Ġdisappointing":1978,"jdjd":1979,"iiiiiiii":1980,"af":1981,"Ġselling":1982,"Ġleak":1983,"Ġdou":1984,"Ġprev":1985,"band":1986,"cp":1987,"apa":1988,"Ġincre":1989,"Ġdirt":1990,"iii":1991,"shipping":1992,"Ġtrimakasih":1993,"vor":1994,"oduk":1995,"irain":1996,"Ġyears":1997,"ans":1998,"Ġnaman":1999,"Ġfre":2000,"Ġpokonya":2001,"tttttttt":2002,"Ġsince":2003,"mb":2004,"Ġseems":2005,"Ġlack":2006,"Ġsubsid":2007,"dddddddd":2008,"Ġregret":2009,"Ġbreak":2010,"unt":2011,"Ġadmin":2012,"Ġrepurchase":2013,"Ġeffect":2014,"Ġpdh":2015,"Ġfunny":2016,"Ġbright":2017,"Ġpurple":2018,"gether":2019,"Ġjob":2020,"Ġbaguss":2021,"Ġbgus":2022,"por":2023,"Ġpers":2024,"Ġext":2025,"Ġmantap":2026,"Ġhowever":2027,"Ġsya":2028,"Ġxl":2029,"Ġphone":2030,"hope":2031,"oice":2032,"Ġguns":2033,"Ġcat":2034,"Ġfollow":2035,"Ġhouse":2036,"Ġseam":2037,"send":2038,"Äłn":2039,"Ġsubst":2040,"Ġstat":2041,"ru":2042,"Ġbn":2043,"cks":2044,"kg":2045,"Ġod":2046,"always":2047,"Ġsek":2048,"Ġbangett":2049,"Ġsle":2050,"Ġplay":2051,"Ġavail":2052,"Ġpraise":2053,"Ġbody":2054,"noon":2055,"Ġbott":2056,"over":2057,"Ġdue":2058,"Ġca":2059,"Ġul":2060,"Ġcareful":2061,"Ġbng":2062,"Ġba":2063,"Ġwa":2064,"Ġnumber":2065,"ty":2066,"enu":2067,"Ġmaybe":2068,"Ġhold":2069,"comfortable":2070,"Ġafternoon":2071,"Ġcomfort":2072,"mat":2073,"ending":2074,"Ġyah":2075,"pty":2076,"kom":2077,"Ġboun":2078,"Ġvari":2079,"Ġsold":2080,"Ġhair":2081,"Ġseal":2082,"pict":2083,"sss":2084,"Ġcoming":2085,"Ġworking":2086,"Ġeh":2087,"angat":2088,"allah":2089,"vely":2090,"Ġincl":2091,"Ġhours":2092,"Ġsil":2093,"Ġpes":2094,"Ġwaiting":2095,"Ġoh":2096,"Ġcall":2097,"thy":2098,"Ġnothing":2099,"Ġduring":2100,"Ġfall":2101,"Ġmag":2102,"Ġcompared":2103,"Ġver":2104,"ute":2105,"Ġdep":2106,"Ġplace":2107,"price":2108,"aps":2109,"Ġusual":2110,"Ġsubscribed":2111,"sy":2112,"Ġperfectly":2113,"Ġperson":2114,"Ġtexture":2115,"Ġlikes":2116,"Ġsli":2117,"cu":2118,"itas":2119,"Ġwinking":2120,"Ġpaper":2121,"Ġfort":2122,"spe":2123,"ana":2124,"Ġkok":2125,"comp":2126,"Ġbrown":2127,"mmmm":2128,"cil":2129,"Ġbrother":2130,"Ġdefective":2131,"cy":2132,"Ġnar":2133,"Äłre":2134,"Ġprot":2135,"Ġky":2136,"inting":2137,"Ġhalf":2138,"ms":2139,"Ġds":2140,"Ġtogether":2141,"Ġexc":2142,"ried":2143,"ttt":2144,"og":2145,"read":2146,"ky":2147,"Ġmudah":2148,"has":2149,"uck":2150,"icult":2151,"uka":2152,"aste":2153,"Ġglue":2154,"Ġind":2155,"ection":2156,"neak":2157,"Ġdtg":2158,"Ġbaht":2159,"Ġresults":2160,"Ġgt":2161,"Ġbus":2162,"Ġscratch":2163,"enuine":2164,"Äłl":2165,"Ġ15":2166,"Ġtrue":2167,"Ġoutside":2168,"Ġshape":2169,"Ġbags":2170,"Ġcrack":2171,"oon":2172,"Ġmand":2173,"Ġexpress":2174,"Ġrolling":2175,"ra":2176,"orders":2177,"mantul":2178,"Ġcushioning":2179,"Ġthree":2180,"Ġmurah":2181,"Ġempty":2182,"Ġtype":2183,"Ġcode":2184,"lm":2185,"sg":2186,"Ġmah":2187,"baguss":2188,"Ġavailable":2189,"Ġbounced":2190,"Ġgak":2191,"Ġflo":2192,"Ġmem":2193,"package":2194,"Ġimport":2195,"Ġuk":2196,"Ġenthusiastic":2197,"Ġleng":2198,"Ġunderstand":2199,"jsjs":2200,"Ġclean":2201,"ued":2202,"ayan":2203,"Ġable":2204,"rip":2205,"Ġdirty":2206,"best":2207,"free":2208,"tim":2209,"Ġdon":2210,"Ġpuas":2211,"Ġsneak":2212,"Ġmis":2213,"Ġdifficult":2214,"Ġlovely":2215,"Ġinstall":2216,"remely":2217,"Ġsending":2218,"Ġpaid":2219,"Ġeasily":2220,"Ġtempor":2221,"kan":2222,"Ġlam":2223,"Ġair":2224,"Ġquest":2225,"Ġamaz":2226,"Ġpic":2227,"usband":2228,"als":2229,"sho":2230,"Ġsw":2231,"brg":2232,"Ġweeks":2233,"een":2234,"Ġnote":2235,"Ġfeels":2236,"Ġrub":2237,"Ġbroke":2238,"eeeeeeee":2239,"azy":2240,"Ġconfirmation":2241,"ively":2242,"new":2243,"exp":2244,"Ġready":2245,"aph":2246,"Ġnt":2247,"Ġyear":2248,"air":2249,"aff":2250,"Ġprin":2251,"Ġresponsi":2252,"set":2253,"Ġspark":2254,"jf":2255,"iny":2256,"Ġimpress":2257,"Ġpad":2258,"Ġnag":2259,"oles":2260,"iin":2261,"Ġfood":2262,"mantap":2263,"ains":2264,"ku":2265,"Ġkid":2266,"Ġbuild":2267,"atur":2268,"ement":2269,"pal":2270,"mer":2271,"uai":2272,"Ġdet":2273,"Ġpng":2274,"Ġhell":2275,"bal":2276,"Ġmissing":2277,"retch":2278,"Ġpieces":2279,"Ġread":2280,"Ġhuh":2281,"Ġug":2282,"nx":2283,"sih":2284,"Ġharga":2285,"changeable":2286,"par":2287,"Ġopened":2288,"Ġsampai":2289,"Ġtal":2290,"Ġtet":2291,"Ġlip":2292,"Ġdist":2293,"Ġpower":2294,"Ġnarrow":2295,"Ġusually":2296,"nyaa":2297,"Ġfinally":2298,"uus":2299,"Ġaq":2300,"aaaaa":2301,"Ġgray":2302,"Ġclos":2303,"Ġinterchangeable":2304,"Ġpk":2305,"Ġcap":2306,"Ġcur":2307,"Ġupd":2308,"je":2309,"Ġwithin":2310,"Ġmakasih":2311,"kwkw":2312,"Ġgenuine":2313,"response":2314,"Ġbalance":2315,"Ġchina":2316,"Ġworn":2317,"man":2318,"Ġonline":2319,"Ġfreeb":2320,"speed":2321,"Ġ30":2322,"gk":2323,"Ġdry":2324,"antially":2325,"aya":2326,"Ġleft":2327,"Ġwalking":2328,"Ġhusband":2329,"Äłw":2330,"tqtq":2331,"cor":2332,"Ġdri":2333,"Ġbuyers":2334,"Ġsomething":2335,"hopefully":2336,"pcs":2337,"Ġpol":2338,"Ġwrit":2339,"igh":2340,"ability":2341,"weight":2342,"ins":2343,"Ġku":2344,"Ġsubstantially":2345,"Ġbnget":2346,"Ġinclud":2347,"Ġfortunately":2348,"gggg":2349,"Ġuseful":2350,"Ġant":2351,"kkk":2352,"Ġsatisfying":2353,"Ġdu":2354,"Ġstretch":2355,"Ġbet":2356,"Ġbat":2357,"Ġkirain":2358,"Ġabs":2359,"inya":2360,"iness":2361,"Ġpcs":2362,"Ġsellernya":2363,"Ġrelie":2364,"Ġclose":2365,"Ġtell":2366,"cl":2367,"Ġaway":2368,"Ġpokok":2369,"Ġboxes":2370,"Ġbngt":2371,"Ġfound":2372,"ention":2373,"emas":2374,"more":2375,"eet":2376,"satisf":2377,"tp":2378,"anda":2379,"Ġgam":2380,"Ġcontents":2381,"Ġour":2382,"Ġcu":2383,"ative":2384,"unic":2385,"Ġterimakasih":2386,"pite":2387,"Ġaj":2388,"ksih":2389,"Ġhat":2390,"Ġbutton":2391,"cc":2392,"itude":2393,"idly":2394,"iced":2395,"Ġtransaction":2396,"vert":2397,"pped":2398,"Ġfavor":2399,"aha":2400,"Ġbigger":2401,"go":2402,"Ġsen":2403,"Ġpush":2404,"Ġcharge":2405,"oose":2406,"Ġsuccessfully":2407,"Ġreplace":2408,"Ġimportant":2409,"Ġbener":2410,"Ġsmpe":2411,"Ġsukak":2412,"Ġ202":2413,"dy":2414,"pesen":2415,"got":2416,"Ġcant":2417,"cially":2418,"sa":2419,"Ġbh":2420,"Ġbuildup":2421,"Ġlum":2422,"Ġkl":2423,"Ġkm":2424,"Ġye":2425,"Ġcontact":2426,"Ġsales":2427,"cheap":2428,"Ġob":2429,"Ġrekom":2430,"Ġsma":2431,"Ġsocks":2432,"ected":2433,"Ġscreen":2434,"Ġextremely":2435,"Ġrelieved":2436,"pa":2437,"Ġgap":2438,"Ġkal":2439,"Ġjdi":2440,"Ġpdhl":2441,"Ġtom":2442,"Ġoften":2443,"Ġkissing":2444,"gan":2445,"thin":2446,"Äłr":2447,"hm":2448,"Ġpairs":2449,"Ġsukaa":2450,"Ġmandate":2451,"Ġprinci":2452,"ged":2453,"ib":2454,"Ġps":2455,"Ġpromo":2456,"wrong":2457,"Ġtot":2458,"ience":2459,"Ġcas":2460,"Ġwatch":2461,"Ġequ":2462,"Ġfront":2463,"Ġsweet":2464,"Ġowner":2465,"graph":2466,"Ġstyle":2467,"some":2468,"Ġlgi":2469,"Ġmal":2470,"atively":2471,"aah":2472,"Ġanything":2473,"ma":2474,"Ġcot":2475,"ahh":2476,"Ġugly":2477,"Ġsampe":2478,"Ġball":2479,"Ġproduk":2480,"Ġcharg":2481,"Ġcontinued":2482,"Ġ40":2483,"Ġsuccessful":2484,"Ġmonths":2485,"eb":2486,"xl":2487,"ited":2488,"ply":2489,"Ġfix":2490,"Ġnight":2491,"Ġlay":2492,"Ġcontinues":2493,"Ġgifts":2494,"vice":2495,"size":2496,"Ġmorning":2497,"material":2498,"cok":2499,"sk":2500,"ully":2501,"Ġfloor":2502,"Ġtill":2503,"Ġchoose":2504,"dhd":2505,"Ġdest":2506,"ters":2507,"Ġsgt":2508,"Ġrubber":2509,"Ġshow":2510,"Ġdespite":2511,"elay":2512,"Ġpress":2513,"Ġflame":2514,"Ġsmpai":2515,"Ġmilk":2516,"Ġdifference":2517,"Ġtetep":2518,"Ġmother":2519,"Ġfabrics":2520,"rrrr":2521,"Ġlength":2522,"Ġtemporary":2523,"ded":2524,"Ġfragrant":2525,"load":2526,"Ġlagi":2527,"Ġparcel":2528,"ither":2529,"ump":2530,"Ġeng":2531,"Ġsangat":2532,"Ġgini":2533,"Ġlarger":2534,"pecially":2535,"Ġ50":2536,"Ġhrga":2537,"Ġsand":2538,"Ġpatter":2539,"ety":2540,"aaaaaa":2541,"Ġterm":2542,"Ġbt":2543,"Ġextra":2544,"Ġtapi":2545,"Ġcotton":2546,"orrow":2547,"asant":2548,"Ġrope":2549,"loved":2550,"Ġru":2551,"Ġfragrance":2552,"Ġflow":2553,"road":2554,"Ġblessing":2555,"ipt":2556,"Ġaman":2557,"Ġkay":2558,"Ġexped":2559,"Ġwish":2560,"ada":2561,"Ġju":2562,"Ġmatches":2563,"Ġadded":2564,"ird":2565,"Ġprob":2566,"Ġhehehe":2567,"Ġregular":2568,"will":2569,"Ġpain":2570,"Ġpick":2571,"Ġadvert":2572,"Ġphotograph":2573,"Ġstand":2574,"Ġbrush":2575,"cust":2576,"Ġol":2577,"Ġnic":2578,"Ġsolid":2579,"jx":2580,"Ġau":2581,"jual":2582,"Ġoil":2583,"Ġlin":2584,"Ġfriends":2585,"Ġsquinting":2586,"oi":2587,"Ġsun":2588,"ls":2589,"Ġdem":2590,"Ġram":2591,"anger":2592,"Ġspill":2593,"Ġadvice":2594,"Ġnk":2595,"Ġsole":2596,"ones":2597,"Ġner":2598,"Ġabroad":2599,"oooooooo":2600,"Ġsam":2601,"ities":2602,"ume":2603,"Ġkual":2604,"items":2605,"Ġespecially":2606,"bidly":2607,"cr":2608,"Ġgm":2609,"Ġben":2610,"Ġcolour":2611,"terim":2612,"Ġkaka":2613,"oh":2614,"fits":2615,"amat":2616,"Ġintact":2617,"Ġpaket":2618,"cord":2619,"top":2620,"Ġyaaa":2621,"unya":2622,"Ġpesenan":2623,"small":2624,"Ġloss":2625,"Ġwrna":2626,"cool":2627,"bat":2628,"bang":2629,"dk":2630,"ror":2631,"come":2632,"too":2633,"Ġcam":2634,"Ġet":2635,"rible":2636,"Ġcommunic":2637,"Ġfil":2638,"Ġinde":2639,"uuu":2640,"Ġzi":2641,"cial":2642,"uas":2643,"Ġspr":2644,"real":2645,"onest":2646,"Ġkh":2647,"Ġoverse":2648,"peng":2649,"ata":2650,"ser":2651,"ese":2652,"Ġnyamp":2653,"Ġmakes":2654,"Ġwi":2655,"Ġste":2656,"lier":2657,"Ġclosed":2658,"Ġill":2659,"Äłdi":2660,"Ġsupp":2661,"Ġskirt":2662,"Ġattitude":2663,"Ġev":2664,"Ġ13":2665,"pteen":2666,"Ġheal":2667,"Ġmotif":2668,"how":2669,"Ġpal":2670,"Ġlbh":2671,"Äłj":2672,"Ġlid":2673,"ored":2674,"Ġasics":2675,"Ġsister":2676,"Ġprevious":2677,"Ġtomorrow":2678,"Ġgar":2679,"Ġmorbidly":2680,"bg":2681,"fy":2682,"ination":2683,"ons":2684,"Ġgave":2685,"Ġdouble":2686,"Ġfig":2687,"ggest":2688,"Ġmodels":2689,"Ġflaw":2690,"awang":2691,"Ġdefects":2692,"Ġfinished":2693,"Ġrelatively":2694,"eless":2695,"ker":2696,"Ġpast":2697,"Ġbi":2698,"Ġbany":2699,"ilar":2700,"ntly":2701,"Ġguess":2702,"Ġsmoothly":2703,"Ġbottom":2704,"bad":2705,"Ġeither":2706,"Ġfact":2707,"Äłst":2708,"Ġround":2709,"Ġ19":2710,"Ġsign":2711,"Ġexist":2712,"Ġarch":2713,"Ġlightweight":2714,"bt":2715,"back":2716,"ko":2717,"Ġhahah":2718,"color":2719,"Ġfan":2720,"edu":2721,"Ġmach":2722,"idd":2723,"Ġimprove":2724,"sel":2725,"Ġsing":2726,"Ġid":2727,"Ġproblems":2728,"Ġbusiness":2729,"Ġsch":2730,"complet":2731,"pas":2732,"apping":2733,"oof":2734,"Ġprobably":2735,"Ġtip":2736,"Ġwom":2737,"Ġlau":2738,"ments":2739,"Ġactual":2740,"Ġstitching":2741,"Ġheel":2742,"Ġanymore":2743,"Ġmessages":2744,"custom":2745,"pteenth":2746,"self":2747,"Ġil":2748,"Ġtau":2749,"Ġperi":2750,"Ġweve":2751,"avor":2752,"Ġstruck":2753,"Ġstitches":2754,"Ġsneakers":2755,"Ġwid":2756,"Ġtoe":2757,"Ġconsidered":2758,"Ġelse":2759,"Ġconsum":2760,"first":2761,"long":2762,"Äłin":2763,"unity":2764,"eee":2765,"ered":2766,"Ġnak":2767,"Ġremo":2768,"Ġpleasant":2769,"Ġdents":2770,"Ġfur":2771,"Ġ24":2772,"Ġ25":2773,"gu":2774,"Ġuda":2775,"Ġjga":2776,"ained":2777,"stick":2778,"Ġmantab":2779,"zzzz":2780,"Ġhalo":2781,"Ġdit":2782,"ates":2783,"Ġ16":2784,"mk":2785,"Ġini":2786,"Ġpos":2787,"Ġsempet":2788,"la":2789,"ool":2790,"oss":2791,"Ġsemoga":2792,"Ġtransportation":2793,"Ġgold":2794,"box":2795,"Ġrealpict":2796,"Ġtrusted":2797,"rg":2798,"Ġopport":2799,"Ġlife":2800,"Ġpn":2801,"elt":2802,"Ġorange":2803,"Ġsuggest":2804,"Ġexpedition":2805,"bx":2806,"Ġcart":2807,"Ġspeak":2808,"Ġwilling":2809,"Ġtrs":2810,"Ġarriving":2811,"Ġsizes":2812,"Ġlaugh":2813,"Ġgas":2814,"ature":2815,"Ġexper":2816,"Ġlegit":2817,"Ġperiod":2818,"Ġwin":2819,"Ġtold":2820,"Ġconven":2821,"Ġterima":2822,"sent":2823,"Ġprint":2824,"Ġreached":2825,"lex":2826,"sem":2827,"Ġshown":2828,"ship":2829,"Ġtakes":2830,"Ġsesuai":2831,"akan":2832,"Ġpurchasing":2833,"Ġwhereas":2834,"Ġstatement":2835,"cute":2836,"yed":2837,"Ġpot":2838,"Ġhp":2839,"Ġtrying":2840,"ject":2841,"Ġpattern":2842,"gi":2843,"uished":2844,"Ġess":2845,"Ġmeet":2846,"Ġdk":2847,"aran":2848,"arant":2849,"Ġheck":2850,"Ġdemand":2851,"Ġhur":2852,"Ġcrazy":2853,"Ġumpteenth":2854,"Ġkasi":2855,"Ġjug":2856,"fl":2857,"Ġwon":2858,"llllllll":2859,"Ġoverseas":2860,"fo":2861,"Ġlama":2862,"Ġlost":2863,"Ġconn":2864,"wrap":2865,"Ġopportunity":2866,"ware":2867,"eter":2868,"Ġsimilar":2869,"Ġvers":2870,"wing":2871,"Ġnear":2872,"Ġsleep":2873,"complete":2874,"Ġbas":2875,"Ġmantapp":2876,"Ġfunctioning":2877,"ob":2878,"Ġbes":2879,"Ġcoll":2880,"Ġpock":2881,"Ġdetail":2882,"Ġnicely":2883,"trim":2884,"Ġdelay":2885,"aining":2886,"Ġconfused":2887,"Ġkeeping":2888,"satisfied":2889,"ming":2890,"Ġbny":2891,"Ġinexp":2892,"Ġmotive":2893,"Ġdust":2894,"Ġpriced":2895,"Ġkayak":2896,"Ġlaughing":2897,"Ġaam":2898,"Ġstay":2899,"Ġaddition":2900,"Ġsyuka":2901,"while":2902,"Ġ201":2903,"Ġpan":2904,"Ġpensive":2905,"Ġmakas":2906,"Ġkrna":2907,"Ġpoints":2908,"inary":2909,"Ġpacks":2910,"aces":2911,"Ġreviews":2912,"Ġly":2913,"Ġord":2914,"Ġjack":2915,"deliver":2916,"Ġimproved":2917,"fr":2918,"Ġmight":2919,"Ġdec":2920,"Ġlights":2921,"Ġpatient":2922,"Ġbai":2923,"Ġcolle":2924,"Ġdoang":2925,"aight":2926,"Ġredu":2927,"Ġexpired":2928,"Ġkey":2929,"Ġpengirim":2930,"Ġfoam":2931,"Ġrekomended":2932,"Ġchoice":2933,"Ġrough":2934,"Ġdescribed":2935,"Ġgenerally":2936,"Ġtable":2937,"Ġcable":2938,"Ġ14":2939,"hhhhhhhhhhhhhhhh":2940,"cted":2941,"Ġauth":2942,"Ġwidth":2943,"me":2944,"Ġprod":2945,"cepat":2946,"Ġeye":2947,"Ġheat":2948,"Ġposs":2949,"Ġstraight":2950,"Ġsticky":2951,"Ġname":2952,"Ġenjo":2953,"Ġfore":2954,"Ġhonest":2955,"still":2956,"Ġtrail":2957,"Ġdecent":2958,"Ġcancel":2959,"5555":2960,"Ġpatron":2961,"Ġreplaced":2962,"Ġprincipal":2963,"Ġinexpensive":2964,"bgt":2965,"uation":2966,"Ġreceipt":2967,"shs":2968,"Ġdin":2969,"Ġvis":2970,"Ġwhe":2971,"Ġcompletely":2972,"Ġwalk":2973,"Ġzipper":2974,"ses":2975,"Ġest":2976,"Ġdlu":2977,"Ġanak":2978,"Äłsu":2979,"Ġdipake":2980,"Ġclapping":2981,"Ġcorrespond":2982,"Ġrapi":2983,"Ġsubsidies":2984,"Ġkids":2985,"jab":2986,"nf":2987,"Ġpak":2988,"Ġrate":2989,"ically":2990,"Ġsampenya":2991,"Ġmarket":2992,"Ġfavorite":2993,"dam":2994,"Ġsau":2995,"Ġclass":2996,"Ġfresh":2997,"Ġwaste":2998,"Ġseams":2999,"clo":3000,"mas":3001,"Ġsist":3002,"Ġbed":3003,"Ġmcm":3004,"Ġpackingan":3005,"Ġcompany":3006,"yyyy":3007,"Ġgeneral":3008,"Ġtong":3009,"where":3010,"Ġmachine":3011,"although":3012,"Ġlist":3013,"Ġank":3014,"uss":3015,"Ġaga":3016,"Ġdisting":3017,"Ġbrng":3018,"Ġinstant":3019,"Ġmmg":3020,"000":3021,"Ġpatronize":3022,"ned":3023,"oks":3024,"Ġeffective":3025,"Ġ38":3026,"Ġcook":3027,"ising":3028,"Ġmaint":3029,"oll":3030,"Ġfeeling":3031,"nnnnnnnn":3032,"ior":3033,"Ġsmua":3034,"Ġra":3035,"Ġhole":3036,"pos":3037,"Ġinit":3038,"Ġitself":3039,"Ġpowder":3040,"Ġinformation":3041,"Ġaamiin":3042,"iff":3043,"ove":3044,"put":3045,"Ġpp":3046,"Ġdn":3047,"ened":3048,"Ġnd":3049,"Ġcharger":3050,"usted":3051,"lip":3052,"Ġbangeet":3053,"overall":3054,"Ġresponsible":3055,"Ġpound":3056,"Ġmed":3057,"Ġinv":3058,"Ġordering":3059,"cribe":3060,"Ġaccordingly":3061,"Ġexpir":3062,"Ġflat":3063,"Ġstrap":3064,"Ġparts":3065,"Ġbelow":3066,"cewa":3067,"Ġincrease":3068,"Ġfigure":3069,"ball":3070,"ier":3071,"pass":3072,"Ġfive":3073,"Ġreeb":3074,"Ġforget":3075,"illow":3076,"Ġtested":3077,"iant":3078,"pun":3079,"entic":3080,"Ġsays":3081,"Ġsubmit":3082,"dg":3083,"jk":3084,"oul":3085,"Ġsyuk":3086,"odity":3087,"Ġfour":3088,"Ġnavy":3089,"ats":3090,"arp":3091,"Ġkasih":3092,"Ġrice":3093,"Ġtrial":3094,"kkkkkkkkkkkkkkkk":3095,"Ġdistinguished":3096,"ars":3097,"Ġorigin":3098,"ission":3099,"Ġconvenient":3100,"aga":3101,"Äłe":3102,"Ġvs":3103,"Ġnormally":3104,"Ġacceptable":3105,"Ġamazing":3106,"Ġupdate":3107,"df":3108,"suka":3109,"aught":3110,"Ġaddress":3111,"Ġsticker":3112,"Ġwaist":3113,"Ġsparkling":3114,"nja":3115,"Ġta":3116,"Ġkan":3117,"Ġaccom":3118,"Ġarrival":3119,"Ġabis":3120,"shoes":3121,"Ġgapapa":3122,"Ġbanyak":3123,"ui":3124,"udh":3125,"Ġterbaik":3126,"Ġtransfer":3127,"Ġprotect":3128,"sdh":3129,"ala":3130,"Ġfault":3131,"Ġchang":3132,"Ġaccur":3133,"Ġsimple":3134,"god":3135,"lam":3136,"Ġsit":3137,"els":3138,"alu":3139,"quick":3140,"Ġneck":3141,"worthy":3142,"kin":3143,"Ġtks":3144,"Ġpul":3145,"Ġlab":3146,"Ġmatter":3147,"Ġdrop":3148,"Ġattached":3149,"Ġearly":3150,"Ġearlier":3151,"Ġsurpr":3152,"Ġoder":3153,"Ġsealed":3154,"cer":3155,"cle":3156,"Ġtape":3157,"Ġglow":3158,"Ġbeh":3159,"une":3160,"Ġnyaa":3161,"Ġruns":3162,"Ġexperience":3163,"Ġsat":3164,"Ġharg":3165,"ts":3166,"Ġbul":3167,"Ġmet":3168,"Ġur":3169,"Ġstuck":3170,"Ġperh":3171,"Ġappe":3172,"Ġnerawang":3173,"Ġten":3174,"Ġada":3175,"Ġcontent":3176,"rant":3177,"Ġfelt":3178,"Ġmksih":3179,"Ġsoap":3180,"Ġsafety":3181,"Ġfairly":3182,"Ġpesanan":3183,"Ġdsni":3184,"kt":3185,"Ġtear":3186,"Ġgel":3187,"Ġiss":3188,"sever":3189,"ordered":3190,"disappoint":3191,"Ġquestions":3192,"pin":3193,"ication":3194,"Ġsandals":3195,"Ġblis":3196,"Ġchecked":3197,"Ġnyampenya":3198,"ging":3199,"wa":3200,"era":3201,"Ġdan":3202,"Ġjnt":3203,"ides":3204,"angg":3205,"Ġterrible":3206,"Ġsecur":3207,"jh":3208,"zed":3209,"que":3210,"str":3211,"Ġcho":3212,"Ġcharging":3213,"Ġsingle":3214,"hes":3215,"kh":3216,"Ġlem":3217,"Ġlock":3218,"pak":3219,"Ġfear":3220,"Ġwind":3221,"Ġmen":3222,"Ġhol":3223,"Ġir":3224,"uuuuuuuuuuuuuuuu":3225,"Ġwet":3226,"Ġword":3227,"Ġstre":3228,"Äłse":3229,"ured":3230,"cie":3231,"can":3232,"Ġband":3233,"Ġjne":3234,"Ġimag":3235,"direct":3236,"Ġtrustworthy":3237,"every":3238,"uf":3239,"Ġbase":3240,"Ġmsh":3241,"Ġmult":3242,"quite":3243,"Ġrm":3244,"Ġ18":3245,"ushed":3246,"Ġultra":3247,"car":3248,"Ġmom":3249,"Ġnih":3250,"Ġgir":3251,"rew":3252,"Ġcontain":3253,"Ġleast":3254,"Ġguarant":3255,"Ġindeed":3256,"Ġauthentic":3257,"Ġthread":3258,"itive":3259,"Ġhaha":3260,"Ġring":3261,"Ġrating":3262,"Ġimages":3263,"auty":3264,"ihi":3265,"Ġreturned":3266,"by":3267,"Ġfill":3268,"hhe":3269,"Ġsmallness":3270,"Ġslipp":3271,"customers":3272,"bought":3273,"cing":3274,"rb":3275,"Ġtouch":3276,"Ġfake":3277,"Ġsurely":3278,"Ġpaint":3279,"Ġqual":3280,"Äłv":3281,"Ġanyone":3282,"Ġgetting":3283,"Ġbrands":3284,"phone":3285,"Ġfreebie":3286,"Ġadvertised":3287,"Ġpin":3288,"Ġble":3289,"Ġflex":3290,"Ġmn":3291,"Ġwanted":3292,"Ġbangettt":3293,"Ġhelpful":3294,"Ġsubsidize":3295,"ds":3296,"ined":3297,"Ġpillow":3298,"Ġdlm":3299,"ustri":3300,"Ġselect":3301,"fun":3302,"Ġgaa":3303,"Ġresp":3304,"eliver":3305,"Äło":3306,"Ġsewing":3307,"Ġbrang":3308,"pppppppppppppppp":3309,"yaa":3310,"Ġpet":3311,"recommend":3312,"Ġlive":3313,"ssssssssssssssss":3314,"damaged":3315,"Ġket":3316,"Ġstain":3317,"Ġpackages":3318,"aaaaaaa":3319,"Ġseen":3320,"Ġarom":3321,"Ġcoat":3322,"Ġdestination":3323,"Ġmg":3324,"Ġksh":3325,"Ġseed":3326,"head":3327,"dddddddddddddddd":3328,"Ġabsor":3329,"mess":3330,"Ġnin":3331,"arri":3332,"Ġpossible":3333,"Ġexpectation":3334,"undred":3335,"Ġdrawn":3336,"Ġscratches":3337,"Ġhuhu":3338,"cording":3339,"bud":3340,"pes":3341,"Ġdanger":3342,"unch":3343,"cif":3344,"mi":3345,"Ġshock":3346,"Ġspend":3347,"Ġjgn":3348,"Ġroom":3349,"until":3350,"Ġquestion":3351,"Ġtalk":3352,"eed":3353,"Ġhang":3354,"Ġstable":3355,"aped":3356,"Ġchar":3357,"Ġadjust":3358,"Ġcontr":3359,"Ġrecomend":3360,"Ġallah":3361,"Ġokee":3362,"gl":3363,"ots":3364,"amb":3365,"Äła":3366,"ett":3367,"Ġunlike":3368,"perfect":3369,"Ġclock":3370,"Ġpleased":3371,"Ġdoubt":3372,"cal":3373,"res":3374,"Ġcount":3375,"Äłun":3376,"Ġpacket":3377,"proof":3378,"Ġkeren":3379,"Ġreebok":3380,"Ġperhaps":3381,"Ġthird":3382,"Ġcal":3383,"fty":3384,"hehehehe":3385,"Ġrapid":3386,"Ġcomplaint":3387,"passable":3388,"fab":3389,"Ġthor":3390,"Ġmist":3391,"Ġeveryone":3392,"Ġsurv":3393,"ruction":3394,"Ġsilver":3395,"Ġaccomodating":3396,"Ġtl":3397,"Ġttp":3398,"alah":3399,"ede":3400,"Ġmidd":3401,"Ġhit":3402,"Ġage":3403,"ified":3404,"Ġtaken":3405,"Ġcamera":3406,"mp":3407,"Ġgre":3408,"Ġhundred":3409,"Ġalone":3410,"suit":3411,"Ġkualitas":3412,"bz":3413,"io":3414,"ian":3415,"Ġay":3416,"Ġash":3417,"Ġthinks":3418,"dhdh":3419,"finally":3420,"Ġdescriptions":3421,"Ġpke":3422,"Ġfeed":3423,"udah":3424,"iving":3425,"Ġpeel":3426,"Ġsekali":3427,"Ġpocket":3428,"Ġjacket":3429,"uff":3430,"andom":3431,"Ġsaw":3432,"Ġbro":3433,"Ġ39":3434,"Ġlipstick":3435,"Ġordinary":3436,"Ġfully":3437,"ilah":3438,"icated":3439,"Ġconditions":3440,"jsj":3441,"Ġenter":3442,"Ġpngiriman":3443,"Ġwonder":3444,"gb":3445,"ganan":3446,"nz":3447,"rep":3448,"Ġnon":3449,"Ġclay":3450,"Ġbooks":3451,"worth":3452,"Ġversion":3453,"disappointed":3454,"Ġcake":3455,"Ġrain":3456,"Ġrequested":3457,"okokokokokokokok":3458,"cewain":3459,"Ġsekal":3460,"Ġlayer":3461,"Ġmb":3462,"ases":3463,"orts":3464,"Ġcompet":3465,"ween":3466,"Ġnike":3467,"Ġprovide":3468,"hari":3469,"anja":3470,"Ġvoice":3471,"Ġmeas":3472,"Ġboy":3473,"Ġissue":3474,"Ġhes":3475,"Ġboard":3476,"barang":3477,"Ġkyk":3478,"Ġwoman":3479,"Ġstaff":3480,"illiant":3481,"Ġshoppe":3482,"Ġama":3483,"Ġlevel":3484,"according":3485,"Ġerror":3486,"times":3487,"Ġwritten":3488,"med":3489,"with":3490,"Ġcomfy":3491,"Ġplug":3492,"Ġmonday":3493,"Ġinterest":3494,"emasan":3495,"Ġmind":3496,"right":3497,"after":3498,"Ġdedu":3499,"ask":3500,"Ġdidn":3501,"Ġpayment":3502,"Ġbetween":3503,"sung":3504,"ili":3505,"oto":3506,"ently":3507,"Ġyo":3508,"Äłch":3509,"Äłde":3510,"Ġrow":3511,"iih":3512,"Ġbrilliant":3513,"Ġ37":3514,"Ġbottles":3515,"Ġbehind":3516,"cum":3517,"jg":3518,"rn":3519,"Ġaut":3520,"Ġlh":3521,"Ġkc":3522,"ading":3523,"Ġ22":3524,"cur":3525,"ml":3526,"ta":3527,"Ġdail":3528,"Ġcir":3529,"Ġwl":3530,"Ġkap":3531,"Ġjs":3532,"urdy":3533,"soever":3534,"Ġmini":3535,"Ġpostage":3536,"Ġcommodity":3537,"did":3538,"lish":3539,"vious":3540,"Ġtiny":3541,"she":3542,"Ġwhole":3543,"Ġkek":3544,"Ġneeded":3545,"Ġglasses":3546,"fabric":3547,"Ġhesit":3548,"Ġdech":3549,"Ġblnja":3550,"appropriate":3551,"Ġpero":3552,"ndnd":3553,"play":3554,"Ġbahan":3555,"Ġgaada":3556,"Ġbb":3557,"Ġbur":3558,"Ġkept":3559,"ahahahah":3560,"Ġapa":3561,"Ġfragile":3562,"Ġ2020":3563,"Ġglowing":3564,"Ġdaily":3565,"hr":3566,"Ġut":3567,"isa":3568,"Ġdead":3569,"ized":3570,"Ġbtw":3571,"Ġgasket":3572,"10":3573,"soft":3574,"Ġago":3575,"Ġdisini":3576,"Ġ36":3577,"Ġplaced":3578,"Ġappro":3579,"Ġbgs":3580,"Ġsteam":3581,"posable":3582,"elet":3583,"redi":3584,"Ġled":3585,"icient":3586,"Ġtea":3587,"Ġwrapping":3588,"aaaaaaaaaaaaaaaaaaaaaaaaaaaaaaaa":3589,"prices":3590,"Ġfreebies":3591,"ustria":3592,"alem":3593,"Äłng":3594,"Ġvol":3595,"Ġvouch":3596,"Ġjum":3597,"imate":3598,"Ġseason":3599,"Ġhijab":3600,"Ġcompleted":3601,"Ġneeds":3602,"ranty":3603,"had":3604,"ces":3605,"Ġmba":3606,"quid":3607,"Ġnotice":3608,"Ġspecial":3609,"Ġrock":3610,"Ġrandom":3611,"Ġtwice":3612,"Ġsevere":3613,"Ġprodct":3614,"Ġthorough":3615,"Ġteng":3616,"Ġom":3617,"Ġkw":3618,"Ġacne":3619,"Ġmate":3620,"Ġdehh":3621,"shirt":3622,"sssss":3623,"bbbb":3624,"Ġcmn":3625,"Ġsparkles":3626,"Ġgrip":3627,"Ġfam":3628,"ional":3629,"Ġlahh":3630,"Ġsaya":3631,"raid":3632,"dr":3633,"ges":3634,"lod":3635,"slow":3636,"Ġwarranty":3637,"Ġmaroon":3638,"wwww":3639,"Ġslee":3640,"Ġincluded":3641,"Ġcantik":3642,"keren":3643,"11":3644,"bai":3645,"wise":3646,"Ġcell":3647,"Ġware":3648,"Ġones":3649,"Ġrose":3650,"Ġrada":3651,"Ġscar":3652,"placed":3653,"kit":3654,"nse":3655,"Ġdus":3656,"Ġamazon":3657,"Ġtongue":3658,"jang":3659,"wear":3660,"olut":3661,"Ġcold":3662,"Ġdoor":3663,"ives":3664,"Ġmiles":3665,"Ġgtu":3666,"Ġexpression":3667,"ler":3668,"Äłtr":3669,"Ġdisposable":3670,"Ġowned":3671,"Ġinstalled":3672,"Ġblisters":3673,"case":3674,"mn":3675,"Ġsave":3676,"Ġlegs":3677,"Ġafraid":3678,"uri":3679,"atic":3680,"Ġiron":3681,"sec":3682,"Ġvia":3683,"Ġtrny":3684,"Ġhefty":3685,"Ġlooked":3686,"Ġsmells":3687,"Ġhrg":3688,"Ġleaking":3689,"Ġsll":3690,"Ġscent":3691,"Ġbund":3692,"Ġprodu":3693,"orge":3694,"ppp":3695,"Ġbeauty":3696,"Äłpr":3697,"Ġblm":3698,"Ġbru":3699,"Ġart":3700,"Ġwallet":3701,"aughter":3702,"bility":3703,"Ġmco":3704,"Ġholes":3705,"Ġkat":3706,"Ġplant":3707,"Ġperform":3708,"Ġguys":3709,"Ġinsert":3710,"Ġngecewain":3711,"Ġimpressed":3712,"Ġexpressionless":3713,"fh":3714,"jw":3715,"vd":3716,"Ġtuh":3717,"reci":3718,"Ġdont":3719,"arily":3720,"Ġshaped":3721,"Ġsturdy":3722,"Ġ17":3723,"Ġpobud":3724,"have":3725,"mksh":3726,"orgeous":3727,"20":3728,"han":3729,"Ġsatur":3730,"Ġfem":3731,"Ġmic":3732,"Ġstiff":3733,"Ġminus":3734,"hat":3735,"Ġpem":3736,"Ġport":3737,"only":3738,"Ġshope":3739,"Ġfitted":3740,"Ġlacking":3741,"Ġfalling":3742,"kual":3743,"mak":3744,"Ġnatur":3745,"Ġfail":3746,"Äłsh":3747,"Ġsoles":3748,"Ġshipments":3749,"Ġwhether":3750,"bih":3751,"fri":3752,"hs":3753,"Ġide":3754,"Ġarea":3755,"thankyou":3756,"Ġhandle":3757,"Ġmkasih":3758,"Ġduper":3759,"bn":3760,"kal":3761,"rd":3762,"Ġpouch":3763,"Ġcasing":3764,"Ġks":3765,"Ġreli":3766,"Ġskrg":3767,"Ġxxl":3768,"Ġelastic":3769,"xxxx":3770,"Ġdrawings":3771,"Ġwriting":3772,"Ġmaintain":3773,"gar":3774,"lh":3775,"Ġpag":3776,"Ġcup":3777,"esh":3778,"Ġmall":3779,"stem":3780,"Ġexchange":3781,"Ġbyk":3782,"Ġsubscribe":3783,"istry":3784,"vvvv":3785,"Ġaccurate":3786,"directed":3787,"Ġtired":3788,"Ġbreat":3789,"att":3790,"Ġip":3791,"Ġinsh":3792,"Äły":3793,"bsbs":3794,"Ġ28":3795,"Ġgreatness":3796,"Ġnyo":3797,"Ġsomeone":3798,"kwk":3799,"Ġtotal":3800,"Ġengga":3801,"Ġjuga":3802,"Ġramah":3803,"Ġslo":3804,"vers":3805,"ony":3806,"Ġserious":3807,"orted":3808,"sub":3809,"days":3810,"brang":3811,"Ġ99":3812,"Ġearr":3813,"correspon":3814,"Ġfurther":3815,"Ġcent":3816,"Ġlens":3817,"Ġsharp":3818,"Äłke":3819,"Ġeveryday":3820,"Ġfollowing":3821,"Ġhealthy":3822,"Ġdaughter":3823,"Ġmaa":3824,"Ġmix":3825,"ribut":3826,"gini":3827,"Ġsample":3828,"Ġmaking":3829,"Ġwarm":3830,"Ġreplacement":3831,"vid":3832,"Ġtt":3833,"Ġhop":3834,"ahan":3835,"Ġdevice":3836,"care":3837,"ounter":3838,"Äłdis":3839,"Ġessent":3840,"ave":3841,"lum":3842,"Ġpel":3843,"Ġms":3844,"Ġnone":3845,"Ġlain":3846,"Ġkem":3847,"asses":3848,"Ġdepending":3849,"mmmmmmmm":3850,"des":3851,"ernya":3852,"Ġaa":3853,"Ġpull":3854,"Ġliquid":3855,"Ġmeets":3856,"Ġxa":3857,"uhu":3858,"Ġsnug":3859,"Ġslip":3860,"Ġss":3861,"Ġwire":3862,"Ġhihi":3863,"asa":3864,"asy":3865,"that":3866,"otop":3867,"ident":3868,"Ġsepar":3869,"Ġsatisfy":3870,"sip":3871,"Ġselamat":3872,"Ġstickers":3873,"bgus":3874,"Ġot":3875,"Ġwood":3876,"utes":3877,"Ġmateial":3878,"33":3879,"Ġoath":3880,"Ġkt":3881,"Ġsung":3882,"ahit":3883,"Ġ23":3884,"Ġwrn":3885,"Ġplasticity":3886,"Ġtemper":3887,"Ġmax":3888,"Ġconnect":3889,"Ġadditional":3890,"rat":3891,"rent":3892,"then":3893,"Ġnose":3894,"Ġprofit":3895,"Ġplain":3896,"Ġmemuas":3897,"Ġlabel":3898,"recommended":3899,"lodged":3900,"cul":3901,"net":3902,"wow":3903,"ism":3904,"Ġsometimes":3905,"Ġmoga":3906,"Ġscrew":3907,"Ġposted":3908,"Ġdng":3909,"Ġlaa":3910,"umer":3911,"anti":3912,"ooo":3913,"Ġglad":3914,"packingnya":3915,"Ġprompt":3916,"Ġlangganan":3917,"friend":3918,"corresponding":3919,"Ġton":3920,"Ġbeli":3921,"Ġmain":3922,"Ġnnt":3923,"Ġeval":3924,"apoint":3925,"Ġdislodged":3926,"Ġabove":3927,"Ġedge":3928,"Ġmurmer":3929,"Ġbrian":3930,"py":3931,"Ġtel":3932,"Ġmus":3933,"Ġmsg":3934,"Ġic":3935,"Ġbear":3936,"Ġbeating":3937,"ember":3938,"Ġcomb":3939,"Ġtransm":3940,"Ġpromot":3941,"Ġpokoknya":3942,"Ġgambar":3943,"Ġhati":3944,"Ġschool":3945,"kat":3946,"sell":3947,"Ġmel":3948,"asm":3949,"olving":3950,"Ġview":3951,"Ġjait":3952,"ima":3953,"aller":3954,"Ġperf":3955,"Ġterimakasi":3956,"Ġevent":3957,"trimakasih":3958,"owning":3959,"Ġspending":3960,"Ġleg":3961,"Ġsystem":3962,"Ġthinking":3963,"service":3964,"Ġslippery":3965,"nnya":3966,"Ġgorgeous":3967,"verage":3968,"Ġsmg":3969,"Ġran":3970,"lies":3971,"Ġrecommendation":3972,"Ġgrowing":3973,"Ġcracked":3974,"Ġsaturday":3975,"pants":3976,"vm":3977,"recom":3978,"Ġwore":3979,"oring":3980,"Ġhh":3981,"Ġrecie":3982,"Ġkya":3983,"Ġdiss":3984,"Ġdisplay":3985,"Ġfrowning":3986,"acing":3987,"Ġministry":3988,"Ġattention":3989,"Ġcuma":3990,"bdbd":3991,"Ġwashing":3992,"suitable":3993,"hi":3994,"Ġlamp":3995,"Ġud":3996,"ders":3997,"Ġsavor":3998,"Ġprefer":3999,"time":4000,"Ġobvious":4001,"Ġspilled":4002,"Ġsavoring":4003,"ym":4004,"Ġwkwkw":4005,"Ġstate":4006,"Ġspecif":4007,"Ġexha":4008,"Ġtrade":4009,"Ġuntried":4010,"Ġappreci":4011,"Ġbarg":4012,"Ġminutes":4013,"Ġlower":4014,"Ġwashed":4015,"Ġgab":4016,"ision":4017,"Ġtow":4018,"praise":4019,"angnya":4020,"Ġcomment":4021,"icy":4022,"outing":4023,"Ġokeh":4024,"nsns":4025,"Ġconfirmed":4026,"Ġmarkotop":4027,"Ġpdhal":4028,"Ġfixed":4029,"Ġsubmitted":4030,"12":4031,"har":4032,"thumbs":4033,"Ġkas":4034,"Ġkom":4035,"ffer":4036,"Ġuncomfortable":4037,"Ġ29":4038,"Ġleather":4039,"Ġappl":4040,"aves":4041,"mantab":4042,"vs":4043,"Ġdl":4044,"Ġwrite":4045,"ecew":4046,"Ġrevolving":4047,"Ġingredi":4048,"Ġguaranteed":4049,"Ġmiddle":4050,"Ġfemale":4051,"aim":4052,"Ġbol":4053,"store":4054,"Ġsyg":4055,"jdj":4056,"Ġincreasing":4057,"Ġmisplaced":4058,"Ġphotographed":4059,"Ġhahaha":4060,"Ġchanged":4061,"Ġjumbo":4062,"high":4063,"oc":4064,"sle":4065,"xh":4066,"Ġbelie":4067,"Ġfish":4068,"Ġmng":4069,"asuk":4070,"arin":4071,"Ġstart":4072,"Ġlucu":4073,"Ġsimply":4074,"iiiiiiiiiiiiiiii":4075,"Ġhurt":4076,"hand":4077,"Ġpity":4078,"Ġoption":4079,"Ġfi":4080,"Ġck":4081,"Ġee":4082,"Ġorg":4083,"Ġlose":4084,"coming":4085,"Ġtrack":4086,"Ġsection":4087,"Ġblanja":4088,"riman":4089,"Ġcutting":4090,"aited":4091,"Ġmatching":4092,"Ġclick":4093,"Ġtightly":4094,"Ġanswered":4095,"Ġdsini":4096,"Ġbir":4097,"Ġdum":4098,"uring":4099,"Ġcepe":4100,"Ġ555":4101,"which":4102,"Ġdrink":4103,"Ġcouple":4104,"Ġlumayan":4105,"lamation":4106,"Ġsurvived":4107,"olutely":4108,"ao":4109,"bf":4110,"bi":4111,"Ġpouting":4112,"Ġlap":4113,"Ġink":4114,"Ġarm":4115,"Ġintr":4116,"Ġconsist":4117,"Ġcause":4118,"severing":4119,"Ġvoucher":4120,"50":4121,"ki":4122,"yu":4123,"Ġgat":4124,"Ġmeng":4125,"Ġcoins":4126,"Ġadem":4127,"why":4128,"Ġexclamation":4129,"Ġcarton":4130,"Ġcollection":4131,"Ġsungl":4132,"austria":4133,"kok":4134,"lit":4135,"elent":4136,"Ġfing":4137,"Ġwed":4138,"Ġwow":4139,"akak":4140,"appy":4141,"rimp":4142,"Ġdoesn":4143,"who":4144,"avel":4145,"Ġflavor":4146,"Ġlasting":4147,"Ġtas":4148,"anj":4149,"ense":4150,"Ġnut":4151,"elled":4152,"Ġkar":4153,"chat":4154,"Ġthinner":4155,"Ġpersevering":4156,"ggu":4157,"ttttt":4158,"Ġinstruction":4159,"Ġveil":4160,"Ġsukaaa":4161,"Ġparty":4162,"Ġexcited":4163,"Ġincluding":4164,"Ġsecurely":4165,"away":4166,"of":4167,"Ġger":4168,"Ġpract":4169,"Ġhaven":4170,"autifully":4171,"ables":4172,"Ġngak":4173,"Ġnyampek":4174,"Ġdesigns":4175,"Ġdtng":4176,"Ġbuttons":4177,"Ġbaikk":4178,"Ġsunglasses":4179,"Ġmir":4180,"Ġstrip":4181,"Ġuh":4182,"Ġja":4183,"Ġpackagingnya":4184,"arent":4185,"Ġkecewa":4186,"Äłcon":4187,"Ġbnyk":4188,"makasih":4189,"Ġfirm":4190,"Ġcord":4191,"ening":4192,"Ġdib":4193,"Ġkecil":4194,"book":4195,"Ġoffers":4196,"ikin":4197,"igned":4198,"Ġaccepted":4199,"Ġearrings":4200,"slightly":4201,"Ġbak":4202,"Ġfire":4203,"Ġmint":4204,"Ġhor":4205,"Äłth":4206,"aksih":4207,"Ġblame":4208,"Ġfriday":4209,"Ġwaited":4210,"Ġlagii":4211,"Ġincreasingly":4212,"ev":4213,"nk":4214,"rated":4215,"eld":4216,"cep":4217,"urs":4218,"Ġload":4219,"Ġ27":4220,"Ġblock":4221,"shsh":4222,"Ġcoff":4223,"Ġusb":4224,"Ġbaguus":4225,"Ġmantep":4226,"Ġlgsg":4227,"Ġ60":4228,"Ġbooking":4229,"gy":4230,"yok":4231,"alhamdul":4232,"ane":4233,"ceed":4234,"Ġstains":4235,"Ġmeat":4236,"lied":4237,"osed":4238,"Ġtrims":4239,"Ġremain":4240,"Ġfeedback":4241,"mu":4242,"Ġ000":4243,"anh":4244,"Ġissu":4245,"Ġ26":4246,"Ġmouse":4247,"Ġresponsibility":4248,"Ġexisting":4249,"Ġjugaa":4250,"Ġfamily":4251,"may":4252,"nh":4253,"samp":4254,"Ġlaces":4255,"Ġkur":4256,"Ġforgot":4257,"Ġvict":4258,"icial":4259,"Ġstarted":4260,"Ġsoftware":4261,"Ġcross":4262,"Ġoffice":4263,"Ġwarp":4264,"Ġsunday":4265,"banget":4266,"Ġcontrol":4267,"Ġnatural":4268,"ti":4269,"Ġtil":4270,"Ġproduction":4271,"Ġyong":4272,"Ġbra":4273,"Ġuser":4274,"Ġade":4275,"Ġluv":4276,"Ġminim":4277,"Ġokey":4278,"Ġstatus":4279,"Ġflowers":4280,"Ġqualty":4281,"Ġaroma":4282,"Ġexhausted":4283,"Ġingredients":4284,"fair":4285,"Ġsd":4286,"Ġti":4287,"Ġwent":4288,"Ġnet":4289,"Ġlol":4290,"Äłx":4291,"sole":4292,"ggage":4293,"Ġako":4294,"Ġhrs":4295,"Ġpuass":4296,"gggggggg":4297,"Ġpaketan":4298,"Ġpengirimanya":4299,"Ġinitially":4300,"Ġrespnse":4301,"kx":4302,"Ġbing":4303,"Ġlazy":4304,"Ġyun":4305,"Ġvan":4306,"Ġjap":4307,"Ġneg":4308,"umpl":4309,"Ġrot":4310,"ances":4311,"suk":4312,"neat":4313,"please":4314,"Ġsurf":4315,"everything":4316,"Ġgirl":4317,"Ġabsorb":4318,"kali":4319,"alhm":4320,"ries":4321,"Ġdef":4322,"Ġdece":4323,"Ġrecently":4324,"Ġspent":4325,"nnn":4326,"Ġmove":4327,"Ġ90":4328,"Ġtransmission":4329,"bab":4330,"kl":4331,"Ġsaller":4332,"Ġtag":4333,"Äłsp":4334,"Ġvide":4335,"Ġrange":4336,"antaran":4337,"angan":4338,"expect":4339,"Ġhesitate":4340,"oe":4341,"Ġting":4342,"Ġax":4343,"Ġdim":4344,"ella":4345,"ila":4346,"look":4347,"Ġdie":4348,"Ġexpecting":4349,"hhhhh":4350,"baguus":4351,"Ġmoist":4352,"Ġthickness":4353,"Ġshirts":4354,"Ġfinish":4355,"funny":4356,"oper":4357,"Ġslight":4358,"Ġmail":4359,"Ġquant":4360,"Ġstability":4361,"Äłbr":4362,"Ġcoin":4363,"Ġroad":4364,"Ġkerry":4365,"Ġswitch":4366,"Ġchocol":4367,"ufact":4368,"Ġbaseball":4369,"Ġmultip":4370,"Ġreliable":4371,"Ġcoffee":4372,"ral":4373,"alam":4374,"Ġmace":4375,"Ġstri":4376,"Ġvi":4377,"loves":4378,"Ġsuperb":4379,"Ġslowly":4380,"Ġoffer":4381,"Ġmakasihh":4382,"paket":4383,"tttttttttttttttt":4384,"tqtqtqtq":4385,"even":4386,"favor":4387,"oid":4388,"Ġshrimp":4389,"Ġbecome":4390,"Ġlog":4391,"Ġsegini":4392,"Ġbli":4393,"Ġadhes":4394,"Ġknp":4395,"Ġluggage":4396,"Ġsampa":4397,"Ġapart":4398,"Ġenjoy":4399,"dt":4400,"ef":4401,"Ġmi":4402,"ution":4403,"Ġkain":4404,"Ġlips":4405,"Ġhaving":4406,"Ġreceved":4407,"Ġate":4408,"ige":4409,"Ġbangee":4410,"Ġkne":4411,"Ġcrushed":4412,"Ġsukaaaa":4413,"Ġmisdirected":4414,"Ġpkok":4415,"Ġwider":4416,"Ġnearly":4417,"Ġbelieve":4418,"Ġbirth":4419,"eg":4420,"Ġpant":4421,"Ġtoys":4422,"Ġkaa":4423,"Ġconst":4424,"Ġexcept":4425,"Ġcheapest":4426,"Ġpenjual":4427,"Ġwaterproof":4428,"Ġhook":4429,"Ġissues":4430,"Ġchocolate":4431,"mar":4432,"ners":4433,"xy":4434,"akk":4435,"Ġtrus":4436,"iiiii":4437,"Ġninja":4438,"Ġperformance":4439,"Ġtd":4440,"Ġpm":4441,"Ġframe":4442,"Ġworried":4443,"Ġreceiving":4444,"Ġallow":4445,"Ġlots":4446,"Ġsets":4447,"Ġconsidering":4448,"Ġbreath":4449,"99":4450,"rm":4451,"uw":4452,"Ġtough":4453,"Ġbw":4454,"Ġwkwk":4455,"ona":4456,"Ġyaaaa":4457,"Ġbegin":4458,"ams":4459,"Ġsmga":4460,"ulting":4461,"Äłter":4462,"olog":4463,"Ġtimely":4464,"ngat":4465,"Ġexpl":4466,"Ġkepake":4467,"Ġbooked":4468,"Ġcepatt":4469,"Ġdatengnya":4470,"Ġangry":4471,"gitu":4472,"Ġprotection":4473,"Ġ2019":4474,"Ġsituation":4475,"Ġmeasure":4476,"Ġvolume":4477,"ext":4478,"happy":4479,"also":4480,"Ġcpet":4481,"Ġhg":4482,"Ġld":4483,"Ġrec":4484,"arn":4485,"Ġfade":4486,"ided":4487,"Ġbuble":4488,"ongrat":4489,"Ġ200":4490,"Ġcompact":4491,"Ġspong":4492,"Ġadvance":4493,"Ġsneaker":4494,"Ġessentially":4495,"Ġsang":4496,"Ġsana":4497,"Ġtv":4498,"Ġtree":4499,"Ġaverage":4500,"Ġdic":4501,"Ġwall":4502,"ilt":4503,"Ġtraction":4504,"ksks":4505,"istics":4506,"Ġwhichsoever":4507,"ires":4508,"Ġgiveaway":4509,"Ġrefunded":4510,"Ġtube":4511,"Ġanti":4512,"Ġfilm":4513,"Ġkapok":4514,"Ġinsha":4515,"giriman":4516,"now":4517,"tu":4518,"Ġsides":4519,"Äłal":4520,"ested":4521,"Ġ32":4522,"ailand":4523,"Ġdownload":4524,"Ġseemed":4525,"Ġstylish":4526,"Ġodor":4527,"Ġhello":4528,"Ġexpiration":4529,"Ġstreng":4530,"Ġbundled":4531,"dit":4532,"jz":4533,"kus":4534,"kirain":4535,"Ġbass":4536,"Ġclip":4537,"Ġnail":4538,"Ġkes":4539,"Ġagk":4540,"Ġleave":4541,"Ġbubblewrap":4542,"Ġzip":4543,"Ġlikely":4544,"Ġelect":4545,"Ġsemua":4546,"Ġsatisfaction":4547,"kyu":4548,"Ġdeducted":4549,"Ġpaste":4550,"Ġfal":4551,"Ġfat":4552,"Ġprinting":4553,"Ġreach":4554,"ulations":4555,"Ġshovel":4556,"uran":4557,"irnya":4558,"Ġuni":4559,"Ġbring":4560,"Ġdiam":4561,"Ġprof":4562,"when":4563,"Ġbagussss":4564,"Ġbgtt":4565,"Ġguy":4566,"Ġresponded":4567,"however":4568,"jc":4569,"ken":4570,"was":4571,"Ġice":4572,"Ġsus":4573,"Ġgym":4574,"Ġdil":4575,"Ġdoll":4576,"Ġcli":4577,"Ġmh":4578,"Ġnad":4579,"Ġkit":4580,"ime":4581,"Ġrust":4582,"Ġotherwise":4583,"Ġ21":4584,"Ġdipak":4585,"Ġcovid":4586,"nyampe":4587,"Ġweary":4588,"Ġleaves":4589,"Ġterms":4590,"Ġwants":4591,"Ġapply":4592,"exact":4593,"Ġclearly":4594,"selves":4595,"Ġdetails":4596,"ho":4597,"pn":4598,"try":4599,"Ġpun":4600,"Ġgx":4601,"Ġnature":4602,"Ġhy":4603,"Ġinf":4604,"adi":4605,"Ġwrink":4606,"Ġsupportive":4607,"Ġyourself":4608,"Ġawaited":4609,"Ġdikirim":4610,"eeeeeeeeeeeeeeee":4611,"Ġsense":4612,"Ġdusty":4613,"would":4614,"Ġtreat":4615,"Ġtuk":4616,"Ġtread":4617,"Ġns":4618,"ator":4619,"Ġwholes":4620,"Ġdog":4621,"pted":4622,"Ġamin":4623,"Ġaffection":4624,"Ġseler":4625,"Ġedges":4626,"Ġperfume":4627,"house":4628,"kf":4629,"Ġbased":4630,"Ġdalem":4631,"Ġhd":4632,"unfortunately":4633,"idas":4634,"Ġcomments":4635,"Ġmyself":4636,"Ġcocok":4637,"Ġslower":4638,"Ġcarry":4639,"Ġblessings":4640,"Ġinsya":4641,"Ġdistance":4642,"Ġolshop":4643,"delivered":4644,"Ġappear":4645,"hd":4646,"mur":4647,"nc":4648,"pel":4649,"rs":4650,"Ġsama":4651,"Ġey":4652,"Ġsuks":4653,"Ġchest":4654,"Ġsih":4655,"Ġdisin":4656,"Ġation":4657,"Ġgrow":4658,"Ġresist":4659,"cedent":4660,"Ġremember":4661,"Ġabsolutely":4662,"Ġtotally":4663,"Ġspray":4664,"bc":4665,"cus":4666,"ran":4667,"ingnya":4668,"Ġmad":4669,"Ġnare":4670,"Ġpackging":4671,"Ġsii":4672,"inted":4673,"Ġcannot":4674,"abil":4675,"Ġsayang":4676,"ify":4677,"Ġguide":4678,"Ġformer":4679,"value":4680,"Ġawful":4681,"known":4682,"Ġgmn":4683,"Ġsour":4684,"Ġgame":4685,"ories":4686,"Ġhs":4687,"Ġec":4688,"Ġih":4689,"Ġincomplete":4690,"Äład":4691,"Ġjos":4692,"Ġserum":4693,"anget":4694,"Ġsihh":4695,"Ġcolorful":4696,"subs":4697,"Ġself":4698,"Ġselected":4699,"Ġmanufact":4700,"work":4701,"Ġenthusiasm":4702,"Ġequally":4703,"Ġflower":4704,"Ġbnyak":4705,"Ġtrnyata":4706,"mon":4707,"Ġsak":4708,"Ġpd":4709,"Ġganda":4710,"Ġfell":4711,"Äłper":4712,"Ġyoung":4713,"Ġchance":4714,"Ġbrac":4715,"Ġterbai":4716,"Ġhehehehe":4717,"Ġmasks":4718,"Ġstretchy":4719,"Ġcharact":4720,"recomended":4721,"bit":4722,"cpt":4723,"iful":4724,"oy":4725,"ras":4726,"rang":4727,"Ġgone":4728,"ream":4729,"Ġhum":4730,"Ġtoy":4731,"Ġeid":4732,"Ġjak":4733,"full":4734,"Ġcoz":4735,"Ġpurse":4736,"Ġdesired":4737,"Ġoveralls":4738,"phones":4739,"Ġfollows":4740,"Ġpkp":4741,"Ġcucok":4742,"Ġequal":4743,"bes":4744,"cast":4745,"Ġtues":4746,"Ġpage":4747,"Ġthailand":4748,"requ":4749,"Ġdpt":4750,"Ġante":4751,"Ġign":4752,"Ġksih":4753,"akes":4754,"Ġchick":4755,"Ġclothing":4756,"Ġmantaa":4757,"Ġluc":4758,"Äłbl":4759,"Ġpartic":4760,"Ġvariation":4761,"Ġreduce":4762,"message":4763,"Ġscarf":4764,"Ġadhesive":4765,"ongratulations":4766,"nah":4767,"pon":4768,"Ġos":4769,"ency":4770,"Ġtoes":4771,"Ġbeautifully":4772,"ulit":4773,"Ġevening":4774,"acy":4775,"Ġbangetttt":4776,"Ġthicker":4777,"Ġintimate":4778,"Ġkalo":4779,"Ġwords":4780,"Ġcontainer":4781,"Ġappreciate":4782,"uy":4783,"uit":4784,"Ġsust":4785,"Ġbow":4786,"Ġnor":4787,"asted":4788,"Ġstated":4789,"apak":4790,"Ġserve":4791,"Ġbales":4792,"Ġbelt":4793,"Ġpolite":4794,"somewhat":4795,"Ġexpiry":4796,"repant":4797,"Ġbargain":4798,"Ġgatau":4799,"favorable":4800,"kap":4801,"Ġaaa":4802,"Ġprior":4803,"Ġlmb":4804,"Ġbey":4805,"Ġfaded":4806,"Ġshoppee":4807,"Ġworthwhile":4808,"Ġenvel":4809,"sible":4810,"responsive":4811,"Ġreseller":4812,"nered":4813,"Ġchinese":4814,"Ġmemory":4815,"Ġyeah":4816,"Ġdestro":4817,"Ġetc":4818,"Ġcommunication":4819,"Ġremove":4820,"Ġcompetitive":4821,"Ġnnti":4822,"Ġsponge":4823,"bell":4824,"makasi":4825,"Ġtk":4826,"Ġpc":4827,"Ġban":4828,"Ġcand":4829,"Ġmold":4830,"Ġali":4831,"antik":4832,"Ġconcer":4833,"Ġworry":4834,"Ġheight":4835,"Ġlighter":4836,"Ġkmrn":4837,"Ġmalem":4838,"Ġsampek":4839,"Ġtuesday":4840,"Ġantecedent":4841,"90":4842,"sc":4843,"Ġ00":4844,"Ġpig":4845,"Ġngg":4846,"arely":4847,"entive":4848,"iday":4849,"Ġbole":4850,"Ġaccount":4851,"bery":4852,"Ġreasonably":4853,"Ġbarangnya":4854,"Ġconsulting":4855,"Ġslim":4856,"Ġsurprised":4857,"Ġhoping":4858,"15":4859,"bles":4860,"Ġsan":4861,"Ġtid":4862,"Ġmnt":4863,"Ġish":4864,"ara":4865,"Äłi":4866,"oko":4867,"Ġseries":4868,"Ġaccess":4869,"Ġhassle":4870,"gged":4871,"arta":4872,"Ġstrange":4873,"Ġclaim":4874,"Ġmoder":4875,"Ġcomplain":4876,"Ġprodcts":4877,"bless":4878,"ider":4879,"md":4880,"rap":4881,"Ġbd":4882,"Ġib":4883,"Ġinch":4884,"Ġjam":4885,"Ġfried":4886,"Ġenc":4887,"buka":4888,"Ġsemu":4889,"minate":4890,"Ġsnack":4891,"Ġlucky":4892,"Ġcases":4893,"Ġrupt":4894,"Ġmakasii":4895,"Ġseeds":4896,"Ġautom":4897,"gd":4898,"Ġpapa":4899,"Ġcy":4900,"Ġmine":4901,"keep":4902,"Ġlogo":4903,"ications":4904,"Ġtraining":4905,"Ġoverload":4906,"ross":4907,"Ġsecured":4908,"Ġpencil":4909,"Ġjeans":4910,"Ġtalaga":4911,"Ġdelayed":4912,"Ġvideo":4913,"ax":4914,"bers":4915,"ji":4916,"met":4917,"ox":4918,"pd":4919,"ract":4920,"Ġers":4921,"Ġwel":4922,"Ġmks":4923,"Ġshare":4924,"goodgood":4925,"Ġjar":4926,"Ġlimit":4927,"Ġunknown":4928,"Ġtrou":4929,"Ġgrab":4930,"Ġngk":4931,"cons":4932,"Ġimpressive":4933,"safe":4934,"Ġholiday":4935,"Ġconsistent":4936,"Ġbirthday":4937,"miss":4938,"Ġtre":4939,"Ġpump":4940,"iti":4941,"ises":4942,"using":4943,"key":4944,"Ġsumm":4945,"Ġupon":4946,"Ġorign":4947,"comfort":4948,"Ġdoing":4949,"tern":4950,"Ġbls":4951,"Ġrig":4952,"sized":4953,"awa":4954,"Ġdental":4955,"Ġcma":4956,"palming":4957,"cepatan":4958,"Ġlogistics":4959,"same":4960,"wal":4961,"Ġast":4962,"Ġcity":4963,"iling":4964,"Ġeating":4965,"ppy":4966,"Ġalhamdul":4967,"Ġfacepalming":4968,"Ġtravel":4969,"Ġadult":4970,"Ġtqvm":4971,"Ġemg":4972,"Ġattentive":4973,"Ġmanual":4974,"Ġwarna":4975,"Ġlamaa":4976,"oooooooooooooooo":4977,"Ġvisit":4978,"Ġevaluation":4979,"Ġorignal":4980,"nes":4981,"tw":4982,"yet":4983,"Ġsj":4984,"ito":4985,"Ġbent":4986,"Ġland":4987,"Ġshell":4988,"Ġiphone":4989,"Ġnotes":4990,"looks":4991,"Ġshiping":4992,"Ġweak":4993,"never":4994,"Ġtrip":4995,"Ġbrgnya":4996,"Ġfrequ":4997,"Ġindones":4998,"terimakasih":4999,"Ġsleepy":5000,"Ġthoroughly":5001,"asukasuk":5002,"umpled":5003,"came":5004,"lace":5005,"mpe":5006,"opped":5007,"ero":5008,"Ġtho":5009,"isk":5010,"Ġlun":5011,"rid":5012,"Ġii":5013,"Ġorgan":5014,"prom":5015,"Ġreplies":5016,"hamd":5017,"lll":5018,"Ġcommand":5019,"Ġsounds":5020,"Ġrecieved":5021,"Ġstrength":5022,"Ġbeyond":5023,"gm":5024,"qq":5025,"rather":5026,"son":5027,"Ġtur":5028,"Ġbored":5029,"Ġfant":5030,"Ġcatch":5031,"Ġmap":5032,"amused":5033,"Äłbe":5034,"ereply":5035,"Ġpop":5036,"actually":5037,"Ġcompan":5038,"Ġguest":5039,"Ġactive":5040,"Ġimpression":5041,"obain":5042,"Ġquantity":5043,"body":5044,"ey":5045,"Ġain":5046,"kecil":5047,"Ġblank":5048,"Ġskali":5049,"sukak":5050,"Ġaffect":5051,"brow":5052,"Ġhigher":5053,"Ġzig":5054,"Ġavoid":5055,"Ġbatteries":5056,"Ġtipis":5057,"Ġflexible":5058,"submit":5059,"Ġmemuaskan":5060,"ecewakan":5061,"Ġfinger":5062,"Ġwholesale":5063,"Ġrupture":5064,"inch":5065,"Ġped":5066,"Ġprop":5067,"Ġlear":5068,"Ġlace":5069,"Ġanya":5070,"asty":5071,"ayay":5072,"Ġstop":5073,"umb":5074,"Ġunamused":5075,"Ġ31":5076,"aired":5077,"hew":5078,"Ġgodbless":5079,"Ġmakeup":5080,"Äłpeng":5081,"Ġassess":5082,"Ġcomplaints":5083,"Ġsite":5084,"alal":5085,"Ġmention":5086,"Ġnb":5087,"Ġtoler":5088,"Ġrarely":5089,"Ġtru":5090,"Ġblom":5091,"Ġnoon":5092,"Ġbrought":5093,"Ġ35":5094,"Ġcooper":5095,"Ġspot":5096,"aaaaaaaaa":5097,"works":5098,"Ġpakek":5099,"Ġinformed":5100,"Ġholding":5101,"Ġwomen":5102,"second":5103,"Ġdissapoint":5104,"bow":5105,"Ġens":5106,"Ġgand":5107,"Ġstep":5108,"aak":5109,"aka":5110,"Ġneut":5111,"Ġdisapp":5112,"Ġfrust":5113,"lik":5114,"Ġterus":5115,"anyway":5116,"Ġexpelled":5117,"Ġpeach":5118,"Ġcards":5119,"bled":5120,"rrrrrrrr":5121,"Ġbene":5122,"Ġtempered":5123,"Ġdestroyed":5124,"hol":5125,"Ġsz":5126,"Ġgg":5127,"Ġhote":5128,"Ġken":5129,"chy":5130,"Äłle":5131,"Ġpresent":5132,"Ġadidas":5133,"Ġbye":5134,"auiful":5135,"Ġoffline":5136,"Ġactiv":5137,"Ġcomplicated":5138,"Ġbaju":5139,"Ġsilic":5140,"Ġcracks":5141,"Ġprincip":5142,"laju":5143,"Ġbracelet":5144,"Ġjakarta":5145,"Ġai":5146,"Ġion":5147,"Ġudah":5148,"Äłny":5149,"terbaik":5150,"Ġhopeully":5151,"ousand":5152,"packages":5153,"dulillah":5154,"Ġgarnered":5155,"Ġinstructions":5156,"Ġvictory":5157,"Ġmultiple":5158,"cell":5159,"many":5160,"Ġawhile":5161,"Ġdeng":5162,"Ġnga":5163,"elly":5164,"Ġtool":5165,"Ġshoul":5166,"Ġie":5167,"aking":5168,"aken":5169,"star":5170,"Ġunfavorable":5171,"icing":5172,"Ġcompar":5173,"Ġcompare":5174,"Ġspace":5175,"Ġgiving":5176,"Ġjoss":5177,"Ġcris":5178,"Ġlux":5179,"mantapp":5180,"Ġreturns":5181,"arrived":5182,"mium":5183,"Ġtlg":5184,"sellers":5185,"Ġaxial":5186,"Ġsukses":5187,"bah":5188,"cont":5189,"Ġge":5190,"Ġopp":5191,"Ġcash":5192,"cet":5193,"Ġmending":5194,"Ġnat":5195,"Ġkud":5196,"agus":5197,"Ġvel":5198,"imb":5199,"Ġrat":5200,"Ġmean":5201,"Ġprep":5202,"Ġheheh":5203,"Ġdiscrepant":5204,"jjjj":5205,"Ġtemporarily":5206,"Ġlayers":5207,"Ġcircum":5208,"Ġtoner":5209,"Ġcompanies":5210,"Ġssu":5211,"Ġgh":5212,"Ġbun":5213,"reg":5214,"Ġoper":5215,"Ġded":5216,"Ġanno":5217,"Ġalong":5218,"emic":5219,"produk":5220,"Ġmerchant":5221,"Ġthemselves":5222,"nnd":5223,"Ġpurchases":5224,"kkkkk":5225,"Ġdidnt":5226,"Ġhappens":5227,"mmm":5228,"Ġattract":5229,"Ġimpact":5230,"Ġ80":5231,"Ġrequired":5232,"Ġefforts":5233,"Ġmaganda":5234,"Ġballoon":5235,"Ġilang":5236,"zzzzzzzz":5237,"Ġcollap":5238,"Ġmistake":5239,"Ġsleeve":5240,"Ġneutral":5241,"cate":5242,"pan":5243,"Ġtail":5244,"ita":5245,"alin":5246,"Ġmlm":5247,"Ġek":5248,"Ġchain":5249,"Ġassem":5250,"Ġcolored":5251,"because":5252,"Ġbadly":5253,"Ġcommon":5254,"standing":5255,"Ġconsumers":5256,"jangka":5257,"Ġmirror":5258,"Ġprincipally":5259,"bbery":5260,"pose":5261,"sl":5262,"uan":5263,"yan":5264,"Ġapr":5265,"Ġbath":5266,"Ġcun":5267,"Ġmw":5268,"Ġmul":5269,"Ġig":5270,"Ġinfo":5271,"Äłex":5272,"ahhh":5273,"iik":5274,"Ġouter":5275,"Äłpl":5276,"bbon":5277,"Ġregard":5278,"Ġpengh":5279,"Ġmurce":5280,"Ġsizing":5281,"dislike":5282,"Ġplaying":5283,"Ġbhan":5284,"77":5285,"egr":5286,"jam":5287,"rel":5288,"uous":5289,"ines":5290,"Ġthousand":5291,"Ġfather":5292,"Ġment":5293,"ora":5294,"Äłco":5295,"akallah":5296,"fficient":5297,"Ġunit":5298,"Ġexcess":5299,"Ġdecor":5300,"Ġcontribut":5301,"Ġ45":5302,"Ġoffered":5303,"ification":5304,"Ġremote":5305,"Ġheadset":5306,"Ġawet":5307,"Ġpesos":5308,"Ġscratched":5309,"Ġcurrent":5310,"Ġflawless":5311,"aan":5312,"sn":5313,"Ġbbr":5314,"Ġsheep":5315,"Ġkli":5316,"Ġlocal":5317,"essional":5318,"Ġpls":5319,"Ġxde":5320,"Ġdamned":5321,"room":5322,"Ġaku":5323,"Ġmotives":5324,"Ġseamless":5325,"Ġcasual":5326,"Ġconsumer":5327,"Ġimagine":5328,"expected":5329,"wl":5330,"iture":5331,"Ġgem":5332,"Ġmac":5333,"Ġincoming":5334,"Äłlo":5335,"Ġfruit":5336,"Ġoversized":5337,"Ġenak":5338,"Ġbagusssss":5339,"Ġofficial":5340,"tran":5341,"urchased":5342,"conom":5343,"kdkd":5344,"55555555":5345,"Ġestim":5346,"Ġeyel":5347,"puas":5348,"war":5349,"oding":5350,"Ġpand":5351,"Ġmam":5352,"Ġmesh":5353,"cking":5354,"Ġkin":5355,"ched":5356,"Äłu":5357,"Äłen":5358,"Äłgr":5359,"ades":5360,"Ġvac":5361,"antap":5362,"Ġbaguu":5363,"Ġpert":5364,"Ġkakk":5365,"ampoo":5366,"Ġpesennya":5367,"Ġopening":5368,"Ġemp":5369,"Ġrepeated":5370,"dahal":5371,"does":5372,"Ġbetul":5373,"Ġposlaju":5374,"Ġeyebrow":5375,"Ġenjoyed":5376,"Ġsllu":5377,"Ġintrodu":5378,"Ġrigid":5379,"fs":5380,"iah":5381,"uul":5382,"Ġsed":5383,"ception":5384,"Ġinsole":5385,"amaz":5386,"Äłpe":5387,"Ġjer":5388,"Ġjaz":5389,"Ġsore":5390,"Ġworld":5391,"Ġspicy":5392,"Ġknee":5393,"uda":5394,"indi":5395,"cony":5396,"Ġassigned":5397,"Ġdiscounts":5398,"Ġcalled":5399,"Ġinstallation":5400,"jfjf":5401,"Ġbhn":5402,"realpict":5403,"Ġforever":5404,"highly":5405,"Ġbingit":5406,"Ġinsyaallah":5407,"16":5408,"exc":5409,"Ġgon":5410,"ison":5411,"Ġct":5412,"Ġcounter":5413,"Ġmesen":5414,"Ġrej":5415,"Ġkore":5416,"iman":5417,"Ġloc":5418,"Ġpremium":5419,"actory":5420,"Ġ500":5421,"ntik":5422,"Ġpleading":5423,"Ġcrumpled":5424,"Ġcovered":5425,"Ġpenyok":5426,"Ġ09":5427,"Ġmotor":5428,"Ġcushioned":5429,"Ġremains":5430,"Ġfreight":5431,"Ġbusy":5432,"Ġ2021":5433,"Ġcommunicative":5434,"Ġreduced":5435,"Ġpounds":5436,"Ġcontainers":5437,"Ġsurface":5438,"Ġresistant":5439,"Ġecq":5440,"Ġchicken":5441,"aj":5442,"aat":5443,"gener":5444,"iet":5445,"mis":5446,"pic":5447,"yo":5448,"Ġbank":5449,"Ġou":5450,"Ġmid":5451,"Ġrear":5452,"thick":5453,"enty":5454,"Ġik":5455,"Äłac":5456,"Ġjune":5457,"apat":5458,"ster":5459,"Ġblum":5460,"Ġpla":5461,"Ġplan":5462,"Ġperfor":5463,"aaaaaaaaaa":5464,"Äłsm":5465,"Ġpengemasan":5466,"moga":5467,"Ġconsult":5468,"Ġdiscounted":5469,"baloi":5470,"Ġsender":5471,"Ġlines":5472,"Ġtaunya":5473,"Ġpractical":5474,"Ġssuai":5475,"bot":5476,"uc":5477,"zen":5478,"Ġsoul":5479,"anced":5480,"Ġklu":5481,"Äłpro":5482,"Ġrude":5483,"Ġdibal":5484,"Ġribbon":5485,"Ġwrapnya":5486,"ungkus":5487,"Ġmob":5488,"Ġconform":5489,"Ġ70":5490,"black":5491,"Ġmaksih":5492,"Ġtrustful":5493,"Ġefficient":5494,"Ġrapih":5495,"Ġngepas":5496,"Ġpersonal":5497,"airs":5498,"Ġcapt":5499,"Ġpokokny":5500,"Ġgmbr":5501,"Ġremoved":5502,"Ġbasic":5503,"Ġclassy":5504,"messages":5505,"Ġpeeling":5506,"friendly":5507,"Ġgabisa":5508,"abs":5509,"bis":5510,"pm":5511,"phew":5512,"turn":5513,"Ġhnd":5514,"Ġkil":5515,"Ġkirim":5516,"Ġinner":5517,"Ġbloss":5518,"acity":5519,"iiiiii":5520,"receive":5521,"Ġheld":5522,"Ġproviding":5523,"Ġident":5524,"Ġdngn":5525,"Ġwednes":5526,"Ġblossom":5527,"jr":5528,"zing":5529,"Ġske":5530,"Ġsngat":5531,"Ġtin":5532,"Ġtos":5533,"Ġive":5534,"Ġkere":5535,"Ġsewn":5536,"Ġcob":5537,"Ġstraw":5538,"Ġtech":5539,"Ġbgd":5540,"Ġcovers":5541,"Ġtaking":5542,"Ġentire":5543,"Ġstandar":5544,"Ġhealth":5545,"Ġpreviously":5546,"Ġspeaker":5547,"Ġwares":5548,"Ġwednesday":5549,"aud":5550,"iw":5551,"nam":5552,"Ġsou":5553,"Ġsket":5554,"Ġtank":5555,"Ġfund":5556,"Ġwo":5557,"Ġml":5558,"Ġrecord":5559,"Ġalas":5560,"Äłim":5561,"Ġnephew":5562,"Ġchr":5563,"unggu":5564,"Ġconcent":5565,"Ġweigh":5566,"ultra":5567,"eeeee":5568,"Ġdata":5569,"Ġ08":5570,"Ġbaj":5571,"Ġmagnet":5572,"Ġankle":5573,"Ġmedical":5574,"Ġslobbery":5575,"Ġmusic":5576,"45":5577,"bet":5578,"cah":5579,"dat":5580,"hang":5581,"ros":5582,"Ġpdahal":5583,"Ġop":5584,"Ġocc":5585,"Ġpriv":5586,"Ġmos":5587,"Ġmount":5588,"Ġnam":5589,"Ġhoney":5590,"Ġongk":5591,"Ġsoal":5592,"Ġyaudah":5593,"Ġflav":5594,"next":5595,"Ġcorona":5596,"Ġasking":5597,"Ġsngt":5598,"Ġroll":5599,"Ġvariant":5600,"Ġcommunicate":5601,"Ġsuggestions":5602,"Ġnecklace":5603,"Ġidea":5604,"Ġkompl":5605,"egant":5606,"Ġbkn":5607,"Ġunused":5608,"atever":5609,"Ġarms":5610,"Ġbos":5611,"Ġlightning":5612,"Ġnympe":5613,"Ġwears":5614,"Ġspir":5615,"Ġweather":5616,"Ġbagusbagus":5617,"Ġcorner":5618,"Ġtransparent":5619,"Ġkinda":5620,"Ġdarker":5621,"Ġsized":5622,"Ġleaked":5623,"Ġtowel":5624,"here":5625,"kz":5626,"pot":5627,"rain":5628,"sing":5629,"sangat":5630,"Ġreward":5631,"thx":5632,"Ġdelicate":5633,"Ġshampoo":5634,"entle":5635,"Ġnoticed":5636,"oked":5637,"unting":5638,"kkw":5639,"lig":5640,"Ġrecommendations":5641,"aving":5642,"Ġscam":5643,"Ġintention":5644,"ashion":5645,"Ġsamples":5646,"Ġterimakas":5647,"prox":5648,"Ġcosts":5649,"Ġtypes":5650,"Ġregrets":5651,"syuka":5652,"Ġpsbb":5653,"Ġamanah":5654,"pengiriman":5655,"Ġwife":5656,"edule":5657,"Ġinitial":5658,"Ġwonderful":5659,"bul":5660,"gress":5661,"ife":5662,"night":5663,"enance":5664,"arang":5665,"Ġeconom":5666,"semb":5667,"aknya":5668,"appe":5669,"irking":5670,"Ġtrous":5671,"opee":5672,"Ġlead":5673,"Ġterny":5674,"anyaa":5675,"Ġabras":5676,"Ġdurability":5677,"Ġkecepatan":5678,"ipis":5679,"Ġbget":5680,"cover":5681,"Ġretri":5682,"blum":5683,"Ġpromised":5684,"Ġ05":5685,"Ġmarks":5686,"colors":5687,"Ġluckily":5688,"Ġdikasi":5689,"Ġ150":5690,"Ġcapacity":5691,"Ġbender":5692,"Ġsteel":5693,"ursday":5694,"88":5695,"bre":5696,"ipped":5697,"mag":5698,"tooth":5699,"ina":5700,"Ġping":5701,"Ġpark":5702,"isi":5703,"Ġhn":5704,"Ġkel":5705,"Ġalright":5706,"Ġforce":5707,"ury":5708,"Ġcher":5709,"Ġchan":5710,"ends":5711,"Ġsix":5712,"Ġtra":5713,"Ġsegitu":5714,"Ġdeg":5715,"Ġdichat":5716,"Ġ34":5717,"abl":5718,"Ġrepaired":5719,"ailing":5720,"uuuuu":5721,"differ":5722,"Äłsy":5723,"door":5724,"merch":5725,"Ġjugak":5726,"Ġcanceled":5727,"yyyyyyyy":5728,"Ġfilled":5729,"Ġobviously":5730,"Ġdipakenya":5731,"Ġmobile":5732,"bly":5733,"gf":5734,"land":5735,"pay":5736,"yal":5737,"Ġtnx":5738,"Ġach":5739,"Ġaprox":5740,"repe":5741,"Ġden":5742,"Ġmash":5743,"atan":5744,"Ġlmy":5745,"Ġvend":5746,"under":5747,"Ġrace":5748,"Ġsering":5749,"Ġdig":5750,"uuuuuu":5751,"Ġletter":5752,"Ġsolution":5753,"Ġcostumer":5754,"Ġassured":5755,"Ġumbr":5756,"Ġcleaning":5757,"Ġlining":5758,"Ġcollar":5759,"Ġpulak":5760,"Ġsatified":5761,"Ġdissapointed":5762,"30":5763,"bil":5764,"cise":5765,"eh":5766,"fund":5767,"lay":5768,"nis":5769,"pad":5770,"yung":5771,"Ġsdk":5772,"Ġpt":5773,"Ġfee":5774,"Ġsmirking":5775,"Äłsi":5776,"Ġlift":5777,"etic":5778,"imately":5779,"Ġcoated":5780,"dhdhd":5781,"Ġworthy":5782,"ava":5783,"ikes":5784,"Ġsizenya":5785,"jdjdjdjd":5786,"Ġvariety":5787,"Ġdonk":5788,"Ġcurt":5789,"Ġcharged":5790,"Ġsaucy":5791,"Ġsecurity":5792,"Ġnadeliver":5793,"Ġsustenance":5794,"Ġenvelope":5795,"Ġindonesia":5796,"Ġdisappinted":5797,"Ġtrousers":5798,"easy":5799,"flow":5800,"Ġtf":5801,"ince":5802,"Ġgede":5803,"Ġbil":5804,"Ġwasted":5805,"Ġlm":5806,"Ġshall":5807,"Ġnex":5808,"Ġloh":5809,"Ġbud":5810,"Ġtrmksh":5811,"Ġworse":5812,"arently":5813,"Ġmayan":5814,"avan":5815,"Ġintegr":5816,"ifi":5817,"Ġbgttt":5818,"Ġtrima":5819,"Ġears":5820,"check":5821,"Ġcomplim":5822,"Ġvariations":5823,"jeje":5824,"Ġpsen":5825,"Ġtablets":5826,"Ġsaucony":5827,"Ġndak":5828,"Ġmgkn":5829,"keeping":5830,"bble":5831,"jek":5832,"ost":5833,"sim":5834,"vi":5835,"Ġtie":5836,"Ġgrim":5837,"Ġbait":5838,"rekom":5839,"Ġcongratulations":5840,"Ġwip":5841,"ene":5842,"orable":5843,"Ġlbih":5844,"Äłne":5845,"angin":5846,"Ġexceed":5847,"Ġfraud":5848,"Ġbother":5849,"Ġplate":5850,"Ġsubsidy":5851,"Ġ42":5852,"Ġabu":5853,"Ġknown":5854,"Ġbubbles":5855,"Ġkece":5856,"Ġkebuka":5857,"dikit":5858,"tttttt":5859,"Ġselalu":5860,"Ġshorts":5861,"lucu":5862,"Ġremaining":5863,"Ġdistorted":5864,"Ġupdates":5865,"Ġfilter":5866,"Ġschedule":5867,"Ġdecided":5868,"Ġforeign":5869,"Ġjaitan":5870,"Ġeventually":5871,"Ġapplication":5872,"Ġperforated":5873,"bw":5874,"dc":5875,"ration":5876,"Ġath":5877,"Ġther":5878,"Ġglo":5879,"Ġpricing":5880,"Ġhood":5881,"Äłan":5882,"Ġshoot":5883,"uny":5884,"Ġrated":5885,"Ġbuck":5886,"Ġtraff":5887,"Ġsaving":5888,"apped":5889,"ures":5890,"Ġamen":5891,"Ġpurpose":5892,"ddd":5893,"neath":5894,"Ġcro":5895,"Ġworkout":5896,"Äłbu":5897,"Ġelegant":5898,"Ġsheet":5899,"Ġprovides":5900,"materials":5901,"Ġpaketannya":5902,"eterminate":5903,"culated":5904,"Ġbangeeet":5905,"Ġelectric":5906,"Ġtrouble":5907,"cut":5908,"du":5909,"jl":5910,"zh":5911,"Ġahead":5912,"Ġthursday":5913,"itu":5914,"alan":5915,"Ġopin":5916,"Ġcer":5917,"Ġmdh":5918,"Ġkot":5919,"vet":5920,"Ġwhatever":5921,"Ġupside":5922,"Ġconstr":5923,"Ġ55":5924,"aaaaaaaaaaaa":5925,"hhhhhhh":5926,"ounded":5927,"Ġdropped":5928,"Ġmoth":5929,"smiling":5930,"Ġpoko":5931,"Ġhelps":5932,"Ġrobe":5933,"Ġcave":5934,"Ġolder":5935,"clothes":5936,"Ġlembut":5937,"Ġscented":5938,"Ġminimal":5939,"extremely":5940,"Ġaccessories":5941,"Ġkudos":5942,"big":5943,"Ġtang":5944,"Ġbner":5945,"ister":5946,"Ġful":5947,"Ġder":5948,"Ġmild":5949,"Ġham":5950,"Ġhindi":5951,"omon":5952,"anku":5953,"Ġsudah":5954,"Ġjual":5955,"apers":5956,"Ġnecess":5957,"Ġsock":5958,"Ġtimeout":5959,"cake":5960,"Ġaccoding":5961,"Ġusers":5962,"Ġadap":5963,"delicious":5964,"hhhhhh":5965,"Ġkecew":5966,"ctions":5967,"Ġneedle":5968,"Ġkindly":5969,"Ġvariants":5970,"shoe":5971,"Ġincludes":5972,"Ġadvertising":5973,"Ġsamsung":5974,"Ġcollect":5975,"nfnf":5976,"Ġcenter":5977,"Ġlaptop":5978,"Ġgercep":5979,"Ġbeginning":5980,"Ġpigment":5981,"Ġsummer":5982,"gw":5983,"rnya":5984,"Ġeli":5985,"Ġtee":5986,"Ġgw":5987,"Ġgentle":5988,"Ġupper":5989,"aap":5990,"Ġsmart":5991,"Äłam":5992,"west":5993,"angka":5994,"iculous":5995,"Ġdevel":5996,"Ġdesk":5997,"Ġintent":5998,"Ġfocus":5999,"Ġdowncast":6000,"Ġpokoke":6001,"Ġindeterminate":6002,"satisfactory":6003,"Ġ2022":6004,"Ġindex":6005,"llllllllllllllll":6006,"Ġninj":6007,"evable":6008,"Ġnggk":6009,"Ġattractive":6010,"cd":6011,"dus":6012,"mz":6013,"mission":6014,"nks":6015,"pu":6016,"sale":6017,"rently":6018,"Ġfond":6019,"Ġmau":6020,"Ġnie":6021,"Ġegg":6022,"Ġbeige":6023,"Ġong":6024,"ortion":6025,"Ġshipper":6026,"Ġsipp":6027,"kks":6028,"Ġarmy":6029,"Ġmuken":6030,"Ġhey":6031,"opened":6032,"Ġdeser":6033,"Ġphys":6034,"nns":6035,"ssssss":6036,"ivid":6037,"Ġngam":6038,"Ġbreaking":6039,"Ġsupposed":6040,"Ġgirls":6041,"dddddddddddddddddddddddddddddddd":6042,"Ġgrey":6043,"Ġtengkyu":6044,"Ġmaxim":6045,"ismillah":6046,"Ġkarna":6047,"Ġtolerable":6048,"Ġpandemic":6049,"44":6050,"mh":6051,"say":6052,"Ġsna":6053,"Ġbis":6054,"Ġfurn":6055,"Ġcntik":6056,"ceive":6057,"Ġlan":6058,"quito":6059,"theless":6060,"arse":6061,"Ġannya":6062,"uter":6063,"Ġalhm":6064,"illaah":6065,"Ġaged":6066,"Ġextr":6067,"Ġsav":6068,"abled":6069,"Ġabit":6070,"Ġsyek":6071,"Ġknife":6072,"Ġduration":6073,"berry":6074,"ashed":6075,"bby":6076,"Ġmonkey":6077,"Ġselection":6078,"Ġunderneath":6079,"Ġwarn":6080,"Ġincreased":6081,"Ġinclude":6082,"bagussbaguss":6083,"Ġpnjual":6084,"Ġprotector":6085,"Ġapril":6086,"Ġgonna":6087,"Ġumbrella":6088,"13":6089,"jv":6090,"kasih":6091,"Ġcs":6092,"Ġnap":6093,"Ġhay":6094,"arm":6095,"Ġked":6096,"Ġyng":6097,"Ġjw":6098,"emp":6099,"Ġchart":6100,"Ġchose":6101,"Ġproject":6102,"ihih":6103,"Ġreput":6104,"Ġhiking":6105,"ungsi":6106,"Ġlotion":6107,"Ġworked":6108,"dapet":6109,"Ġpointing":6110,"Ġsesua":6111,"Ġkuri":6112,"Ġvisible":6113,"Ġfaulty":6114,"Ġcandy":6115,"Ġguests":6116,"Ġretrievable":6117,"different":6118,"Ġopinion":6119,"cas":6120,"firm":6121,"hal":6122,"iu":6123,"pc":6124,"qw":6125,"alitas":6126,"isy":6127,"Ġfashion":6128,"Ġdora":6129,"ender":6130,"Ġmile":6131,"Ġnha":6132,"orance":6133,"Ġuu":6134,"umin":6135,"ira":6136,"print":6137,"Ġdeform":6138,"Ġgets":6139,"Ġstraps":6140,"defect":6141,"trusted":6142,"Äłpre":6143,"Ġsukaaaaa":6144,"Ġzero":6145,"Ġfool":6146,"Ġevil":6147,"Ġbias":6148,"Ġoriginally":6149,"Ġsurprise":6150,"Ġsekalii":6151,"Ġpromotion":6152,"Ġknew":6153,"Ġpkoknya":6154,"Ġprofessional":6155,"request":6156,"Ġsilicone":6157,"Ġshoulder":6158,"jangkau":6159,"40":6160,"awe":6161,"bank":6162,"kon":6163,"Ġtdk":6164,"Ġahh":6165,"inc":6166,"Ġpatch":6167,"Ġkd":6168,"Ġyan":6169,"Ġinput":6170,"Ġbeauiful":6171,"Ġforced":6172,"ainya":6173,"Ġassemb":6174,"Ġtrm":6175,"Ġseger":6176,"Ġ300":6177,"Ġated":6178,"Ġdisappointment":6179,"Ġrunner":6180,"Ġmoon":6181,"Ġcramp":6182,"Äłcr":6183,"Ġowners":6184,"Ġkrm":6185,"Ġwalau":6186,"Ġberbaloi":6187,"Ġsesu":6188,"Ġmandailing":6189,"Ġunderstandable":6190,"Ġupdated":6191,"Ġkmren":6192,"Ġprinted":6193,"Ġmetal":6194,"lumayan":6195,"card":6196,"ech":6197,"nj":6198,"Ġsca":6199,"Ġgag":6200,"Ġbill":6201,"Ġlink":6202,"Ġann":6203,"Ġep":6204,"Ġshade":6205,"ppers":6206,"unlike":6207,"ireless":6208,"icle":6209,"Ġdisni":6210,"Ġprepar":6211,"Ġcopy":6212,"Ġgrad":6213,"dden":6214,"Ġpengemas":6215,"okee":6216,"Ġpromise":6217,"Ġanswers":6218,"Ġpengirimannya":6219,"Ġfollowed":6220,"Ġspring":6221,"Ġdetailed":6222,"Ġlisted":6223,"Ġimagined":6224,"Ġapprox":6225,"Ġdusnya":6226,"Ġunique":6227,"Ġdalemnya":6228,"Ġtosca":6229,"Ġtraffic":6230,"19":6231,"100":6232,"sal":6233,"Ġrim":6234,"Ġsini":6235,"Ġpear":6236,"Ġdm":6237,"Ġwang":6238,"Ġreject":6239,"Ġking":6240,"Ġinqu":6241,"Ġstory":6242,"Ġbeg":6243,"sequ":6244,"Äłso":6245,"Äłli":6246,"emon":6247,"Ġupset":6248,"Ġaccorance":6249,"Ġgaes":6250,"Ġarrives":6251,"Ġrecommenda":6252,"Ġapparently":6253,"Ġsheets":6254,"Ġeffort":6255,"Ġeffic":6256,"Ġtyp":6257,"Ġdrive":6258,"Ġpressure":6259,"Ġcooking":6260,"Ġguarantee":6261,"Ġaromatic":6262,"Ġmixed":6263,"Ġwkwkwk":6264,"Ġbowl":6265,"Ġbbrp":6266,"Ġcherry":6267,"kasi":6268,"lillah":6269,"men":6270,"vc":6271,"vw":6272,"view":6273,"erg":6274,"Ġaction":6275,"Ġpw":6276,"Ġlat":6277,"Ġquiet":6278,"ota":6279,"Ġkon":6280,"Äłbo":6281,"ado":6282,"Ġjoint":6283,"Ġloos":6284,"Ġunexpected":6285,"Ġagainst":6286,"Ġnoise":6287,"Ġdip":6288,"Ġcancell":6289,"Ġarrow":6290,"Ġplants":6291,"Ġstud":6292,"istmas":6293,"ample":6294,"brng":6295,"Ġembr":6296,"attered":6297,"Ġdtang":6298,"untried":6299,"given":6300,"Ġinstantly":6301,"Ġcells":6302,"market":6303,"Ġfalcon":6304,"Ġassessment":6305,"amazing":6306,"general":6307,"Ġspirit":6308,"cantik":6309,"eer":6310,"lg":6311,"lack":6312,"press":6313,"rng":6314,"rereply":6315,"Ġtar":6316,"ods":6317,"Ġgest":6318,"alhamd":6319,"Ġbum":6320,"Ġow":6321,"Ġfile":6322,"Ġdull":6323,"Ġcow":6324,"cture":6325,"iled":6326,"Ġsufficient":6327,"Ġjahit":6328,"uno":6329,"irus":6330,"Ġbuilt":6331,"Ġunfort":6332,"Ġpackingannya":6333,"Ġusage":6334,"Ġcepa":6335,"Ġenhan":6336,"Ġgrand":6337,"Ġride":6338,"Ġ43":6339,"packaged":6340,"Ġkec":6341,"Ġcrow":6342,"Ġpoorly":6343,"Ġapolog":6344,"Ġprotected":6345,"mantapmantap":6346,"Ġcurrently":6347,"Ġmantappp":6348,"uuuuuuuuuuuuuuuuuuuuuuuuuuuuuuuu":6349,"Ġmoment":6350,"Ġinserted":6351,"rapid":6352,"bener":6353,"fg":6354,"fgh":6355,"hold":6356,"rating":6357,"wait":6358,"Ġpend":6359,"Ġdee":6360,"Ġkul":6361,"Ġsting":6362,"Ġbeat":6363,"Ġsugar":6364,"Ġyoutu":6365,"Ġchip":6366,"produ":6367,"Ġmeans":6368,"Ġmud":6369,"Ġ33":6370,"Ġuseless":6371,"Ġlightly":6372,"Ġfeature":6373,"Ġreport":6374,"sia":6375,"Ġsuited":6376,"Ġflu":6377,"Ġkeith":6378,"Ġshorter":6379,"Äłto":6380,"Ġnumbers":6381,"Ġcomfortably":6382,"jsjsj":6383,"oider":6384,"Ġbasically":6385,"Ġprotective":6386,"Ġholder":6387,"Ġlmbt":6388,"Ġmosquito":6389,"Ġgrimacing":6390,"defective":6391,"hee":6392,"knya":6393,"pick":6394,"vas":6395,"Ġtick":6396,"Ġaz":6397,"Ġaaaa":6398,"Ġpg":6399,"Ġpor":6400,"itter":6401,"Ġgos":6402,"Ġglove":6403,"reply":6404,"Ġff":6405,"Ġnood":6406,"Ġlunch":6407,"Ġshelf":6408,"aster":6409,"Ġstor":6410,"Äłlu":6411,"Äłover":6412,"Ġrp":6413,"irr":6414,"Ġsebel":6415,"Ġground":6416,"issue":6417,"gger":6418,"Ġsport":6419,"Ġspread":6420,"white":6421,"bags":6422,"Ġdrug":6423,"lightweight":6424,"nda":6425,"Ġcoud":6426,"Ġkoq":6427,"Ġrefer":6428,"blm":6429,"Ġbarangny":6430,"sao":6431,"Ġgmna":6432,"Ġflaws":6433,"Ġpockets":6434,"Ġpatiently":6435,"hhhhhhhhhhhhhhhhhhhhhhhhhhhhhhhh":6436,"nnnnnnnnnnnnnnnn":6437,"Ġrocking":6438,"Ġwrinkled":6439,"Ġabrasions":6440,"Ġninjavan":6441,"bgs":6442,"uum":6443,"Ġsss":6444,"Ġsdikit":6445,"verse":6446,"Ġpra":6447,"Ġprize":6448,"Ġjel":6449,"Ġjun":6450,"umah":6451,"ores":6452,"Ġfract":6453,"Ġado":6454,"Ġcep":6455,"Ġskit":6456,"Ġweird":6457,"Ġapple":6458,"ilever":6459,"Äłsa":6460,"ashes":6461,"Ġbluetooth":6462,"bubble":6463,"Ġterimaksih":6464,"Ġbrief":6465,"Ġerr":6466,"Ġadvised":6467,"Ġinsoles":6468,"Ġpuasss":6469,"Ġcepett":6470,"Ġnegative":6471,"Ġdiamond":6472,"Ġcharacter":6473,"Ġemplo":6474,"Ġprivate":6475,"Ġintentions":6476,"Ġdoraemon":6477,"Ġassembly":6478,"hir":6479,"sed":6480,"wan":6481,"Ġthrow":6482,"Ġdun":6483,"Ġmill":6484,"charg":6485,"charge":6486,"ahal":6487,"idence":6488,"Ġdike":6489,"Ġsomehow":6490,"ggings":6491,"Ġxs":6492,"Ġcarpet":6493,"eeeeee":6494,"Ġminor":6495,"Ġpartying":6496,"Ġsemog":6497,"post":6498,"hair":6499,"tedly":6500,"Ġprocessing":6501,"Ġlaju":6502,"Ġsni":6503,"Ġbatam":6504,"gede":6505,"ibility":6506,"xxxxxxxx":6507,"Ġbreathable":6508,"Ġterbaikkk":6509,"Ġchristmas":6510,"iy":6511,"iat":6512,"part":6513,"vis":6514,"Ġsdah":6515,"Ġtn":6516,"Ġthigh":6517,"itation":6518,"eler":6519,"Ġgaper":6520,"alk":6521,"Ġwan":6522,"Ġnan":6523,"Ġshiny":6524,"Ġyang":6525,"Äłqu":6526,"Äłber":6527,"sport":6528,"stac":6529,"Ġsof":6530,"ttq":6531,"ids":6532,"bsh":6533,"ffff":6534,"Ġexer":6535,"Ġmatte":6536,"Ġcheese":6537,"short":6538,"Ġpool":6539,"Ġampe":6540,"Ġkakak":6541,"Ġxia":6542,"sssssss":6543,"Ġscuff":6544,"ikan":6545,"rrr":6546,"Ġhelmet":6547,"Ġrequire":6548,"Ġcreated":6549,"hehehe":6550,"Ġcorrectly":6551,"Ġsilky":6552,"ripsi":6553,"Ġklw":6554,"Ġrekomend":6555,"Ġnakak":6556,"Ġditer":6557,"Ġposition":6558,"gift":6559,"Ġessence":6560,"Ġbesar":6561,"wwwwwwww":6562,"kualitas":6563,"Ġpelapak":6564,"Ġdumating":6565,"Ġstriped":6566,"Ġjapan":6567,"Ġintegrity":6568,"Ġenhanced":6569,"ban":6570,"nic":6571,"tasty":6572,"Ġsg":6573,"Ġtit":6574,"Ġtam":6575,"Ġgun":6576,"Ġburn":6577,"Ġcry":6578,"edy":6579,"eness":6580,"Ġhan":6581,"Ġlma":6582,"ented":6583,"Ġyh":6584,"amin":6585,"Ġlie":6586,"aks":6587,"Ġsich":6588,"Ġtooth":6589,"Ġpopper":6590,"Ġnyobain":6591,"Ġsplit":6592,"kkkkkk":6593,"Ġbangettttt":6594,"Ġ1000":6595,"ppppp":6596,"Ġeasier":6597,"mantep":6598,"Äłmu":6599,"Ġretur":6600,"Ġedit":6601,"Ġrapii":6602,"took":6603,"Ġthroughout":6604,"Ġheads":6605,"Äłfl":6606,"ference":6607,"Ġeffects":6608,"Ġheels":6609,"Ġpositive":6610,"Ġwinder":6611,"Ġwinter":6612,"Ġhurry":6613,"Ġconnection":6614,"Ġsatu":6615,"Ġcontented":6616,"Ġhanging":6617,"Ġcountry":6618,"Ġcalculated":6619,"nznz":6620,"identally":6621,"paketan":6622,"Ġpenghantaran":6623,"turns":6624,"Ġconstraint":6625,"Ġmaximum":6626,"39":6627,"dou":6628,"jan":6629,"lin":6630,"mg":6631,"port":6632,"ring":6633,"Ġtissue":6634,"Ġbint":6635,"Ġoo":6636,"Ġfle":6637,"Ġcel":6638,"Ġmass":6639,"Ġhhh":6640,"Ġtok":6641,"see":6642,"Äłas":6643,"Ġsudden":6644,"Ġorderan":6645,"ems":6646,"icate":6647,"ardus":6648,"pers":6649,"Ġhandy":6650,"Ġcompens":6651,"Ġspoon":6652,"Ġ41":6653,"aaaaaaaaaaa":6654,"Ġknit":6655,"Ġsaying":6656,"Ġchecking":6657,"gram":6658,"Ġattach":6659,"Ġdatang":6660,"Ġ06":6661,"Ġprocessed":6662,"wards":6663,"Ġconsign":6664,"Ġharap":6665,"Ġremind":6666,"Ġbread":6667,"tebel":6668,"Ġincredi":6669,"Ġpesan":6670,"Ġexcelent":6671,"Ġgames":6672,"hmhm":6673,"Ġownernya":6674,"Ġmaintained":6675,"Ġfailed":6676,"vvvvvvvv":6677,"Ġmengecewakan":6678,"much":6679,"Ġneglig":6680,"two":6681,"Ġvelvet":6682,"Ġcollapsible":6683,"Ġcompliments":6684,"22":6685,"gal":6686,"mint":6687,"mber":6688,"ped":6689,"Ġbers":6690,"Ġfu":6691,"Ġfto":6692,"Ġwise":6693,"Ġnanya":6694,"Ġhmm":6695,"Ġane":6696,"lem":6697,"rif":6698,"Ġirr":6699,"amed":6700,"add":6701,"ummy":6702,"yesterday":6703,"Ġmatt":6704,"Ġseat":6705,"lock":6706,"feel":6707,"Ġcpat":6708,"Ġprogress":6709,"Ġuntested":6710,"Ġoutstanding":6711,"Ġhandling":6712,"Ġrepair":6713,"Ġleaf":6714,"Ġbangt":6715,"Ġgiao":6716,"Ġdrag":6717,"artment":6718,"jsbs":6719,"Ġbaru":6720,"Äłsk":6721,"Ġngel":6722,"Ġtastes":6723,"Ġokeee":6724,"Ġshortage":6725,"Ġcepattt":6726,"Ġbsa":6727,"Ġbalikin":6728,"Ġadvent":6729,"Ġnhanh":6730,"Ġstates":6731,"Ġdonated":6732,"Ġhuhuhu":6733,"Ġsuggestion":6734,"Ġmulti":6735,"Ġburst":6736,"Ġplanting":6737,"Ġoptions":6738,"Ġsampaii":6739,"Ġtreatment":6740,"Ġparticular":6741,"Ġfantastic":6742,"Ġflavors":6743,"Ġdevelop":6744,"Ġcancellation":6745,"mot":6746,"pric":6747,"purchase":6748,"wel":6749,"want":6750,"Ġsear":6751,"Ġsort":6752,"Ġgil":6753,"Ġgud":6754,"Ġbay":6755,"Ġwool":6756,"eny":6757,"atically":6758,"Ġancur":6759,"pekt":6760,"rict":6761,"Ġkali":6762,"Ġstamp":6763,"Äłce":6764,"aki":6765,"empor":6766,"sters":6767,"anter":6768,"comes":6769,"Ġexample":6770,"ordinary":6771,"Ġnyangka":6772,"ension":6773,"Ġsends":6774,"accommodating":6775,"accept":6776,"Ġmantull":6777,"Ġgoes":6778,"Ġbarng":6779,"Ġcloud":6780,"Ġwrapper":6781,"Ġmasi":6782,"blue":6783,"Ġcaused":6784,"tpi":6785,"crption":6786,"Ġsupplier":6787,"Ġbeda":6788,"severe":6789,"Ġpemgiriman":6790,"Ġannoying":6791,"Ġfunds":6792,"dateng":6793,"Ġkomplen":6794,"Ġapproximately":6795,"dear":6796,"erous":6797,"ode":6798,"inal":6799,"Ġfly":6800,"Ġrecomm":6801,"oup":6802,"Ġanx":6803,"Ġbutter":6804,"sey":6805,"Äłcom":6806,"Ġthankss":6807,"olved":6808,"Ġvent":6809,"Ġjan":6810,"Ġyouthank":6811,"okan":6812,"iron":6813,"Ġserved":6814,"Ġsehari":6815,"Ġceaaa":6816,"Ġrepurchased":6817,"Ġleggings":6818,"Ġbangat":6819,"broken":6820,"bagusbagus":6821,"enceng":6822,"Ġattem":6823,"zzy":6824,"blon":6825,"Ġ01":6826,"Ġdteng":6827,"Ġtransit":6828,"izer":6829,"Ġlacks":6830,"Ġpersonally":6831,"Ġmurahh":6832,"ighb":6833,"Ġobstac":6834,"Ġnyampai":6835,"Ġelsewhere":6836,"Ġbesides":6837,"Ġpanel":6838,"Ġaccuracy":6839,"Ġratings":6840,"Ġpetite":6841,"Ġinteresting":6842,"Ġsleeves":6843,"Ġwarehouse":6844,"sukaa":6845,"exactly":6846,"Ġalias":6847,"Ġmoderate":6848,"Ġwelcome":6849,"Ġfurniture":6850,"Ġembroider":6851,"Ġgosend":6852,"67":6853,"acious":6854,"bv":6855,"beli":6856,"gel":6857,"hy":6858,"late":6859,"norm":6860,"ram":6861,"Ġell":6862,"Ġtut":6863,"Ġari":6864,"Ġcast":6865,"enak":6866,"Ġnn":6867,"Ġnude":6868,"Ġhanger":6869,"asuka":6870,"Ġkemas":6871,"Ġyrs":6872,"sek":6873,"Äłmant":6874,"Ġcha":6875,"Ġlowest":6876,"prod":6877,"Ġagre":6878,"Ġtrash":6879,"Ġpres":6880,"Ġplenty":6881,"ngiriman":6882,"Ġoutdoor":6883,"Ġthanx":6884,"Ġstuffed":6885,"awl":6886,"Ġcontinuous":6887,"Ġbackhand":6888,"Ġhuge":6889,"cohol":6890,"bbd":6891,"Ġsetting":6892,"Ġbarangx":6893,"Ġcats":6894,"Ġpadded":6895,"jxjx":6896,"Ġflawed":6897,"from":6898,"frag":6899,"Ġraised":6900,"kkkkkkkkkkkkkkkkkkkkkkkkkkkkkkkk":6901,"Ġrainbow":6902,"Ġseriously":6903,"Ġbwt":6904,"abilities":6905,"Ġlimited":6906,"Ġphysical":6907,"iri":6908,"jel":6909,"jjd":6910,"kes":6911,"wah":6912,"Ġsb":6913,"Ġts":6914,"Ġtune":6915,"inci":6916,"Ġpure":6917,"Ġthus":6918,"elah":6919,"Ġdapat":6920,"another":6921,"annn":6922,"Ġnx":6923,"Ġnmn":6924,"Ġhri":6925,"Ġhtt":6926,"Ġdeliber":6927,"Ġsha":6928,"Ġyarn":6929,"chang":6930,"chers":6931,"Äłbag":6932,"Ġyouu":6933,"Ġokros":6934,"Ġrab":6935,"Ġunited":6936,"Ġunbox":6937,"Ġblur":6938,"Ġboots":6939,"Ġprest":6940,"Ġanywhere":6941,"ngan":6942,"Ġdisappoints":6943,"Ġnyam":6944,"Ġnyari":6945,"Ġengin":6946,"Ġrunners":6947,"Ġresell":6948,"okeoke":6949,"Ġbabies":6950,"Ġsmelled":6951,"Ġlasted":6952,"Ġdressing":6953,"Ġmaj":6954,"Ġheadphones":6955,"Ġdrawing":6956,"Ġplaces":6957,"Ġpatterns":6958,"Ġwipe":6959,"Ġrmh":6960,"Ġslippers":6961,"Ġappearance":6962,"missing":6963,"Ġblanket":6964,"Ġconcentrated":6965,"Ġathlet":6966,"Ġscared":6967,"57":6968,"ht":6969,"mah":6970,"rin":6971,"sound":6972,"saf":6973,"vest":6974,"oder":6975,"Ġbanan":6976,"Ġdeep":6977,"Ġwireless":6978,"enced":6979,"Ġnyes":6980,"Ġhm":6981,"ilbab":6982,"lect":6983,"Ġine":6984,"sett":6985,"Äłar":6986,"Ġvirus":6987,"ahi":6988,"imar":6989,"endar":6990,"Ġheard":6991,"Ġdiper":6992,"Ġpac":6993,"isted":6994,"Ġsyang":6995,"kkkkkkk":6996,"Ġretail":6997,"Ġberkali":6998,"Ġngeb":6999,"affordable":7000,"nxnx":7001,"Ġcontacted":7002,"Ġshower":7003,"terima":7004,"minggu":7005,"cloth":7006,"Ġbandung":7007,"Ġautomatically":7008,"Ġvacuum":7009,"Ġbaguuus":7010,"Ġeconomical":7011,"bok":7012,"cap":7013,"kah":7014,"mnt":7015,"nan":7016,"paper":7017,"va":7018,"Ġtul":7019,"inh":7020,"init":7021,"Ġpang":7022,"Ġoct":7023,"Ġdp":7024,"Ġcya":7025,"Ġcore":7026,"Ġpray":7027,"Ġmr":7028,"once":7029,"Ġshot":7030,"Ġsells":7031,"Ġalcohol":7032,"Äłexp":7033,"Ġexpet":7034,"Ġdisabilities":7035,"kkd":7036,"enger":7037,"Ġnews":7038,"Ġgives":7039,"istic":7040,"Ġexpire":7041,"brush":7042,"Äłcl":7043,"uhuh":7044,"Ġflashsale":7045,"Ġfortune":7046,"Ġkyak":7047,"Ġpadding":7048,"Ġseneng":7049,"Ġshows":7050,"pengirim":7051,"badan":7052,"front":7053,"Ġraising":7054,"Ġbangeett":7055,"Ġtender":7056,"Ġwindow":7057,"vdvd":7058,"mmmmmmmmmmmmmmmm":7059,"3333":7060,"Ġbolt":7061,"Ġrusty":7062,"Ġgapernah":7063,"priced":7064,"certain":7065,"jsh":7066,"mx":7067,"run":7068,"rass":7069,"Ġsedi":7070,"inst":7071,"Ġdom":7072,"Ġndi":7073,"ato":7074,"orrect":7075,"Ġlaah":7076,"omi":7077,"Ġreality":7078,"Ġreorder":7079,"Ġshs":7080,"legit":7081,"aahh":7082,"cha":7083,"ulate":7084,"Ġpackets":7085,"adv":7086,"Ġsudh":7087,"ahin":7088,"Ġchamp":7089,"Ġrack":7090,"Ġrush":7091,"Ġacross":7092,"Ġcans":7093,"Ġpercent":7094,"Ġpace":7095,"okokok":7096,"Ġcleans":7097,"luck":7098,"Ġfunctions":7099,"Ġsmpi":7100,"izuno":7101,"Ġrele":7102,"annel":7103,"Ġleaky":7104,"Ġlambat":7105,"Ġntar":7106,"Ġstretched":7107,"Ġkeyboard":7108,"Ġmiddling":7109,"Ġinterested":7110,"Ġpagkak":7111,"Ġseparate":7112,"Ġmelted":7113,"little":7114,"sampai":7115,"Ġmoisturi":7116,"Ġbublewrap":7117,"subscription":7118,"Ġencounter":7119,"Ġdibales":7120,"Ġcobain":7121,"Ġongkirnya":7122,"Ġcramped":7123,"Ġyoutube":7124,"aing":7125,"jahit":7126,"Ġtan":7127,"Ġgoo":7128,"Ġbin":7129,"Ġbju":7130,"Ġbisa":7131,"resh":7132,"Ġdare":7133,"Ġproof":7134,"Ġmang":7135,"Ġmop":7136,"ati":7137,"ayy":7138,"Ġinii":7139,"Ġstone":7140,"Ġsmu":7141,"olf":7142,"Ġunresponsive":7143,"Ġunopened":7144,"Ġsew":7145,"Ġsablon":7146,"Ġplast":7147,"nyam":7148,"Ġteruss":7149,"Ġabal":7150,"Ġdrpd":7151,"jaj":7152,"iiiiiii":7153,"Ġcargo":7154,"Ġsalamat":7155,"Ġsalomon":7156,"Ġbarok":7157,"Ġclamp":7158,"Ġclinch":7159,"Ġ62":7160,"Ġdentist":7161,"plastic":7162,"Äłdr":7163,"origin":7164,"Ġkinds":7165,"Ġentry":7166,"Ġsquee":7167,"Ġultim":7168,"Ġwave":7169,"Ġindivid":7170,"parcel":7171,"Ġpushing":7172,"Ġklau":7173,"sesuai":7174,"Ġtennis":7175,"Ġflexed":7176,"Ġshocked":7177,"Ġideal":7178,"Ġtela":7179,"Ġfield":7180,"Ġinshaallah":7181,"prompt":7182,"Ġluxuri":7183,"Ġsuddenly":7184,"bon":7185,"give":7186,"genuine":7187,"nag":7188,"oom":7189,"off":7190,"vz":7191,"warp":7192,"Ġity":7193,"erv":7194,"Ġpum":7195,"Ġpelay":7196,"Ġged":7197,"Ġous":7198,"Ġfoto":7199,"Ġcg":7200,"ennya":7201,"Ġmick":7202,"iceps":7203,"Ġkenceng":7204,"Ġurg":7205,"Äłz":7206,"Äłab":7207,"Ġsuck":7208,"api":7209,"imsy":7210,"Ġry":7211,"Ġdish":7212,"Ġdisabled":7213,"Ġsepat":7214,"ihin":7215,"Ġnye":7216,"packed":7217,"been":7218,"leted":7219,"Ġhandsome":7220,"bru":7221,"Ġputting":7222,"Ġ63":7223,"smp":7224,"arized":7225,"Ġsubmission":7226,"Ġdesigned":7227,"Ġhelped":7228,"Ġcreamy":7229,"mbol":7230,"Äłres":7231,"Ġukur":7232,"Ġntn":7233,"Ġdistortion":7234,"Ġpowerbank":7235,"Ġduct":7236,"Ġmalay":7237,"Ġballs":7238,"Ġsampee":7239,"bxbx":7240,"Ġprodak":7241,"Ġsauce":7242,"Ġdropship":7243,"medical":7244,"Ġapplications":7245,"Ġkitty":7246,"Ġcontribute":7247,"Ġmounted":7248,"Ġsdkit":7249,"Ġpigmented":7250,"Ġstorage":7251,"Ġmattress":7252,"Ġanxious":7253,"Ġclincher":7254,"down":7255,"fi":7256,"gas":7257,"iries":7258,"mf":7259,"vent":7260,"yi":7261,"Ġtend":7262,"Ġaaaaa":7263,"ining":7264,"iting":7265,"Ġgloves":7266,"Ġbiceps":7267,"Ġore":7268,"isan":7269,"Ġdul":7270,"Ġdense":7271,"Ġci":7272,"Ġcac":7273,"Ġmab":7274,"Ġmgk":7275,"quis":7276,"Ġance":7277,"usan":7278,"ahank":7279,"stuff":7280,"orem":7281,"Ġsiii":7282,"Ġblouse":7283,"Ġblamed":7284,"Ġadmit":7285,"Ġdoesnt":7286,"Ġdamages":7287,"Ġknows":7288,"upas":7289,"Äłbang":7290,"Ġcustomerku":7291,"Ġwala":7292,"Ġ75":7293,"baek":7294,"Ġrolls":7295,"Ġprevent":7296,"Ġgara":7297,"Ġkeych":7298,"isingly":7299,"dfgh":7300,"Ġblem":7301,"Ġpillows":7302,"ssssssssssssssssssssssssssssssss":7303,"carefully":7304,"Ġseparated":7305,"Ġevalu":7306,"Ġfinishing":7307,"Ġfrustrating":7308,"Ġrejected":7309,"Ġconsultants":7310,"Ġsketchy":7311,"repeat":7312,"aas":7313,"ben":7314,"date":7315,"gus":7316,"lang":7317,"lama":7318,"vh":7319,"vable":7320,"yang":7321,"Ġtall":7322,"oddy":7323,"ital":7324,"Ġgim":7325,"Ġdar":7326,"Ġcation":7327,"Ġisn":7328,"Ġreco":7329,"Ġtown":7330,"Ġkaya":7331,"Ġstall":7332,"Ġuw":7333,"Ġfacial":7334,"Ġrg":7335,"Ġunload":7336,"Ġtrain":7337,"Ġtruck":7338,"commodity":7339,"Ġamp":7340,"aret":7341,"nyaaa":7342,"Ġrid":7343,"llh":7344,"Ġbagussssss":7345,"nded":7346,"finitely":7347,"both":7348,"Ġpecah":7349,"ullah":7350,"Äłsc":7351,"Ġincorrect":7352,"Ġhrus":7353,"Ġ03":7354,"Ġ04":7355,"Ġmustard":7356,"Ġhimself":7357,"shipped":7358,"kdk":7359,"Ġtapii":7360,"Ġmissed":7361,"Ġpowerful":7362,"Ġbasket":7363,"Ġchoices":7364,"Ġsyukak":7365,"Ġbanyakin":7366,"cara":7367,"Ġshockproof":7368,"Ġmistaken":7369,"Ġdisinii":7370,"Ġtruth":7371,"Ġtailoring":7372,"hel":7373,"hard":7374,"hour":7375,"jos":7376,"ksh":7377,"innya":7378,"alog":7379,"Ġbend":7380,"Ġcaps":7381,"Ġmali":7382,"Ġquota":7383,"arch":7384,"Ġea":7385,"Ġshad":7386,"ental":7387,"Ġki":7388,"Ġkeli":7389,"agal":7390,"Ġsellerr":7391,"Ġalto":7392,"Ġbecame":7393,"Ġure":7394,"Äłag":7395,"illed":7396,"apon":7397,"urance":7398,"Ġsoo":7399,"Ġwhit":7400,"Ġras":7401,"Ġunsatisfactory":7402,"Ġunilever":7403,"Ġexception":7404,"Ġdiscomfort":7405,"terrible":7406,"Ġblush":7407,"Ġdiapers":7408,"ateful":7409,"Ġusd":7410,"Ġads":7411,"Ġplis":7412,"Ġflimsy":7413,"Ġteam":7414,"aikum":7415,"Ġsciss":7416,"Ġdeliveries":7417,"smile":7418,"Äłdes":7419,"Ġends":7420,"Ġsquare":7421,"jdjdjd":7422,"Ġpolarized":7423,"Ġpokoknyaa":7424,"Ġcanti":7425,"smaller":7426,"Ġpalm":7427,"Ġfactory":7428,"Ġmedic":7429,"Ġinvoice":7430,"clear":7431,"Ġappears":7432,"pppppppppppppppppppppppppppppppp":7433,"bbbbbbbb":7434,"Ġblocked":7435,"Ġvibr":7436,"Ġcharacters":7437,"Ġcrispy":7438,"Ġathletic":7439,"sau":7440,"uin":7441,"vular":7442,"Ġtai":7443,"aling":7444,"reng":7445,"Ġcaught":7446,"Ġlaw":7447,"Ġist":7448,"Ġren":7449,"Ġreed":7450,"aries":7451,"ula":7452,"Äłpen":7453,"Ġfastest":7454,"Ġviv":7455,"Ġvoi":7456,"Ġshift":7457,"Ġresponding":7458,"stal":7459,"ura":7460,"unate":7461,"antage":7462,"iry":7463,"sos":7464,"Ġconc":7465,"Ġdisappe":7466,"Ġskrng":7467,"Ġgroup":7468,"Ġrider":7469,"aaaaaaaaaaaaaaa":7470,"Ġmantuul":7471,"Ġflour":7472,"Ġgojek":7473,"jsks":7474,"Ġsalty":7475,"Ġchecks":7476,"Ġluon":7477,"aship":7478,"Ġemang":7479,"Ġemng":7480,"Ġsooner":7481,"Ġregister":7482,"zzz":7483,"Ġrestock":7484,"uhun":7485,"blic":7486,"Ġharm":7487,"Ġmakasihhh":7488,"Ġbelong":7489,"Ġbnr":7490,"Ġindicated":7491,"Ġclosely":7492,"Ġstretchable":7493,"Ġwatches":7494,"Ġimprovement":7495,"Ġhonestly":7496,"Ġinflu":7497,"murah":7498,"Ġnareceive":7499,"Ġfrequently":7500,"Ġprepare":7501,"Ġassemble":7502,"Ġdecoration":7503,"Ġrepeatedly":7504,"Ġjersey":7505,"excelent":7506,"Ġcrooked":7507,"Ġsearch":7508,"Ġresellers":7509,"bol":7510,"dom":7511,"jn":7512,"mark":7513,"ux":7514,"Ġended":7515,"rest":7516,"islike":7517,"Ġdot":7518,"Ġdjd":7519,"Ġcri":7520,"Ġcok":7521,"Ġcab":7522,"esan":7523,"Ġmim":7524,"atnya":7525,"Ġease":7526,"usion":7527,"Ġitu":7528,"Ġyak":7529,"Ġaltern":7530,"Ġfav":7531,"ills":7532,"Ġneighb":7533,"Ġrisk":7534,"antly":7535,"Ġnoisy":7536,"Ġworst":7537,"Ġmejo":7538,"igent":7539,"faster":7540,"aren":7541,"Ġgrade":7542,"ggg":7543,"Ġspl":7544,"Ġspots":7545,"Ġ48":7546,"bebe":7547,"Ġknowing":7548,"Ġapplied":7549,"Ġkeb":7550,"uuuuuuu":7551,"Ġtebal":7552,"ipment":7553,"Äłph":7554,"nothing":7555,"plus":7556,"Äłcont":7557,"Ġsweater":7558,"grown":7559,"okey":7560,"Äłte":7561,"Ġpaying":7562,"Ġweekend":7563,"Ġstocks":7564,"Ġqc":7565,"Ġmarch":7566,"Ġremedy":7567,"packagingnya":7568,"Ġdhl":7569,"Ġlngsung":7570,"izing":7571,"Ġhousehold":7572,"Ġyahh":7573,"Ġswim":7574,"Ġobject":7575,"umpah":7576,"Ġpalace":7577,"Ġsleeping":7578,"Ġbulky":7579,"Ġstreet":7580,"function":7581,"arriving":7582,"Ġgreasy":7583,"Ġauto":7584,"Ġtengky":7585,"Ġsloppy":7586,"Ġsnugly":7587,"Ġcombination":7588,"Ġrecieve":7589,"Ġtiles":7590,"Ġdeceiving":7591,"Ġboleh":7592,"Ġiship":7593,"Ġtrees":7594,"Ġactivities":7595,"Ġpreparation":7596,"Ġnoodles":7597,"Ġscuffed":7598,"Ġconstraints":7599,"bj":7600,"fot":7601,"kir":7602,"lap":7603,"mem":7604,"nak":7605,"nyesel":7606,"tot":7607,"vk":7608,"xk":7609,"Ġosh":7610,"Ġdream":7611,"atable":7612,"Ġln":7613,"Ġling":7614,"qua":7615,"Ġque":7616,"Ġtoko":7617,"ley":7618,"Ġally":7619,"ulated":7620,"Ġvo":7621,"Ġyouuu":7622,"Ġresponses":7623,"Ġloyal":7624,"Ġsiya":7625,"Ġdeket":7626,"ational":7627,"Ġovernight":7628,"nyamp":7629,"istles":7630,"Ġknock":7631,"ival":7632,"ungent":7633,"Ġmoved":7634,"boss":7635,"Ġsukaaaaaa":7636,"bbing":7637,"ugly":7638,"ooooo":7639,"Ġpostal":7640,"Ġmostly":7641,"Ġinternet":7642,"Ġpadahal":7643,"Ġtalking":7644,"Ġcasenya":7645,"Ġpala":7646,"foot":7647,"Ġtrails":7648,"quickly":7649,"Ġhargalah":7650,"secure":7651,"Ġspecified":7652,"Ġ5555":7653,"alhamdulillaah":7654,"dtg":7655,"Ġreccom":7656,"Ġbenefits":7657,"Ġjazak":7658,"Ġkurir":7659,"Ġmajor":7660,"62":7661,"hn":7662,"lon":7663,"lalu":7664,"lilah":7665,"mal":7666,"medi":7667,"pok":7668,"tes":7669,"zer":7670,"alnya":7671,"Ġbaa":7672,"Ġdad":7673,"Ġdried":7674,"Ġccok":7675,"Ġward":7676,"Ġpron":7677,"Ġmama":7678,"Ġhari":7679,"Ġles":7680,"utan":7681,"Ġies":7682,"Ġketer":7683,"Ġalus":7684,"Ġallo":7685,"Äłor":7686,"Ġjadi":7687,"apalah":7688,"emer":7689,"okk":7690,"Ġrup":7691,"Ġshoping":7692,"shopee":7693,"opes":7694,"gtly":7695,"Ġprosp":7696,"Ġoverpriced":7697,"suc":7698,"Ġexpires":7699,"Ġmessy":7700,"Ġfluff":7701,"Ġhade":7702,"undry":7703,"Ġtrigger":7704,"Ġhub":7705,"Ġbahannya":7706,"Ġpatience":7707,"kaka":7708,"Ġulit":7709,"Ġdistribut":7710,"Ġants":7711,"Ġequipment":7712,"Ġenglish":7713,"Ġsangatt":7714,"Ġrapet":7715,"Ġdevices":7716,"Ġkurang":7717,"Ġdiameter":7718,"Ġcooperation":7719,"Ġcurtain":7720,"Ġwipes":7721,"Ġadapter":7722,"Ġhttps":7723,"Ġdeliberately":7724,"Ġchampion":7725,"Ġaltogether":7726,"24":7727,"aq":7728,"bbs":7729,"bali":7730,"dress":7731,"fungsi":7732,"gc":7733,"mash":7734,"nut":7735,"sis":7736,"wy":7737,"yah":7738,"Ġely":7739,"Ġsong":7740,"iner":7741,"Ġpale":7742,"Ġthnk":7743,"ites":7744,"Ġgit":7745,"alot":7746,"Ġbc":7747,"Ġbell":7748,"Ġdy":7749,"Ġdir":7750,"Ġdua":7751,"Ġcoun":7752,"Ġprim":7753,"Ġhunting":7754,"asure":7755,"omer":7756,"uted":7757,"Ġsto":7758,"Äłhe":7759,"Ġjaya":7760,"imp":7761,"Ġrus":7762,"Ġuns":7763,"Ġundamaged":7764,"Ġuneven":7765,"Ġtrc":7766,"Ġdehhh":7767,"Ġdibadan":7768,"Ġcoarse":7769,"open":7770,"Ġskli":7771,"Ġcompat":7772,"Ġgrat":7773,"aaaaaaaaaaaaa":7774,"Ġsecret":7775,"Ġsymbol":7776,"Ġkekecil":7777,"need":7778,"Ġstru":7779,"Ġposts":7780,"yyy":7781,"Ġ120":7782,"Ġslh":7783,"yees":7784,"syuk":7785,"Ġukuran":7786,"Ġpads":7787,"Ġbatre":7788,"Ġajah":7789,"Ġbenar":7790,"Ġmotifs":7791,"Äłsuk":7792,"Ġlisten":7793,"Ġsyukaa":7794,"Ġhorns":7795,"Ġallowed":7796,"Ġexplan":7797,"Ġtidak":7798,"Ġmnta":7799,"Ġcircumference":7800,"relatively":7801,"Ġoccas":7802,"Ġgradually":7803,"Ġcepaat":7804,"subscriptions":7805,"bas":7806,"cles":7807,"creen":7808,"fant":7809,"gx":7810,"makas":7811,"pid":7812,"sil":7813,"teng":7814,"ukk":7815,"Ġsr":7816,"inter":7817,"Ġpics":7818,"Ġoi":7819,"isinya":7820,"Ġmizuno":7821,"Ġnxt":7822,"Ġnimb":7823,"Ġreci":7824,"Ġeee":7825,"lead":7826,"Ġalot":7827,"Ġue":7828,"Äłri":7829,"Äłcomp":7830,"Ġokk":7831,"urang":7832,"Ġrates":7833,"eek":7834,"Ġbristles":7835,"Ġato":7836,"Ġuses":7837,"Ġuntuk":7838,"Ġoutgrown":7839,"Ġgrateful":7840,"Ġspo":7841,"Ġlebih":7842,"udung":7843,"Ġsuits":7844,"uuuuuus":7845,"Ġscal":7846,"Ġhappen":7847,"Äłsel":7848,"true":7849,"eph":7850,"place":7851,"Ġprovider":7852,"Ġhardly":7853,"mina":7854,"itchen":7855,"Ġsadly":7856,"Ġmana":7857,"Ġadminnya":7858,"Ġnagrereply":7859,"pesennya":7860,"sempet":7861,"Ġconnected":7862,"Ġpengirimn":7863,"Ġrapihh":7864,"Ġmeticulous":7865,"Ġportable":7866,"Ġtracking":7867,"Ġknees":7868,"housekeeping":7869,"Ġconcern":7870,"Ġpedes":7871,"jamas":7872,"Ġkorea":7873,"Ġgloss":7874,"Ġcrowded":7875,"Ġerrors":7876,"Ġnegligee":7877,"Ġpelayanan":7878,"Ġmickey":7879,"Ġunloading":7880,"Ġoshawa":7881,"ault":7882,"cid":7883,"cated":7884,"cream":7885,"fine":7886,"gak":7887,"kas":7888,"maa":7889,"mayan":7890,"Ġxt":7891,"Ġpnt":7892,"Ġoily":7893,"Ġdj":7894,"Ġcc":7895,"Ġcd":7896,"Ġnu":7897,"Ġnka":7898,"Ġnikes":7899,"aser":7900,"asan":7901,"Ġeight":7902,"Ġshut":7903,"ential":7904,"Ġksi":7905,"Ġyas":7906,"Ġuuu":7907,"Ġshoope":7908,"Ġvit":7909,"Ġjad":7910,"apai":7911,"empty":7912,"Ġokokokokokokokokok":7913,"unused":7914,"Ġunus":7915,"Ġfro":7916,"iihh":7917,"Ġprec":7918,"Ġpreser":7919,"ops":7920,"Ġbaget":7921,"Ġoverlay":7922,"Ġterjangkau":7923,"cies":7924,"aaaaaaaaaaaaaa":7925,"Ġappoint":7926,"Ġflushed":7927,"Ġmoving":7928,"Ġteach":7929,"Ġhappened":7930,"dep":7931,"Ġtrick":7932,"Äłme":7933,"Äłbar":7934,"Ġpuzz":7935,"Ġlaundry":7936,"Ġthankyouu":7937,"Ġplayed":7938,"going":7939,"Ġyea":7940,"Ġtouched":7941,"Ġbroad":7942,"Ġtrnyta":7943,"Ġrotten":7944,"Ġconstruction":7945,"Ġnails":7946,"Ġmanufactur":7947,"Ġbanality":7948,"Ġcomparable":7949,"Ġlocation":7950,"Ġlmyan":7951,"Ġextras":7952,"Ġexercise":7953,"initially":7954,"Ġblemish":7955,"60":7956,"belie":7957,"creat":7958,"jjs":7959,"mksih":7960,"err":7961,"Ġpungent":7962,"Ġthnks":7963,"Ġbold":7964,"rett":7965,"Ġdaw":7966,"Ġcus":7967,"Ġwat":7968,"eday":7969,"usah":7970,"Ġkah":7971,"Ġkcewa":7972,"agi":7973,"Ġfaith":7974,"uled":7975,"Ġsump":7976,"Ġved":7977,"Ġvote":7978,"ower":7979,"aku":7980,"iration":7981,"Ġlope":7982,"Ġblg":7983,"pert":7984,"Ġadek":7985,"Ġstarting":7986,"Ġnewsp":7987,"Ġgrain":7988,"beauty":7989,"Ġdrill":7990,"Ġdrinking":7991,"Ġbackpack":7992,"books":7993,"ific":7994,"Ġglued":7995,"Ġconfident":7996,"packingan":7997,"Ġkeeps":7998,"hhhhhhhhh":7999,"sellernya":8000,"Ġeaten":8001,"Ġfallen":8002,"Ġnagdeliver":8003,"skirt":8004,"Ġdifferences":8005,"Ġbrushes":8006,"Ġ250":8007,"Ġ160":8008,"Ġconvenience":8009,"close":8010,"Ġsista":8011,"Ġblister":8012,"Ġdeduct":8013,"Ġttep":8014,"Ġjaitannya":8015,"Ġbangeeeet":8016,"Ġfalse":8017,"Ġalhamdulilah":8018,"Ġprepared":8019,"transport":8020,"break":8021,"flower":8022,"Ġbudget":8023,"Ġnecessary":8024,"Ġdeserve":8025,"Ġpearl":8026,"Ġlatest":8027,"Ġpaneled":8028,"Ġunboxing":8029,"Ġmalaysia":8030,"Ġshadow":8031,"Ġscissors":8032,"bahan":8033,"ganda":8034,"jt":8035,"jad":8036,"lic":8037,"sen":8038,"zy":8039,"eric":8040,"Ġtub":8041,"Ġtsk":8042,"Ġape":8043,"inable":8044,"Ġgin":8045,"Ġganti":8046,"Ġbj":8047,"Ġfellow":8048,"Ġwifi":8049,"Ġnc":8050,"Ġned":8051,"Ġhem":8052,"those":8053,"Ġehh":8054,"Ġshr":8055,"riers":8056,"Ġite":8057,"Äłok":8058,"Äłsho":8059,"Ġorth":8060,"akn":8061,"apal":8062,"Ġvalorem":8063,"una":8064,"unk":8065,"Ġrin":8066,"Ġraya":8067,"Ġconcl":8068,"Ġexam":8069,"Ġseats":8070,"Ġcheated":8071,"Ġbroo":8072,"Ġimut":8073,"Ġsky":8074,"rima":8075,"Ġdesire":8076,"deliery":8077,"Ġjgk":8078,"Ġscre":8079,"responsible":8080,"Ġpeking":8081,"Ġcoup":8082,"Ġpengirm":8083,"roid":8084,"Ġreflect":8085,"smell":8086,"rency":8087,"pres":8088,"Ġakuu":8089,"Ġlagiii":8090,"Ġcourte":8091,"reme":8092,"Ġdikit":8093,"Ġdepleted":8094,"Ġreading":8095,"Ġlumyan":8096,"Ġpainful":8097,"Ġlinings":8098,"batory":8099,"Ġprints":8100,"Ġlemon":8101,"carf":8102,"Ġcircle":8103,"hadow":8104,"draw":8105,"Ġstripes":8106,"gggggggggggggggg":8107,"Ġtdak":8108,"Ġconcerned":8109,"Ġlearn":8110,"Ġteeth":8111,"Ġdeformed":8112,"alhamdlillah":8113,"Ġnimbus":8114,"born":8115,"dest":8116,"flex":8117,"gam":8118,"hell":8119,"iency":8120,"large":8121,"sad":8122,"tem":8123,"elalu":8124,"Ġgn":8125,"Ġgant":8126,"Ġgda":8127,"althy":8128,"Ġlar":8129,"Ġions":8130,"Ġkill":8131,"Ġyu":8132,"Ġinsp":8133,"Ġbecomes":8134,"chan":8135,"Äłem":8136,"Ġjump":8137,"alloh":8138,"Ġwasn":8139,"Ġsiip":8140,"Ġdozen":8141,"shshs":8142,"Ġheav":8143,"Ġcosm":8144,"Ġpole":8145,"abg":8146,"Ġmoreover":8147,"Ġsubscrption":8148,"cik":8149,"weet":8150,"jaz":8151,"uuuuus":8152,"Ġstring":8153,"Ġjogging":8154,"ppppppp":8155,"Ġpassed":8156,"Ġ65":8157,"rete":8158,"Äłdo":8159,"Ġunderwear":8160,"Ġearphone":8161,"luv":8162,"Ġbarangnyaa":8163,"Ġfunctional":8164,"Ġ110":8165,"Ġbreast":8166,"Ġentered":8167,"Ġthoughtful":8168,"izes":8169,"Äłgu":8170,"Ġdikirm":8171,"Ġcattle":8172,"lmn":8173,"Ġkidding":8174,"Ġbatik":8175,"Ġrugged":8176,"Ġdkrm":8177,"Ġdelays":8178,"Ġ2018":8179,"Ġpakenya":8180,"Ġimaginable":8181,"Ġgreet":8182,"Ġmicro":8183,"Ġscrews":8184,"Ġpromptly":8185,"Ġtowels":8186,"Ġckup":8187,"Ġtuker":8188,"Ġsnacks":8189,"Ġassembled":8190,"iatas":8191,"Ġditerima":8192,"Ġcacat":8193,"Ġcompatible":8194,"Ġexplanation":8195,"Ġcourteous":8196,"gem":8197,"last":8198,"mill":8199,"made":8200,"midd":8201,"mudah":8202,"ping":8203,"sur":8204,"since":8205,"xn":8206,"Ġsblum":8207,"Ġtg":8208,"Ġtm":8209,"Ġtum":8210,"Ġpins":8211,"Ġboring":8212,"Ġfight":8213,"Ġdpet":8214,"Ġdrying":8215,"Ġwil":8216,"Ġwild":8217,"Ġmlh":8218,"orous":8219,"Ġhag":8220,"Ġhah":8221,"icepat":8222,"Ġkz":8223,"Ġkitchen":8224,"Ġyaaaaa":8225,"Äłit":8226,"Äłel":8227,"Ġjud":8228,"Ġjilbab":8229,"Ġasi":8230,"Ġagree":8231,"Ġconv":8232,"Ġsick":8233,"Ġbrp":8234,"abarin":8235,"ounced":8236,"Ġstupid":8237,"ksi":8238,"Ġspand":8239,"Ġsports":8240,"Ġcuts":8241,"Ġbanged":8242,"bek":8243,"avail":8244,"Ġflatter":8245,"Ġcareless":8246,"Ġintended":8247,"Ġbarakallah":8248,"Ġcheckout":8249,"tract":8250,"Äłmo":8251,"Äłbg":8252,"Ġmascara":8253,"Ġearphones":8254,"oooooo":8255,"uhan":8256,"Ġblessed":8257,"Ġharvest":8258,"Ġbsk":8259,"baj":8260,"barrass":8261,"Ġslamat":8262,"Ġtui":8263,"Ġdikasih":8264,"disc":8265,"Ġmagn":8266,"Ġlengkap":8267,"jsjsjs":8268,"inyaa":8269,"correct":8270,"Ġsgtu":8271,"Ġpalms":8272,"Ġbiasa":8273,"Ġspeakers":8274,"Ġmeeting":8275,"Ġdkrim":8276,"Ġwheels":8277,"Ġsurprisingly":8278,"hhehe":8279,"Ġboyfriend":8280,"Ġportion":8281,"Ġlenses":8282,"Ġmaap":8283,"Ġnonetheless":8284,"Ġterimakasihh":8285,"alhmd":8286,"Ġlanding":8287,"ridge":8288,"Ġmentioned":8289,"Ġensure":8290,"Ġcashback":8291,"Ġvendors":8292,"sequently":8293,"Ġurgent":8294,"Ġmedicine":8295,"fotable":8296,"success":8297,"17":8298,"35":8299,"bng":8300,"equ":8301,"jah":8302,"km":8303,"klo":8304,"landed":8305,"pi":8306,"qr":8307,"sand":8308,"wood":8309,"xj":8310,"eries":8311,"Ġted":8312,"Ġaud":8313,"Ġply":8314,"Ġgri":8315,"anx":8316,"Ġcub":8317,"Ġmush":8318,"Ġana":8319,"otch":8320,"uses":8321,"entious":8322,"Ġiii":8323,"agger":8324,"Ġpricey":8325,"Äłapp":8326,"Äłint":8327,"Äłout":8328,"Äłind":8329,"adding":8330,"Ġsuns":8331,"Ġjat":8332,"Ġjelly":8333,"etric":8334,"eart":8335,"Ġokokokokok":8336,"Ġchi":8337,"Ġsooo":8338,"Ġros":8339,"antong":8340,"Ġbuanget":8341,"Ġtray":8342,"Ġdisability":8343,"Ġdizzy":8344,"abar":8345,"Ġgreater":8346,"nge":8347,"Ġnyaaa":8348,"Ġyach":8349,"Ġ49":8350,"Ġweb":8351,"Ġmessenger":8352,"ressed":8353,"ttttttt":8354,"Ġbarely":8355,"iform":8356,"Ġhug":8357,"pleasant":8358,"kwkkw":8359,"ketnya":8360,"Ġpeny":8361,"Ġpenny":8362,"bdb":8363,"Ġsolve":8364,"Ġslick":8365,"Ġtesting":8366,"Ġscrub":8367,"Ġmilo":8368,"Ġgenerous":8369,"Äłfr":8370,"Ġdeals":8371,"ructed":8372,"cccc":8373,"Ġnicer":8374,"Ġcolours":8375,"Ġsched":8376,"mkasih":8377,"Ġmakasiih":8378,"Ġpakai":8379,"Ġchanges":8380,"Ġharganya":8381,"Ġmbk":8382,"Ġrocks":8383,"Ġinserts":8384,"Ġnyoba":8385,"Ġessential":8386,"Ġnetwork":8387,"Ġhgaaa":8388,"Ġkesel":8389,"Ġlucuu":8390,"Ġfriedly":8391,"Ġkilo":8392,"Ġrewarding":8393,"rekomended":8394,"Ġsavory":8395,"Ġfeatures":8396,"Ġtitle":8397,"18":8398,"bum":8399,"bismillah":8400,"cou":8401,"dri":8402,"gir":8403,"lus":8404,"mil":8405,"pink":8406,"sgt":8407,"wt":8408,"wed":8409,"wang":8410,"yd":8411,"zi":8412,"Ġsulit":8413,"Ġack":8414,"Ġaustria":8415,"refund":8416,"Ġcx":8417,"Ġcul":8418,"Ġwag":8419,"aso":8420,"quired":8421,"arr":8422,"Ġeks":8423,"Ġkayan":8424,"Äłterim":8425,"Äłsem":8426,"Ġory":8427,"imal":8428,"Ġasli":8429,"ffect":8430,"Ġareas":8431,"Ġdishes":8432,"Ġdiaper":8433,"uuh":8434,"abaya":8435,"Ġanyways":8436,"Ġgrams":8437,"Ġrip":8438,"before":8439,"leting":8440,"osen":8441,"Ġphones":8442,"Ġimmac":8443,"lights":8444,"artan":8445,"Ġgoal":8446,"Äłsl":8447,"eeeeeee":8448,"uker":8449,"Äłman":8450,"Ġokeeee":8451,"Ġbonuses":8452,"Ġmkasi":8453,"Ġlaen":8454,"Ġbalm":8455,"Ġlangu":8456,"Ġkerdus":8457,"Ġodd":8458,"Ġpngirim":8459,"Ġpressed":8460,"Ġoversea":8461,"Ġarches":8462,"Ġcartoon":8463,"jklmn":8464,"Ġchanging":8465,"Ġbulb":8466,"Ġlocker":8467,"Ġstainless":8468,"Ġpeeled":8469,"Ġsekaliii":8470,"Ġcompete":8471,"Ġdeadline":8472,"shirts":8473,"Ġmaaf":8474,"Ġdisplayed":8475,"Ġmngkin":8476,"tqtqtqtqtqtqtqtq":8477,"xyz":8478,"Ġlmbat":8479,"Ġmksi":8480,"umben":8481,"misdirected":8482,"bulan":8483,"Ġtraders":8484,"Ġbiscu":8485,"Ġadopted":8486,"Ġemployees":8487,"678":8488,"Ġengine":8489,"safely":8490,"38":8491,"aja":8492,"jait":8493,"mr":8494,"mers":8495,"make":8496,"rate":8497,"rori":8498,"sng":8499,"vy":8500,"wo":8501,"xjx":8502,"your":8503,"Ġpon":8504,"Ġpom":8505,"itan":8506,"Ġbelly":8507,"Ġopt":8508,"Ġmung":8509,"Ġness":8510,"Ġnda":8511,"asics":8512,"Ġqueries":8513,"Ġrese":8514,"Ġress":8515,"Ġreapon":8516,"thr":8517,"ribu":8518,"Ġkkk":8519,"Ġkau":8520,"Ġua":8521,"aaah":8522,"amg":8523,"Äłis":8524,"Äłga":8525,"Äłha":8526,"Ġjh":8527,"Ġjkt":8528,"apun":8529,"stances":8530,"Ġchair":8531,"Ġrom":8532,"Ġcomfotable":8533,"Ġunable":8534,"Ġdogs":8535,"Ġsegit":8536,"Ġary":8537,"Ġboys":8538,"should":8539,"Ġpregn":8540,"ignya":8541,"Ġaddi":8542,"Ġreplied":8543,"Ġspartan":8544,"anyak":8545,"Ġpajamas":8546,"Ġdiffrent":8547,"erty":8548,"ney":8549,"Ġbangettttttttt":8550,"Ġblackhead":8551,"Ġcars":8552,"Äłsal":8553,"Äłmin":8554,"blom":8555,"Ġ85":8556,"luc":8557,"Ġcredit":8558,"Ġharder":8559,"jjf":8560,"Ġslot":8561,"Ġdealer":8562,"xxl":8563,"Ġexcuse":8564,"Ġdtgnya":8565,"Ġlamaaaa":8566,"shopping":8567,"Ġdeter":8568,"Ġcurrency":8569,"Ġpolish":8570,"Ġfoundation":8571,"Ġfavorable":8572,"Ġbhannya":8573,"Ġstands":8574,"Ġstanding":8575,"Ġkasihh":8576,"Ġbanyakk":8577,"strong":8578,"Ġarticle":8579,"Ġseparately":8580,"Ġfingers":8581,"Ġabsorbent":8582,"alhmdulillah":8583,"Ġpantas":8584,"Ġadults":8585,"asukasukasukasuk":8586,"Ġcrisp":8587,"Ġintroduce":8588,"Ġkorean":8589,"Ġstrawberry":8590,"Ġbajunya":8591,"Ġchips":8592,"normal":8593,"changed":8594,"Ġevaluate":8595,"Ġconcrete":8596,"Ġbelongings":8597,"14":8598,"25":8599,"cere":8600,"cross":8601,"each":8602,"jdh":8603,"kar":8604,"kul":8605,"lng":8606,"mod":8607,"Ġpere":8608,"Ġgb":8609,"alo":8610,"Ġdol":8611,"Ġcuk":8612,"Ġming":8613,"Ġmeter":8614,"Ġnanti":8615,"Ġhhe":8616,"Ġreaction":8617,"ilet":8618,"ckck":8619,"Ġshawl":8620,"otic":8621,"leh":8622,"Ġia":8623,"Ġiv":8624,"acked":8625,"Ġnotification":8626,"Ġbeware":8627,"Ġbutt":8628,"sections":8629,"kek":8630,"Ġsuction":8631,"Ġji":8632,"Ġjava":8633,"illa":8634,"oknya":8635,"urah":8636,"Ġray":8637,"ongru":8638,"Ġasl":8639,"Ġages":8640,"Ġaccomp":8641,"Ġdiskon":8642,"Ġblood":8643,"Ġnobody":8644,"commod":8645,"Ġating":8646,"Ġamong":8647,"ksk":8648,"Ġsupermarket":8649,"Ġripped":8650,"Ġbangkok":8651,"Ġimmediate":8652,"Ġbagusssssssss":8653,"Ġintell":8654,"Ġclar":8655,"Ġzany":8656,"Ġselal":8657,"Ġsubject":8658,"haul":8659,"haven":8660,"Ġsurabaya":8661,"Äłkak":8662,"Ġcrease":8663,"Ġmarath":8664,"Ġdapetnya":8665,"Ġawett":8666,"Ġhosp":8667,"Ġstyles":8668,"Ġextreme":8669,"Ġsligtly":8670,"tqtqtq":8671,"Ġajaa":8672,"Ġjuice":8673,"Ġpickup":8674,"Ġhargaa":8675,"Ġhesitant":8676,"Ġproduced":8677,"Ġpromotional":8678,"services":8679,"Ġsanit":8680,"Ġtools":8681,"Ġidentical":8682,"Ġvendor":8683,"Ġgedean":8684,"Ġinquiries":8685,"Ġunfortunate":8686,"Ġfracture":8687,"charged":8688,"Ġjapanese":8689,"Ġreturning":8690,"incible":8691,"Ġbanana":8692,"Ġprosperous":8693,"fantastic":8694,"Ġflattering":8695,"09":8696,"foto":8697,"gant":8698,"hab":8699,"ijklmn":8700,"san":8701,"sol":8702,"uj":8703,"wash":8704,"Ġere":8705,"Ġust":8706,"Ġings":8707,"Ġsag":8708,"Ġparent":8709,"Ġgd":8710,"Ġbnt":8711,"Ġft":8712,"Ġdpat":8713,"Ġprt":8714,"Ġmes":8715,"Ġmna":8716,"Ġhose":8717,"Ġshin":8718,"Ġkun":8719,"Ġfacil":8720,"cho":8721,"ami":8722,"Ġsms":8723,"ules":8724,"Ġspeedy":8725,"kecewa":8726,"Ġjj":8727,"Ġvalid":8728,"umed":8729,"Ġupgr":8730,"Ġconsequently":8731,"Ġseh":8732,"Ġblender":8733,"ordin":8734,"shd":8735,"iga":8736,"Ġusable":8737,"veness":8738,"Ġnyaman":8739,"Ġlecet":8740,"Ġterrain":8741,"Ġxd":8742,"Ġsuitble":8743,"okoko":8744,"Ġbangetttttt":8745,"Ġjoin":8746,"Ġsupported":8747,"auth":8748,"mmg":8749,"Ġeverywhere":8750,"Ġpeace":8751,"upulous":8752,"Ġnger":8753,"Äłpo":8754,"Äłmak":8755,"coat":8756,"Ġconfounded":8757,"Ġnio":8758,"Ġtrimakasi":8759,"Ġsmelly":8760,"Ġpublic":8761,"Ġpokon":8762,"Ġbossku":8763,"ysis":8764,"Ġslah":8765,"Ġrelax":8766,"Ġcatalog":8767,"Ġseals":8768,"Ġmurahan":8769,"Ġnarrower":8770,"kwkwkwkw":8771,"Ġproduknya":8772,"Ġsameday":8773,"Ġskirts":8774,"Ġsignal":8775,"Ġbaikkk":8776,"Ġdancing":8777,"hehehehehehehehe":8778,"Ġwlw":8779,"Ġwlau":8780,"Ġvouchers":8781,"Ġbundle":8782,"Ġinshallah":8783,"Ġpromotions":8784,"Ġminta":8785,"Ġclient":8786,"Ġsemuaa":8787,"Ġbenefit":8788,"Ġoppo":8789,"Ġdedicated":8790,"Ġregarding":8791,"Ġexcessive":8792,"Ġtechn":8793,"Ġgesture":8794,"Ġxiaomi":8795,"Ġembroidery":8796,"roriate":8797,"bdhd":8798,"btedly":8799,"cat":8800,"drop":8801,"ekk":8802,"food":8803,"gz":8804,"gle":8805,"lz":8806,"mt":8807,"pods":8808,"ties":8809,"wide":8810,"water":8811,"ino":8812,"Ġpap":8813,"Ġpens":8814,"itate":8815,"Ġgad":8816,"Ġgni":8817,"Ġbite":8818,"Ġbkal":8819,"reason":8820,"Ġmlah":8821,"Ġnuhun":8822,"Ġhhhh":8823,"Ġhidd":8824,"quate":8825,"thu":8826,"Ġtoilet":8827,"Ġeuy":8828,"utnya":8829,"Ġshar":8830,"Ġitch":8831,"Ġkre":8832,"Ġinya":8833,"Ġinappropriate":8834,"ulus":8835,"kee":8836,"Ġjx":8837,"owow":8838,"ahun":8839,"stu":8840,"Ġrings":8841,"Ġserving":8842,"Ġacceler":8843,"aih":8844,"Ġcea":8845,"Ġamann":8846,"Ġameric":8847,"ddy":8848,"Ġ400":8849,"Ġskincare":8850,"Ġfreegift":8851,"Ġaffairs":8852,"Ġcrunch":8853,"berapa":8854,"onding":8855,"Ġpassble":8856,"Ġdahh":8857,"Ġveget":8858,"Ġrespect":8859,"Ġembarrass":8860,"return":8861,"Ġsticks":8862,"Ġdresses":8863,"Ġadvise":8864,"Ġangle":8865,"ization":8866,"Ġinspect":8867,"Ġtaped":8868,"Ġdrawback":8869,"Ġcrackle":8870,"Ġntah":8871,"Ġajh":8872,"Ġjuly":8873,"Ġheheheh":8874,"Ġlinen":8875,"Ġramahh":8876,"Ġbike":8877,"Ġtipiss":8878,"Ġhpnya":8879,"Ġbesok":8880,"Ġwheel":8881,"Ġreeboks":8882,"Ġauthenticity":8883,"Ġrancid":8884,"Ġspecific":8885,"stores":8886,"Ġbakal":8887,"neatly":8888,"Ġclients":8889,"month":8890,"Ġcomparison":8891,"Ġestimated":8892,"better":8893,"Ġreputation":8894,"Ġsofter":8895,"pektasi":8896,"Ġagreed":8897,"nyamnyam":8898,"Ġkeychain":8899,"hours":8900,"Ġfluffy":8901,"Ġsunscreen":8902,"bage":8903,"cant":8904,"congratulations":8905,"den":8906,"face":8907,"gaa":8908,"hance":8909,"husband":8910,"kids":8911,"pur":8912,"purch":8913,"sli":8914,"vx":8915,"won":8916,"Ġze":8917,"Ġsicepat":8918,"ele":8919,"Ġcb":8920,"Ġcert":8921,"Ġprnh":8922,"Ġmga":8923,"Ġmsih":8924,"onn":8925,"Ġlps":8926,"Ġanal":8927,"Ġandroid":8928,"ague":8929,"Ġinbox":8930,"Ġstan":8931,"Ġnoted":8932,"Ġpackaing":8933,"aded":8934,"spr":8935,"umullah":8936,"Ġrag":8937,"iding":8938,"Ġbuat":8939,"Ġhavent":8940,"Ġuncertain":8941,"Ġmeal":8942,"Ġarrang":8943,"Ġata":8944,"Ġgreatly":8945,"xture":8946,"Ġamik":8947,"Ġhanded":8948,"reebok":8949,"Ġcontempor":8950,"Ġ44":8951,"Ġleap":8952,"Ġleash":8953,"Ġwanting":8954,"bra":8955,"mmetric":8956,"Äłsw":8957,"definitely":8958,"Ġluam":8959,"Ġglitter":8960,"trans":8961,"Ġrefri":8962,"receipt":8963,"Ġregrett":8964,"Ġfinal":8965,"Ġdiscuss":8966,"Ġweekly":8967,"Ġmotion":8968,"Ġpokony":8969,"lllll":8970,"Ġadvanced":8971,"condition":8972,"Ġdhd":8973,"Ġbelum":8974,"Ġgeneration":8975,"Ġparah":8976,"Ġmarked":8977,"Ġlumay":8978,"dedu":8979,"Ġsupply":8980,"Ġsupple":8981,"onsum":8982,"Ġhahahaha":8983,"Ġdipakek":8984,"Ġbrngnya":8985,"dfs":8986,"Ġtax":8987,"ktu":8988,"Ġplugs":8989,"Ġapproach":8990,"Ġtemperature":8991,"Ġbolong":8992,"Ġforgotten":8993,"Ġtingkat":8994,"subscribe":8995,"Ġhuman":8996,"Ġignore":8997,"Ġautomatic":8998,"Ġintroduced":8999,"Ġmashallah":9000,"Ġshooting":9001,"Ġbuckle":9002,"Ġmukena":9003,"Ġsyekali":9004,"Ġdeeh":9005,"Ġdevelopment":9006,"settled":9007,"create":9008,"Ġscreaming":9009,"middling":9010,"Ġscheduled":9011,"Ġlanguage":9012,"bungkus":9013,"dist":9014,"iver":9015,"mic":9016,"mali":9017,"uz":9018,"yallah":9019,"Ġsx":9020,"Ġsling":9021,"Ġtat":9022,"Ġpil":9023,"ittle":9024,"Ġbatch":9025,"Ġbkin":9026,"isin":9027,"Ġfans":9028,"Ġdnd":9029,"Ġduh":9030,"Ġcamp":9031,"Ġprime":9032,"Ġmsk":9033,"onk":9034,"Ġnest":9035,"ators":9036,"Ġhide":9037,"thetic":9038,"Ġtopp":9039,"leading":9040,"Ġkase":9041,"ager":9042,"asting":9043,"Ġstap":9044,"amah":9045,"Äłwh":9046,"apor":9047,"impro":9048,"stock":9049,"stitch":9050,"stars":9051,"Ġchosen":9052,"Ġraw":9053,"anties":9054,"Ġunhappy":9055,"Ġundou":9056,"Ġuniform":9057,"Ġeyeshadow":9058,"Ġblade":9059,"Ġdiin":9060,"Ġard":9061,"Ġboom":9062,"Ġpret":9063,"Ġats":9064,"Ġcock":9065,"Ġaccidentally":9066,"Ġplu":9067,"Ġcomputer":9068,"assalam":9069,"istent":9070,"Ġdamper":9071,"Ġmocha":9072,"Ġstray":9073,"Ġcra":9074,"jdnd":9075,"pppppp":9076,"Ġrealpic":9077,"defgh":9078,"Äłpa":9079,"Äłmat":9080,"Äłcol":9081,"Ġakhir":9082,"nsn":9083,"bdj":9084,"Ġtransact":9085,"Ġstronger":9086,"Ġsnow":9087,"yeay":9088,"Äłfa":9089,"Ġbrighter":9090,"Ġextended":9091,"Ġwax":9092,"Ġpuassss":9093,"Ġlamb":9094,"Ġpngriman":9095,"Ġimportantly":9096,"Ġsukakk":9097,"Ġgapapalah":9098,"Ġequipped":9099,"Ġramad":9100,"Ġsprti":9101,"Ġpastu":9102,"Ġcartons":9103,"Ġdkit":9104,"Ġkasian":9105,"Ġpakingnya":9106,"Ġcooked":9107,"Ġthreads":9108,"Ġadjusted":9109,"Ġadjustable":9110,"Ġburning":9111,"making":9112,"Ġipad":9113,"harga":9114,"Ġademm":9115,"Ġsurfaces":9116,"Ġexplain":9117,"Ġwrinkles":9118,"Ġdaleman":9119,"Ġlearning":9120,"Ġhndi":9121,"Ġlmyn":9122,"Ġjwb":9123,"Ġstudents":9124,"Ġmgkin":9125,"Ġtaiwan":9126,"Ġdisappear":9127,"Ġspandex":9128,"Ġrefriger":9129,"29":9130,"bay":9131,"cw":9132,"gat":9133,"gann":9134,"hong":9135,"jur":9136,"pom":9137,"paste":9138,"rance":9139,"uhh":9140,"vl":9141,"yee":9142,"Ġsatis":9143,"Ġace":9144,"Ġaka":9145,"Ġthumb":9146,"itis":9147,"itnya":9148,"itute":9149,"Ġgen":9150,"Ġgently":9151,"aled":9152,"rees":9153,"Ġoak":9154,"Ġfuck":9155,"Ġdelet":9156,"Ġcia":9157,"ingin":9158,"enn":9159,"Ġmik":9160,"Ġmale":9161,"Ġmelt":9162,"Ġnom":9163,"Ġnah":9164,"Ġnman":9165,"Ġhic":9166,"Ġiz":9167,"Ġkahit":9168,"agement":9169,"Ġalhamd":9170,"Ġsmok":9171,"Ġorch":9172,"Ġsuffer":9173,"Ġvar":9174,"Ġjf":9175,"Ġrama":9176,"Ġcanvas":9177,"Ġarmp":9178,"feels":9179,"opard":9180,"opqr":9181,"rime":9182,"Ġspare":9183,"dulilah":9184,"Ġkegede":9185,"Ġhip":9186,"ailah":9187,"Ġcrit":9188,"Äłser":9189,"Ġpengir":9190,"Äłmer":9191,"Ġminute":9192,"Ġmonit":9193,"Ġsampi":9194,"Ġnihh":9195,"smooth":9196,"belum":9197,"Ġcman":9198,"Ġwalks":9199,"Ġdates":9200,"Ġtrimaksih":9201,"Ġways":9202,"conn":9203,"Ġanswering":9204,"Ġscrupulous":9205,"photo":9206,"athers":9207,"Ġrelated":9208,"lahh":9209,"mbali":9210,"Ġvarious":9211,"pesenan":9212,"Ġregularly":9213,"Ġ130":9214,"Äłstr":9215,"Ġmachines":9216,"Ġremovable":9217,"Ġ165":9218,"Ġmantapppp":9219,"Ġestimate":9220,"Ġpula":9221,"Ġultrafast":9222,"arrive":9223,"glue":9224,"iolet":9225,"asked":9226,"Ġwlang":9227,"Ġkapan":9228,"hati":9229,"Ġhorrible":9230,"Ġminimum":9231,"Ġslightest":9232,"Ġtripod":9233,"Ġcollapse":9234,"Ġmulu":9235,"Ġkliatan":9236,"Ġskechers":9237,"Ġtanks":9238,"maganda":9239,"merchant":9240,"Ġcompensation":9241,"Ġconsignee":9242,"Ġobstacles":9243,"Ġrabbit":9244,"Ġrelease":9245,"Ġsmuanya":9246,"nyampenya":9247,"Ġimmaculate":9248,"Ġparents":9249,"cop":9250,"det":9251,"dish":9252,"gor":9253,"hing":9254,"mist":9255,"mond":9256,"take":9257,"Ġtide":9258,"Ġtarg":9259,"Ġbor":9260,"Ġbending":9261,"Ġbismillah":9262,"Ġfas":9263,"Ġfoul":9264,"Ġdang":9265,"Ġdili":9266,"Ġcz":9267,"cts":9268,"enyaa":9269,"Ġhnya":9270,"Ġshoddy":9271,"enta":9272,"Ġkhair":9273,"Ġyuan":9274,"aguuuuuus":9275,"acking":9276,"acket":9277,"Ġstom":9278,"Ġnotif":9279,"Ġbegan":9280,"Ġsmoke":9281,"ulation":9282,"Ġforth":9283,"Äłgood":9284,"Äłap":9285,"Äłno":9286,"admin":9287,"Ġsuede":9288,"etnya":9289,"imakasih":9290,"Ġoki":9291,"prot":9292,"Ġagan":9293,"Ġagad":9294,"eez":9295,"hhee":9296,"Ġtrace":9297,"Ġdischarged":9298,"Ġdiv":9299,"Ġdipesen":9300,"Ġboot":9301,"abalot":9302,"Ġceaaaa":9303,"Ġener":9304,"support":9305,"Ġleopard":9306,"Ġexpend":9307,"nti":9308,"Ġapps":9309,"inding":9310,"Ġmantaf":9311,"Ġdrain":9312,"avi":9313,"Ġdamn":9314,"jaja":9315,"ails":9316,"Ġbagusss":9317,"Ġtebell":9318,"Ġafford":9319,"ipun":9320,"Ġsensor":9321,"undant":9322,"deh":9323,"Ġrecomen":9324,"Ġgotten":9325,"bbb":9326,"Ġelok":9327,"wrapped":9328,"Ġhalus":9329,"Ġintersections":9330,"Äłkn":9331,"Ġconsci":9332,"jjdhd":9333,"Ġstrongly":9334,"Ġsincere":9335,"Ġadvantage":9336,"doy":9337,"Ġlngganan":9338,"Ġtuck":9339,"anned":9340,"Ġsleek":9341,"Ġdepartment":9342,"Ġnagsend":9343,"Ġbngett":9344,"Ġcharges":9345,"bangett":9346,"Ġsuppose":9347,"customer":9348,"Ġremover":9349,"Ġpotent":9350,"Ġwidths":9351,"Ġsyukaaaa":9352,"Ġsyukron":9353,"Ġlocked":9354,"cieve":9355,"glad":9356,"Ġsekaliiii":9357,"Ġmeasured":9358,"Ġlevels":9359,"Ġkcwa":9360,"ocre":9361,"Ġfiber":9362,"Ġfirmly":9363,"Ġhorse":9364,"aneous":9365,"Ġpuasselalu":9366,"baby":9367,"Ġviet":9368,"Ġhooked":9369,"Ġdicobain":9370,"Ġsakin":9371,"Ġnorth":9372,"Ġholidays":9373,"Ġtruly":9374,"Ġcooperative":9375,"Ġfrustrated":9376,"Ġcircumstances":9377,"45678":9378,"merchandise":9379,"Ġminimalist":9380,"Ġdeskripsi":9381,"Ġparticularly":9382,"Ġindividual":9383,"Ġnewspaper":9384,"Ġheavier":9385,"Ġaudio":9386,"Ġhidden":9387,"Ġundoubtedly":9388,"28":9389,"fd":9390,"fall":9391,"gment":9392,"hb":9393,"hx":9394,"hur":9395,"honest":9396,"kirim":9397,"sang":9398,"yak":9399,"zbz":9400,"Ġsbs":9401,"Ġase":9402,"Ġthnx":9403,"elves":9404,"Ġduck":9405,"Ġcing":9406,"Ġwats":9407,"Ġwktu":9408,"ceived":9409,"Ġmong":9410,"Ġnen":9411,"Ġnua":9412,"Ġhee":9413,"Ġisland":9414,"than":9415,"Ġshades":9416,"Ġys":9417,"Ġinj":9418,"Ġster":9419,"aaat":9420,"child":9421,"Ġbuti":9422,"Äłthank":9423,"Äłjo":9424,"Ġspeedcross":9425,"Ġjl":9426,"ette":9427,"ows":9428,"Ġoklah":9429,"Ġvalvular":9430,"oka":9431,"stone":9432,"Ġchili":9433,"Ġsoph":9434,"Ġrare":9435,"anggan":9436,"Ġasal":9437,"Ġcondi":9438,"Ġunits":9439,"Ġunyu":9440,"ession":9441,"essert":9442,"Ġsikit":9443,"hhd":9444,"los":9445,"pered":9446,"Ġusah":9447,"Ġadain":9448,"Ġplat":9449,"Ġuntung":9450,"ngn":9451,"engg":9452,"Ġhasil":9453,"Ġ58":9454,"Ġnewborn":9455,"Ġenya":9456,"Ġgrass":9457,"Ġdesir":9458,"Ġspite":9459,"Ġlean":9460,"Ġbangeeee":9461,"Ġwebs":9462,"Ġability":9463,"Ġcustumer":9464,"Ġsyn":9465,"Ġsyaa":9466,"Ġknpa":9467,"Ġflesh":9468,"Ġlahat":9469,"Ġhike":9470,"ualaikum":9471,"Ġstrings":9472,"diff":9473,"Ġcorru":9474,"jdg":9475,"patch":9476,"Äłspe":9477,"Ġveh":9478,"Ġseeing":9479,"Ġmatched":9480,"Äłmag":9481,"superb":9482,"Ġ95":9483,"Ġshortly":9484,"prof":9485,"Ġakan":9486,"Ġcommanded":9487,"Ġ02":9488,"Ġintern":9489,"Ġbelnja":9490,"Ġmantulmantul":9491,"Ġhotel":9492,"yey":9493,"Ġnhung":9494,"Ġmantapkeren":9495,"Ġsubstance":9496,"Ġcalls":9497,"Ġbusui":9498,"Ġdistrict":9499,"Ġgamis":9500,"Ġkmrin":9501,"iptop":9502,"Ġpainting":9503,"Ġsunflower":9504,"Ġkhaki":9505,"mask":9506,"Ġpulse":9507,"Ġmeters":9508,"Ġfilling":9509,"resonding":9510,"Ġcalendar":9511,"Ġshopeee":9512,"iiiiiiiiiiiiiiiiiiiiiiiiiiiiiiii":9513,"whichsoever":9514,"Ġmintak":9515,"Ġbaguuss":9516,"Ġtien":9517,"Ġdecember":9518,"Ġkainya":9519,"ology":9520,"Ġmantaap":9521,"bells":9522,"Ġinches":9523,"Ġfrequent":9524,"Ġfanta":9525,"likely":9526,"Ġluxury":9527,"bilities":9528,"Ġsemogaa":9529,"nicely":9530,"Ġheadscarf":9531,"Ġirrit":9532,"Ġsedikit":9533,"Ġsqueeze":9534,"Ġultimate":9535,"Ġdreamy":9536,"Ġketerima":9537,"Ġglossy":9538,"Ġfrozen":9539,"hello":9540,"Ġblackheads":9541,"Ġanalysis":9542,"70":9543,"dur":9544,"epp":9545,"fill":9546,"fake":9547,"kaa":9548,"kere":9549,"lim":9550,"list":9551,"mya":9552,"nb":9553,"pens":9554,"sii":9555,"smoga":9556,"Ġsar":9557,"Ġsnd":9558,"Ġtumpah":9559,"Ġaah":9560,"ela":9561,"almost":9562,"Ġbird":9563,"Ġbunch":9564,"Ġoy":9565,"anny":9566,"Ġcape":9567,"Ġcakes":9568,"Ġwah":9569,"Ġprang":9570,"ester":9571,"Ġnung":9572,"Ġht":9573,"Ġhmmm":9574,"asp":9575,"Ġlite":9576,"ilang":9577,"Ġtolong":9578,"pek":9579,"Ġdeliered":9580,"uty":9581,"aaan":9582,"Äłpack":9583,"Äłbagus":9584,"olve":9585,"Ġves":9586,"Ġliving":9587,"early":9588,"stood":9589,"Ġchipped":9590,"umble":9591,"Ġrad":9592,"Ġrise":9593,"Ġexagger":9594,"Ġdeath":9595,"Ġsaved":9596,"ptop":9597,"Ġdiy":9598,"feit":9599,"Ġliter":9600,"Ġush":9601,"Ġoutlet":9602,"Ġnylon":9603,"Ġ55555":9604,"outs":9605,"otherwise":9606,"ieu":9607,"Ġcrop":9608,"jdkd":9609,"Ġcarbon":9610,"roph":9611,"Ġhighlight":9612,"rofo":9613,"Ġcleats":9614,"Ġmode":9615,"Äłcar":9616,"Ġactivity":9617,"ground":9618,"Ġearn":9619,"Ġposting":9620,"Ġdownside":9621,"Ġreasons":9622,"Ġcommod":9623,"lucent":9624,"Ġmanaged":9625,"Ġbelanj":9626,"Ġcreamnya":9627,"Äłgl":9628,"Ġsubsidized":9629,"Ġbreaks":9630,"Ġextension":9631,"Ġavailability":9632,"Ġindic":9633,"Ġresponsibilities":9634,"Ġpkonya":9635,"Ġphotographs":9636,"Ġpastel":9637,"Ġsignific":9638,"Äłinc":9639,"Ġsuggested":9640,"gian":9641,"Ġ2017":9642,"Ġinvincible":9643,"Ġsyukaaa":9644,"dfg":9645,"cieved":9646,"Ġqualities":9647,"ambah":9648,"dhdhdhdh":9649,"careful":9650,"Ġmslh":9651,"Ġpractice":9652,"Ġdengan":9653,"Ġannoyed":9654,"Ġeyelashes":9655,"Ġbilis":9656,"Ġsocket":9657,"Ġreputable":9658,"Ġsesuaii":9659,"uminum":9660,"Ġstingy":9661,"acceptable":9662,"Ġventil":9663,"Ġattempted":9664,"Ġmoisturizing":9665,"bruary":9666,"quisite":9667,"Ġvivo":9668,"Ġgratitude":9669,"Ġkekecilan":9670,"Ġcoupons":9671,"Ġpregnant":9672,"ongruous":9673,"ijklmnopqr":9674,"Ġinspection":9675,"Ġstomach":9676,"63":9677,"code":9678,"fir":9679,"oj":9680,"oba":9681,"pend":9682,"purchased":9683,"uar":9684,"waw":9685,"Ġaya":9686,"Ġbone":9687,"redd":9688,"Ġog":9689,"Ġdab":9690,"anch":9691,"Ġwt":9692,"Ġwak":9693,"Ġwoke":9694,"esa":9695,"Ġmai":9696,"Ġnem":9697,"orious":9698,"Ġhung":9699,"Ġhence":9700,"Ġquarant":9701,"omb":9702,"people":9703,"Ġiu":9704,"Ġkim":9705,"Ġyy":9706,"Ġalert":9707,"Äłat":9708,"Äłcomm":9709,"Äłwr":9710,"ads":9711,"adem":9712,"Ġsucks":9713,"Ġvc":9714,"aky":9715,"urut":9716,"Ġchu":9717,"Ġchannel":9718,"Ġloving":9719,"Ġthats":9720,"alll":9721,"Ġconfortable":9722,"comings":9723,"Ġsie":9724,"Ġtraces":9725,"Ġsept":9726,"Ġseven":9727,"pto":9728,"Ġcheat":9729,"appro":9730,"Ġmuddy":9731,"Ġcoating":9732,"abat":9733,"Ġanytime":9734,"arena":9735,"Ġenhance":9736,"Ġmerah":9737,"Ġcontains":9738,"Ġcontained":9739,"Ġdescribe":9740,"Ġlepas":9741,"nnx":9742,"Ġapproriate":9743,"Ġdrool":9744,"diri":9745,"Ġjog":9746,"ipu":9747,"angeet":9748,"Ġchatnya":9749,"Ġhubby":9750,"Ġpenger":9751,"Ġletters":9752,"cost":9753,"Ġincongruous":9754,"Ġsettle":9755,"Ġtighten":9756,"Ġmanis":9757,"jje":9758,"fitting":9759,"nnnnn":9760,"Ġrapidly":9761,"ixed":9762,"ronic":9763,"jdjdj":9764,"Ġleakage":9765,"Ġbaaguuuuuus":9766,"Ġsilk":9767,"Ġwritings":9768,"Ġkalau":9769,"Ġwatching":9770,"Ġkualiti":9771,"terimakasi":9772,"Ġkhimar":9773,"Ġsupplied":9774,"Ġbiar":9775,"Ġconsumables":9776,"Ġnaka":9777,"Ġgolden":9778,"Ġcollision":9779,"Ġpanas":9780,"Ġmakasiiii":9781,"Ġdineliver":9782,"Ġabsorbs":9783,"iliar":9784,"Ġapproved":9785,"Ġwires":9786,"Ġwrnanya":9787,"Ġbargains":9788,"Ġcordial":9789,"Ġloads":9790,"maybe":9791,"Ġtreadmill":9792,"bitr":9793,"Ġignored":9794,"Ġencour":9795,"goodgoodgoodgood":9796,"Ġorganized":9797,"Ġpopular":9798,"submitted":9799,"Ġoppos":9800,"regular":9801,"5555555555555555":9802,"Ġestimates":9803,"Ġternyata":9804,"Ġpingin":9805,"Ġfraudsters":9806,"Ġprojects":9807,"qwqw":9808,"Ġfooled":9809,"Ġapologize":9810,"Ġmillion":9811,"Ġincredibly":9812,"Ġprestige":9813,"Ġnyesell":9814,"Ġrusak":9815,"Ġbrooch":9816,"Ġdikasihnya":9817,"Ġcrunchy":9818,"defghijklmnopqr":9819,"Ġvietnam":9820,"Ġcommodities":9821,"cj":9822,"cv":9823,"cro":9824,"cases":9825,"fk":9826,"fold":9827,"fsg":9828,"jq":9829,"money":9830,"mile":9831,"nm":9832,"pac":9833,"xd":9834,"Ġsgitu":9835,"Ġtb":9836,"Ġtgk":9837,"Ġtires":9838,"Ġae":9839,"inder":9840,"Ġthks":9841,"Ġging":9842,"aler":9843,"Ġbou":9844,"Ġbkl":9845,"Ġfate":9846,"Ġdag":9847,"Ġdessert":9848,"ena":9849,"Ġmp":9850,"Ġhk":9851,"Ġlsg":9852,"quet":9853,"Ġise":9854,"Ġrecharge":9855,"arom":9856,"iliant":9857,"pem":9858,"Ġshanties":9859,"Ġkus":9860,"Ġkac":9861,"Ġkcil":9862,"Ġkardus":9863,"again":9864,"Ġala":9865,"Ġalive":9866,"Ġuj":9867,"vement":9868,"adala":9869,"Ġshoel":9870,"Ġsukk":9871,"Ġviolet":9872,"Ġjau":9873,"apes":9874,"stery":9875,"Ġchg":9876,"umn":9877,"Ġrug":9878,"anted":9879,"Ġcombo":9880,"Ġunequ":9881,"Ġunlikely":9882,"icles":9883,"eeks":9884,"Ġsiap":9885,"Ġaccommod":9886,"ards":9887,"Ġsab":9888,"Ġnov":9889,"Ġtherefore":9890,"Ġadorable":9891,"ngnya":9892,"Ġpipe":9893,"vender":9894,"itional":9895,"Ġcompon":9896,"Ġfebruary":9897,"Ġence":9898,"Ġwearable":9899,"Ġ47":9900,"Ġbange":9901,"beautifully":9902,"uduk":9903,"Ġwhatsoever":9904,"Ġmessaging":9905,"Ġshopeehaul":9906,"Ġafforable":9907,"Ġcork":9908,"Ġbackup":9909,"jdb":9910,"patient":9911,"aaaas":9912,"Ġfolding":9913,"ukan":9914,"Ġhehehhe":9915,"Äłmar":9916,"coal":9917,"Ġkoin":9918,"Ġproblematic":9919,"Ġguid":9920,"Ġems":9921,"Ġshortcomings":9922,"grine":9923,"ooooooo":9924,"Ġmaka":9925,"Ġbarangg":9926,"Ġtranslucent":9927,"Ġ123":9928,"Ġsnap":9929,"Ġrob":9930,"Ġrelative":9931,"Ġsquish":9932,"Ġmantaplah":9933,"cucok":9934,"Äłrep":9935,"Ġmurahhh":9936,"Ġcleaner":9937,"Ġpngemasan":9938,"Ġpsanan":9939,"Ġsandal":9940,"Ġrubbing":9941,"Ġconsumption":9942,"flated":9943,"trima":9944,"Ġdecre":9945,"whereas":9946,"Ġirresponsible":9947,"Ġbleak":9948,"okokokokokokokoko":9949,"Ġkyknya":9950,"Ġtengki":9951,"1111":9952,"Ġhrganya":9953,"Ġbreathe":9954,"despite":9955,"Ġsource":9956,"Ġparticip":9957,"Ġenvelopes":9958,"missions":9959,"Ġzigs":9960,"Ġpropos":9961,"zzzzzzzzzzzzzzzz":9962,"Ġthousands":9963,"Ġpertahank":9964,"Ġidentify":9965,"Ġexceeded":9966,"Ġpengemasanya":9967,"Ġmosquitoes":9968,"Ġincredible":9969,"rific":9970,"originally":9971,"smpai":9972,"Ġdarling":9973,"Ġrecogn":9974,"mashallah":9975,"Ġstrugg":9976,"Ġappointment":9977,"courier":9978,"Ġwebsite":9979,"Ġquarantine":9980,"bos":9981,"bright":9982,"cush":9983,"dry":9984,"gold":9985,"hirnya":9986,"ium":9987,"jak":9988,"leng":9989,"mother":9990,"oq":9991,"point":9992,"sd":9993,"sam":9994,"sum":9995,"tnya":9996,"vably":9997,"whe":9998,"xkh":9999,"Ġttt":10000,"Ġters":10001,"Ġtlong":10002,"inform":10003,"Ġgum":10004,"Ġgard":10005,"Ġbeng":10006,"Ġox":10007,"iso":10008,"Ġfh":10009,"ancel":10010,"Ġcous":10011,"eded":10012,"Ġnant":10013,"Ġnila":10014,"Ġhmmmm":10015,"oduction":10016,"otes":10017,"Ġkp":10018,"Ġyuk":10019,"Ġyuhu":10020,"agak":10021,"astik":10022,"Ġsmud":10023,"Ġsmashed":10024,"xcv":10025,"Äłak":10026,"Äłup":10027,"Ġors":10028,"Ġort":10029,"Ġlime":10030,"ands":10031,"apt":10032,"emed":10033,"Ġokel":10034,"sty":10035,"unin":10036,"unyaa":10037,"Ġrod":10038,"Ġrang":10039,"Ġrereply":10040,"Ġrumah":10041,"Ġsig":10042,"Ġexchanged":10043,"tered":10044,"Ġsex":10045,"lovely":10046,"Ġcheer":10047,"appp":10048,"Ġwrist":10049,"perh":10050,"inta":10051,"Ġargu":10052,"Ġcop":10053,"Ġpoh":10054,"dhs":10055,"heavy":10056,"Ġbitter":10057,"Ġmeriah":10058,"nyaaaa":10059,"supp":10060,"Ġboxed":10061,"Ġthemes":10062,"things":10063,"Ġkeys":10064,"Ġscary":10065,"Ġdelivering":10066,"Ġcarrying":10067,"Ġpecking":10068,"Ġfolds":10069,"update":10070,"Ġglut":10071,"tro":10072,"Ġbgtttt":10073,"Ġsukaaaaaaa":10074,"Ġemot":10075,"Ġshortages":10076,"Ġpartner":10077,"Ġcardig":10078,"Ġsubtle":10079,"Ġappet":10080,"Ġrefunds":10081,"Ġseverance":10082,"nnnnnn":10083,"job":10084,"bhan":10085,"Ġinsyaa":10086,"Ġaware":10087,"www":10088,"Ġsilent":10089,"jsjsjsj":10090,"Ġmisleading":10091,"Ġcuff":10092,"Ġsenang":10093,"ebih":10094,"Ġexperi":10095,"llllllllllll":10096,"Ġbasis":10097,"Ġreduction":10098,"Ġestate":10099,"Äłsub":10100,"Ġtearing":10101,"pppppppppppppppppppppppp":10102,"Ġhangers":10103,"Ġrainy":10104,"Ġmeasuring":10105,"Ġkwalitas":10106,"Ġwooden":10107,"Ġtiba":10108,"jjjjjjjj":10109,"Ġbathroom":10110,"absolutely":10111,"Ġkereeen":10112,"Ġsoalny":10113,"Ġworkouts":10114,"bagussbagussbagussbaguss":10115,"Ġsesuailah":10116,"Ġefficiency":10117,"Ġtypically":10118,"Ġjoints":10119,"Ġgesturing":10120,"Ġkecill":10121,"ironment":10122,"sounds":10123,"Ġbarokah":10124,"Ġluxuriant":10125,"Ġpuma":10126,"Ġcabin":10127,"Ġstopper":10128,"Ġoccasion":10129,"Ġperegrine":10130,"wonder":10131,"Ġcontemporaries":10132,"Ġtransactions":10133,"Ġconscientious":10134,"Ġwatson":10135,"Ġdesirable":10136,"Ġopposite":10137,"54":10138,"76":10139,"80":10140,"cca":10141,"cour":10142,"cjc":10143,"dl":10144,"due":10145,"fa":10146,"mel":10147,"muk":10148,"pw":10149,"pokok":10150,"vironment":10151,"xg":10152,"Ġert":10153,"Ġswell":10154,"Ġtun":10155,"Ġtire":10156,"Ġtshirt":10157,"Ġtumben":10158,"Ġpee":10159,"Ġpash":10160,"Ġgust":10161,"alag":10162,"Ġbail":10163,"Ġbik":10164,"Ġdial":10165,"Ġdung":10166,"Ġwolf":10167,"Ġncc":10168,"oro":10169,"Ġhate":10170,"thought":10171,"Ġans":10172,"usually":10173,"Ġkir":10174,"Ġyr":10175,"Ġals":10176,"Ġaluminum":10177,"Ġual":10178,"vey":10179,"cher":10180,"ambar":10181,"Äłthe":10182,"Äłwe":10183,"Äłrespon":10184,"Äłret":10185,"apr":10186,"ements":10187,"Ġoks":10188,"Ġsoil":10189,"Ġrr":10190,"Ġbuang":10191,"Ġbuagus":10192,"Ġservis":10193,"Ġ155":10194,"Ġdisapoint":10195,"Ġblind":10196,"Ġmechan":10197,"Ġarr":10198,"Ġbocor":10199,"Ġcoba":10200,"ounting":10201,"Ġstuds":10202,"kskd":10203,"Ġfeathers":10204,"Ġredmi":10205,"inex":10206,"Ġmerchants":10207,"Ġspider":10208,"beauiful":10209,"Ġxxxl":10210,"llah":10211,"uding":10212,"acc":10213,"Ġbubbl":10214,"Ġmantaaaa":10215,"ache":10216,"ualitas":10217,"aikin":10218,"Ġcorresonding":10219,"Ġsupporters":10220,"finished":10221,"Äłsur":10222,"Ġputih":10223,"mantaap":10224,"Äłpu":10225,"Äłmis":10226,"plah":10227,"Äłcor":10228,"Ġeldest":10229,"Ġprovin":10230,"Ġdirective":10231,"prob":10232,"Ġkaos":10233,"Ġmakenya":10234,"Ġpuaas":10235,"Ġdto":10236,"Ġbalanced":10237,"conf":10238,"Ġbattered":10239,"Ġsquid":10240,"juin":10241,"Ġcausing":10242,"Ġbounce":10243,"Ġdriver":10244,"Ġcuri":10245,"Ġpushes":10246,"Ġbhnnya":10247,"Ġshowing":10248,"Ġpicked":10249,"Ġpicking":10250,"Ġliner":10251,"Ġgarbage":10252,"Ġmakasiii":10253,"meal":10254,"iffon":10255,"uiop":10256,"Ġbulk":10257,"Ġbleach":10258,"Ġabsorbed":10259,"glass":10260,"Ġkerenn":10261,"Ġcalm":10262,"aaaaaaaaaaaaaaaaaaaaaaaaaaaaaaaaaaaaaaaaaaaaaaaaaaaaaaaaaaaaaaaa":10263,"Ġplanted":10264,"ahanin":10265,"Ġpulled":10266,"Ġspecifications":10267,"129":10268,"Ġnuts":10269,"umplit":10270,"Ġmovement":10271,"Ġmeasurement":10272,"Ġmanufacturing":10273,"ternal":10274,"Ġgandos":10275,"Ġpresented":10276,"transm":10277,"Ġsyekal":10278,"Ġwalaupun":10279,"Ġunexpectedly":10280,"Ġreference":10281,"Ġcleanser":10282,"Ġencountered":10283,"Ġcoksu":10284,"pokonya":10285,"Ġrupiah":10286,"Ġyasudah":10287,"Ġprecision":10288,"Ġkayano":10289,"mmetrical":10290,"Ġrefrigerator":10291,"Ġcondiion":10292,"Ġunequal":10293,"aii":10294,"bing":10295,"bak":10296,"batter":10297,"dig":10298,"hu":10299,"hon":10300,"hri":10301,"ij":10302,"ift":10303,"lan":10304,"mate":10305,"mac":10306,"nately":10307,"rw":10308,"taste":10309,"yg":10310,"Ġile":10311,"Ġspt":10312,"Ġsjs":10313,"eral":10314,"Ġtiptop":10315,"Ġaes":10316,"Ġaug":10317,"Ġaunt":10318,"Ġpb":10319,"Ġpages":10320,"Ġbod":10321,"Ġbali":10322,"Ġoun":10323,"Ġfol":10324,"Ġdav":10325,"Ġmt":10326,"Ġngt":10327,"Ġlha":10328,"Ġremin":10329,"elipin":10330,"Ġdeliv":10331,"Ġshame":10332,"Ġix":10333,"Ġkb":10334,"Ġkut":10335,"Ġkka":10336,"astip":10337,"Ġbeaut":10338,"Ġbeef":10339,"Ġumm":10340,"aai":10341,"amer":10342,"Ġforum":10343,"Ġforgive":10344,"seems":10345,"Äłon":10346,"Äłrem":10347,"Äłins":10348,"ghnt":10349,"Ġorang":10350,"Ġjaw":10351,"ste":10352,"Ġchiffon":10353,"Ġupfront":10354,"Ġasa":10355,"Ġagak":10356,"Ġunic":10357,"Ġunclear":10358,"Ġexelent":10359,"Ġmoneygood":10360,"Ġ2000":10361,"Ġshopie":10362,"Ġsach":10363,"log":10364,"Ġbrow":10365,"Ġdiet":10366,"Ġdigit":10367,"Ġmua":10368,"Ġpoly":10369,"Ġceaaaaaaaaaaaaaaaa":10370,"Ġoutbreak":10371,"Ġovercome":10372,"Ġhandsh":10373,"Ġreported":10374,"sudah":10375,"Ġbangus":10376,"Ġexposed":10377,"Ġphp":10378,"llu":10379,"jaw":10380,"Ġsalt":10381,"Ġrealpick":10382,"Äłsamp":10383,"Äłseller":10384,"Ġluvv":10385,"Ġreserv":10386,"Äłpi":10387,"Äłbel":10388,"cook":10389,"Ġincon":10390,"Ġrefill":10391,"Ġrefused":10392,"Ġcovering":10393,"Ġnevertheless":10394,"Ġlaunch":10395,"Ġrapiii":10396,"baran":10397,"joj":10398,"nivers":10399,"Ġpengirimanx":10400,"Ġfinding":10401,"mbah":10402,"Ġhousekeeping":10403,"Ġswear":10404,"Ġnti":10405,"Ġpkai":10406,"Ġlayered":10407,"Ġmothers":10408,"Ġadvertis":10409,"Ġets":10410,"Ġdkt":10411,"Ġversus":10412,"Ġinvest":10413,"Ġappeared":10414,"Ġirre":10415,"Ġrespos":10416,"amboo":10417,"Ġsurvive":10418,"Ġraincoat":10419,"Ġboards":10420,"baikk":10421,"kualit":10422,"kualiti":10423,"bnrnya":10424,"Ġhoped":10425,"design":10426,"Ġconnector":10427,"Ġappreciated":10428,"bfounded":10429,"Ġstrike":10430,"Ġunivers":10431,"Ġdikirimin":10432,"eeeeeeeeeeeeeeeeeeeeeeeeeeeeeeee":10433,"Ġtrader":10434,"Ġcurtains":10435,"checked":10436,"Ġcharts":10437,"vwxyz":10438,"Ġcowbells":10439,"Ġjahitanya":10440,"jelas":10441,"Ġnyampee":10442,"Ġexpeted":10443,"Ġvibrant":10444,"Ġreccomended":10445,"Ġsecretly":10446,"Ġbiscuits":10447,"Ġmarathon":10448,"Ġplugged":10449,"Ġramadan":10450,"Ġdrooling":10451,"Ġarguably":10452,"bus":10453,"bounced":10454,"cock":10455,"cdefghijklmnopqr":10456,"hp":10457,"jss":10458,"jdi":10459,"lx":10460,"lens":10461,"lamp":10462,"png":10463,"sat":10464,"tell":10465,"uct":10466,"ubs":10467,"vo":10468,"vari":10469,"watch":10470,"Ġsid":10471,"Ġtint":10472,"Ġail":10473,"Ġaaaaaa":10474,"Ġpour":10475,"Ġpitch":10476,"Ġgc":10477,"Ġgitu":10478,"alala":10479,"Ġbungkus":10480,"Ġdau":10481,"Ġcet":10482,"eding":10483,"ingly":10484,"Ġmut":10485,"Ġning":10486,"Ġlil":10487,"Ġlcd":10488,"omen":10489,"thn":10490,"Ġtowards":10491,"lek":10492,"Ġiy":10493,"Ġical":10494,"Ġitchy":10495,"Ġkso":10496,"Ġkab":10497,"Äław":10498,"Ġvapor":10499,"Ġjk":10500,"owbat":10501,"Ġonion":10502,"ahnya":10503,"apan":10504,"oki":10505,"antul":10506,"Ġlosing":10507,"Ġbuka":10508,"bshs":10509,"Ġsiih":10510,"Ġsihhh":10511,"Ġacquired":10512,"Ġdocum":10513,"Ġdissatisfied":10514,"Ġallerg":10515,"Ġmeth":10516,"Ġboong":10517,"Ġcoy":10518,"abab":10519,"heh":10520,"Ġrecommending":10521,"nyata":10522,"Ġskinny":10523,"others":10524,"istration":10525,"aitas":10526,"bagu":10527,"Ġwraps":10528,"Ġkebes":10529,"aches":10530,"awak":10531,"Ġsupports":10532,"Ġscars":10533,"ndn":10534,"Ġworkman":10535,"Ġpeyok":10536,"Äłses":10537,"upi":10538,"upun":10539,"Ġcouriers":10540,"Ġpengriman":10541,"Äłmal":10542,"Äłba":10543,"Ġconfidence":10544,"Ġnia":10545,"Ġseconds":10546,"buh":10547,"Ġparties":10548,"ahahah":10549,"minus":10550,"Ġrequires":10551,"Ġ07":10552,"Ġ099":10553,"oriz":10554,"Ġlavender":10555,"eadily":10556,"Ġharus":10557,"Ġtemen":10558,"Ġtempl":10559,"Ġdressed":10560,"Äłhi":10561,"consider":10562,"Ġinsyallah":10563,"Ġdongg":10564,"Ġbrightness":10565,"Äłnag":10566,"Ġsubstitute":10567,"picture":10568,"Ġverry":10569,"Ġmemang":10570,"Ġcurved":10571,"Ġbatalin":10572,"Ġyeay":10573,"Ġobt":10574,"Ġpsan":10575,"rrrrr":10576,"Ġruined":10577,"Ġfiles":10578,"Ġkho":10579,"Ġspeaking":10580,"Ġlabels":10581,"Ġhitam":10582,"ahahahahahahahah":10583,"Ġfailure":10584,"Ġelasticity":10585,"gara":10586,"Ġkemana":10587,"Ġcombined":10588,"Ġkaso":10589,"Ġmengecew":10590,"Ġloaded":10591,"Ġsangaat":10592,"Ġfingerprint":10593,"Ġsilicon":10594,"Ġeyeliner":10595,"Ġweighs":10596,"Ġmagnetic":10597,"Ġkotak":10598,"Ġnecessarily":10599,"cakep":10600,"Ġeggs":10601,"Ġwangi":10602,"Ġsebelum":10603,"welry":10604,"Ġattempt":10605,"fragrant":10606,"Ġtulip":10607,"stalg":10608,"Ġsymbols":10609,"believably":10610,"Ġneda":10611,"available":10612,"Ġstaple":10613,"children":10614,"probably":10615,"niversary":10616,"23":10617,"95":10618,"bdh":10619,"cg":10620,"eo":10621,"fu":10622,"gre":10623,"kc":10624,"kp":10625,"mor":10626,"mos":10627,"match":10628,"oved":10629,"pol":10630,"rust":10631,"rai":10632,"rock":10633,"scr":10634,"tried":10635,"vin":10636,"Ġsink":10637,"Ġtis":10638,"Ġpgn":10639,"Ġbamboo":10640,"Ġoc":10641,"Ġopa":10642,"Ġcain":10643,"Ġcact":10644,"Ġcents":10645,"Ġmuter":10646,"onant":10647,"Ġnnya":10648,"atun":10649,"Ġhon":10650,"Ġlying":10651,"theart":10652,"Ġanniversary":10653,"utter":10654,"riage":10655,"Ġiba":10656,"Ġkad":10657,"Ġkos":10658,"Ġyi":10659,"Ġselleer":10660,"Ġinfer":10661,"Ġsteadily":10662,"Ġalbum":10663,"Ġbeans":10664,"chi":10665,"chu":10666,"season":10667,"Äłche":10668,"Ġshoopee":10669,"olnya":10670,"ettt":10671,"urt":10672,"ssh":10673,"Ġchil":10674,"Ġsob":10675,"Ġsoak":10676,"anting":10677,"iran":10678,"allow":10679,"Ġunpleasant":10680,"hhs":10681,"Ġtrf":10682,"Ġdisadv":10683,"Ġdeflated":10684,"Ġsaiz":10685,"Ġdiret":10686,"Ġarbitr":10687,"Ġships":10688,"caw":10689,"Ġhea":10690,"Ġprecise":10691,"fek":10692,"Ġcocon":10693,"oos":10694,"petasi":10695,"Ġlighting":10696,"engiriman":10697,"venir":10698,"Ġfeb":10699,"rimn":10700,"Ġpavement":10701,"Ġabx":10702,"uded":10703,"Ġhibis":10704,"ieie":10705,"iship":10706,"Ġscan":10707,"Ġscale":10708,"Ġcrash":10709,"Ġsucceed":10710,"patutan":10711,"Ġsaler":10712,"mantull":10713,"Ġ64":10714,"Ġtops":10715,"Ġzz":10716,"Ġguard":10717,"Ġmasangnya":10718,"Äłdit":10719,"ahaha":10720,"Ġsubmissions":10721,"Ġsett":10722,"Ġdisconn":10723,"hhhhhhhhhh":10724,"Ġbranded":10725,"toy":10726,"ixix":10727,"Ġrequests":10728,"Äłhu":10729,"Äłhar":10730,"Äłhand":10731,"Ġlanggan":10732,"ledge":10733,"cheaper":10734,"juan":10735,"Ġsubstances":10736,"Ġpesann":10737,"Ġcalling":10738,"Ġduo":10739,"claim":10740,"cladding":10741,"Ġruff":10742,"Ġwishes":10743,"Äłdik":10744,"pasang":10745,"shsj":10746,"sesend":10747,"Ġclassic":10748,"Ġraises":10749,"lipstick":10750,"Ġmedyo":10751,"Ġflatten":10752,"Ġflexibility":10753,"Ġmistakes":10754,"Äłnge":10755,"Ġproduce":10756,"Ġmica":10757,"Ġipod":10758,"bsbsbsbs":10759,"Ġotg":10760,"Ġpreferred":10761,"Ġintroduction":10762,"oxox":10763,"Ġtraveling":10764,"Ġballoons":10765,"Ġweighing":10766,"Ġsoalnya":10767,"mzmz":10768,"Ġlancar":10769,"Ġwanna":10770,"Ġrequirements":10771,"Ġmassage":10772,"Ġngelupas":10773,"Ġcontinuously":10774,"Ġsablonan":10775,"Ġobjects":10776,"Ġcounsel":10777,"Ġpnting":10778,"Ġpenyot":10779,"Ġmungkin":10780,"through":10781,"ertyuiop":10782,"stuvwxyz":10783,"Ġstanard":10784,"deducted":10785,"Ġbooming":10786,"Ġopaque":10787,"36":10788,"7129":10789,"cam":10790,"css":10791,"could":10792,"coo":10793,"cup":10794,"dn":10795,"fx":10796,"fan":10797,"glow":10798,"green":10799,"ias":10800,"kind":10801,"kurang":10802,"mesen":10803,"msm":10804,"num":10805,"opp":10806,"pie":10807,"pillow":10808,"rub":10809,"sngat":10810,"tip":10811,"xs":10812,"Ġtad":10813,"Ġtied":10814,"Ġtunic":10815,"Ġaqu":10816,"Ġake":10817,"Ġpda":10818,"Ġthb":10819,"itted":10820,"Ġgde":10821,"Ġborn":10822,"Ġoce":10823,"Ġfest":10824,"Ġfist":10825,"Ġdel":10826,"Ġdgn":10827,"Ġdalam":10828,"Ġcables":10829,"Ġwig":10830,"Ġwine":10831,"Ġwasting":10832,"Ġprizes":10833,"Ġnich":10834,"Ġhous":10835,"Ġlady":10836,"Ġqua":10837,"Ġquran":10838,"ompl":10839,"Ġideliver":10840,"agen":10841,"agram":10842,"Ġinfl":10843,"Ġstained":10844,"Ġnotify":10845,"Ġub":10846,"Ġuang":10847,"aaak":10848,"Ġfaint":10849,"amit":10850,"Ġsme":10851,"Ġsmw":10852,"Ġspec":10853,"Äłfor":10854,"keke":10855,"Ġthankfully":10856,"Ġven":10857,"Ġlif":10858,"aker":10859,"akin":10860,"okin":10861,"Ġchem":10862,"ungin":10863,"unction":10864,"umes":10865,"Ġloop":10866,"Ġupload":10867,"sock":10868,"socks":10869,"Ġaside":10870,"Ġunless":10871,"icable":10872,"Ġtrlalu":10873,"Ġdos":10874,"Ġsexy":10875,"Ġblow":10876,"Ġdibat":10877,"shdh":10878,"lique":10879,"Ġcos":10880,"Ġcoco":10881,"abi":10882,"Ġbaguuuuus":10883,"dha":10884,"Ġstored":10885,"Ġoutfit":10886,"Ġrepo":10887,"Ġcontn":10888,"Ġsubscri":10889,"Ġspin":10890,"such":10891,"Ġterbaek":10892,"Ġsafer":10893,"Ġcustmer":10894,"Ġkecik":10895,"Ġbeforehand":10896,"Ġlgs":10897,"Ġlgsung":10898,"Ġmoi":10899,"Ġmov":10900,"Ġcompleteness":10901,"nding":10902,"Ġbackground":10903,"Ġpeg":10904,"Ġintend":10905,"jsis":10906,"penya":10907,"Ġrealflex":10908,"dec":10909,"Ġhehehehehehe":10910,"Ġresale":10911,"Äłpar":10912,"Ġzonk":10913,"Ġrecomnded":10914,"Ġmodest":10915,"buble":10916,"Ġselebih":10917,"Ġprovince":10918,"zzle":10919,"Äłtw":10920,"bls":10921,"Ġmanner":10922,"Äłker":10923,"ubble":10924,"Ġsolved":10925,"Ġformat":10926,"Ġremark":10927,"Ġthankyouuu":10928,"Ġ111":10929,"Ġrolled":10930,"Ġresponds":10931,"Ġinformative":10932,"Ġadminya":10933,"Ġbae":10934,"Ġindent":10935,"jej":10936,"Ġbatt":10937,"pengemas":10938,"Ġfancy":10939,"Ġstayed":10940,"Ġexpirednya":10941,"Ġpaking":10942,"Ġankles":10943,"Ġinvent":10944,"pesanan":10945,"Ġcharcoal":10946,"Ġwondering":10947,"Ġburu":10948,"Ġapprobatory":10949,"Ġseasoned":10950,"olution":10951,"Ġpembeli":10952,"description":10953,"Ġtonight":10954,"Ġbearing":10955,"hijab":10956,"sampenya":10957,"Ġtilted":10958,"kxkx":10959,"Ġpanties":10960,"Ġprofile":10961,"Ġhdmi":10962,"Ġhumid":10963,"Ġmoldy":10964,"oooooooooooooooooooooooooooooooo":10965,"qqqq":10966,"Ġshoulders":10967,"Ġeksp":10968,"Ġlocated":10969,"Ġmotorcy":10970,"Ġdegree":10971,"Ġniece":10972,"Ġwarnanya":10973,"firmasi":10974,"Ġunfortnately":10975,"Ġapology":10976,"Ġjuncture":10977,"Ġtoothpaste":10978,"Ġbintang":10979,"minta":10980,"Ġmimin":10981,"ivalent":10982,"Ġscales":10983,"Ġvitamin":10984,"Ġmanufacturer":10985,"Ġlaris":10986,"Ġcubic":10987,"Ġintelligent":10988,"Ġsanitizer":10989,"Ġupgrade":10990,"reasonable":10991,"thugh":10992,"Ġtarget":10993,"orizont":10994,"Ġinferior":10995,"Ġcoconut":10996,"aang":10997,"buk":10998,"ea":10999,"fish":11000,"harg":11001,"kout":11002,"lot":11003,"mach":11004,"rus":11005,"sampe":11006,"tage":11007,"tahun":11008,"uing":11009,"Ġedi":11010,"Ġery":11011,"Ġsod":11012,"Ġsns":11013,"Ġtent":11014,"Ġtanger":11015,"Ġaha":11016,"Ġpod":11017,"Ġpis":11018,"Ġpam":11019,"Ġpst":11020,"Ġpong":11021,"itt":11022,"itui":11023,"alf":11024,"Ġbung":11025,"review":11026,"Ġood":11027,"Ġobs":11028,"Ġwk":11029,"Ġwont":11030,"ctive":11031,"esuai":11032,"Ġmd":11033,"Ġmenu":11034,"Ġmumer":11035,"Ġnv":11036,"Ġnasty":11037,"atives":11038,"Ġhih":11039,"Ġlad":11040,"Ġisol":11041,"Ġquar":11042,"Ġreass":11043,"ilan":11044,"Ġeeee":11045,"Ġshit":11046,"Ġshelves":11047,"usin":11048,"Ġick":11049,"Ġkick":11050,"Ġkung":11051,"Ġkonsum":11052,"Ġyaaaaaa":11053,"Ġstabil":11054,"Ġalter":11055,"Ġbean":11056,"Ġuulit":11057,"Ġspecially":11058,"Äłdeli":11059,"Äłjd":11060,"Äłnot":11061,"Äłsuper":11062,"Äłket":11063,"olute":11064,"Ġsuda":11065,"Ġvest":11066,"Ġjim":11067,"Ġjour":11068,"Ġlipt":11069,"Ġont":11070,"imars":11071,"Ġyouuuu":11072,"Ġcht":11073,"unning":11074,"Ġsoooo":11075,"irely":11076,"ida":11077,"ideliver":11078,"Ġasap":11079,"Ġtiming":11080,"Ġconce":11081,"eetheart":11082,"Ġsiu":11083,"Ġtrad":11084,"Ġtruss":11085,"Ġdisk":11086,"Ġsea":11087,"Ġbranch":11088,"Ġreceiver":11089,"uuka":11090,"gtu":11091,"gtech":11092,"Ġproven":11093,"igay":11094,"Ġusa":11095,"Ġadding":11096,"Ġgausah":11097,"Ġbagu":11098,"ngs":11099,"Ġoveral":11100,"Ġoversize":11101,"Ġarried":11102,"Ġsks":11103,"Ġhandbag":11104,"Ġcompartment":11105,"Ġnewly":11106,"Ġenvironment":11107,"Ġpurcase":11108,"Ġspy":11109,"Ġspat":11110,"Ġpictured":11111,"ists":11112,"Ġsyng":11113,"ultry":11114,"Ġbagusan":11115,"Ġgoood":11116,"Ġteen":11117,"Ġcarved":11118,"jsn":11119,"jsns":11120,"Ġsalah":11121,"Äłsay":11122,"Ġngay":11123,"ukur":11124,"Ġresid":11125,"Äłbanget":11126,"Ġsukaaaaaaaaaaaaaaaa":11127,"Ġsukasuka":11128,"Ġkog":11129,"Ġfoc":11130,"Äłcons":11131,"Ġselet":11132,"Äłdist":11133,"Ġterimak":11134,"Ġunderstood":11135,"poss":11136,"Ġsmelling":11137,"uhuhu":11138,"Äłtem":11139,"Ġdiscont":11140,"Ġmonthly":11141,"Ġconscious":11142,"Ġbsok":11143,"Ġwarning":11144,"Ġthru":11145,"Ġberkah":11146,"Ġsndiri":11147,"Ġslack":11148,"Ġslam":11149,"Ġassorted":11150,"Ġmantulll":11151,"iao":11152,"Äłgo":11153,"Ġnhg":11154,"cewakan":11155,"Ġdikantong":11156,"Ġkoko":11157,"ogog":11158,"Ġdonate":11159,"Ġdifficulty":11160,"Ġantic":11161,"Ġgamau":11162,"Ġcuy":11163,"Ġkmaren":11164,"Ġequivalent":11165,"Ġpalatable":11166,"shipments":11167,"flash":11168,"Ġanaku":11169,"Ġdipakein":11170,"Ġlistening":11171,"Ġiniti":11172,"Ġinvolved":11173,"Ġamazingly":11174,"dfjdg":11175,"Ġtransferred":11176,"Ġdrops":11177,"Ġpinch":11178,"Ġmgnda":11179,"pesan":11180,"Ġcontrast":11181,"Ġcakep":11182,"Ġwlpn":11183,"Ġplantar":11184,"maksih":11185,"Ġmemuaskn":11186,"antikk":11187,"Ġkurg":11188,"Ġadequate":11189,"Ġabsorbing":11190,"Ġbublewarp":11191,"Ġpunct":11192,"makasihh":11193,"Ġsummary":11194,"Ġindonesian":11195,"Ġkena":11196,"Ġgemes":11197,"Ġrejection":11198,"Ġkilat":11199,"Ġsoup":11200,"Ġyaudahlah":11201,"Ġternyta":11202,"covered":11203,"Ġbilangnya":11204,"rekomend":11205,"Ġkecewaa":11206,"Ġalhmd":11207,"Ġkedep":11208,"Ġfluid":11209,"Ġjelas":11210,"Ġbriefcase":11211,"ttqtq":11212,"Ġobstacle":11213,"prodcts":11214,"Ġtrashy":11215,"Ġluxurious":11216,"dfghjk":11217,"Ġwhitening":11218,"saucy":11219,"Ġregistered":11220,"Ġalternating":11221,"Ġshrink":11222,"Ġpengirman":11223,"sandals":11224,"Ġpokonyaa":11225,"Ġkegedean":11226,"Ġplatform":11227,"Ġbouquet":11228,"Ġsquishy":11229,"Ġcactus":11230,"Ġhibiscus":11231,"65":11232,"bear":11233,"dark":11234,"ec":11235,"eas":11236,"fj":11237,"fig":11238,"hmm":11239,"iq":11240,"jng":11241,"jdd":11242,"kot":11243,"khh":11244,"lal":11245,"lly":11246,"nment":11247,"pri":11248,"power":11249,"sya":11250,"td":11251,"tas":11252,"tks":11253,"tiny":11254,"Ġents":11255,"Ġsack":11256,"Ġsbb":11257,"Ġsultry":11258,"Ġtables":11259,"Ġao":11260,"Ġasp":11261,"Ġatle":11262,"inn":11263,"inks":11264,"Ġpy":11265,"itung":11266,"alang":11267,"Ġbon":11268,"Ġbare":11269,"Ġbared":11270,"resp":11271,"Ġdkd":11272,"Ġcip":11273,"Ġcrime":11274,"Ġww":11275,"Ġwest":11276,"Ġwings":11277,"Ġprone":11278,"Ġmood":11279,"Ġmun":11280,"Ġnil":11281,"atory":11282,"ques":11283,"Ġproductthe":11284,"oms":11285,"pett":11286,"Ġeco":11287,"utt":11288,"Ġshine":11289,"Ġiya":11290,"Ġkam":11291,"Ġkaaa":11292,"Ġkpn":11293,"Ġkira":11294,"agat":11295,"Ġince":11296,"Ġstress":11297,"Ġnotified":11298,"Ġbekasi":11299,"anks":11300,"aam":11301,"Äłus":11302,"kem":11303,"Ġsud":11304,"Ġving":11305,"Ġjars":11306,"Ġokok":11307,"Ġokla":11308,"stay":11309,"urate":11310,"Ġcham":11311,"Ġwhom":11312,"iring":11313,"Ġupright":11314,"Ġasih":11315,"Ġorig":11316,"eeet":11317,"Ġdev":11318,"Ġblnj":11319,"Ġsao":11320,"Ġnovel":11321,"ints":11322,"Ġboost":11323,"liance":11324,"Ġimpatient":11325,"Ġhehee":11326,"ften":11327,"Ġamb":11328,"Ġambil":11329,"Ġski":11330,"Ġcomple":11331,"Ġcompress":11332,"Ġstarred":11333,"Ġlesson":11334,"Ġdescent":11335,"sud":11336,"packet":11337,"Ġphase":11338,"Ġbubl":11339,"Ġflor":11340,"Ġkecepat":11341,"ailed":11342,"Ġgover":11343,"brown":11344,"Ġoffset":11345,"jsk":11346,"Ġrealized":11347,"Ġbars":11348,"Ġngat":11349,"Ġnget":11350,"Ġresolved":11351,"Ġcoupon":11352,"Äłmem":11353,"retion":11354,"Ġnipp":11355,"Ġrefuse":11356,"Ġelection":11357,"Ġeleph":11358,"Ġsticking":11359,"Ġsemp":11360,"Ġcumulus":11361,"Ġmouthful":11362,"Äłtrim":11363,"wrn":11364,"Ġpuff":11365,"Ġmanage":11366,"Ġmuraah":11367,"Ġmarin":11368,"Ġfootwear":11369,"Ġslide":11370,"Ġassume":11371,"Ġassurance":11372,"Ġwashable":11373,"Ġpara":11374,"Ġcomplained":11375,"Ġfalls":11376,"Ġmagic":11377,"Ġindicate":11378,"jsjsjsjs":11379,"Ġpuasssss":11380,"Ġcloser":11381,"Ġupdating":11382,"Ġbats":11383,"Ġcuco":11384,"ibly":11385,"ibatun":11386,"max":11387,"Ġparcels":11388,"terimakas":11389,"Äłinter":11390,"Ġsuggests":11391,"Ġcollaps":11392,"Ġ2016":11393,"Ġdecis":11394,"Ġtablet":11395,"Ġenjoys":11396,"string":11397,"pesos":11398,"Äłunder":11399,"okokokokokokokokokokokokokokokok":11400,"Ġdeduction":11401,"cuman":11402,"aaaaaaaaaaaaaaaaaaaaaaaaaaaaaaaaaaaaaaaaaaaaaaaa":11403,"Ġomg":11404,"Ġnaturally":11405,"Ġfails":11406,"Ġcentral":11407,"Ġkembali":11408,"Ġbelii":11409,"Ġconsistently":11410,"Ġwedding":11411,"Ġvictorious":11412,"Ġmoisture":11413,"tttttttttttttttttttttttt":11414,"Ġexplained":11415,"Ġsangt":11416,"host":11417,"ncnc":11418,"Ġhumorous":11419,"Ġcozy":11420,"Ġction":11421,"yyyyyyyyyyyyyyyy":11422,"Ġelectricity":11423,"Ġmukenanya":11424,"sayang":11425,"Ġalhmdulillah":11426,"Ġbriefly":11427,"Ġfleet":11428,"motif":11429,"Ġexpetasi":11430,"lucky":11431,"Ġplisketnya":11432,"Ġaccelerated":11433,"Ġexperienced":11434,"Ġcurious":11435,"transmission":11436,"Ġdavid":11437,"Ġjawab":11438,"Ġhandshake":11439,"Ġmethod":11440,"Ġworkmanship":11441,"Ġatleast":11442,"75":11443,"bee":11444,"bie":11445,"cot":11446,"don":11447,"dga":11448,"diss":11449,"dge":11450,"fly":11451,"fied":11452,"faat":11453,"fresh":11454,"hxh":11455,"ius":11456,"kad":11457,"langg":11458,"mth":11459,"nar":11460,"oot":11461,"pant":11462,"rot":11463,"scent":11464,"tap":11465,"xbx":11466,"Ġsng":11467,"Ġsleting":11468,"erine":11469,"Ġakk":11470,"Ġpnya":11471,"Ġpkk":11472,"Ġthri":11473,"itar":11474,"Ġgear":11475,"Ġgain":11476,"Ġgila":11477,"Ġbf":11478,"Ġome":11479,"isely":11480,"isnya":11481,"Ġdated":11482,"anah":11483,"Ġced":11484,"Ġcate":11485,"Ġwks":11486,"Ġproud":11487,"inggu":11488,"enjo":11489,"Ġmf":11490,"Ġmum":11491,"onnya":11492,"Ġnun":11493,"Ġnine":11494,"Ġnaship":11495,"atile":11496,"atannya":11497,"Ġhv":11498,"Ġhap":11499,"Ġhong":11500,"Ġhushed":11501,"Ġlacing":11502,"Ġrefin":11503,"Ġreaso":11504,"tho":11505,"Ġanther":11506,"utup":11507,"Ġshattered":11508,"Ġshredd":11509,"oted":11510,"ottes":11511,"Ġian":11512,"Ġied":11513,"Ġight":11514,"Ġkemasan":11515,"Ġkarena":11516,"Ġkumplit":11517,"Ġyummy":11518,"ayo":11519,"Ġiny":11520,"Ġstation":11521,"Ġbeads":11522,"seams":11523,"Äłent":11524,"Ġspeeds":11525,"ghantaran":11526,"adis":11527,"kece":11528,"ahabat":11529,"eme":11530,"Ġokie":11531,"Ġsobrang":11532,"Ġrum":11533,"Ġrout":11534,"tte":11535,"bsv":11536,"ffaf":11537,"Ġbuyback":11538,"Ġsep":11539,"Ġbla":11540,"Ġnostalg":11541,"Ġcheating":11542,"perf":11543,"Ġdipengiriman":11544,"communic":11545,"cape":11546,"Ġpackingny":11547,"Ġations":11548,"Ġproses":11549,"nga":11550,"Ġame":11551,"dhf":11552,"Ġoutcome":11553,"ightly":11554,"Ġgia":11555,"lets":11556,"Ġwealthy":11557,"hamdulilah":11558,"ciitis":11559,"bras":11560,"broke":11561,"Ġscattered":11562,"itskg":11563,"Ġsucces":11564,"note":11565,"penjual":11566,"Ġinstagram":11567,"Ġnowhere":11568,"Ġtasted":11569,"Ġcla":11570,"Ġ68":11571,"Ġ600":11572,"Ġwrappings":11573,"Ġminn":11574,"Ġfox":11575,"Ġrefresh":11576,"Äłcust":11577,"Ġmasing":11578,"buying":11579,"Ġtrimakas":11580,"Ġtrimksih":11581,"Ġmediocre":11582,"Ġapal":11583,"mini":11584,"Ġakn":11585,"nsnns":11586,"Ġpenj":11587,"Ġpenet":11588,"Ġnaorder":11589,"550":11590,"Ġcushions":11591,"ubah":11592,"jjj":11593,"nnnnnnn":11594,"Ġproperties":11595,"Ġjewelry":11596,"uuuuuuuuuuuu":11597,"Äłgi":11598,"Ġheadphone":11599,"Ġpengirimanny":11600,"xxh":11601,"iiiiiiiii":11602,"Ġeffectively":11603,"Ġextend":11604,"ruit":11605,"Ġhairy":11606,"compact":11607,"Ġdsn":11608,"Ġmahal":11609,"Ġimported":11610,"Ġpngr":11611,"Ġkuat":11612,"Ġpaketnya":11613,"Ġexists":11614,"Ġconsuming":11615,"shiping":11616,"Ġpots":11617,"Ġbeside":11618,"Ġreducing":11619,"Ġpulaa":11620,"Ġsatin":11621,"Ġbleh":11622,"Ġayan":11623,"jgdfjdg":11624,"ndndndnd":11625,"fhfh":11626,"bnm":11627,"Äłdisc":11628,"Ġscrewdri":11629,"Ġmainly":11630,"Ġdumbfounded":11631,"Ġcepeet":11632,"Ġbaking":11633,"Ġdefault":11634,"looking":11635,"Ġquantities":11636,"Ġswitched":11637,"Ġpanty":11638,"Ġconstant":11639,"Ġallows":11640,"Ġhgaaaa":11641,"Ġmanufactured":11642,"Ġyounger":11643,"Ġlucuuu":11644,"Ġclaims":11645,"Ġmoderately":11646,"consistent":11647,"rrrrrrrrrrrrrrrr":11648,"Ġnatry":11649,"Ġght":11650,"Ġcontribution":11651,"Ġbaguuuus":11652,"Ġcounterfeit":11653,"Ġdibalikin":11654,"Ġsdkt":11655,"Ġpsenan":11656,"Ġsavings":11657,"Ġloosely":11658,"motive":11659,"Ġprayer":11660,"Ġplastik":11661,"Ġfotoin":11662,"Ġadmitted":11663,"Ġgimna":11664,"Ġcantikk":11665,"Ġneighbor":11666,"Ġallocated":11667,"Ġshuttle":11668,"Ġpreserved":11669,"sadly":11670,"jazak":11671,"lucuu":11672,"Ġfacilitate":11673,"Ġregretted":11674,"Ġtaxable":11675,"Ġdiliat":11676,"4567890":11677,"Ġshoelaces":11678,"Ġappetite":11679,"Ġreminder":11680,"Ġunicorn":11681,"Ġinitiative":11682,"Ġgovernment":11683,"713":11684,"barg":11685,"bonus":11686,"cch":11687,"cain":11688,"cation":11689,"cra":11690,"home":11691,"iate":11692,"ique":11693,"kr":11694,"kai":11695,"krang":11696,"nel":11697,"oa":11698,"oop":11699,"ober":11700,"sun":11701,"tion":11702,"tong":11703,"yrs":11704,"za":11705,"Ġsiss":11706,"Ġssss":11707,"erved":11708,"Ġaaaaaaaaaaaaaaaaa":11709,"incomplete":11710,"Ġpj":11711,"Ġpanda":11712,"itip":11713,"Ġbant":11714,"Ġfb":11715,"Ġfom":11716,"Ġdal":11717,"Ġdick":11718,"Ġdamp":11719,"anut":11720,"Ġces":11721,"Ġcased":11722,"Ġwoo":11723,"oned":11724,"Ġnod":11725,"Ġnas":11726,"Ġntr":11727,"orial":11728,"asss":11729,"Ġlaz":11730,"quest":11731,"omg":11732,"arik":11733,"Ġial":11734,"Ġibu":11735,"Ġkata":11736,"Ġsten":11737,"Ġstopped":11738,"Ġstacked":11739,"Ġalam":11740,"vember":11741,"chl":11742,"Ġforgiven":11743,"Äłfe":11744,"Äłorder":11745,"Äłyou":11746,"Ġorde":11747,"kemas":11748,"Ġjastip":11749,"Ġliable":11750,"Ġons":11751,"andy":11752,"their":11753,"stik":11754,"urse":11755,"Ġchoo":11756,"Ġsobek":11757,"Ġrn":11758,"antar":11759,"antages":11760,"irannya":11761,"pron":11762,"alleng":11763,"Ġagent":11764,"Ġcondt":11765,"Ġunya":11766,"Ġexter":11767,"Ġtrap":11768,"Ġtrading":11769,"Ġdispatch":11770,"aaaaah":11771,"Ġdecl":11772,"Ġblh":11773,"shaped":11774,"Ġmuat":11775,"Ġately":11776,"Ġplacing":11777,"Ġpier":11778,"Ġoutput":11779,"Ġnyala":11780,"gave":11781,"Ġmercy":11782,"Ġsomewhere":11783,"Ġsuperr":11784,"Ġpurpos":11785,"Ġspikes":11786,"Ġleaving":11787,"Ġbangbang":11788,"Ġboxnya":11789,"Ġpacif":11790,"Ġxie":11791,"nts":11792,"Ġbigg":11793,"Ġimmed":11794,"Ġhips":11795,"Ġgods":11796,"Ġstroll":11797,"ips":11798,"Ġknowledge":11799,"Ġrealize":11800,"Äłsn":11801,"Äłsell":11802,"Ġseek":11803,"Ġplastics":11804,"upin":11805,"Ġtribe":11806,"Äłmon":11807,"coz":11808,"mog":11809,"ddddddd":11810,"Ġadds":11811,"Äłcut":11812,"irty":11813,"Ġelbow":11814,"Ġsheer":11815,"Ġregistration":11816,"ario":11817,"Ġundersell":11818,"Ġbonusnya":11819,"prov":11820,"Ġcepatttt":11821,"Äłtri":11822,"Ġcommer":11823,"Äłko":11824,"Ġcushy":11825,"Ġentirely":11826,"Ġassist":11827,"doors":11828,"Ġyellowish":11829,"Ġtuitui":11830,"Ġhoi":11831,"Ġhooks":11832,"Ġkering":11833,"iiiiiiiiii":11834,"mbeli":11835,"Ġbngtt":11836,"Ġhairpin":11837,"cuit":11838,"Äłreg":11839,"mantulmantul":11840,"jfg":11841,"ayaan":11842,"Ġpoll":11843,"Ġcuz":11844,"Ġhats":11845,"said":11846,"Ġtomb":11847,"Ġkhimars":11848,"Ġkasihhh":11849,"Ġdecision":11850,"Ġ140":11851,"hhhhhhhhhhhhhhhhhhhhhhhh":11852,"Ġreceipts":11853,"Äłsubs":11854,"Ġfourth":11855,"Ġhargany":11856,"anggung":11857,"Ġlemes":11858,"hhehehe":11859,"hhehehehehe":11860,"Ġbrooks":11861,"Ġcompetition":11862,"Ġbahanny":11863,"hatiin":11864,"Ġspecification":11865,"Ġkecilin":11866,"Ġmeatball":11867,"Ġdefense":11868,"Ġmacem":11869,"Ġconstantly":11870,"Ġelectronic":11871,"Ġhyd":11872,"abilis":11873,"Ġclaimed":11874,"Ġmakasiihh":11875,"Ġcatching":11876,"liked":11877,"Ġbajux":11878,"Ġmulus":11879,"warna":11880,"Ġsouth":11881,"Ġlifting":11882,"gwgw":11883,"Ġsupposedly":11884,"casenya":11885,"Ġinquiry":11886,"Ġtypical":11887,"Ġconsignment":11888,"vvvvvvvvvvvvvvvv":11889,"pengirimanya":11890,"vdvdv":11891,"dfghdfg":11892,"Ġridiculous":11893,"drawn":11894,"Ġinspiration":11895,"Ġconvention":11896,"Ġvaried":11897,"Ġexpenditure":11898,"Ġirritated":11899,"Ġindicator":11900,"Ġujung":11901,"Ġguidance":11902,"Ġcousin":11903,"Ġpashmina":11904,"jawab":11905,"Ġuniversal":11906,"cdefghijklmnopqrstuvwxyz":11907,"Ġchemical":11908,"Ġdibatalin":11909,"Ġtraditional":11910,"32":11911,"98":11912,"bnt":11913,"caya":11914,"during":11915,"gen":11916,"hg":11917,"hop":11918,"ipe":11919,"jdhd":11920,"kss":11921,"lmy":11922,"mam":11923,"mng":11924,"oes":11925,"oad":11926,"pare":11927,"pient":11928,"qy":11929,"rada":11930,"sbs":11931,"sens":11932,"tom":11933,"tow":11934,"tions":11935,"viv":11936,"wj":11937,"xitskg":11938,"Ġeller":11939,"Ġsja":11940,"Ġtack":11941,"Ġtama":11942,"Ġtttt":11943,"Ġtunggu":11944,"Ġpli":11945,"Ġpket":11946,"Ġthu":11947,"iter":11948,"Ġgs":11949,"Ġghost":11950,"recieved":11951,"Ġfot":11952,"Ġflip":11953,"Ġdann":11954,"Ġmx":11955,"Ġmounting":11956,"Ġndk":11957,"Ġnurs":11958,"atu":11959,"Ġhga":11960,"Ġhdf":11961,"Ġhorizont":11962,"Ġhdfghdfg":11963,"Ġqualityoriginal":11964,"Ġree":11965,"arat":11966,"oured":11967,"Ġanj":11968,"Ġangg":11969,"Ġtote":11970,"Ġeg":11971,"otics":11972,"usus":11973,"Ġiin":11974,"Ġkai":11975,"Ġkkkk":11976,"Ġyer":11977,"Ġying":11978,"ags":11979,"ays":11980,"ayos":11981,"Ġstale":11982,"Ġalmond":11983,"Ġbegging":11984,"ament":11985,"ulillah":11986,"Äłq":11987,"Ġpackignya":11988,"Ġfacebook":11989,"sphere":11990,"Ġorderannya":11991,"etics":11992,"Ġonions":11993,"akal":11994,"apack":11995,"ainable":11996,"Ġokokok":11997,"Ġokokokok":11998,"Ġneon":11999,"yaallah":12000,"umpteenth":12001,"Ġrs":12002,"Ġrt":12003,"Ġrules":12004,"ante":12005,"idi":12006,"pros":12007,"angk":12008,"Ġunfinished":12009,"Ġexquisite":12010,"Ġexternal":12011,"Ġmatters":12012,"Ġbles":12013,"Ġnovember":12014,"estrated":12015,"Ġbracket":12016,"Ġrecent":12017,"Ġdipl":12018,"Ġmeow":12019,"Ġmuantap":12020,"Ġ3000":12021,"atisfied":12022,"aba":12023,"Ġcheaply":12024,"activ":12025,"venient":12026,"Ġbgtu":12027,"Ġcomply":12028,"ksbs":12029,"Ġcontaining":12030,"nye":12031,"Ġherbal":12032,"Ġconditioner":12033,"Ġspoke":12034,"dulent":12035,"Ġsendalnya":12036,"Ġxx":12037,"Ġxii":12038,"Ġably":12039,"nnz":12040,"Ġsymmetrical":12041,"Ġkejahit":12042,"Ġbangetbagus":12043,"Ġgoi":12044,"dik":12045,"Ġaffixed":12046,"Ġjosss":12047,"bris":12048,"Ġhappier":12049,"Ġcrotch":12050,"auai":12051,"Ġworkers":12052,"jdn":12053,"Ġcaring":12054,"Ġpepper":12055,"jsjj":12056,"Ġpesenannya":12057,"decent":12058,"mantaa":12059,"Ġtasting":12060,"Ġresil":12061,"Äłpad":12062,"Äłmas":12063,"Ġminh":12064,"Ġrecomanded":12065,"Ġcleared":12066,"Ġliking":12067,"Ġ900":12068,"Ġselesa":12069,"Ġelement":12070,"ahahh":12071,"Ġterimkasih":12072,"Ġyaah":12073,"Ġtrimksh":12074,"Ġearth":12075,"exception":12076,"Ġtighter":12077,"Ġdiscretion":12078,"Ġmanagement":12079,"Ġ125":12080,"Ġthrowing":12081,"Ġreviewed":12082,"baju":12083,"working":12084,"Ġadvis":12085,"Ġentity":12086,"yeah":12087,"coll":12088,"nike":12089,"Ġump":12090,"Ġconsiderable":12091,"Ġcodes":12092,"Ġpengirimann":12093,"Ġending":12094,"Ġngecas":12095,"Ġngepres":12096,"untusan":12097,"Ġmantapmantap":12098,"Ġsealing":12099,"hasanah":12100,"raud":12101,"Ġcleaned":12102,"Ġpadin":12103,"Ġnagana":12104,"Ġnagsesend":12105,"parably":12106,"ggggg":12107,"Ġabsolute":12108,"cloud":12109,"Ġbuttoned":12110,"Äłrel":12111,"Ġprodukny":12112,"Ġlined":12113,"Ġsamapai":12114,"Ġbenang":12115,"smallness":12116,"Ġcamer":12117,"Ġzippers":12118,"Ġzigtech":12119,"uaskan":12120,"Ġgarment":12121,"Ġhahahah":12122,"Ġditunggu":12123,"Ġcollege":12124,"Ġvisual":12125,"Ġwalked":12126,"Ġinvited":12127,"kkkkkkkkkkkkkkkkkkkkkkkk":12128,"Ġoriginall":12129,"Ġsitting":12130,"jhd":12131,"pakai":12132,"Ġholo":12133,"etti":12134,"Ġkualitasnya":12135,"Ġpngirimannya":12136,"iliver":12137,"Ġrows":12138,"Ġjsjsjs":12139,"Ġbahanx":12140,"Ġfamiliar":12141,"bngt":12142,"Ġktnya":12143,"recomend":12144,"Ġwkwkwkwkw":12145,"123":12146,"Ġnutr":12147,"makasihmakasih":12148,"Ġvanilla":12149,"Ġdefic":12150,"Ġmailing":12151,"paketannya":12152,"Ġsampaiii":12153,"Ġpantes":12154,"Ġkaak":12155,"Ġdipakai":12156,"Ġinfant":12157,"Ġtreated":12158,"Ġresistance":12159,"Ġnareceived":12160,"Ġjammed":12161,"Ġcycle":12162,"consum":12163,"ayayayay":12164,"Ġregardless":12165,"7777":12166,"Ġmacam":12167,"Ġpertahanin":12168,"misplaced":12169,"Äłacc":12170,"bottle":12171,"Ġsouvenir":12172,"Ġdegrees":12173,"ifiable":12174,"Ġkecewaaa":12175,"4444":12176,"Ġloosen":12177,"Ġjahitan":12178,"Ġpork":12179,"welcome":12180,"Ġembroidered":12181,"33333333":12182,"Ġuwu":12183,"lapis":12184,"totally":12185,"Ġunusual":12186,"skirts":12187,"gemes":12188,"Ġjudgment":12189,"Ġjatoh":12190,"Ġculottes":12191,"Ġsegituu":12192,"Ġaccompany":12193,"authentic":12194,"assalamualaikum":12195,"Ġfasciitis":12196,"Ġseptember":12197,"Ġpengeriman":12198,"Ġsigns":12199,"Ġgluten":12200,"Ġwolfis":12201,"Ġprovinces":12202,"Ġbeautful":12203,"Ġdigital":12204,"Ġadvertisement":12205,"Ġarbitrarily":12206,"toyibatun":12207,"Ġruffled":12208,"Ġinventory":12209,"Ġtangerang":12210,"Ġincense":12211,"Ġcondtion":12212,"37":12213,"47":12214,"bk":12215,"bor":12216,"bya":12217,"cun":12218,"cers":12219,"dong":12220,"ees":12221,"fokan":12222,"gnya":12223,"hag":12224,"hib":12225,"jem":12226,"jection":12227,"kq":12228,"lk":12229,"las":12230,"lings":12231,"liness":12232,"mended":12233,"nant":12234,"oat":12235,"occ":12236,"pngiriman":12237,"slo":12238,"tul":12239,"tail":12240,"tipis":12241,"uci":12242,"vg":12243,"vj":12244,"vous":12245,"wd":12246,"wk":12247,"wjw":12248,"xjj":12249,"yer":12250,"yellow":12251,"ering":12252,"Ġtx":12253,"Ġtor":12254,"Ġtus":12255,"Ġtig":12256,"Ġale":12257,"Ġaweet":12258,"incl":12259,"inappropriate":12260,"Ġpit":12261,"Ġpending":12262,"elin":12263,"eline":12264,"Ġbx":12265,"Ġooo":12266,"Ġfs":12267,"Ġdw":12268,"Ġdai":12269,"Ġddd":12270,"ananya":12271,"Ġwai":12272,"Ġmart":12273,"Ġmaster":12274,"Ġnf":12275,"Ġnm":12276,"Ġnii":12277,"Ġnavi":12278,"atin":12279,"Ġls":12280,"elling":12281,"omed":12282,"Ġresi":12283,"ilis":12284,"ilater":12285,"ilangin":12286,"Ġanan":12287,"Ġanget":12288,"Ġei":12289,"Ġeu":12290,"Ġeur":12291,"Ġehehe":12292,"utions":12293,"Ġible":12294,"Ġiiii":12295,"Ġkf":12296,"Ġkq":12297,"Ġalah":12298,"Ġaloe":12299,"Ġspeech":12300,"Äłear":12301,"kec":12302,"eters":12303,"impen":12304,"Ġoko":12305,"okes":12306,"stable":12307,"Ġchop":12308,"Ġchine":12309,"Ġsofl":12310,"Ġrb":12311,"fulness":12312,"idid":12313,"idemic":12314,"Ġashes":12315,"compet":12316,"Ġdishope":12317,"Ġfrail":12318,"Ġbln":12319,"Ġsai":12320,"Ġbrake":12321,"Ġbriliant":12322,"kku":12323,"Ġdianter":12324,"Ġara":12325,"Ġimitation":12326,"auterine":12327,"Ġprogram":12328,"fted":12329,"Ġbaggy":12330,"Ġbyr":12331,"Ġuntidy":12332,"engan":12333,"actual":12334,"Ġ56":12335,"Ġrepack":12336,"Ġpictres":12337,"Ġperu":12338,"Ġgrown":12339,"Ġherbs":12340,"ggy":12341,"packs":12342,"Ġpape":12343,"Ġxi":12344,"Ġxr":12345,"Ġexpand":12346,"Ġexpens":12347,"siz":12348,"sizing":12349,"Ġimmature":12350,"Ġmessaged":12351,"Ġhiya":12352,"Ġjohn":12353,"Ġreplying":12354,"Ġsalute":12355,"Ġjdnya":12356,"Ġjdinya":12357,"Äłscr":12358,"Ġclub":12359,"Ġpengem":12360,"Äłpes":12361,"Äłpur":12362,"Äłbal":12363,"Ġzen":12364,"Äłcle":12365,"Äłdat":12366,"grinning":12367,"Ġsemi":12368,"Ġcume":12369,"ugs":12370,"Ġposter":12371,"blh":12372,"Ġsurg":12373,"Äłkh":12374,"Ġmura":12375,"Ġpokoe":12376,"Ġpiecemeal":12377,"Ġqr":12378,"Ġesp":12379,"Ġslmt":12380,"Ġsliding":12381,"Ġdgan":12382,"Ġmaen":12383,"standar":12384,"kakak":12385,"Äłlum":12386,"Ġmember":12387,"Ġairy":12388,"Ġairpods":12389,"Ġclosing":12390,"Ġcapital":12391,"Ġpolicy":12392,"Ġkalii":12393,"ibir":12394,"something":12395,"skin":12396,"Ġamannn":12397,"Ġlosses":12398,"Ġkhit":12399,"Ġevents":12400,"bgd":12401,"Ġsingap":12402,"Äłinst":12403,"Ġkasihhhh":12404,"Ġsimilarly":12405,"Ġversions":12406,"Ġcollagen":12407,"Ġpanjang":12408,"Ġbaikkkk":12409,"Ġsitu":12410,"Ġsites":12411,"Ġcontract":12412,"Ġcounted":12413,"barangx":12414,"Ġcircuit":12415,"Ġwlpun":12416,"ahahahahah":12417,"Ġprodukk":12418,"Ġ170":12419,"Ġselamatt":12420,"trimakasihtrimakasih":12421,"Ġblocks":12422,"Ġdeceived":12423,"baguuss":12424,"Ġstrengthen":12425,"Ġclips":12426,"hole":12427,"Ġmadam":12428,"monious":12429,"Ġsteps":12430,"Ġmeaning":12431,"Ġjazakallah":12432,"Ġouch":12433,"Ġmidnight":12434,"Ġcaption":12435,"Ġcapture":12436,"Ġskewed":12437,"8888":12438,"ablished":12439,"puass":12440,"Ġefficacious":12441,"Ġpwd":12442,"Ġtaro":12443,"irrah":12444,"wwwwwwwwwwwwwwww":12445,"39713":12446,"Ġindividually":12447,"Ġexceptional":12448,"Ġjazakillah":12449,"jadiin":12450,"Ġcosmetic":12451,"bnget":12452,"Ġmushroom":12453,"model":12454,"Ġhospital":12455,"washing":12456,"Ġvegetables":12457,"Ġsatisied":12458,"Ġarmpit":12459,"Ġventilation":12460,"Ġenhancement":12461,"Ġjauh":12462,"Ġchgaaaaaaaa":12463,"Ġcomponents":12464,"okokokokokokokokookokokokokokokoko":12465,"Ġparticipate":12466,"xcvbnm":12467,"Ġcardigan":12468,"Ġspiderman":12469,"Ġirreparably":12470,"Ġheaven":12471,"Ġflattened":12472,"Ġkonsumen":12473,"Ġngatung":12474,"Ġreasoable":12475,"Ġrefreshing":12476,"Ġexterior":12477,"200":12478,"ader":12479,"bim":12480,"cre":12481,"dent":12482,"dag":12483,"dont":12484,"fal":12485,"fol":12486,"fic":12487,"fjh":12488,"fruit":12489,"gri":12490,"gorgeous":12491,"hor":12492,"hot":12493,"ika":12494,"jck":12495,"jik":12496,"kel":12497,"ked":12498,"kuu":12499,"lol":12500,"mc":12501,"mad":12502,"none":12503,"obat":12504,"past":12505,"pow":12506,"sin":12507,"sus":12508,"sdah":12509,"sana":12510,"uch":12511,"uper":12512,"uriman":12513,"wire":12514,"yuu":12515,"Ġsaa":12516,"Ġsap":12517,"Ġtah":12518,"Ġtng":12519,"Ġaqua":12520,"Ġthro":12521,"Ġgall":12522,"Ġgolf":12523,"Ġbam":12524,"Ġbound":12525,"Ġbert":12526,"Ġborder":12527,"Ġbikin":12528,"Ġbila":12529,"Ġfer":12530,"Ġdf":12531,"Ġcin":12532,"Ġcint":12533,"Ġcba":12534,"ctor":12535,"ingkat":12536,"Ġmc":12537,"Ġnz":12538,"Ġnang":12539,"atahi":12540,"Ġhanya":12541,"Ġhbis":12542,"asal":12543,"Ġquiz":12544,"arap":12545,"Ġanten":12546,"Ġtoh":12547,"Ġeager":12548,"Ġshed":12549,"Ġshake":12550,"lection":12551,"Ġio":12552,"Ġire":12553,"Ġkhasanah":12554,"Ġyaaaaaaaaaaaaaaaa":12555,"Ġinno":12556,"Ġstove":12557,"Ġalo":12558,"Ġfad":12559,"choose":12560,"chnge":12561,"Ġsmoo":12562,"Ġsmog":12563,"semoga":12564,"Äłall":12565,"Äłni":12566,"Äłatt":12567,"Ġorng":12568,"Ġthankz":12569,"Ġvirt":12570,"Ġjr":12571,"Ġlies":12572,"etive":12573,"Ġonto":12574,"ahs":12575,"imah":12576,"Ġresponya":12577,"stive":12578,"Ġchill":12579,"Ġchic":12580,"antan":12581,"Ġlos":12582,"allalal":12583,"Ġasdg":12584,"Ġhai":12585,"Ġcond":12586,"Ġund":12587,"comfy":12588,"ldld":12589,"Ġdise":12590,"aaaaan":12591,"Ġblend":12592,"iiih":12593,"Ġnova":12594,"Ġcheater":12595,"cai":12596,"Ġpoke":12597,"above":12598,"aian":12599,"Ġska":12600,"Ġ57":12601,"Ġ59":12602,"ensurate":12603,"assigned":12604,"Ġenclo":12605,"Ġcloset":12606,"Ġspacious":12607,"anyan":12608,"Ġxpe":12609,"Ġcustemer":12610,"cibed":12611,"Ġwhats":12612,"whwh":12613,"Ġflag":12614,"Ġlahhh":12615,"Ġmohon":12616,"Ġaffected":12617,"Ġcorners":12618,"respond":12619,"audulent":12620,"patan":12621,"orderan":12622,"iku":12623,"Ġsisters":12624,"uknya":12625,"Ġclue":12626,"Ġhuft":12627,"mosphere":12628,"bbx":12629,"shops":12630,"Ġokeeeeeeeee":12631,"Ġsecondary":12632,"sms":12633,"Ġbotol":12634,"Ġcumn":12635,"Ġtrimak":12636,"expl":12637,"Ġmkn":12638,"previous":12639,"Ġ88":12640,"Ġpromos":12641,"writ":12642,"beda":12643,"bdnd":12644,"Äłkal":12645,"Ġharsh":12646,"Ġseverely":12647,"Ġsolo":12648,"llllll":12649,"Ġforms":12650,"baca":12651,"Ġpatah":12652,"Ġrobot":12653,"gsg":12654,"Ġanguished":12655,"php":12656,"Ġholy":12657,"texture":12658,"Ġmarkoto":12659,"iiiiiiiiiii":12660,"Ġbaiik":12661,"Ġyahhh":12662,"Ġdepends":12663,"Äłref":12664,"Ġfloat":12665,"Ġdetect":12666,"Ġdistur":12667,"class":12668,"Ġpokokx":12669,"Ġkalinya":12670,"Ġmalowbat":12671,"Ġsampeee":12672,"Ġextraordinary":12673,"Ġsamsek":12674,"pengemasan":12675,"Ġillust":12676,"Ġevidence":12677,"Ġgarlic":12678,"koin":12679,"Ġtipu":12680,"Ġcartridge":12681,"Ġpotato":12682,"Ġbangeettt":12683,"Ġappeal":12684,"disappointing":12685,"Ġlockdown":12686,"Äłoff":12687,"ambahin":12688,"Ġcountless":12689,"Ġbroc":12690,"didn":12691,"fabrics":12692,"Ġgaskets":12693,"Ġnoticeable":12694,"maka":12695,"subst":12696,"Ġlabeled":12697,"Ġmngecewakan":12698,"Ġintrauterine":12699,"anjut":12700,"Äłconf":12701,"alhamdulilah":12702,"Ġvideos":12703,"Ġdimens":12704,"Ġstrict":12705,"Ġbreathing":12706,"Ġelections":12707,"Ġmhn":12708,"Ġnadin":12709,"Ġsakto":12710,"belline":12711,"gmx":12712,"Ġlearned":12713,"Ġgando":12714,"Ġpresentable":12715,"Ġternyat":12716,"jljj":12717,"dddddddddddddddddddddddddddddddddddddddddddddddddddddddddddddddd":12718,"Ġhays":12719,"empol":12720,"Ġpearls":12721,"lacking":12722,"mantapmantapmantapmantap":12723,"produkk":12724,"Ġticks":12725,"hmhmhmhm":12726,"Ġsettings":12727,"Ġblurred":12728,"Ġoctober":12729,"Ġcleansing":12730,"Ġmango":12731,"Ġultimately":12732,"Ġinfluenced":12733,"Ġcrib":12734,"Ġqueue":12735,"Ġreccomend":12736,"tesy":12737,"Ġunsightly":12738,"Ġbatrenya":12739,"Ġmanufacturers":12740,"seneng":12741,"Ġorthotics":12742,"Ġmushy":12743,"Ġpngirimn":12744,"Ġdetermin":12745,"Ġlumayann":12746,"Ġhideous":12747,"Ġsmokers":12748,"Ġorchestrated":12749,"Ġmonitor":12750,"difficult":12751,"professional":12752,"Ġradio":12753,"inexp":12754,"battery":12755,"Ġallergic":12756,"cawakan":12757,"Ġliptint":12758,"Ġelephant":12759,"Ġshredded":12760,"55076":12761,"Ġconventional":12762,"Ġhdfjgdfjdg":12763,"08":12764,"56":12765,"bur":12766,"breat":12767,"bint":12768,"bangeet":12769,"cod":12770,"dv":12771,"djd":12772,"gun":12773,"hnd":12774,"hrg":12775,"iis":12776,"iap":12777,"iveness":12778,"jas":12779,"jkk":12780,"kre":12781,"kay":12782,"kann":12783,"lab":12784,"nua":12785,"natur":12786,"oath":12787,"pdh":12788,"tan":12789,"uary":12790,"uarin":12791,"vouch":12792,"wag":12793,"wall":12794,"Ġsf":12795,"Ġsaran":12796,"Ġsbnrnya":12797,"Ġtgn":12798,"Ġtgl":12799,"Ġtmbah":12800,"Ġpill":12801,"Ġpper":12802,"Ġpjg":12803,"Ġthich":12804,"Ġthoi":12805,"Ġthrew":12806,"Ġgal":12807,"Ġgor":12808,"Ġgong":12809,"Ġgada":12810,"Ġbid":12811,"Ġoorder":12812,"Ġding":12813,"Ġdug":12814,"Ġdjdjd":12815,"anak":12816,"Ġcit":12817,"Ġwes":12818,"Ġgoodgood":12819,"Ġgoodthe":12820,"esive":12821,"Ġnamp":12822,"Ġnkak":12823,"Ġnaikin":12824,"Ġhatur":12825,"Ġhihih":12826,"Ġlen":12827,"Ġlai":12828,"Ġlarg":12829,"Ġlaser":12830,"elli":12831,"Ġisa":12832,"third":12833,"outer":12834,"ilty":12835,"Ġexcell":12836,"uti":12837,"utu":12838,"utch":12839,"usa":12840,"usage":12841,"rived":12842,"Ġanda":12843,"Ġier":12844,"Ġiih":12845,"Ġitung":12846,"Ġkx":12847,"Ġselller":12848,"asternya":12849,"ayang":12850,"Ġindi":12851,"Ġui":12852,"Ġuuuu":12853,"seam":12854,"Äłca":12855,"Äłka":12856,"Äłpat":12857,"Äłoke":12858,"Äłred":12859,"Äłunt":12860,"keith":12861,"Ġthankssss":12862,"oler":12863,"Ġvul":12864,"Ġvnd":12865,"Ġvary":12866,"Ġjz":12867,"Ġjalan":12868,"eties":12869,"Ġond":12870,"Ġonya":12871,"stru":12872,"Ġrasa":12873,"Ġloading":12874,"ffh":12875,"Ġcondit":12876,"Ġunbelievably":12877,"Ġunavailable":12878,"Ġsia":12879,"Ġsippp":12880,"Ġexpektasi":12881,"terangan":12882,"aaaah":12883,"Ġsegtu":12884,"Ġdeck":12885,"Ġdehhhh":12886,"Ġdeemed":12887,"icking":12888,"Ġsaver":12889,"Ġbosk":12890,"shock":12891,"Ġheh":12892,"Ġatmosphere":12893,"opun":12894,"abubble":12895,"Ġproceed":12896,"Ġplated":12897,"Ġamat":12898,"Ġampun":12899,"Ġhandled":12900,"Ġredundant":12901,"Ġrepon":12902,"outstanding":12903,"Ġlegging":12904,"urna":12905,"osity":12906,"Ġsyuu":12907,"Ġtwitter":12908,"mentation":12909,"indeed":12910,"Ġcooling":12911,"awan":12912,"ief":12913,"ishable":12914,"Ġteball":12915,"Ġscore":12916,"boleh":12917,"Ġsalmon":12918,"aaaan":12919,"Ġbarter":12920,"ifying":12921,"Ġngabarin":12922,"Ġtriang":12923,"Ġclimb":12924,"Äłpag":12925,"Äłpol":12926,"Ġlets":12927,"coba":12928,"Ġconfusing":12929,"rogant":12930,"bbed":12931,"plenty":12932,"Äłcan":12933,"Ġmasa":12934,"Ġprovision":12935,"grams":12936,"proper":12937,"Ġtightening":12938,"Ġlasts":12939,"Ġgppa":12940,"Ġhaluss":12941,"bdjd":12942,"Ġcrem":12943,"Ġlaid":12944,"Ġbsr":12945,"Ġformed":12946,"Ġthrown":12947,"Ġremained":12948,"Ġernya":12949,"Ġlateral":12950,"ekan":12951,"Ġslit":12952,"Ġentrance":12953,"Ġbelanja":12954,"Ġcourtesy":12955,"kdnd":12956,"Ġheadband":12957,"Ġinsurance":12958,"Ġnhan":12959,"baikin":12960,"Ġdikrm":12961,"rupt":12962,"Ġdepos":12963,"Ġexclus":12964,"Ġcrackers":12965,"Ġfloating":12966,"Ġcleanly":12967,"Ġsweetheart":12968,"Ġprinter":12969,"balo":12970,"balanced":12971,"Ġbatrai":12972,"Ġtelling":12973,"Ġfavorites":12974,"Ġkaleng":12975,"Ġshowed":12976,"Ġnerd":12977,"Ġnervous":12978,"Ġkualit":12979,"terimaksih":12980,"Ġsprt":12981,"Ġgarter":12982,"semu":12983,"Ġhurts":12984,"Ġpanic":12985,"shsbs":12986,"Ġpakaging":12987,"clock":12988,"Ġpping":12989,"Ġbanyakkk":12990,"Ġmganda":12991,"headset":12992,"Ġabsorption":12993,"Ġsurviv":12994,"Ġamaan":12995,"Ġreliability":12996,"Ġearring":12997,"Ġlaaah":12998,"Ġterimakasihhh":12999,"Ġdissappoint":13000,"Ġdissonant":13001,"Ġpreferably":13002,"Ġapplicable":13003,"Ġnyampeknya":13004,"fairly":13005,"alamin":13006,"Ġkainx":13007,"ksksks":13008,"kfkf":13009,"Ġmanufacture":13010,"Ġterbaikkkk":13011,"Ġcandle":13012,"Ġalike":13013,"Ġconcerns":13014,"screen":13015,"Ġshares":13016,"Ġtrend":13017,"Ġorganization":13018,"Ġstrengthened":13019,"Ġturning":13020,"Ġactivated":13021,"contin":13022,"Ġoperators":13023,"Ġconcentration":13024,"Ġdenim":13025,"Ġbuddha":13026,"similar":13027,"Ġwiped":13028,"cardboard":13029,"Ġepidemic":13030,"Ġpendant":13031,"Ġfluent":13032,"Ġtnpa":13033,"Ġknitting":13034,"Ġclouds":13035,"datengnya":13036,"5739713":13037,"Ġdpke":13038,"Ġsepatunya":13039,"gasket":13040,"Ġdulu":13041,"Ġswimming":13042,"functioning":13043,"Ġwardah":13044,"Ġprimary":13045,"Ġrecipient":13046,"Ġspoiled":13047,"Ġlebihin":13048,"Ġexamined":13049,"Ġmagnets":13050,"Ġcukup":13051,"Ġdiskonan":13052,"Ġwlaupun":13053,"Ġtechnical":13054,"stitches":13055,"Ġdeleted":13056,"mistaken":13057,"Ġenergy":13058,"kereen":13059,"Ġrechargeable":13060,"Ġaccommodate":13061,"Ġpertahankan":13062,"cushion":13063,"perhaps":13064,"Ġsettled":13065,"Ġquarter":13066,"Ġuulitin":13067,"Ġnipple":13068,"Ġcollapsed":13069,"Ġdecisive":13070,"Ġcateg":13071,"xxhdd":13072,"Ġscrewdriver":13073,"Ġlazada":13074,"xitskgxn":13075,"Ġantenna":13076,"21":13077,"aay":13078,"bung":13079,"cx":13080,"counter":13081,"dab":13082,"duk":13083,"eat":13084,"eye":13085,"fraud":13086,"gil":13087,"gart":13088,"hf":13089,"hill":13090,"hear":13091,"ike":13092,"kck":13093,"main":13094,"mine":13095,"mpun":13096,"oci":13097,"pod":13098,"pag":13099,"pul":13100,"qn":13101,"rings":13102,"sir":13103,"sure":13104,"tb":13105,"tor":13106,"uo":13107,"uat":13108,"uhe":13109,"uks":13110,"week":13111,"Ġsom":13112,"Ġsby":13113,"Ġsided":13114,"Ġsbelum":13115,"errr":13116,"Ġtes":13117,"Ġtab":13118,"Ġtny":13119,"Ġtdi":13120,"Ġtends":13121,"odor":13122,"Ġajj":13123,"Ġahhh":13124,"Ġained":13125,"Ġpup":13126,"Ġpony":13127,"elds":13128,"Ġgala":13129,"Ġgores":13130,"Ġgnti":13131,"alth":13132,"Ġbord":13133,"reet":13134,"Ġoon":13135,"Ġound":13136,"Ġfren":13137,"Ġdow":13138,"Ġdough":13139,"Ġdens":13140,"Ġdating":13141,"Ġdrip":13142,"Ġduty":13143,"ancy":13144,"Ġcong":13145,"cen":13146,"Ġmit":13147,"Ġmnd":13148,"Ġnj":13149,"Ġnaa":13150,"Ġnick":13151,"Ġnnn":13152,"Ġnative":13153,"Ġnapak":13154,"Ġlak":13155,"ellent":13156,"Ġresubmit":13157,"ices":13158,"arnya":13159,"arched":13160,"Ġange":13161,"Ġanimal":13162,"Ġett":13163,"utin":13164,"rig":13165,"Ġize":13166,"Ġious":13167,"Ġkor":13168,"Ġkagak":13169,"Ġyuh":13170,"agues":13171,"Ġinn":13172,"Ġinse":13173,"Ġnotch":13174,"Ġuc":13175,"Äłass":13176,"Äłdelivery":13177,"Ġorginal":13178,"Ġthankful":13179,"olong":13180,"Ġsucking":13181,"Ġvv":13182,"Ġjang":13183,"Ġjngn":13184,"Ġliver":13185,"imag":13186,"Ġrespone":13187,"Ġokkkk":13188,"Ġokelah":13189,"uro":13190,"Ġchap":13191,"Ġchalleng":13192,"endable":13193,"antu":13194,"Ġlov":13195,"Ġlovers":13196,"anga":13197,"Ġnicevery":13198,"allhamdulillah":13199,"Ġwasnt":13200,"eeen":13201,"Ġoriginals":13202,"Ġblaz":13203,"ials":13204,"estic":13205,"person":13206,"Ġdiak":13207,"Ġmeant":13208,"Ġcanned":13209,"Ġarg":13210,"Ġaran":13211,"Ġbogor":13212,"shot":13213,"shoddy":13214,"Ġmuda":13215,"Ġpredi":13216,"Ġati":13217,"Ġcoil":13218,"Ġpoison":13219,"Ġpros":13220,"Ġuss":13221,"Ġplush":13222,"Ġamiin":13223,"Ġamby":13224,"healthy":13225,"Ġnyet":13226,"Ġnyah":13227,"Ġfees":13228,"Ġ54":13229,"Ġenakk":13230,"Ġriject":13231,"sufficient":13232,"anyain":13233,"Ġexplod":13234,"Ġsyantik":13235,"Ġtwin":13236,"Ġtwist":13237,"ounding":13238,"Ġdro":13239,"Ġflannel":13240,"weve":13241,"kau":13242,"Ġkeberapa":13243,"inkle":13244,"neg":13245,"Ġscatter":13246,"jsb":13247,"Ġsalam":13248,"Ġsalted":13249,"Ġbarcode":13250,"Äłsus":13251,"Ġluar":13252,"ifth":13253,"Ġngan":13254,"Ġnganter":13255,"trust":13256,"Ġpengiri":13257,"Äłmur":13258,"Ġsukab":13259,"Ġzoom":13260,"button":13261,"cocok":13262,"ddddd":13263,"Ġniya":13264,"Ġcouldn":13265,"smsm":13266,"Ġselam":13267,"ahahahh":13268,"okeh":13269,"Ġrestore":13270,"uha":13271,"Ġakak":13272,"Ġfarm":13273,"Ġprocesses":13274,"nerable":13275,"Ġhelping":13276,"Ġharini":13277,"Ġbsar":13278,"Ġpath":13279,"Ġpati":13280,"barng":13281,"icturan":13282,"Ġberfungsi":13283,"Ġberlapis":13284,"Ġfewer":13285,"Ġmasker":13286,"Ġstitched":13287,"joss":13288,"Ġroy":13289,"Ġroyal":13290,"bhn":13291,"Ġflashlight":13292,"psen":13293,"nier":13294,"Ġheadache":13295,"Äłfri":13296,"Ġawal":13297,"Ġsesui":13298,"Ġtapiii":13299,"Ġngefek":13300,"Ġrelation":13301,"Ġsidewal":13302,"Ġfrees":13303,"ttttttttt":13304,"Ġultr":13305,"Ġbaek":13306,"Ġholds":13307,"Äłreal":13308,"kyuu":13309,"Ġfloors":13310,"Ġunderstanding":13311,"Ġmisunder":13312,"Ġinstalling":13313,"Ġamazed":13314,"Ġpadd":13315,"Ġoblique":13316,"thinner":13317,"Ġexpedisinya":13318,"Ġspills":13319,"crition":13320,"serv":13321,"Ġwiper":13322,"Ġbanyaak":13323,"Ġfactors":13324,"Ġrounds":13325,"Ġbusinesses":13326,"Äłinf":13327,"sticks":13328,"Ġpatterned":13329,"Ġdkasih":13330,"foam":13331,"Ġstays":13332,"cepatcepat":13333,"Ġforefoot":13334,"Ġestablished":13335,"Ġrapihhh":13336,"Ġkasihterima":13337,"Ġwaistband":13338,"clean":13339,"khxj":13340,"Ġ180":13341,"Ġpillowcase":13342,"Ġpillowcases":13343,"bzbz":13344,"Ġmbak":13345,"Ġproduck":13346,"Äłprom":13347,"Ġartif":13348,"Ġmicroph":13349,"Ġpelayan":13350,"Ġdngan":13351,"Ġlangganann":13352,"jdjjd":13353,"Ġckp":13354,"Ġtracks":13355,"Ġgatel":13356,"shshshsh":13357,"Ġcoinc":13358,"Ġstripe":13359,"Ġwallpaper":13360,"Ġwrinkle":13361,"oyx":13362,"Ġparticles":13363,"scam":13364,"Ġmodern":13365,"Ġvisitors":13366,"Ġregards":13367,"Ġestimation":13368,"Ġkinder":13369,"Ġeyebrows":13370,"Ġpokoknyaaa":13371,"Ġkereen":13372,"Ġopens":13373,"Ġoccur":13374,"Ġachie":13375,"nfnfnfnf":13376,"Ġfashionable":13377,"aweed":13378,"Ġtrmksih":13379,"sales":13380,"Ġdrugs":13381,"charging":13382,"Ġdikembali":13383,"xxxxxxxxxxxxxxxx":13384,"Ġcrystal":13385,"Ġsorting":13386,"Ġchaotic":13387,"prodak":13388,"running":13389,"Ġpagkakabalot":13390,"Ġgoogle":13391,"Ġhouseholds":13392,"Ġswimsuit":13393,"Ġpronation":13394,"Ġoiya":13395,"Ġspoil":13396,"Ġunusable":13397,"luvluv":13398,"Ġtmpt":13399,"girl":13400,"Ġresearch":13401,"Ġhospit":13402,"solid":13403,"Ġbntang":13404,"Ġtechnology":13405,"Ġembarrassed":13406,"transfer":13407,"Ġsuffering":13408,"connect":13409,"aneously":13410,"honestly":13411,"Ġliterally":13412,"Ġsignificant":13413,"Ġhungry":13414,"ptopto":13415,"approbatory":13416,"Ġgarden":13417,"Ġbubblenya":13418,"Ġaesthetic":13419,"Ġ0997129":13420,"rubber":13421,"Ġmotorcycle":13422,"Ġmarinade":13423,"Ġrefined":13424,"adisappoint":13425,"chlxxhdd":13426,"Ġpurposes":13427,"Ġtombstone":13428,"Ġdishopee":13429,"Ġkhasanahtoyibatun":13430,"written":13431,"baa":13432,"cous":13433,"casing":13434,"din":13435,"guns":13436,"giving":13437,"hous":13438,"kv":13439,"kain":13440,"mks":13441,"nakak":13442,"papa":13443,"pair":13444,"qh":13445,"raph":13446,"sai":13447,"sbd":13448,"tet":13449,"today":13450,"word":13451,"xi":13452,"yw":13453,"years":13454,"yuhu":13455,"Ġily":13456,"Ġtsu":13457,"Ġtons":13458,"Ġtmn":13459,"Ġater":13460,"Ġaaaaaaa":13461,"Ġaaaaaaaa":13462,"inations":13463,"Ġpine":13464,"Ġpimp":13465,"Ġpoured":13466,"Ġgus":13467,"Ġgul":13468,"Ġgate":13469,"alaaa":13470,"Ġbout":13471,"Ġbau":13472,"Ġbaret":13473,"Ġdak":13474,"Ġdud":13475,"Ġdash":13476,"Ġdots":13477,"Ġcure":13478,"Ġwaw":13479,"Ġprnah":13480,"Ġprngiriman":13481,"ctory":13482,"Ġmol":13483,"Ġmio":13484,"onal":13485,"Ġnr":13486,"Ġhok":13487,"Ġhunt":13488,"Ġhinh":13489,"assem":13490,"Ġlav":13491,"Ġlatter":13492,"Ġqueen":13493,"Ġreng":13494,"Ġreset":13495,"Ġreverse":13496,"Ġreclaim":13497,"aro":13498,"arar":13499,"Ġano":13500,"Ġannd":13501,"Ġtore":13502,"Ġtoll":13503,"Ġtoptop":13504,"pec":13505,"rian":13506,"rich":13507,"Ġidi":13508,"Ġyaaaaaaaa":13509,"Ġyaaaaaaa":13510,"Ġindoor":13511,"Ġbee":13512,"Ġuy":13513,"Ġsmlm":13514,"Ġfork":13515,"sepat":13516,"Äłlight":13517,"Äłgreat":13518,"Äłshi":13519,"ghh":13520,"Ġpackng":13521,"adar":13522,"Ġshopp":13523,"Ġsuke":13524,"Ġvill":13525,"Ġvain":13526,"Ġvid":13527,"Ġjn":13528,"Ġjah":13529,"illh":13530,"akt":13531,"Ġrespons":13532,"antiik":13533,"Ġservces":13534,"Ġasia":13535,"Ġhearing":13536,"Ġconvers":13537,"Ġunison":13538,"Ġorii":13539,"Ġtrjangkau":13540,"Ġmatur":13541,"Ġsequ":13542,"Ġfraudulent":13543,"Ġblades":13544,"Ġbloom":13545,"Ġsake":13546,"Ġsausage":13547,"Ġnozzle":13548,"loss":13549,"Ġchewy":13550,"apple":13551,"Ġbrapa":13552,"Ġlongest":13553,"Ġlonggar":13554,"kkoj":13555,"Ġdia":13556,"Ġdirefund":13557,"Ġmeals":13558,"Ġarrogant":13559,"shod":13560,"Ġatc":13561,"opi":13562,"Ġlitter":13563,"Ġproved":13564,"igig":13565,"Ġcept":13566,"Ġplng":13567,"Ġplague":13568,"aket":13569,"Ġpie":13570,"Ġoutward":13571,"Ġoutgoing":13572,"Ġoverflow":13573,"Ġhandles":13574,"Ġsuperior":13575,"Ġbangget":13576,"packging":13577,"beb":13578,"Ġterjangka":13579,"Ġterrific":13580,"anyaaa":13581,"Ġmaybelline":13582,"Ġwhose":13583,"Ġpharm":13584,"Ġsym":13585,"llq":13586,"Ġtwisted":13587,"accur":13588,"avings":13589,"erti":13590,"Ġgosh":13591,"Ġmoca":13592,"brand":13593,"ndj":13594,"bohong":13595,"Ġeveryhing":13596,"Ġoffseason":13597,"Ġintense":13598,"pened":13599,"Ġinstructed":13600,"aaaat":13601,"upon":13602,"Ġtriple":13603,"Ġcling":13604,"Ġresolve":13605,"Ġbgttttt":13606,"Ġpengen":13607,"Äłmot":13608,"Äłbre":13609,"Äłbat":13610,"Äłbut":13611,"robe":13612,"Ġguitar":13613,"Ġguilty":13614,"Ġmono":13615,"Ġmasih":13616,"Ġmasuk":13617,"buat":13618,"Äłdu":13619,"Ġelder":13620,"Ġsheaf":13621,"Ġpartially":13622,"Ġkrudung":13623,"grow":13624,"Ġsemarang":13625,"Ġearned":13626,"Ġpostman":13627,"Ġaps":13628,"Ġ89":13629,"Ġpromises":13630,"Ġmaker":13631,"Ġmaklum":13632,"lux":13633,"Ġhrp":13634,"Ġgpplah":13635,"Ġhalal":13636,"Ġmanlang":13637,"Ġcreased":13638,"Ġqw":13639,"Ġharha":13640,"Ġpasang":13641,"Ġfairy":13642,"Ġfootprint":13643,"Ġtym":13644,"Ġberman":13645,"Ġberpatutan":13646,"uuuuuuuuuu":13647,"Ġbrewing":13648,"Ġlanggann":13649,"shield":13650,"Ġentertain":13651,"Ġangan":13652,"Äłgam":13653,"colour":13654,"Ġtexted":13655,"Ġtexting":13656,"Ġparang":13657,"Ġstyling":13658,"Ġdikirain":13659,"Ġdikardus":13660,"Ġkeri":13661,"Ġbreakfast":13662,"Ġbguss":13663,"Ġmantaps":13664,"Äłnh":13665,"kgkg":13666,"Ġvarieties":13667,"Ġverifiable":13668,"special":13669,"anaan":13670,"Ġkyanya":13671,"jfj":13672,"Ġteteh":13673,"Äłwar":13674,"clxitskgxn":13675,"Ġourselves":13676,"Ġsenstive":13677,"save":13678,"Ġkala":13679,"Ġflowing":13680,"Ġoils":13681,"Ġramaah":13682,"serious":13683,"Ġsupplies":13684,"Ġtips":13685,"Ġfuring":13686,"Ġdito":13687,"Ġexpeditions":13688,"Ġ2015":13689,"Ġbaij":13690,"Ġforecast":13691,"damage":13692,"Ġclassified":13693,"Ġcookies":13694,"dgd":13695,"kinese":13696,"Ġdlmnya":13697,"Äłdec":13698,"Ġjsj":13699,"Ġkeknya":13700,"Ġutk":13701,"Ġvoltage":13702,"Äłtran":13703,"Ġperformed":13704,"Ġlaahh":13705,"oooood":13706,"bfj":13707,"akakakak":13708,"Ġpractically":13709,"Ġrotate":13710,"alhmdulilah":13711,"tttttttttttttttttttttttttttttttt":13712,"Ġallowance":13713,"Ġbeginner":13714,"Ġbeginners":13715,"Ġsuspect":13716,"Ġdilute":13717,"Ġkita":13718,"Ġinsyaalloh":13719,"Ġnarecieve":13720,"Ġtidk":13721,"Ġencaps":13722,"Ġmakasiiih":13723,"Ġtreasure":13724,"Ġfrequency":13725,"Ġblankets":13726,"Ġkudu":13727,"Ġhehehee":13728,"Ġmamah":13729,"Ġought":13730,"Ġplanning":13731,"Ġentirety":13732,"Ġwoven":13733,"Ġongkir":13734,"simple":13735,"Ġjwab":13736,"Ġkonfir":13737,"Ġdikemas":13738,"ffffffff":13739,"Ġexerc":13740,"Ġtoothbrush":13741,"double":13742,"Ġcompensate":13743,"Ġagreement":13744,"Ġbarokallah":13745,"Ġmabait":13746,"Ġtrainer":13747,"Ġmistakenly":13748,"Ġkeliatannya":13749,"Ġtengkyuu":13750,"Ġjazakumullah":13751,"Ġbaaik":13752,"Ġdistribution":13753,"Ġgituu":13754,"Ġpedesnya":13755,"Ġsumpah":13756,"Ġconclusion":13757,"Ġreflective":13758,"Ġsubscrptions":13759,"Ġgreeting":13760,"Ġgreetings":13761,"Ġhahaa":13762,"Ġcarelessly":13763,"Ġdolls":13764,"Ġclarity":13765,"Ġprtma":13766,"months":13767,"Ġarrangement":13768,"Ġdiinfo":13769,"Ġinternational":13770,"rofoil":13771,"Ġginger":13772,"aromatic":13773,"Ġproposal":13774,"Ġarrange":13775,"Ġyasudahlah":13776,"Ġaugust":13777,"Ġkosong":13778,"Ġdisconnected":13779,"Ġnostalgic":13780,"Ġdickite":13781,"Ġforgiveness":13782,"Ġchoosing":13783,"Ġpacifier":13784,"exceptional":13785,"Ġsingapore":13786,"Ġwhatsapp":13787,"58":13788,"average":13789,"bent":13790,"cih":13791,"cart":13792,"cled":13793,"dic":13794,"dirty":13795,"eu":13796,"fre":13797,"fers":13798,"fkh":13799,"jok":13800,"jbs":13801,"jne":13802,"jama":13803,"jreng":13804,"kj":13805,"kripsi":13806,"lp":13807,"lat":13808,"lak":13809,"lmb":13810,"laah":13811,"mba":13812,"rice":13813,"reli":13814,"ray":13815,"rol":13816,"runs":13817,"sign":13818,"sneak":13819,"sweet":13820,"torn":13821,"uish":13822,"vity":13823,"wat":13824,"went":13825,"wid":13826,"waited":13827,"warn":13828,"weeks":13829,"xpect":13830,"zs":13831,"Ġsjsj":13832,"Ġtens":13833,"Ġtgg":13834,"Ġains":13835,"inv":13836,"incorrect":13837,"Ġpond":13838,"Ġppa":13839,"Ġthk":13840,"elets":13841,"Ġgok":13842,"alers":13843,"Ġbater":13844,"Ġbkan":13845,"Ġbomb":13846,"Ġote":13847,"Ġfy":13848,"Ġfont":13849,"Ġfyi":13850,"Ġfifth":13851,"Ġdx":13852,"Ġdpake":13853,"Ġcaut":13854,"Ġcai":13855,"Ġcug":13856,"Ġcinch":13857,"Ġwn":13858,"Ġwired":13859,"Ġwkwkkw":13860,"Ġgoodjob":13861,"enomen":13862,"Ġmend":13863,"Ġmuted":13864,"Ġnong":13865,"Ġnhe":13866,"Ġnire":13867,"ork":13868,"Ġhet":13869,"Ġhny":13870,"Ġhits":13871,"Ġhollow":13872,"Ġhahh":13873,"Ġhills":13874,"asdfghjk":13875,"Ġlll":13876,"Ġlaaa":13877,"Ġrent":13878,"Ġrecon":13879,"arind":13880,"arma":13881,"Ġeto":13882,"Ġshaking":13883,"usnya":13884,"usai":13885,"left":13886,"Ġiiiii":13887,"Ġics":13888,"Ġkup":13889,"Ġkuk":13890,"Ġyog":13891,"Ġindo":13892,"Ġstith":13893,"Ġalthugh":13894,"char":13895,"charger":13896,"Ġsmpet":13897,"ullo":13898,"Ġthanksss":13899,"Ġsurr":13900,"Ġvn":13901,"Ġjord":13902,"Ġlied":13903,"Ġliar":13904,"etan":13905,"Ġshield":13906,"imannya":13907,"okkkkk":13908,"Ġneh":13909,"step":13910,"Ġchann":13911,"Ġsocial":13912,"uman":13913,"Ġrc":13914,"Ġrata":13915,"iram":13916,"Ġservce":13917,"bsk":13918,"bsks":13919,"Ġuphol":13920,"yesal":13921,"Ġunlucky":13922,"Ġsight":13923,"Ġbuys":13924,"Ġacid":13925,"Ġtrav":13926,"aaaak":13927,"Ġseblum":13928,"Ġsegel":13929,"Ġseaweed":13930,"Ġfray":13931,"Ġblk":13932,"estim":13933,"peri":13934,"Ġdijadiin":13935,"Ġboo":13936,"Ġokayy":13937,"Ġmuant":13938,"about":13939,"igious":13940,"Ġgais":13941,"fting":13942,"Ġceaaaaa":13943,"ihan":13944,"ngk":13945,"Ġamid":13946,"Ġample":13947,"Ġameen":13948,"dhe":13949,"Ġstorefront":13950,"cript":13951,"Ġnymp":13952,"Ġcomplex":13953,"ksn":13954,"rimannya":13955,"assih":13956,"Ġened":13957,"Ġgratis":13958,"Ġgross":13959,"Ġexpecttions":13960,"letingnya":13961,"nta":13962,"Ġcustmers":13963,"nnf":13964,"sipp":13965,"udi":13966,"udge":13967,"Ġsoften":13968,"Ġsoftness":13969,"Ġflood":13970,"jau":13971,"Ġcooler":13972,"okokoko":13973,"Ġdidalem":13974,"ishing":13975,"dies":13976,"Ġcray":13977,"ndnnd":13978,"Ġpec":13979,"Ġpegiriman":13980,"Ġpeanut":13981,"Ġsalem":13982,"Äłsam":13983,"ikit":13984,"Ġluama":13985,"ifunction":13986,"Ġngu":13987,"mantuul":13988,"Ġtasteless":13989,"ocks":13990,"Ġcoupl":13991,"Äłpart":13992,"Äłpokok":13993,"Äłma":13994,"Äłmy":13995,"Äłmen":13996,"Äłbng":13997,"Ġmines":13998,"coy":13999,"Ġemail":14000,"Ġincidentally":14001,"Ġsampain":14002,"Äłcu":14003,"Äłcur":14004,"Äłclo":14005,"smpe":14006,"Äłdim":14007,"Ġsheath":14008,"Ġkrng":14009,"Ġsemiga":14010,"Ġwalang":14011,"ugi":14012,"Ġedition":14013,"Ġcommensurate":14014,"tqvm":14015,"Ġmakapal":14016,"wrna":14017,"Ġmanipis":14018,"Ġcredi":14019,"Ġlaj":14020,"jjh":14021,"Äłho":14022,"Ġtakpe":14023,"uuuuuuuuu":14024,"Ġassisted":14025,"valid":14026,"valvular":14027,"jojo":14028,"Ġroasted":14029,"phot":14030,"Ġacceptability":14031,"Ġdealing":14032,"Ġparahh":14033,"Ġsesame":14034,"Ġcorrected":14035,"Ġsque":14036,"untested":14037,"hopeully":14038,"Ġsekale":14039,"Ġsilence":14040,"Ġvert":14041,"Ġtextured":14042,"Ġslipped":14043,"cuous":14044,"Äłrecom":14045,"Ġexcl":14046,"Ġfloss":14047,"Ġnagih":14048,"Ġpki":14049,"Ġcuc":14050,"dyo":14051,"Ġyey":14052,"Ġproduknyaa":14053,"Ġkayo":14054,"Ġpainted":14055,"Ġkualiatas":14056,"Ġsprung":14057,"pengirm":14058,"Ġpasti":14059,"Ġfactor":14060,"select":14061,"Ġperiods":14062,"Ġdksh":14063,"Ġmantapppppppppp":14064,"Ġpossibility":14065,"Ġpossibly":14066,"Ġpped":14067,"Ġfigures":14068,"Ġorigina":14069,"Ġaccomod":14070,"Ġlabor":14071,"Ġbehalf":14072,"Ġchoco":14073,"directly":14074,"Ġpinadala":14075,"Ġmnurut":14076,"ustrian":14077,"Ġdangerous":14078,"edean":14079,"repurchase":14080,"current":14081,"Ġleds":14082,"Ġrandomly":14083,"thankyouu":14084,"Ġmaaci":14085,"Ġttg":14086,"Ġpelanggan":14087,"culation":14088,"Ġteleph":14089,"Ġlamps":14090,"Ġspecifically":14091,"Ġexhaust":14092,"Ġbolts":14093,"Ġdtngnya":14094,"alhamdullilah":14095,"Ġcrossfit":14096,"Ġmultiply":14097,"Ġsampaiiii":14098,"Ġconstructed":14099,"Ġpenjualnya":14100,"Ġdollars":14101,"Ġmhon":14102,"nyampek":14103,"Ġhydr":14104,"murmer":14105,"bcbc":14106,"Ġmadeliver":14107,"Ġlucuuuu":14108,"screw":14109,"Ġmntap":14110,"consign":14111,"walitas":14112,"Ġaston":14113,"Ġalhamdulillaah":14114,"Ġalhamdullilah":14115,"Ġorganic":14116,"Ġmacar":14117,"Ġbagusssssss":14118,"Ġeyelash":14119,"Ġvacation":14120,"Ġbetullll":14121,"Ġdigun":14122,"Ġcostumerku":14123,"Ġexceeds":14124,"Ġceram":14125,"Ġkotor":14126,"Ġjualan":14127,"Ġdeserves":14128,"incredi":14129,"Ġefficacy":14130,"Ġdipke":14131,"Ġnoodle":14132,"Ġsporty":14133,"Ġfractures":14134,"Ġcepaaat":14135,"3939":14136,"Ġstamps":14137,"Ġbarngnya":14138,"Ġjanuary":14139,"Ġtutorial":14140,"mntap":14141,"install":14142,"quisition":14143,"Ġgimana":14144,"Ġplisket":14145,"Ġinfluence":14146,"Ġalternative":14147,"makasii":14148,"tengkyu":14149,"Ġprecisely":14150,"smells":14151,"discrepant":14152,"alhmdllh":14153,"milk":14154,"habited":14155,"keeper":14156,"Ġamerica":14157,"returned":14158,"Ġluamayan":14159,"conditions":14160,"Ġnestle":14161,"Ġpretend":14162,"Ġcockro":14163,"Ġcritic":14164,"Ġtucker":14165,"Ġvehicle":14166,"durable":14167,"Ġkhimarnya":14168,"xkhchlxxhdd":14169,"wonderful":14170,"melon":14171,"Ġresposive":14172,"lxgmx":14173,"Ġtemplate":14174,"Ġcounseling":14175,"number":14176,"Ġfestival":14177,"Ġhousing":14178,"Ġjourney":14179,"Ġcomplement":14180,"perfume":14181,"Ġcommercial":14182,"Ġhydrofoil":14183,"Ġtacky":14184,"Ġtiger":14185,"Ġvulnerable":14186,"khxjclxitskgxn":14187,"Ġpimples":14188,"27":14189,"66":14190,"aid":14191,"aders":14192,"bid":14193,"bny":14194,"cling":14195,"caps":14196,"dj":14197,"eber":14198,"fam":14199,"fault":14200,"gard":14201,"gab":14202,"gud":14203,"gjk":14204,"hood":14205,"having":14206,"jks":14207,"lt":14208,"pang":14209,"pua":14210,"rack":14211,"rup":14212,"rali":14213,"sory":14214,"tel":14215,"tri":14216,"tam":14217,"tight":14218,"tested":14219,"uif":14220,"yn":14221,"yong":14222,"yata":14223,"zn":14224,"zens":14225,"Ġssh":14226,"Ġsssss":14227,"Ġsdg":14228,"Ġsession":14229,"Ġtkt":14230,"Ġtangg":14231,"inii":14232,"Ġpgiriman":14233,"Ġtha":14234,"itin":14235,"itary":14236,"elnya":14237,"Ġgom":14238,"Ġgaming":14239,"Ġgbu":14240,"ales":14241,"alham":14242,"Ġbable":14243,"Ġbush":14244,"Ġbull":14245,"Ġbib":14246,"Ġbpom":14247,"Ġose":14248,"Ġoem":14249,"Ġoren":14250,"Ġfert":14251,"Ġfuss":14252,"Ġdice":14253,"Ġdup":14254,"Ġdye":14255,"Ġcn":14256,"Ġwing":14257,"Ġwlo":14258,"cepe":14259,"enth":14260,"especially":14261,"espon":14262,"Ġments":14263,"Ġmabilis":14264,"Ġnay":14265,"Ġnkk":14266,"Ġnsa":14267,"Ġnlng":14268,"atum":14269,"Ġhhhhh":14270,"Ġlbc":14271,"Ġqui":14272,"Ġquit":14273,"omons":14274,"Ġreq":14275,"Ġreze":14276,"Ġrecording":14277,"Ġrechecked":14278,"three":14279,"ilnya":14280,"Ġect":14281,"Ġeth":14282,"Ġeast":14283,"leaking":14284,"Ġized":14285,"Ġikh":14286,"Ġiriman":14287,"Ġition":14288,"Ġkip":14289,"Ġkona":14290,"aget":14291,"Ġina":14292,"Ġstunning":14293,"Ġuv":14294,"Ġuhh":14295,"Ġuppers":14296,"aakk":14297,"amm":14298,"ames":14299,"amab":14300,"ulu":14301,"Ġspect":14302,"Ġspeci":14303,"sekal":14304,"Äłve":14305,"Äłfast":14306,"Äłeng":14307,"Äłru":14308,"Äłsoft":14309,"Ġthanky":14310,"Ġthankyu":14311,"spend":14312,"spark":14313,"Ġjt":14314,"Ġjus":14315,"Ġjoo":14316,"Ġjngan":14317,"Ġorderr":14318,"illes":14319,"akhir":14320,"ainnya":14321,"Ġvalve":14322,"sturdy":14323,"uru":14324,"urangin":14325,"Ġchalk":14326,"Ġsop":14327,"Ġsopee":14328,"Ġsooooooo":14329,"uma":14330,"Ġrer":14331,"Ġris":14332,"Ġraise":14333,"Ġroof":14334,"iro":14335,"Ġbuk":14336,"Ġbuzz":14337,"prly":14338,"ango":14339,"bsb":14340,"bsi":14341,"bsus":14342,"Ġtimber":14343,"Ġaging":14344,"Ġared":14345,"Ġcondu":14346,"Ġunstable":14347,"ica":14348,"Ġacquisition":14349,"Ġdismant":14350,"Ġdishar":14351,
[...]
