[UNK]
[PAD]
[MASK]
[CLS]
[SEP]
#
-
.
/
0
1
2
3
4
5
6
7
8
9
:
[
]
`
a
b
c
d
e
f
g
h
i
j
k
l
m
n
o
p
q
r
s
t
u
v
w
x
y
z
##t
##y
##j
##a
##b
##n
##g
##s
##h
##r
##f
##m
##o
##v
##e
##d
##l
##i
##u
##k
##x
##p
##q
##c
##w
##2
##1
##z
##9
##7
##0
##6
##5
##4
##3
##8
##er
##od
th
##in
##el
##al
##it
go
good
##es
the
pr
##ed
##an
##ery
##ct
##ce
##ing
##en
##or
##on
##at
##as
##odu
produ
product
##ell
##iv
is
qu
##ity
##om
qual
quality
##ar
very
##ice
##is
an
to
##ot
##ou
##il
del
##pe
sh
deliv
##ly
##ck
delivery
##ut
##re
it
##le
##ent
re
and
of
or
sell
##ag
al
ex
in
seller
st
##us
##pp
##ast
##ay
##ack
than
not
be
##ig
##ome
fa
##ith
price
thank
##aa
with
but
sm
fast
##se
##ch
##et
pack
for
##ul
##am
spe
exc
##der
speed
##ellent
excellent
goods
##ri
aw
sho
##th
##ad
su
##ak
##ble
##esome
awesome
face
order
##ion
##ol
##ue
##ik
ok
res
on
##pon
##ill
##ow
shi
##ear
##and
##ah
##im
##ap
##em
##ain
you
ne
respon
##able
##ve
##ur
val
smil
ch
##ht
##ess
so
wh
value
packag
nice
##ere
smiling
##ya
##ir
##ic
##end
##ok
response
lo
bu
##ful
##id
##um
##ant
##ust
##ally
ser
##one
##un
##ike
com
##ort
##bs
thanks
that
serv
as
##ang
this
##ight
up
##ore
like
##st
well
##ong
un
was
##ely
##cc
ha
con
ag
##so
##ff
##all
tim
##yes
are
service
hear
##ther
heart
other
##ver
my
##ee
also
shipp
buy
eyes
si
will
orig
##ady
tr
##ived
col
again
origin
really
item
original
##ss
##ive
##hh
##ter
shop
time
do
acc
dis
##ld
##ard
se
mat
fit
fr
packaging
de
##oney
br
##nya
color
money
bl
##ick
##aaaa
##oug
##ze
rece
gre
sa
wor
just
have
wr
its
che
##pt
his
no
##ate
##ord
##ial
all
##oth
at
thum
##fort
thumbs
packing
size
##ii
##est
okay
##ays
long
##app
ar
##int
##per
##ett
he
ho
po
can
great
me
too
##omm
bag
mu
ship
co
received
im
products
mater
material
##uu
di
cp
##fully
##ame
tp
##ready
already
##tle
from
ga
sat
##ould
bea
##kk
rec
there
shipping
bg
beaut
sl
bo
##fe
cheap
love
hope
##ase
comfort
##ure
##isf
##ca
beauti
##ite
##use
satisf
pro
##pet
kg
shoes
en
beautiful
lit
accord
much
ad
ce
##ough
##age
##ers
us
little
##ation
##tt
any
cl
##cause
because
comfortable
here
more
her
##ft
use
small
one
##ied
thin
neat
pl
##ab
prett
am
##oun
unt
pretty
ev
##ks
light
by
if
##ng
##ro
##oint
##xt
only
stand
over
##ih
has
pi
they
out
disapp
##ise
arr
##ple
mak
super
##eng
yes
sk
ny
disappoint
until
##dh
##ry
##cri
satisfied
car
bgt
standard
##ance
shipped
stu
hopefully
##ways
hand
##act
always
recomm
##ning
ya
worth
recommend
##ices
sent
gr
##ately
next
fe
##ition
new
quick
fri
subs
star
red
##ous
fab
same
stuff
per
##ine
##ree
##ese
some
rep
cepet
##rim
kak
sp
less
still
##ption
##he
store
##ens
package
friend
pict
look
##ass
##edi
##oo
mer
cont
##ating
bit
fir
##dition
ste
ter
mant
cut
pur
bagus
been
wear
des
these
first
##pect
le
merch
disappointed
##iss
send
##cription
##gg
##ip
bang
condition
##arg
##ich
fl
##ric
merchand
merchandise
##ide
##dd
skin
when
according
friendly
##ny
expect
box
we
##out
items
steady
free
shoe
may
get
try
alh
##dul
cust
##urn
who
gk
saf
fabric
ab
pa
arrived
packaged
want
dr
##ie
##os
sy
them
##old
##qu
##illah
##fect
gl
exp
##way
##any
##amdul
af
diff
wa
does
##ought
##ll
sec
##ans
quite
##ist
ph
orders
##other
then
jg
ordered
alhamdul
##pping
would
big
safely
app
##her
purch
prices
cute
best
##pee
anyway
slow
##odating
tw
kn
##nn
custom
what
ke
##aaaaaaaa
after
mess
##our
##hhhh
shopping
pes
cloth
suk
poor
even
suit
safe
run
overall
gs
##te
alhamdulillah
tone
accordance
##ound
tq
ba
cool
##ect
soft
quickly
##asih
accomm
recommended
deh
bub
day
dur
ple
imm
accommodating
dam
ng
##ved
come
wrap
which
##ting
##owing
picture
should
bad
##ose
##ud
##fore
##ind
##astic
care
supp
god
##ai
##ment
shopee
lg
lah
did
before
days
str
##amp
immedi
##og
had
##ssss
bubble
differ
immediately
used
##ake
te
##ac
two
how
##ink
trans
##ert
cor
##ja
wait
##ual
jd
comple
##ach
##day
##sh
##ush
kiss
##ark
10
sc
##okok
##nt
comp
##rier
subscription
##ail
##av
##uuuu
##uk
##asi
##ug
aff
mo
##we
bet
hands
##ered
lot
##ult
##ies
bought
pesen
black
brok
gi
make
##nd
##ung
##orm
happ
jo
##ampe
##kkkk
##ish
gb
real
every
old
##rect
support
##wn
feel
message
thick
##ated
##own
##inning
pe
##rop
yet
work
##iiii
right
##igh
##art
were
gm
different
##ightly
wrong
gd
gp
contin
another
##ange
back
##ings
cr
reply
grinning
phot
bar
expected
##irim
hearts
pass
sal
##ction
pair
##mm
many
def
times
succ
turn
##ild
off
fun
##ater
##omend
happy
enough
##ount
dah
success
please
##ather
##ious
durable
cre
lu
peng
##si
int
##ertain
##ond
fo
blowing
imp
need
sens
inst
perfect
##ull
slightly
gift
##pppp
eas
afford
##ace
op
##ign
##jd
##aw
certain
##aaa
neatly
affordable
put
know
purchase
high
chat
##ock
##bb
##tttt
suitable
fold
better
sensit
##res
complete
baik
##js
##ears
white
ask
##pat
inc
your
see
ve
check
now
gt
plastic
##ile
##thing
tast
gc
nyampe
broken
##rt
match
##ropri
##unately
udh
sis
##ropriate
top
brg
##eeee
certainly
clothes
defin
##ash
think
##be
##if
##itely
delivered
image
##aged
folded
passable
##oll
##ep
appropriate
tri
##aming
hehe
sure
carefully
##up
definitely
##ants
alth
em
say
let
min
cou
lov
da
open
##op
got
##ress
wrapp
running
##omended
although
smile
##rr
##uh
gu
##ne
##lo
##bo
ko
beaming
wee
##eep
##ues
##wh
standards
shirt
##respon
##ade
rather
colors
about
##ote
services
sor
conf
##ooth
dent
##anya
act
##und
add
damaged
ret
came
ap
20
##ually
bat
sorry
cle
ins
customer
##ory
terim
##blem
##na
la
she
second
mm
blue
gen
lik
##les
##ba
ref
description
problem
##arge
trim
ung
sel
stars
smooth
mod
##ason
mon
##ding
sellers
fitting
though
banget
full
easy
##akasih
swe
giv
##ask
transp
fits
##ence
unfort
##ensive
rel
bot
sem
##rying
short
own
correspon
prov
could
kr
child
##dddd
reg
ac
ak
fin
pat
##ber
part
samp
##ased
repe
pink
case
##ations
mou
packed
rem
without
soon
looks
##ced
stick
##bel
##ted
##enya
##are
unfortunately
dat
wrapped
tpi
##iriman
cm
direct
sdh
##ially
##ret
once
pants
wal
card
att
crying
aja
ear
##oga
transport
give
keep
yaa
stor
defect
##like
longer
bon
hard
ka
why
cum
##az
ni
##ulous
exact
under
disc
##rg
cover
smell
##ahah
never
bab
continue
recomended
courier
ed
secure
joy
book
##ra
most
given
bonus
##ary
using
gg
mks
##hing
post
tears
gan
bel
repeat
bangett
wrote
oke
ext
comm
customers
down
##ini
reason
rest
##zz
##ari
ori
hel
##atch
cepat
ro
model
medi
feet
subscriptions
carrier
el
mantul
take
##irt
pu
##oud
mouth
##au
barang
pre
prom
yg
cheaper
##you
rev
stores
##ily
fine
##oooo
requ
##cess
##iew
##oon
tried
##row
##irm
##ton
design
##ever
son
return
medium
sad
buying
fabulous
set
last
man
trust
turns
loved
baby
materials
pay
na
##ents
suka
date
##pl
nya
bng
##de
war
works
corresponding
frag
mur
week
##ions
dt
##annya
gh
seem
where
##kw
hu
those
cons
##avy
##itch
far
sale
refund
##ren
##dah
##ke
hal
sur
arrive
##get
receive
exactly
dc
norm
mot
inter
cpt
deli
said
bs
loud
##cs
##00
thankyou
baguss
sensitive
gpp
bre
##ns
must
pen
peo
photo
made
##ness
comes
late
hour
tod
somewh
bah
eff
pas
loves
fair
##ient
people
process
inf
##terday
thx
cush
##ali
yesterday
sim
dateng
today
month
##55
mark
##bed
somewhat
dh
going
##sive
rap
##cept
bless
mantap
function
gun
low
water
##ward
##ank
pie
cuman
stock
##ired
12
home
##ood
tight
li
create
##hehe
sol
large
##bd
bal
repl
thr
help
ru
tem
##ape
##ont
ing
cost
##min
their
##ivity
tebel
##da
##hhhhhhhh
packingnya
lam
av
provid
pok
form
brand
##ipp
##ten
##gging
##ces
request
cushion
everything
##bl
took
satisfact
dapet
things
##anan
##aint
ever
nyes
rich
ty
yung
ans
sin
dg
kk
##ead
dress
ber
##yy
amc
klo
him
makasi
review
kind
##ua
deliery
instead
##ost
##board
tid
green
loudly
##ages
both
##llll
confirm
strong
foot
ben
es
ang
responsive
line
##cribed
sweat
je
damage
##cent
pak
result
ah
adv
##orn
boss
sensitivity
##ix
delic
later
children
answ
##jj
values
##aaaaaaaaaaaaaaaa
proper
way
ker
ass
tak
##ably
##ures
11
pra
##nnnn
par
land
reasonable
nyesel
tasty
##cel
mor
##li
fragr
##ished
taste
##cew
shops
gf
##aper
##ize
##onya
wide
gn
amount
um
pow
##lu
##ility
##kkkkkkkk
mask
nh
smp
leg
sip
##ouse
##ared
##ellow
looking
lang
gener
##hhh
test
through
##ys
smaller
faster
glass
harg
ma
##br
##asing
few
dik
##ia
ul
walk
bgus
hugging
lag
tu
into
##ex
##ner
dislike
stitch
##uuuuuuuu
##ssssssss
change
dip
highly
actually
mksh
wearing
##ven
##ude
clear
krn
heavy
##ets
directly
##aman
cream
cour
ses
sound
##ying
##ict
sir
ca
##ge
##iz
praise
##uc
arriv
funny
alm
satisfactory
scr
##aced
miss
thought
expensive
accept
##ling
trimakasih
tidy
hot
yellow
head
cardboard
##ody
sn
delicious
sam
others
##sider
##used
forward
##ics
er
mil
flash
normal
point
liked
roll
asked
each
lng
##urch
sever
dear
##cm
##elf
charg
syuk
being
bottle
thing
provided
plus
num
##pppppppp
dd
done
##ire
weight
however
##ek
around
pengiriman
discount
##line
##less
shipment
end
inside
impro
finally
2nd
##ron
##okokokok
##usi
text
dented
properly
consider
##rap
fut
##ical
subsid
eat
batt
##ger
siz
almost
##eb
##ible
##ised
deal
while
serves
landed
repurch
photos
cod
100
torn
##aur
##kd
ind
lip
sub
purchased
##baik
scre
##side
##action
enth
expectations
future
dark
tap
##change
ll
lack
such
correct
##ath
smoga
sang
luck
gw
sty
##vel
##led
##ale
enthusi
turned
battery
respond
chin
pictures
restaur
##stand
dong
sle
loose
##ph
disappointing
compl
kir
leak
house
several
since
prev
restaurant
find
dou
##jo
course
##ular
mag
##vor
uk
seam
admin
##ached
pokonya
dirt
oh
inform
seems
pers
side
selling
sek
xl
##iii
buyer
##a2
cat
##co
hrg
mar
##inc
subst
defective
kok
##bh
##sg
##ited
bright
regret
sya
##tq
##ann
##inking
pdh
repurchase
##rem
nothing
break
guns
sil
##ww
years
foll
effect
##pr
purple
careful
maybe
naman
##vv
sg
stat
phone
##ement
hours
due
yah
##xx
amaz
job
play
boun
avail
answer
body
hair
##ieved
##iiiiiiii
mis
bott
##apa
##ha
working
gak
##band
##fer
##por
coming
number
##sss
seal
puas
##ju
during
##jdjd
incl
makasih
hold
ky
nt
ye
##ving
bags
##uai
fort
dtg
lum
empt
##dddddddd
##ms
nar
mudah
##noon
cho
ds
eh
murah
kirain
true
afternoon
fall
paper
compared
aut
gam
sold
##kg
##ors
##ending
brown
waiting
person
call
##itas
sw
squ
##lah
##cks
empty
##ength
dep
cap
ug
deliver
mem
##kn
perfectly
15
prot
glue
##allah
usual
png
subscribed
likes
half
mas
incre
pokok
cant
vari
##agus
id
extrem
texture
winking
pk
##but
##iver
bus
air
crack
missing
ent
##cil
toget
bounced
##inting
results
scratch
outside
lovely
together
##tttttttt
mand
three
express
sukak
don
ant
##osed
##mmmm
##icult
brother
##thy
hell
sne
##rip
wash
baht
cur
##uine
shape
##mit
##ried
realp
dirty
mah
##2an
difficult
type
code
kid
##red
feels
genuine
cushioning
sneak
##uck
hat
clean
pad
available
broke
import
rolling
det
##ued
enthusiastic
mk
tempor
sending
understand
food
install
easily
rek
perf
jug
sampai
##read
hi
##ru
##let
##esh
aq
able
nag
quest
terbaik
dist
paid
hus
pic
ready
note
spec
close
flo
huh
##als
spark
nat
##ty
past
##iin
place
impress
##lm
abs
kay
##alu
usually
read
##ection
weeks
tal
##ni
confirmation
bh
year
##ana
##ively
paket
extremely
husband
kual
build
harga
upd
terimakasih
##eeeeeeee
terimak
gap
tet
sellernya
narrow
dry
responsi
##ky
##gr
##ains
pieces
nk
mantab
30
##ves
within
##jsjs
opened
power
sukaa
du
ps
##iny
gray
something
##retch
interchange
china
left
rubb
dec
interchangeable
har
sangat
ey
ku
online
bener
##sih
##emas
##aaaaa
sen
##oles
writ
ol
substant
fortunately
kl
##uus
produk
worn
includ
##bar
buyers
##ttt
freeb
gar
relat
satisfying
walking
aj
##eee
km
stretch
bngt
##kwkw
substantially
##ove
tot
tell
useful
##nx
##aps
our
ugly
##pcs
favor
cas
nd
##ga
sweet
balance
kal
##ib
et
##ability
ult
opp
pol
##nyaa
parcel
ja
pcs
##bt
##inya
##ouch
button
smpe
choo
boxes
lm
##jf
##ds
away
luc
piece
found
contents
nge
##weight
ram
##iness
sgt
socks
push
##ention
##ured
sales
desp
wast
##bal
##gggg
messages
bigger
successfully
sand
##ins
iss
202
##iced
##tqtq
watch
##of
contact
##aha
sampe
often
charge
transaction
replace
important
nic
tom
bnget
despite
##itude
##anda
##idly
##tern
pdhl
realpict
##ku
##unic
hr
kh
##itu
press
princ
jdi
smpai
cot
ball
##pec
##vert
owner
promo
40
relieved
buildup
equ
larg
mal
##dy
fragrant
##raph
sma
screen
fix
length
##fit
##ience
kissing
choose
front
aman
fabrics
pairs
style
tt
brush
mandate
princip
##com
##ters
lightweight
term
ill
lgi
lay
##ully
prob
anything
rubber
dest
show
nyamp
continued
gifts
trusted
milk
follow
50
night
uda
##ayan
##ci
successful
till
draw
months
##exp
##ected
morning
mantapp
continues
ge
##aah
pesenan
extra
temporary
bt
floor
relatively
regular
lagi
tetep
##good
##enth
flame
##ograph
keren
hrga
cotton
hang
pick
##ety
kaka
solid
larger
##ps
exped
syuka
##ka
wish
##ub
##kkk
gj
gini
pain
rope
asics
advert
tapi
2x
dit
lin
ner
sole
hehehe
ss
sign
mid
tip
colour
photograph
ri
espec
legit
##ative
##ently
##aaaaaa
##dhd
ig
oil
##aya
##ither
sun
skirt
##asant
##the
seg
flow
blessing
fragrance
cam
ded
matches
added
sempet
##ipt
spill
fil
##cy
dem
ele
il
communic
arriving
wrna
##road
mudah2an
especially
##wor
##aff
friends
nak
motif
gy
##rrrr
advice
hahah
sd
consum
16
mother
om
##orrow
##ahh
##uuu
gave
##load
squinting
wi
##bagus
inde
previous
##je
##ada
mach
probably
med
abroad
loss
double
fig
##uch
brang
heal
sesuai
##ird
fan
gst
##bidly
##aces
intact
##ipper
morbidly
yaaa
##bat
##ities
terri
13
pal
arch
umpt
general
##unya
actual
ess
js
##ded
ord
pengirim
hon
lid
lbh
overse
bany
either
met
prod
attitude
kasi
vo
##ged
##more
##la
##ply
##amat
stitches
19
ur
##jual
sister
submit
tomorrow
pp
##jx
weve
##mer
closed
makes
bange
##oooooooo
bottom
sing
brng
finished
pn
heel
pos
whereas
##ones
##asii
flaw
round
wid
##lier
packages
expir
models
umpte
dk
mg
sch
##ume
guess
defects
sneakers
25
pot
fact
terima
business
exist
cantik
bi
hur
wom
speak
##ination
peri
##ggest
pleasant
smoothly
stitching
gin
won
##eless
difference
##que
gold
dents
amazing
rekomended
toe
##ilar
flat
problems
semoga
transportation
nicely
##awang
fur
##ui
print
considered
ultra
24
hp
init
fre
##ump
anymore
win
coll
struck
##ates
purchasing
else
umpteenth
gel
orange
suggest
##azy
ir
##kan
##set
packingan
pan
conven
sizes
##eliver
##ained
##unity
##apping
##etting
halo
fle
##self
exper
receipt
##ific
lama
##aran
motive
auth
est
conn
trs
jga
similar
life
expedition
ini
shown
crazy
honest
period
##man
told
laug
takes
opport
willing
complet
detail
od
inexp
vers
##pa
##pos
accom
heck
mmg
pattern
demand
vis
##go
gsh
dri
tau
##di
reached
org
pock
kids
##elt
sew
near
ra
meet
trying
key
##avor
confused
bny
jack
aga
statement
##ony
reeb
enjo
spr
functioning
sleep
inv
packs
addition
##u2
##pro
##ught
sampenya
##oh
##akan
lost
decent
arm
market
reebok
ic
##tim
gse
ta
##ject
##fy
##ama
bed
dust
##uished
##xl
##arant
expired
kayak
terrible
ly
##ata
colle
##zzzz
seams
##inary
ank
201
generally
err
wow
##aining
fresh
lights
commod
overseas
opportunity
table
##back
comment
unlike
priced
keeping
14
ks
##order
inexpensive
aam
might
##oke
doang
rapid
points
pill
##uct
class
reviews
din
gx
rough
cable
ket
pensive
heat
kecew
foam
krna
width
laughing
##yed
anak
enter
mksih
talk
favorite
##iff
patient
improved
bri
oder
okee
cancel
waste
tong
zipper
##come
poss
baguus
rapi
dang
rate
##miss
described
stra
acceptable
machine
mcm
sist
##bx
##kin
cook
perh
list
name
sticky
##llllllll
completely
lem
tks
early
##ware
trail
instant
replaced
non
ot
##af
##gh
##ross
patron
charger
principal
nyampenya
clapping
straight
ay
##ool
subsidies
dn
dlu
maint
ob
beg
tested
men
##ls
##ened
disting
hole
##ified
five
rice
stay
feeling
effective
##its
smua
update
vs
##con
##stick
accordingly
company
##just
##ming
##kt
ms
says
##vere
strap
incom
simple
sandals
bes
gv
rm
ten
##ned
##ian
chang
dipake
38
navy
pound
##jab
##uss
##pper
forget
ash
runs
four
##ior
##iving
##arp
ordering
correspond
patronize
gir
tl
slipp
appe
normally
powder
kan
##air
fault
fake
abis
transfer
##5555
responsible
bas
band
drop
waist
parts
surpr
pul
sticker
below
arrival
information
increase
aamiin
lab
neck
itself
redu
improve
bul
##very
bgs
nyo
nyaa
banyak
convenient
##ising
accur
fairly
distinguished
bln
midd
arom
##cribe
##shs
address
protect
kualitas
##entic
pesanan
trial
##iant
##era
sparkling
bb
felt
gth
##redi
##mb
##pn
##ats
smallness
gapapa
nerawang
authentic
pillow
soap
severe
earlier
##yyyy
charging
commodity
tape
##ether
##aaaaaaa
imag
indeed
pake
beh
content
##hhhhhhhhhhhhhhhh
pin
pel
ut
##oul
matter
contr
sealed
hol
mult
tear
##ala
ada
##ieve
attached
cake
dan
gch
##cl
lock
safety
ordinary
cu
cal
fill
##ars
delay
dsni
gaa
jne
wind
##ts
##nf
stuck
##uka
ring
##eller
returned
langg
##ined
kep
##worthy
##i2
##par
##ically
blis
dib
secur
select
experience
checked
questions
cuc
fear
haha
jnt
mist
##fortable
ble
msh
paint
touch
packet
contain
figure
single
pet
clock
##nnnnnnnn
18
kasih
mn
##ball
recomend
kece
sewing
base
rating
sng
thread
least
guarant
wonder
flex
##mission
getting
ip
kw
##uf
shock
##une
dra
bahan
##kkkkkkkkkkkkkkkk
teng
images
wanted
trustworthy
perhaps
dlm
third
pres
eng
spend
##asket
brands
lipstick
huhu
bener2
td
wet
##kh
char
##ides
anyone
nih
##ma
##ede
danger
mb
nin
##ons
glo
books
hh
ksh
expectation
surely
helpful
absor
drawn
mom
##df
stain
seed
advertised
tre
##eous
coat
adjust
##ushed
aa
bis
live
untried
##ctions
freebie
nike
##angg
seen
##ihi
subsidize
pngiriman
ver
##rb
##oy
##ope
diss
blm
bangettt
##lic
conditions
everyone
##uuuuuuuuuuuuuuuu
##io
##king
##imate
const
compet
beauty
thinks
prompt
lumayan
destination
##sel
##anty
dev
appro
scratches
question
gat
##mp
ann
didn
peel
surv
silver
choice
possible
aust
tiny
ud
##zy
thor
##itive
stable
sauc
##phone
sekali
pocket
39
count
fully
rain
shap
allah
pleased
camera
maa
##mant
forg
bro
meas
jgn
kek
mini
##undred
payment
hit
hundred
comfy
ama
room
prodct
kc
doubt
sekal
kap
pem
##zed
saw
ttp
##jk
feed
requested
taken
complaint
accomodating
jacket
descriptions
cir
age
interest
##proof
mba
##gu
##esit
pke
##bud
##cer
##ute
engg
provide
kyk
vouch
##ao
##wrap
##erim
##els
##aga
alone
staff
hijab
##su
##cok
##fty
whole
terimakasi
version
22
##wa
trm
mate
art
glowing
warr
##ized
##dddddddddddddddd
ninja
jum
kar
row
rock
rada
plug
mantep
special
bur
led
wl
stur
board
minus
glasses
##pppppppppppppppp
written
prep
##ots
##andom
boy
clay
making
layer
error
37
##ges
##ging
##icated
brill
postage
##emasan
woman
gaada
austri
port
shoppe
level
##ween
gdi
issue
dus
##jh
##ilah
##hhe
alhm
gsu
between
fragile
##ssssssssssssssss
blnja
grip
kat
mind
vol
##eter
keb
##hehehehe
deduct
ns
##ored
##ives
subscribe
glad
monday
shipments
maroon
voice
shaped
circ
brilliant
mic
##lam
##anja
##ases
loc
gtu
mkasih
paketan
36
ck
dont
hesit
steam
twice
gde
gpr
amazon
bottles
gal
##hari
sharp
dech
placed
pero
lahh
needed
cmn
smells
2020
behind
dail
scent
dead
scar
lacking
leaking
sparkles
lh
lun
random
fam
bru
kept
remo
gng
##sung
dispos
season
packagingnya
btw
gorg
trny
completed
needs
ngecew
sturdy
daily
##hes
##iable
##ading
##soever
disini
tea
wrapping
natur
cell
kt
yo
##alah
ago
##tered
wallet
slee
##eed
##lish
plant
carton
##ugh
thorough
casing
dal
iron
##rn
acne
earr
freebies
disposable
ik
lim
rose
##nz
notice
wrn
pobud
##dhdh
sometim
pag
##gk
##ml
##cre
##icient
cold
total
##comfortable
warranty
##sm
fail
serious
asse
dehh
save
gtr
saya
markot
tongue
austria
17
mel
##bz
##rd
##fast
##lod
##ppp
##ional
greatness
satur
byk
looked
##okokokokokokokok
included
##sk
ones
soles
kem
##bis
shope
slip
##ksh
##box
##raid
perform
essent
gem
stiff
whether
door
expression
installed
ee
ib
ide
ju
oath
xxl
bund
fitted
hefty
##jsj
guys
owned
miles
initially
bd
mco
makasii
##ndnd
insert
blisters
99
cup
hor
msg
##uask
haven
someone
##quid
afraid
temper
legs
writing
fem
holes
ih
via
##ara
insh
daught
impressed
mateial
ton
##thank
##ended
above
ngecewain
cent
dng
mix
pouch
##ler
##ier
##orts
recent
hop
elastic
screw
curr
expressionless
gasket
pm
tuh
##wise
liquid
falling
eye
jait
ramah
accurate
bol
barg
gter
lens
##uri
##amb
skrg
max
responsib
kecewa
gorgeous
28
##kak
##atic
tow
##ember
profit
warm
murmer
submitted
maintain
ger
tel
uh
##cing
##arily
##olut
handle
healthy
engga
sometimes
lamp
mall
exchange
area
##sssss
stickers
##placed
##aaaaaaaaaaaaaaaaaaaaaaaaaaaaaaaa
duper
##direct
main
mint
meng
pull
##oi
##lh
##usted
##unt
##shop
juga
drawings
additional
daughter
moga
tired
wood
##ernya
##esen
comb
instru
selamat
misplaced
further
23
fi
##not
##vd
##vious
##reci
##ikin
meets
consist
snug
sample
##wwww
misdirect
lain
##jang
satisfy
##istry
everyday
##ahahahah
berk
following
bangeet
connect
misdirected
ran
##gb
##pped
dog
separ
gdis
##bbbb
replacement
xa
adem
shirts
promot
depending
gad
hihi
mng
##fl
##head
kecil
okeh
langganan
kom
laa
mus
##ave
##bih
##ob
##ribut
##irr
unf
##udah
dil
view
wore
##han
bear
event
superb
ministry
##kwk
label
sed
##uff
smg
sung
plain
posted
gambar
bir
dl
dum
fish
tas
##days
##asa
##orted
nose
evalu
##play
cracked
##utes
##stem
cutting
leather
plasticity
nyampek
okey
prefer
pokoknya
obvious
wkwkw
##jw
##ract
##lass
##col
exce
ink
##ikit
washing
thinner
mantaa
typ
memuask
slippery
multi
saturday
jos
lap
nnt
##jg
##pack
fore
neg
dislod
hook
growing
spending
appreci
##where
ingredi
lucu
voucher
##py
exha
##bsbs
enak
syg
doesn
dislodged
gas
kur
##rodu
##fh
strip
beating
##ahit
##angnya
recom
thinking
edge
##xxxx
##mmmmmmmm
school
brian
##2nya
write
flavor
29
bak
gim
nut
##ien
system
simply
##vvvv
fixed
anak2
bw
##apoint
trade
recommendation
whichsoever
waited
pdhal
hahaha
pengirimanya
jumbo
ganda
kya
##hr
##olving
##owning
track
blanja
slo
trimak
cuma
lower
spilled
earrings
markotop
dro
##ta
##to
frowning
savor
click
applic
baikk
attention
puass
accepted
hello
photographed
coun
os
##rm
pract
##asm
state
awa
##umer
uncomfortable
transmission
veil
matching
washed
changed
guaranteed
savoring
##ew
##ident
uns
ngak
minutes
confirmed
middle
fing
##yaa
##rat
##oss
##verage
start
revolving
dtng
makasihh
ld
option
##net
##uit
##isk
load
trims
including
555
wed
##ders
##icy
dsini
increasing
hurt
female
60
went
##11
excited
und
display
clip
##outing
##nnn
hg
kain
mnt
##ras
##vm
otherwise
coff
perse
leav
drink
##acing
sampa
cause
buttons
natural
cord
pity
situ
tightly
##yan
##light
log
lose
ade
expl
crum
offers
luv
couple
lasting
answered
absolut
bnyk
survived
deducted
27
3rd
pouting
rot
##33
##anh
##ision
##rep
##vering
compact
mouse
##lamation
wire
yong
##ye
##ecew
##oring
bra
meat
booking
command
dipak
##lasses
absolutely
bn
cpet
fant
fire
sb
spon
##iri
##xh
##inal
exclamation
coins
##uhu
party
designs
tengky
forgot
doll
mh
ting
##ena
##aller
block
peny
aroma
persevering
26
90
bing
##nal
##ses
##ution
respn
having
sukaaa
##nsns
datengnya
securely
cucok
ingredients
kel
sana
##sp
##asuk
buble
usb
started
##rimp
lgsg
##avel
##bdbd
sunglasses
respnse
pun
vi
##nnya
##elent
##arin
tok
dece
##ables
##riman
09
cross
jap
laces
##ense
##plete
minim
penjual
girl
feedback
000
dig
dim
til
##cr
##ances
production
timely
receved
beautifully
friday
warp
recently
increasingly
average
hs
vict
wall
##mh
##atisf
toys
stains
blame
cheapest
user
remain
lagii
sunday
flowers
family
1st
hd
jak
sus
tag
##away
##ral
##oc
software
moist
sayang
jugaa
absorb
ii
mace
none
ngg
vide
yun
##hs
##vid
##uy
lazy
reliable
kerry
status
totally
hrs
existing
responsibility
exhausted
ax
van
##nk
##rated
##ef
except
section
die
spent
knp
ngep
ako
##iiiiiiiiiiiiiiii
incomplete
dic
wel
##elled
quant
qualty
ate
slim
adhes
cla
bagus2
lugg
cepatt
surf
##ipped
switch
medical
enjoy
coffee
cong
kaa
mail
##10
##chy
##urs
slight
##ooo
crushed
##igned
gcon
anti
kapok
fal
saller
##vs
##pun
##anks
prof
firm
pesennya
apart
finish
pkok
perfume
essentially
luggage
32
net
##bf
##over
##ided
##jdj
gcom
chocol
aaa
hnd
range
##mn
##elet
shrimp
stability
packging
wholes
agk
traction
spl
expecting
lots
offer
office
road
waterproof
lips
baseball
hesitate
hy
lol
mad
##ening
smga
thickness
##ify
semua
believe
stylish
segini
collection
prodcts
##ium
##kat
##att
tough
##angan
bli
blom
allow
cannot
slowly
##ments
##ship
gmn
sounds
nearly
bass
##ners
##oe
##iat
become
##ok2
frame
booked
yeah
wider
volume
rust
zig
prem
ish
##islike
##uring
sih
sukaaaa
sets
control
##ufact
birth
chocolate
fat
kes
pig
sak
##gy
##antaran
receiving
apply
gbr
angry
considering
odor
dalem
performance
awaited
kas
zip
##20
trus
worried
##hhhhh
supportive
apa2
refunded
issues
based
gex
hik
nail
ow
pg
tree
##ider
##aka
bgtt
merchant
strength
advance
maganda
paste
hum
mash
san
wkwk
yaaaa
##sle
##kx
printing
colorful
diam
##istics
seler
download
consul
breath
protection
masks
##gggggggg
kepake
insha
gper
nad
tv
stri
##eth
unused
disin
cocok
wants
seemed
sneaker
film
expiration
2019
situation
gag
ice
pd
##bain
ante
fade
shovel
bring
shiping
clothing
bubblewrap
##iiiii
remember
details
bnyak
dusty
consistent
21
nare
sides
##tu
##oper
##pal
##eld
##anj
##ella
serum
oversi
leave
guy
giveaway
manufact
satisfaction
dikirim
tube
clearly
olshop
gatau
bundled
leaves
ec
jam
##ox
##cul
##ality
##olog
chick
chest
wrink
grab
likely
trnyata
kit
tuk
tread
##cle
##cur
##oto
##ilt
reach
sihh
covid
terms
weary
introdu
##patan
insya
responded
##tttttttttttttttt
ign
flower
##selves
bow
sust
##by
##bu
##case
##ona
##ahan
recieved
amin
bagussss
gke
kec
##shsh
200
moder
partic
gym
rig
sour
##put
##chat
##ulations
suks
brac
ation
##ksks
grow
##ailand
memory
sense
spray
scarf
35
ain
dpt
ie
tg
##rs
##ingnya
toy
suff
##icial
bole
slower
ngk
yourself
##while
semu
distance
sched
device
cy
cand
ell
game
kd
nor
tk
##jc
##oid
##vable
##ature
resist
##uran
tqvm
affection
self
edges
belt
former
##tqtqtqtq
equally
##ification
comments
ban
ct
gand
rat
##top
##nh
awful
##irnya
##anget
myself
enc
carry
mayan
brgnya
hehehehe
guide
cma
barangnya
blessings
jeans
kalo
sampek
expiry
mirr
##ila
bey
##ige
##akak
##idas
height
gbl
discrep
##pled
kmrn
tipis
charact
fell
jaz
kul
upon
##bers
##me
##do
##ki
##xy
##cep
##ing2
reseller
young
unkn
##sole
alham
intimate
batter
selected
pkp
eyel
stretchy
elect
visit
bargain
adhesive
ai
ksih
page
##kf
gone
prior
faded
lighter
lead
##lll
overalls
dental
##cedent
reasonably
variation
nature
destro
container
antecedent
eid
pant
tues
##gs
##gant
thailand
stated
chance
access
coin
##abil
enthusiasm
follows
measure
appreciate
consulting
mold
##jz
concer
envel
purse
desired
evening
thicker
warna
chinese
cases
polite
equal
malem
communication
competitive
sponge
00
ach
kere
pc
toes
##pted
ens
hassle
fried
baju
strange
joss
bangetttt
snack
reduce
hoping
congrat
unknown
mine
mesen
##yu
##md
inch
summ
##ires
word
words
pop
hopeully
##acy
bales
sizing
etc
ped
tur
##right
##ique
serve
shoppee
pac
gpeng
common
pencil
lucky
autom
surprised
delayed
claim
gant
ti
##bag
##kus
##reat
##aging
account
makas
worthwhile
remove
attent
##phones
bhan
organ
##erima
nnti
wholesale
discrepant
tuesday
45
eating
hug
leng
lace
##bc
##car
##cus
##ator
##ili
orignal
trou
blank
worry
##inted
lamaa
impressive
##eeeeeeeeeeeeeeee
##avorable
seeds
tempered
unfavorable
mam
mac
pump
rar
sett
##nered
##hd
##cast
shell
excelent
##oko
series
doing
adidas
gres
rupt
appear
video
hig
jar
map
nb
##ender
##ivery
logo
training
dish
clos
secured
lux
emg
complain
talaga
holid
sngat
##mantap
memuaskan
logistics
attentive
rarely
bent
cro
mi
oper
##ax
##nah
##uous
travel
frust
overload
cart
##eeeee
##book
assigned
headset
ers
assem
beyond
gle
gny
kud
moth
papa
tang
##giriman
##ran
##arm
stre
##bst
bls
maksih
##arta
manual
evaluation
cun
cnt
gent
hmm
iphone
pt
##vement
tho
exam
muk
record
adult
appar
purchases
indones
mudah2
birthday
batteries
congratulations
31
city
deng
udah
##send
##ias
##wear
stop
notes
facepal
sii
bye
skali
weak
compan
##sible
trip
active
replies
assess
finger
quantity
catch
##gar
##akes
blum
##gged
scam
pengh
emp
guest
activ
silic
frequ
flexible
toner
facepalming
bored
ion
ment
nant
toler
##ime
##apak
cooper
##hew
gsp
baj
affect
cris
trima
bhn
sleepy
thoroughly
ep
lear
sz
vel
##iti
deg
pert
spot
move
gbe
regard
women
dissapoint
alhmdul
jad
mul
mlm
sj
tail
##aan
##iw
shoul
brought
mean
pls
##ksih
##ggu
##ips
compar
repeated
##bless
impression
decor
ilang
tlg
imagine
present
saucy
destroyed
higher
bk
mention
uu
##bell
##nc
##ories
excess
bun
noon
terus
##pected
didnt
bene
informed
holding
ssuai
current
rupture
site
##form
##mpe
##een
##uan
##ito
##amused
neut
unamused
standar
godbless
makeup
peach
remote
murce
cracks
garnered
pakek
wonderful
complaints
counter
bracelet
ff
gne
hote
##nes
##mas
##arn
tool
rej
badly
##ttttt
heheh
avoid
bangeett
enjoyed
circum
##bisa
alhamd
80
mending
ware
##gi
##hile
##uw
##pd
##pose
##an2
##ises
anya
##ppy
##ched
sudah
expelled
impact
wala
cards
##uiful
collap
mengecew
instructions
jakarta
mirror
500
nam
##sy
whe
originally
plan
gmant
offline
giving
attract
##bled
##ebrow
complicated
balloon
anno
local
multiple
rigid
companies
cash
occ
tum
##pin
thous
gor
##ereply
beauiful
sllu
space
themselves
gpl
temporarily
sangat2
eyebrow
consumers
##oooooooooooooooo
fantastic
victory
4e
git
hind
kin
mw
##bles
##pel
##50
awhile
##imately
unit
colored
baguu
bgd
##ros
outer
repa
compare
bath
returns
paketannya
principally
estim
sleeve
##asukasuk
axial
300
bbr
jer
kil
vac
##aud
gover
##cted
tos
pros
contribut
bagusbagus
##aaaaaaaaa
betul
beli
required
seamless
casual
amanah
layers
##laju
neutral
thousand
1k
rim
##bg
##my
##qq
##cial
##12
along
##ams
##icing
##ested
bos
##hhhhhhh
gsm
nga
tech
happens
efforts
info
playing
capt
ident
psen
basic
mistake
premium
oversized
chicken
bell
gri
wang
##fo
sheep
##ayay
##adan
##ah2
##imb
chain
ast
grad
pengemasan
aku
scratched
##goodgood
speaker
practical
bingit
3x
70
dp
kirim
mesh
ping
pand
pdah
sou
xde
##jr
##how
##iet
##ule
##wr
##ero
##alam
##rie
##emic
fraud
world
coz
gabisa
lightning
##room
pesos
opening
installation
##they
consumer
flawless
father
rude
sore
##hand
##kap
##inch
share
inner
##akk
tra
fruit
kakk
terny
bagusssss
##nnd
straw
##kkkkk
gbu
offered
motor
efficient
poslaju
klu
##elivery
##uter
insole
damned
mob
##iiiiii
##bbery
##bbon
apr
akh
data
motives
busy
previously
freight
incoming
slobbery
ath
econ
ive
kore
mos
##ey
ther
##alal
shamp
rear
##aak
forever
ong
une
dibal
##rox
spicy
abras
official
##awa
rapih
discounts
##kdkd
##standing
sender
ribbon
communicate
##rrrrrrrr
classy
neckl
trmksh
dngn
insyaallah
honey
por
sit
wo
##hamdul
##iah
##ines
##alin
##ivers
##ulit
##akallah
##essional
sket
weigh
knee
pengemas
conform
transpar
consult
providing
cushioned
called
capac
pokokny
perfor
reduced
calcul
containers
peeling
towel
crumpled
ngepas
lan
rid
tnx
##bab
##cell
##etnya
chr
cep
recommendations
bangee
aprox
selalu
covered
prec
##minate
kinda
##jjjj
personal
hati
lines
nakak
health
sngt
kompl
08
dor
june
jahit
tin
##eness
##oduk
##ar2
reward
##adow
##aken
concent
sipp
pla
pleading
gmbr
remains
held
magnet
2021
communicative
wife
taunya
pounds
middling
tengkyu
surface
ecq
resistant
cntik
ek
gpe
lat
ml
soul
##bow
##90
##ita
inte
bloss
pec
gpro
trustful
taking
discounted
luckily
regrets
sukses
aaaa
bank
bkn
gil
jw
##bit
##body
##erv
##iture
priv
soal
nympe
##ddd
gsy
wrapnya
helm
suggestions
##zzzzzzzz
scented
removed
obviously
wednes
pdahal
shampoo
blossom
den
gede
mount
nn
##gd
##uet
##uul
##oding
##ener
nep
cond
disappinted
spir
alhamdulill
corner
covers
warn
dikasi
specific
ankle
##55555555
treat
saucony
benefit
econom
cer
dap
gso
ked
ken
park
wah
##lied
##anced
##cking
##etic
ongk
sewn
sav
worse
satified
mantull
wears
##aaaaaaaaaa
asking
##upun
wares
darker
150
initial
jaitan
music
exceed
dipakenya
transparent
capacity
wednesday
4th
##aat
##ration
##iik
##ison
##riend
cher
yaudah
intention
costumer
delicate
umbr
sesu
sesua
sized
leaked
variant
aromatic
prepar
necklace
nephew
furn
kli
sbl
##bn
##fr
##kau
thurs
ist
alas
alright
chan
accoding
corona
curt
ndak
collar
idea
eventually
hindi
bil
gqu
vend
##no
##hat
##hol
##ket
##77
##enty
##ries
bud
trous
arms
steel
weather
keith
retrie
samples
promised
costs
sizenya
marks
psbb
kecepatan
gercep
types
nggk
34
au
ful
kot
mali
##zen
##orable
noticed
##emon
buck
##ang2
unex
saving
dichat
amb
phys
durability
ngam
sheet
ggr
rub
berbal
jugak
terimaksih
segitu
bias
lembut
karna
kudos
mobile
05
bner
hm
tn
tf
var
xs
##asy
force
##rir
##ends
six
sau
##atever
coated
sll
##roid
duration
##sssssss
provides
bender
donk
rekomend
wasted
detailed
dissapointed
integr
der
grim
nap
rated
race
sdah
wip
##dislike
##alitas
##enance
nex
gab
adap
worthy
step
##uuuuu
##ashion
shorts
lift
assured
hati2
##jfjf
lining
elegant
canceled
filled
security
foreign
pigment
electric
envelope
repaired
thursday
unexpected
55
fee
jel
jual
##mx
##ech
##atan
shall
##ikes
sock
whatever
##irking
loh
shipper
hood
bget
cloud
flav
poorly
bait
barng
letter
barangny
##key
solution
kindly
charged
complim
variations
cleaning
pnjual
pulak
tdk
laptop
nadeliver
gentle
trousers
42
mdh
oo
sque
ts
tie
##yo
##gress
##fs
##pas
smirking
##imin
##oked
abit
syek
workout
emb
remaining
ears
subsidy
variants
variety
distorted
beginning
faulty
bism
constr
sustenance
indonesia
cel
lbih
zero
##jek
##pen
##15
pricing
shoot
##ster
traff
nov
hey
bgttt
plate
amen
outstanding
deser
ngeb
##uuuuuu
robe
rapii
cave
updates
older
##work
mgkn
tablets
narece
summer
perforated
mild
nx
nie
pw
##ker
##kasih
##keep
##port
gok
##isi
smart
##rid
##ury
timeout
devel
packingannya
users
##anyaa
known
bubbles
##ailing
opin
apolog
barangx
decided
includes
collect
##airs
kebuka
application
minimal
professional
schedule
trouble
cs
gce
rum
##yal
##ife
##arang
##aknya
##ahhh
necess
upside
seger
purpose
needle
consign
helps
samsung
indeter
yeay
dropped
welcome
candy
accessories
apparently
ahh
ahead
fond
jf
wir
yng
##ji
##night
##van
chart
##umin
bluet
grey
##kkw
cepa
useless
untested
outdo
##hhhhhh
supposed
##kkkkkkk
salom
intent
focus
incredi
pokoke
mandailing
seneng
advertising
filter
##baguss
center
maxim
silicone
attractive
calculated
indeterminate
az
gest
mau
upper
##jam
##mi
##med
##kz
##asan
##oduct
##ism
beige
##earch
chose
reput
knife
##nna
worked
deform
gco
##neath
koq
underneath
downcast
girls
dusnya
april
umbrella
egg
han
ham
sna
uw
##vet
##cd
##88
##ivid
orderan
aged
##ettt
grand
gets
glove
gsi
2022
index
hurry
printed
army
##time
##yyyyyyyy
unsatisf
tolerable
##keeping
bother
hun
king
kon
##mz
##mark
##eh
prin
##cet
##ency
annya
unique
project
##dhdhd
terjang
desk
lotion
fool
poko
pengirimannya
breaking
spring
basically
sekalii
pkoknya
dalemnya
holiday
tosca
pandemic
dora
retrievable
ci
cow
dun
fashion
gte
iv
mile
pend
tar
yan
##sa
##lig
##erg
gonna
##eny
##uth
inqu
input
##ainya
##iculous
sering2
sebel
cheese
ated
plants
stud
##aaaaaaaaaaaa
##ounded
straps
moon
selection
monkey
effic
housekeeping
include
increased
sdikit
protector
falcon
guests
shoulder
bismillah
opinion
bluetooth
43
tick
##bes
##99
shade
sto
##amed
awet
sugar
##apers
##uny
##angin
copy
evil
carpet
recommenda
##nns
##ava
cramp
##rrr
semog
nha
sama2
pointing
##jdjdjdjd
klw
metal
visible
promotion
hiking
bowl
assessment
33
bill
irr
jun
pear
##eck
##iy
##zh
##45
##orance
##orrect
shs
forced
##ikan
loos
##antap
##vers
mud
overp
somehow
##quito
knew
sukaaaaa
crow
##ttttttt
gcr
batr
owners
edit
dtang
updated
pressure
cooking
besides
surprise
mixed
currently
exception
wareh
bint
eks
gud
link
wan
xia
yang
##bi
##mat
##erc
##ital
##esan
quiet
##arse
ine
##thanks
##ades
##aking
bung
upset
disni
lightly
disappointment
grat
drug
runner
ngel
##bby
krm
promise
##anku
understandable
kmren
lmbt
followed
##jeje
prodak
listed
##nfnf
approx
alhmd
sufficient
bbrp
cherry
burn
ged
gaper
jan
joint
tam
##gn
##ram
##iu
##iate
tooth
shelf
##using
bec
sudd
built
##angka
unop
accorance
noise
cancell
##abled
sport
apple
##ungsi
gbo
gmna
sheets
shorter
answers
arrives
numbers
mantappp
imagined
mistaken
mosquito
traffic
action
dee
dull
sini
tit
##nis
##lik
##kit
##ina
##alan
ancur
reject
story
sich
nood
amp
arrow
cepett
kakak
drive
glu
knit
##responsive
refer
##berry
effort
silky
entire
winder
instantly
guarantee
pemgiriman
rocking
wkwkwk
emplo
spirit
file
mill
##aik
##bre
##bali
##isy
sting
beat
against
disk
sabl
cpat
enhan
ado
ground
spoon
##aaaaaaaaaaaaaaa
gsa
gsk
1000
##mmm
##eeeeeee
insoles
patch
remind
sadly
gfl
headphones
harap
khim
##llllllllllllllll
holder
moment
##dddddddddddddddddddddddddddddddd
cells
neglig
sampaii
breathable
mengecewakan
dm
dul
easi
hhh
rp
ride
tiss
vent
##yn
##awe
##ben
ane
youtu
sof
fract
usage
plenty
ampe
##ihih
skr
report
spread
weird
gbag
incorrect
gcl
minor
retur
datang
protected
hanger
pockets
brief
protective
##mbly
lunch
failed
inserted
penyok2
japan
diamond
unopened
bin
bers
cry
gro
jh
obst
ust
##sing
##dr
##lillah
##pc
##cu
##akasi
##icle
##star
unresponsive
matt
means
##kks
comfortably
nyam
repair
bangt
flu
glit
##istmas
pesan
suited
tastes
laju
require
##cewa
sni
cats
padah
ownernya
medic
honestly
patiently
contented
##mantul
wrinkled
christmas
grimacing
doraemon
bay
mass
miz
nan
sss
tul
yh
##bly
##sale
##ees
shiny
thanx
okk
okokokokokokokokok
##ower
heav
pool
admit
plast
skit
mantuul
legg
##ssssss
giao
gto
##ashed
coud
batam
cleans
personally
deliveries
##jsjsj
essence
flaws
nyobain
pelapak
ninjavan
planting
seriously
assembly
berkali
negative
striped
character
jazak
abrasions
private
helmet
wireless
intentions
##bagussbaguss
sudden
3days
jj
kali
pure
tut
wat
##jan
throw
prize
##ota
alt
exerc
##irus
thankss
matte
##pers
bangat
supplier
##iiiiiii
created
##enceng
rele
bread
pokony
advised
heads
puasss
murahh
constru
mashallah
annoying
integrity
sablon
easier
cg
cri
div
iz
lie
##rereply
##den
##land
##cv
##44
##ods
thigh
##iled
stamp
##usin
##ak2
okokokokok
##abl
handy
drag
scuff
compens
gber
gpre
partying
attach
processing
syukak
games
terbaikkk
casenya
lma
heels
connection
pagkak
bwt
furniture
physical
01
2pcs
dom
htt
kemas
ou
rab
sort
urg
wise
##jv
##rnya
##friend
##uum
gosend
##ream
##sey
packets
##ado
gaes
alhamdulilah
10k
apa
##tedly
lambat
nhanh
throughout
indic
correctly
ukur
lucuu
hanging
position
positive
keyboard
petite
dumating
split
particular
penghantaran
constraint
maximum
enhanced
06
41
fly
fto
hay
masi
pang
rack
ue
thn
##itation
sudh
sump
##aks
##uno
popper
nyari
nyangka
abu2
keke
##uuuuuuu
gda
##tttttt
dteng
consc
deliber
submission
effects
states
lucu2
winter
suggestion
gloves
country
burst
moderate
alhmdulillah
collapsible
flavors
develop
tissue
1m
banan
fu
jil
nanya
ous
wool
##bw
##bank
##deliver
##ients
##pan
##will
##13
##eler
goes
sha
cha
served
trash
##tering
seat
sehari
progress
overl
##actory
stuffed
##acious
##ppppp
checking
##ashes
saying
shortage
attem
cepattt
lasted
processed
kurir
##ibility
panel
maintained
dropship
rainbow
bublewrap
velvet
dapat
compliments
leggings
cast
ras
yarn
##hee
##vas
##kok
thus
pray
prest
##ences
anx
##iger
##sequ
##charge
##ulate
okeee
champ
##angat
unbox
sepat
bagu
##engiriman
handling
sends
abal
gli
transit
gcont
refle
bsa
balikin
advent
maj
lacks
donated
padded
huhuhu
nyampai
slippers
pillows
##uuuuuuuuuuuuuuuuuuuuuuuuuuuuuuuu
interesting
bolt
mantaap
options
blanket
appearance
example
vacuum
komplen
alhamdulillaah
treatment
cancellation
obstac
aaaaa
deep
mr
mang
mab
nude
ry
rip
tan
tun
##gf
##ring
##vw
##ugg
##kal
##eli
##edy
##ennya
alco
inapp
stone
butter
youthank
##idence
united
agre
blur
sab
worst
##appy
diper
clamp
feat
terr
##aaaaaaaaaaa
gbg
gbang
##artment
backhand
baru
funds
##ilever
wrapper
acqu
caused
ratings
shocked
sleeves
trimakasi
##identally
huge
outdoor
salomon
approximately
gapernah
berkali2
bju
dar
gz
hri
kenceng
snd
yrs
##jl
##rating
##opee
##qw
##comm
##wan
##19
##attered
rea
alias
##iginal
##amin
suck
okel
okros
resell
bum
comf
unh
cop
ceaaa
news
##okokok
continuous
retail
thankyouu
lowest
##izer
sampee
repurchased
individ
##product
drawing
wipe
flawed
elsewhere
accuracy
limited
moisturi
rusty
concentrated
squee
warehouse
62
cya
dir
djd
ht
jx
laah
mick
rg
virus
##bung
##nam
##hold
##atically
reorder
inii
##ortion
siii
##terns
mejo
##kkd
##ension
##ipis
syang
runners
barok
putting
##jsbs
gives
patterns
##wards
dressing
smpi
leaky
yea
ndi
shows
raised
tender
window
##xxxxxxxx
##crption
##mhmh
baguuus
athlet
economical
berbaloi
unsatisfactory
1pcs
bc
cac
hag
nmn
oct
ore
pum
tm
tank
tune
ward
xt
##sao
##ped
thnk
prim
##ane
expet
youu
##sters
heard
siip
dizz
boots
anywhere
places
disappoints
leaf
scared
##nda
pengirm
##bbd
smelled
babies
##zzz
##oooooo
flashsale
klau
watches
contacted
sdkit
rmh
##hhhhhhhhhhhhhhhhhhhhhhhhhhhhhhhh
##nnnnnnnnnnnnnnnn
interested
melted
minta
##mantapmantap
75
gexp
rush
##bang
##fg
##fund
##oes
##vc
##67
##ene
shot
recc
##aki
##olved
##okan
cobain
cargo
sprt
doesnt
##ighb
salamat
##ppppppp
coupon
regis
yahh
padding
powerbank
shower
##asiih
bandung
##nznz
ideal
##wwwwwwww
vibr
encoun
##abilities
automatically
alhamdlillah
pigmented
mattress
alcohol
inappropriate
search
yu
##aas
##great
##fgh
##asuka
sells
##ayanan
##rict
##antik
tru
disabilities
cans
percent
scal
reality
gdr
##awl
##eeeeee
##ifi
dentist
barangnyaa
bsk
breat
functions
kinds
##brang
creamy
missed
syukaa
##print
kyak
fortune
powerful
raising
keych
surprising
luxuri
tailoring
dibales
nareceive
suddenly
63
cab
ea
hem
pis
rad
tai
ure
##jjd
##aj
##ko
##zing
ance
##pekt
stall
smu
fastest
##appe
##endar
##ffff
seh
proof
clinch
overnight
nye
##rima
flim
flour
pace
drpd
glow
wave
sciss
gph
across
storage
rob
designed
##hehehe
helped
gni
prevent
##annel
##ference
ntar
sangatt
stretched
pushing
invo
appears
terimakasihh
prepare
tela
field
separate
##vvvvvvvv
applications
bnr
inshaallah
repeatedly
ongkirnya
cramped
youtube
ari
bj
cc
ert
gum
ki
odd
tend
viv
##bul
##rent
##eet
##dus
##kl
##xg
##iting
##ival
que
ity
##aster
##ahin
whit
##anter
##bsh
unload
trl
##appoint
diapers
ads
##enger
teruss
##ggg
peking
customerku
ukuran
swim
entry
lmyan
balls
besar
tennis
blem
flexed
trees
disinii
frustrating
crispy
occas
sketchy
preparation
5th
bice
cok
dense
eee
ghe
hid
kcewa
ln
ling
nc
##rin
##vent
##dg
##delivery
quota
shod
reed
##ima
unilever
train
disabled
blouse
##istic
gsl
gsuk
handsome
##kkkkkk
bangettttt
##000
dhl
##yyy
ntn
caps
distortion
duct
hrus
begin
shockproof
kurang
finishing
kitty
rejected
jersey
contribute
mounted
sauce
hunting
mizuno
anxious
athletic
clincher
04
03
bend
hah
kha
law
pap
qc
rus
tte
##aing
##rass
##care
##39
##cepat
##omi
##oup
ite
facial
##anded
##ahi
##aph
neighb
truck
blush
blamed
noisy
coarse
cepe
##ttq
damages
hade
mop
gmu
knows
emng
publ
influ
caught
rolls
kualit
harm
malays
palm
pengirimn
##jxjx
##kkkkkkkkkkkkkkkkkkkkkkkkkkkkkkkk
engine
maap
separated
mnta
muken
consultants
cepaat
flimsy
biceps
baa
cation
foto
iii
tall
uuu
vit
wag
##tly
gojek
##ceed
##orem
isn
town
shr
shin
excuse
shift
##iran
truth
disappe
##apped
imut
skli
grade
bagussssss
drill
##isted
knock
gmak
gdes
gpack
luon
ggu
##arized
mustard
bahannya
stocks
himself
sama
ends
tapii
##jdjdjd
choices
stretchable
rider
baguuss
object
banyakin
##mbol
horri
##hamdulillah
https
48
ase
dot
gus
gwh
hari
kill
lav
osh
pung
ros
rup
risk
yak
##ban
##gw
##ipping
##uas
##ering
##alk
##alog
##cture
##omfort
alus
altern
becom
##emp
responses
asl
gac
usd
##ksk
##ngan
grain
terba
fluff
expire
team
tebal
checks
patience
discomfort
mostly
posts
belong
hargalah
ended
lumay
lumyan
pokoknyaa
##ripsi
distribut
polarized
voi
factory
sleeping
dibadan
##mmmmmmmmmmmmmmmm
5555
##iries
blocked
deceiving
iship
characters
street
mudah2n
frequently
became
altog
deliberately
jilbab
major
shoddy
bx
cul
dad
dare
dream
ginc
ies
les
ren
##jn
##ror
##for
##vh
##vz
##uin
##ukk
##40
##30
pron
##annn
##iveness
##uted
awett
##iman
responding
trc
##ateful
##pert
recieve
##ihin
spo
##riced
applied
knowing
gsc
salty
##upas
emang
sooner
restock
puzz
paying
makasihhh
improvement
indicated
household
realpic
kaya
##nxnx
expires
talking
##minggu
bulky
cakep
micro
##creen
sloppy
boleh
pedes
closely
crooked
assemble
jadi
decoration
skrng
kekecil
champion
resellers
ccok
duh
dua
dried
ease
gear
jaya
kun
nikes
pale
yas
##firm
##uary
##kali
##pm
##inder
##original
ally
##usan
##igent
##igger
fav
##aahh
##cha
suns
##ahank
##ura
valorem
##okk
asi
##anged
siya
sep
broo
greasy
slh
group
spots
##llh
##nded
##ullah
##aship
##ops
##opes
##love
sweater
remedy
postal
weekend
dhd
120
lngsung
magn
march
2xl
palace
rapet
listen
english
portable
makasiih
towels
combination
snugly
undam
rotten
##3333
tiles
manufactur
activities
benefits
curtain
overpriced
scuffed
constraints
thnks
altogether
aqu
ely
eld
fh
hn
jell
kz
kard
mik
pour
##vest
##vular
##ux
##57
##omer
shar
##rett
youuu
##urance
valvular
loyal
##antage
##unate
unus
##sos
deket
brist
chew
##iih
slig
uses
untuk
outgr
lebih
##ipment
secret
appoint
sukaaaaaa
##shirt
##shshs
moved
backpack
cred
barakallah
trick
##uhun
provin
internet
breast
ulit
##izing
played
ants
specified
gapap
pala
250
errors
trails
gloss
bisa
devices
dicob
false
kesel
diameter
cooperation
prosper
techn
uneven
wipes
adapter
noodles
negligee
padahal
mickey
2day
cus
ft
gapp
hhe
jud
mama
nimb
song
ted
##yd
##gus
##mu
##eer
##cara
##warp
shut
itu
alot
sellerr
##iron
trigger
shoping
##nyaaa
symbol
keged
messy
teach
compat
gbar
intell
##beli
hardly
gga
mksi
tidak
lngg
adminnya
square
sukakk
equipment
painful
160
convenience
##bxbx
touched
tdak
tracking
explan
gradually
pecah
cacat
pungent
outgrown
basket
cd
cain
kp
ming
nf
nxt
oi
##hy
##mah
##ij
##22
##ode
##atable
bek
oki
##urah
havent
concl
dehhh
blg
ato
pole
cosm
gacc
stup
grateful
newsp
mantaf
drinking
knees
suits
string
differences
##jaj
##uhuh
refr
earphone
tui
airp
curren
pads
nagrereply
ajah
motifs
meticulous
speakers
##okeoke
rapihh
pelayanan
location
trnyta
horns
jaitannya
instruction
allowed
circumference
akhir
surprisingly
scissors
undamaged
bristles
sligtly
ape
ack
aud
bnt
core
dj
dpet
ere
ehh
jl
jat
kah
ksi
kitch
pics
rin
rates
xd
##bv
##bon
##nan
##ho
##fle
##mg
##well
##16
##iner
shadow
##utan
orth
##agal
speedy
lope
##stal
greet
##ational
amer
##pleted
spand
bangeee
glued
gsel
##ualitas
happen
luam
##undry
laundry
provider
keeps
functional
dikasih
milo
##kdk
auto
pngirim
terimakas
connected
nyoba
##dfgh
constant
broad
wlw
##pppppppppppppppppppppppppppppppp
bolong
##vdvd
concern
snacks
assembled
korea
##front
crowded
paneled
unloading
oshawa
65
bold
cx
eight
fans
g0
lar
ned
nda
oily
ply
ua
ved
vote
xxx
yuhu
##jad
##jjs
##gl
##rang
##mf
##lilah
##po
##isinya
tol
##ott
##otable
faith
##ches
shoope
##api
##empor
chair
asli
unc
agree
##ette
adek
careless
subscrption
starting
flushed
jgk
##aaaaaaaaaaaaa
##aaaaaaaaaaaaaa
##uuuuuus
moving
happened
peace
confident
batik
insp
selal
extras
mantaplah
harganya
dikit
mascara
brushes
prints
prepared
essential
nails
banality
comparable
deserve
consignee
terjangkau
##aikum
exercise
construction
overlay
unboxing
reflect
blemish
ttep
gall
kum
og
raya
wild
ys
##tion
##abs
##inh
##alem
##alnya
gon
prt
##ati
##usion
##aste
uncle
conv
seats
cheated
plisk
among
sky
jogging
crit
passble
checkout
akuu
underwear
bonuses
##mina
berl
benar2
courte
eaten
fallen
nagdeliver
kerenn
diterima
tipiss
sista
lemon
noneth
imagin
mbk
stainless
##jklm
##ssssssssssssssssssssssssssssssss
ckup
limit
stripes
tuker
kereen
traders
latest
sblum
budget
necessary
##jamas
pearl
title
malaysia
nimbus
stupid
crop
fellow
ions
jk
jog
jump
mush
sulit
uc
wil
wifi
##jt
##gal
##fungsi
##knya
##erved
##eday
ana
delays
##ley
ory
als
##check
##ula
##imal
wasn
disability
depleted
brp
cock
slamat
moreover
skech
desire
##ipin
banged
web
diffrent
suitble
nger
##udung
teeth
affairs
gme
##size
highlight
ggood
barang2
rugged
110
parah
dikirm
lagiii
yey
deter
reading
nka
harvest
linings
dkrm
compete
promptly
approbat
rocks
circle
gterim
##bbbbbbbb
mngkin
kecil2
toko
##atisfied
concerned
lengkap
mukena
bajunya
learn
excessive
wheels
rewarding
deformed
kitchen
cuk
db
drying
fy
ging
gind
mes
mung
mlh
nm
opt
pens
sag
##bbs
##seller
##val
##ites
gout
##aser
##omen
shawl
exch
stan
butt
##ching
##charg
##uled
##ulated
suede
##apai
unable
dozen
alloc
hosp
canvas
greater
diaper
recip
clad
pajamas
##shd
gmo
passed
earphones
belum
blessed
pakenya
thoughtful
deals
cattle
misle
kidding
lmbat
lmyn
sgtu
skirts
omg
brngnya
irre
gsho
2018
entered
changing
maaf
screws
semuaa
ensure
friedly
settled
savory
medicine
urgent
becomes
compatible
explanation
currency
courteous
nonetheless
imaginable
approbatory
49
ail
bor
boring
fight
fuck
kab
pon
pere
pins
rom
ripped
tump
tsk
yaaaaa
##hadow
##men
##vk
##lon
##innya
##alot
##riers
##unggu
sick
tray
dishes
blender
boys
cea
nyaaa
sports
contempor
cuts
##nyam
baag
##uuuuus
join
peg
pengir
intended
hehehehehehe
embar
relax
barangg
123
solve
lamb
kerdus
landing
gfr
generous
testing
##izes
scrub
kayan
bhannya
nicer
palms
dkrim
meeting
changes
locker
boyfriend
portion
##smile
gemes
lenses
##yees
sanit
pantas
cartoon
mentioned
cashback
vendors
returning
sehari2
features
reapon
dizzy
ace
gint
hic
hhhh
iy
mun
nu
oun
pom
setting
##best
##fic
##mon
##oom
##oba
##k2
##cor
##cum
##2n
##eries
gott
##aren
##utnya
beware
pricey
##akn
##illed
##emer
chips
sooo
##unction
upgr
eyeshadow
blood
slick
anyways
clar
supermark
nyaman
yach
grams
bagusssssssss
wanting
phones
messenger
immac
gman
barely
baik2
veget
sampi
kau
discuss
pregn
hub
penny
balm
##hhhhhhhhh
jew
langu
hargaa
indo
extreme
mkasi
signal
colours
consumables
meter
potent
inserts
bargains
promotional
##iency
fingers
undou
hgaaa
network
##kusan
crisp
regarding
identical
strawberry
bangeeet
xiaomi
employees
diskon
khimar
japanese
banana
comfotable
public
sunscreen
jelly
credit
3pcs
85
dy
df
gis
hide
ia
kkk
ness
pil
rag
zany
##born
##fd
##oj
##wl
##zer
##5g
##elalu
goal
prime
##orous
##atnya
##icepat
facil
excl
okeeee
unbel
concre
##alloh
areas
nobody
ary
baget
ush
##abg
stands
standing
cars
spart
blackhead
gmin
gdo
crun
gt2
laen
smelly
gha
surab
interse
dapetnya
pakai
subject
catalog
marath
seals
##jsjsjs
harder
polish
foundation
##tqtqtq
pressed
##ubble
machines
arches
oversea
kasihh
ultrafast
bulb
blister
peeled
sekaliii
article
deadline
inshallah
dogs
trimaksih
displayed
absorbent
##iatas
luxury
##gift
korean
gedean
vendor
##roidery
embroidery
adopted
##sequently
americ
2e
7th
cert
hip
ji
jkt
kos
mp
mna
nah
rings
raw
tanks
wol
##pad
##24
pret
##at2
queries
anj
toil
##ental
android
##agger
ster
##ulation
##ems
chg
##oks
##antong
ages
##eek
ata
ating
ard
slot
usable
lecet
bangkok
gsal
immediate
compress
cra
dahh
##bbb
##iform
loving
##askets
##bdb
replied
ings
lamaaaa
angle
pakingnya
sleek
ntah
dtgnya
##inyaa
produknya
favorable
oppo
pickup
segit
hpnya
irrespon
armp
reeboks
banyakk
##suit
##hhehe
separately
promotions
evaluate
bakal
gcomp
introduce
adults
counterfe
tools
wheel
tumben
belly
incredibly
irrit
acquired
belongings
##jklmn
unbelie
concrete
spartan
euy
java
mf
ox
oak
sar
sbs
sicepat
yy
##free
##mos
##lock
##wt
##cen
##atter
##asure
produced
##ilities
reaction
orch
notification
sms
##etric
shoel
suction
##aku
##iry
##iration
buat
buanget
##under
acceler
sebl
fro
grep
hose
diin
slah
ener
amann
gkak
abc
supply
corru
gdik
gpen
crease
##uhan
unfortunate
final
kaos
bngett
halus
dresses
bossku
##luck
dealer
styles
lumaya
narrower
ajaa
rama
linen
flattering
dipakek
gthank
vouchers
hesitant
##packing
tingkat
##gggggggggggggggg
pengemasanya
jwb
##ridge
reputation
inquiries
fracture
truly
keychain
taiwan
horrible
fluffy
prosperous
skechers
cladding
embarrass
surabaya
44
400
bp
bike
camp
cub
dnd
dpat
gins
jr
kim
mir
mong
mlah
nuhun
oy
sr
uj
ub
vc
##jah
##sng
##hip
##iq
##uper
##xj
##xk
##pes
##cid
##62
##err
thnx
produkk
##aries
anal
delet
ali
inya
##acking
##chan
##amg
suda
oklah
valid
##oknya
##cccc
consequently
##verse
accidentally
brack
thumb
greatly
sling
client
##abar
boxed
appror
damn
supple
##ogn
everywhere
supported
gpo
baikkk
veh
##bebe
confounded
monit
semp
regrett
sticks
cman
nio
discon
bangetttttt
mantulmantul
advise
assalam
sameday
ngec
ramahh
heheheh
dedicated
tax
##llllllllllll
multip
dancing
tengki
approach
cartons
bundle
hndi
comparison
circumst
fraudsters
sesuaii
syekali
gesture
semogaa
##baliin
rabbit
terrain
##678
undoub
5k
bite
cb
kus
md
msih
nl
nom
nest
ouch
##nja
##mt
##mers
##ec
##ato
##elling
topp
##otic
recharge
##ignya
buti
smok
sud
ont
##apis
respons
sobe
soph
buagus
serving
siap
cheat
ats
meal
clients
amik
##ngiriman
mante
leap
freegift
wax
gsw
tebell
transact
pengerim
gcol
##ifier
inspect
belanj
weekly
motion
stronger
strongly
advanced
gfa
dipesen
snow
syukron
indent
taped
##incible
pngriman
crackle
nagsend
ajh
sandal
drawback
sunfl
hahahaha
##bagusbagus
kasian
biar
biasa
invincible
authenticity
plugs
removable
july
fiber
rancid
ademm
kainya
commanded
daleman
human
ignore
scheduled
grespon
estimated
jahitanya
buckle
shooting
exceptional
deeh
softer
glitter
headscar
agreed
unhappy
terbaek
kegede
refriger
spandex
intersections
toilet
approriate
02
1kg
5star
95
crim
fas
lps
vap
ways
wla
##jel
##vy
##xjx
##qr
prnh
##aso
##otch
shel
##uty
inbox
stap
noted
smud
packaing
##ules
##ribu
##adv
sucks
resp
respect
##ements
buff
##unk
uniform
originall
sex
gret
satis
liter
usah
plu
handed
leash
bangus
##ddy
gkn
##osen
knpa
stray
joh
matched
##upulous
related
eli
puaas
marked
generation
##ysis
tuck
creamnya
##ization
snap
screaming
substit
##haul
gamis
entr
regularly
gstr
130
dkit
cantikk
##ktu
appeal
kwalitas
burning
explain
forgotten
viet
firmly
hyd
introduced
kecill
##tqtqtqtqtqtqtqtq
##xyz
automatic
frustrated
collapse
sesuail
mdh2an
##keren
students
development
smuanya
invoice
audio
uncertain
##charged
language
undoubtedly
sunflower
55555
ale
aah
aaaaaaaaaaaaaaaaa
bkin
cia
cakes
foul
gently
kase
melt
nua
sx
targ
tien
ven
##ties
##bage
##down
##ijklmn
##kir
##war
##38
##ining
##alag
##althy
##esa
ort
inj
##uses
##asty
##aaah
smoke
##sek
##ami
##ikk
##owow
##apun
chosen
##ids
##ungg
asal
blade
##ordin
prop
ence
grass
syn
##quate
expend
bubbl
damper
ngat
shopeehaul
computer
mocha
gmer
##onding
##ney
nihh
extended
mana
deliered
subtle
sleting
brighter
puassss
pastu
##barang
gara2
importantly
equipped
165
mgkin
experien
beda2
keterima
cooked
filling
threads
ipod
ipad
##onsum
adjusted
adjustable
measured
kcwa
wrnanya
juice
temperature
recomen
surfaces
wrinkles
ganti2
frequent
nanti
learning
##asukasukasukasuk
ternyata
kliatan
various
incredible
squeeze
pengirman
sprti
##pektasi
disappear
gapapalah
dicobain
58
ae
cing
dab
ght
gnt
hee
hnya
ile
iiii
kac
kahit
ls
male
mga
nman
rare
ual
ves
woke
zh
##tr
##here
##hone
##hance
##mill
##mber
##oot
##vx
##ekk
##iation
##2x
thks
##itis
##ancel
##ilis
##reply
exagger
stom
sukk
okok
##ills
##ahun
chu
sob
buk
agan
saved
boom
hasil
outbre
maka
contains
lean
leop
skincare
##uker
gbagus
gmat
##pppppp
gcar
minute
akan
dates
walks
managed
##kwkkw
##jjf
parents
dikir
scrupulous
availability
answering
department
kmrin
khaki
mantapppp
painting
signific
collision
estimate
beda
pula
calendar
lumayanlah
wlang
fanta
sbn
minimum
slightest
inches
tripod
mulu
wangi
unexpectedly
apologize
toothp
ventil
release
compensation
particularly
obstacles
individual
dreamy
newspaper
immaculate
irresponsible
circumstances
47
bending
cz
cape
daw
duck
enya
iu
ix
kut
lite
mimin
nen
nem
rt
rod
sjs
tide
tipt
tshirt
wt
wak
wats
yuk
yuan
zon
##yallah
##nj
##hear
##fi
##cere
##ittle
##enyaa
##ators
island
##isan
##ckck
##uti
ors
##etan
forth
##thetic
chi
chili
##iding
##umed
##ongru
units
unyu
condi
agad
trad
trace
disp
discharged
sept
poly
##uuh
therefore
boot
adorable
ceaaaa
plat
untung
outfit
nylon
carbon
bagusss
desir
describe
##arga
webs
ability
drain
##ief
waw
apps
suppose
strings
strugg
gpa
sensor
seeing
ems
letters
guid
##ba2
earn
ggl
rapidly
nyesell
sincere
advantage
##nnnnnnn
charges
syukaaaa
leakage
pkonya
busui
psanan
##kwkwkwkw
ultimate
widths
began
pulse
locked
cuco
##anggan
rainco
sekaliiii
levels
remover
horse
sedikit
hooked
puasselalu
loads
099
sakin
north
encour
holidays
cooperative
bathroom
exceeded
bilis
minimalist
heavier
moisturizing
vivo
##bulan
occasion
hidden
mukenanya
kekecilan
glossy
lngganan
gotten
frozen
leopard
aya
bz
bik
bone
beng
dag
hk
kb
lsg
nz
nung
oc
obt
pee
rang
rug
sikit
wktu
zz
##lan
##uction
##cross
##35
##ele
##esy
##asp
##isite
shades
##leh
##ager
##ague
##agement
exqu
##usah
##ppers
##ayy
fad
speedcross
oks
ress
##illa
##apal
soo
sobrang
##antul
##anties
combo
thats
confortable
tran
dispat
death
blow
cob
enhance
adain
outlet
##dhs
febr
newborn
spat
spite
merchants
##ipun
flesh
custumer
syaa
syuu
syantik
kej
lahat
cork
corres
afforable
mov
gmis
gmag
##mmetric
gtw
gcomm
##opqr
cleats
shortly
##ahahah
posting
belnja
mantapkeren
nhung
hotel
##athers
murahan
calls
squid
district
pastel
##gram
psan
decre
watching
jsj
meters
golden
2017
commodities
drops
verry
##iolet
lime
shopeee
drool
december
settle
pertahank
estimates
jahitan
gratitude
cleanser
attempted
scales
dikasihnya
stanard
misleading
blackheads
crunchy
analysis
headscarf
vietnam
significant
4pcs
5sao
aaaaaa
bou
cet
cak
eeee
fs
gard
gjo
hike
hung
ick
lha
living
lcd
mt
nav
rise
sess
sid
spt
ui
violet
yee
##yok
##jur
##gan
##har
##mk
##oa
##lies
##ift
##pak
##paper
##erang
##itnya
prang
ise
quarant
qualities
shame
##enta
ala
alert
alumin
##iga
##sem
##ulus
##akin
##ika
chipped
channel
##umullah
compon
servis
asd
unlik
sach
cheer
packingny
##inta
##etttt
diy
recogn
propos
spider
bitter
lepas
##ieu
syng
baw
accommod
translu
jdjd
##shi
scan
backup
##jdb
##jdg
chatnya
folding
##jsks
incongru
tops
activity
##undant
laun
trimksih
mode
aka
##berapa
cardig
extension
downside
reasons
##plit
hubby
##bdj
balanced
syukaaa
subsidized
hrganya
substance
breaks
silk
##www
squish
delivering
realpick
relative
oppos
picked
photographs
amazingly
suggested
panas
##going
gsem
mslh
bahanny
measuring
responsibilities
mintak
loaded
mntap
cordial
treadmill
particip
eyelashes
hmmm
dengan
rejection
annoyed
thousands
socket
reputable
stingy
prestige
coupons
breathe
rusak
brooch
eldest
intelligent
tolong
contemporaries
##nyamnyam
pregnant
disconn
inspection
sesuailah
stomach
tiptop
corresonding
aes
bf
fol
hence
jaw
kcil
pim
rib
ters
wires
yi
##nut
##son
##oq
##ocre
##eg
##lz
##cellent
##cles
##wood
##18
##4awe
##ino
##ana2
##ingin
##arr
exelent
stack
notify
bead
thankfully
##olve
okie
reserv
##urang
##essert
##oka
buang
asa
sie
siu
traces
grem
argu
mechan
muddy
coating
env
anytime
carrying
handbag
spare
##oos
meriah
contained
boxnya
abx
glut
alhamdullilah
keys
wraps
supplied
##jaja
##ualaikum
gbel
pecking
incon
emot
guard
koin
addict
appet
batre
insyaa
shortcom
underst
##ooooo
manis
##defgh
refunds
tighten
##luv
sangaat
gwor
##jdjdj
entity
bhnnya
kualiti
##kyu
rubbing
senang
writings
kalau
mganda
dineliver
absorbs
##dfg
approved
kyknya
kebes
wooden
typically
zigs
ignored
kecik
popular
organized
bkal
##bells
pingin
trader
unequ
projects
fooled
efficiency
million
darling
cabin
##flex
peregr
baaguuuuuus
##ijklmnopqr
february
aluminum
translucent
incongruous
155
2days
3hr
cous
dessert
fate
gut
gup
jng
kad
mai
ncc
nasty
qw
ray
rereply
som
tb
tes
ttt
tables
tires
umm
uuuu
##yang
##bum
##hb
##hong
##hab
##rate
##fk
##mile
##lated
##xn
##pic
##card
##60
##elah
##itate
goog
angg
shred
shanties
##ential
alah
alive
inn
##aap
##amah
onion
##ahnya
##htrim
##umah
aside
unic
##eez
siih
##hhee
docum
disadv
blind
wrist
poh
gaw
am2
lighting
repo
wearable
##amdulillah
whatsoever
messaging
bail
##erty
moh
barc
pengriman
##jdnd
hehehhe
problematic
neverth
mediocre
elimin
##plus
ruined
paking
##nnnnn
gno
pengirimanx
submiss
sangt
gwr
sgitu
murahhh
swear
pngemasan
cleaner
rekom
50k
picking
advertis
naka
consumption
medyo
dkt
invest
otg
##after
tlong
tearing
curi
cuff
bleak
bleach
##dfs
dissatisfied
kapan2
narec
##ology
source
envelopes
kereeen
fingerprint
identify
precision
workouts
mosquitoes
reference
reccomended
appointment
exchanged
wolf
counterfeit
transactions
vapor
website
raincoat
exquisite
quarantine
unlikely
shortcomings
border
dung
gust
gaskets
hate
hmmmm
kag
kog
mum
ning
nila
ood
py
sks
tee
yr
zipp
##gz
##fir
##dk
##uz
##ples
##itan
##eded
##orious
##pek
beef
##aaan
smashed
packignya
##adala
respos
##urut
##esss
soak
##idy
univers
disapoint
##ptop
allerg
dire
diret
bgtttt
##abat
##abalot
##rofo
##pleasant
superr
handsh
newly
redmi
mantaaaa
driver
themes
pesann
sukaaaaaaa
scary
foc
folds
##opun
seleb
shortages
##ddddddd
walau
##place
warning
dto
ghand
##nsn
##ientious
12th
templ
##lllll
severance
pengirimanny
##ronic
100k
finding
marin
substances
##anned
silent
##vvv
nti
##ground
##coming
showing
hangers
##ubmit
liner
mgnda
speaking
estate
classic
kecewaa
basis
reduction
bulk
calm
biscu
##opefully
rainy
forgive
##pppppppppppppppppppppppp
planted
##dhdhdhdh
failure
pulled
moga2
mngecew
dumbf
nuts
practice
keliat
punct
measurement
makasiii
##bitr
soalny
specifications
curtains
syekal
rumah
gesturing
cowbells
alhmdllh
joints
nyampee
conscientious
puma
vibrant
luxuriant
coksu
cepeet
lavender
rupiah
yasudah
unclear
jewel
desirable
opposite
peregrine
submissions
6th
aug
aaaaaaaa
bod
bali
bamb
cip
dike
dial
dav
fuss
geng
gwe
hih
lil
nal
oce
obs
pb
pash
pitch
pages
rr
tire
xx
ze
##ault
##gor
##va
##lg
##iap
##wakan
##76
##63
##aneous
##as2
##iliant
inse
##aaat
forum
##ambar
aware
suc
##iku
##ik2
##urate
chil
chip
chiff
soil
##umn
##stery
unse
##hhd
dos
seven
bran
brow
briliant
sai
##appp
muantap
ships
satu
bocor
ceaaaaaaaaaaaaaaaa
maks
makenya
studs
feathers
##itional
##quet
php
gses
gsur
gsamp
##okoko
movement
supporters
gpu
salt
##jdkd
gcor
battered
refill
unfortn
reli
remark
directive
mantaps
temen
dressed
berp
##jjdhd
causing
##ucing
headach
brightness
bounce
garbage
ets
ramadan
pushes
kho
terrific
meth
flatten
invent
labels
gche
absorbed
##iiiiiiiiiiiiiiiiiiiiiiiiiiiiiiii
manufacturing
dikirimin
gandos
eyeliner
makasiiii
presented
walaupun
weighing
warnanya
stopper
##45678
bintang
barokah
encountered
kardus
secretly
kayano
refrigerator
watson
condiion
drooling
arguably
##defghijklmnopqr
unequal
nevertheless
biscuits
1x
64
cact
ett
fest
gul
hhhhhhhhh
iin
jars
kkkk
lif
muter
pam
pda
sink
tat
tint
tgk
ww
xh
##yw
##jq
##ait
##aque
##mya
##makasih
##view
##vably
##uhh
##xd
##press
##cj
##cut
##29
##14
qua
##omb
shit
alam
station
beans
##ths
resid
##hterim
##ira
los
losing
##anted
##unyaa
##angk
upfront
unpleasant
agak
trf
shopie
moneygood
arbitr
mua
coy
diet
boong
boost
overcome
pier
reported
contn
bagusan
flor
##outs
##quality
exposed
pharm
##nnx
gseller
##uduk
##inding
lgs
##ogram
gdit
##aaaas
putih
couriers
2000
batch
batalin
seconds
refused
botol
ake
covering
elok
ghi
monthly
rapiii
ruff
kka
##nnnnnn
gnag
nhg
adminya
##coal
hairpin
masangnya
pkai
##cilin
antic
nkak
duo
harus
layered
versus
ical
appeared
cuy
survive
hitam
boards
gtrans
makasiihh
tonight
hoped
elasticity
connector
appreciated
recomnded
counsel
strike
introduction
moderately
##iliar
mothers
##goodgoodgoodgood
ternyta
precise
magnetic
##5555555555555555
charts
sebelum
ngelupas
expeted
objects
##ironment
xxxl
marathon
shelves
plugged
outbreak
zonk
chiffon
07
5pcs
bim
cables
dkd
gany
gja
gitu
hous
ial
iya
kf
mit
mut
nnya
obl
pod
pst
sod
sap
ssss
tis
tny
wn
wig
yum
##sn
##hantaran
##vi
##lim
##25
thb
gol
produce
towards
##otes
shine
itchy
reass
selleer
iny
stained
stabil
faint
smw
surg
okla
resubmit
##imakasih
cht
chem
##unin
##stu
unless
hai
##ffect
timing
##eeks
sihhh
saiz
allhamdul
hoi
cos
cocon
slam
usa
##abarin
##ksi
##kskd
overal
pipe
arrang
##engg
recommending
feb
subscri
spin
purcase
sendalnya
skinny
custmer
##llah
gser
stress
teen
scars
supports
gmal
gmar
gdip
gpi
background
barr
saler
fund
opaque
confidence
insyallah
modest
proven
parties
nia
nipp
puff
##ooooooo
requires
manl
muraah
intern
penj
infer
lipt
branded
##jjj
##jje
smpa
almond
dongg
dsn
memang
ideliver
curved
hats
hibis
specification
produkny
ight
files
hahahahah
fancy
19th
cantik2
expirednya
msk
wondering
charcoal
annivers
wlpn
seasoned
dalam
combined
adequate
kelu
kaso
humid
oversize
##ahanin
ction
panties
summary
silicon
shoulders
kilo
##foot
motorcy
weighs
lancar
necessarily
eggs
uwu
wanna
massage
sablonan
sumpah
attempt
##qwqw
lumayann
symbols
neda
kumplit
allocated
shoelaces
staple
substitute
sbnrnya
##mmetrical
selebih
dumbfounded
succeed
unfortnately
1pc
ao
bant
born
ced
cents
eg
ery
gila
iiiiiiiii
jz
jour
konsum
lad
lady
lying
nil
pong
rout
tx
tad
tttt
tunic
uang
vv
wont
yuh
##tp
##jsh
##bj
##bility
##hop
##fin
##17
##eral
##aler
prizes
##enced
isol
tote
itch
orde
album
ina
##astip
##riage
shoopee
##adily
okokokok
##icles
upload
sexy
broth
receiver
baguuuuus
coco
cozy
dibat
clo
ame
grap
##esek
spy
##heh
steadily
##ipu
pavement
##anship
appli
sukasuka
gspe
bae
baiik
##ampai
completen
scale
##ukan
moi
##we4
gia
##ndn
gba
gpar
crash
baran
deflated
selet
unders
bangetttttttttt
##plah
ghu
format
requests
aha
##jojo
magic
##juin
calling
kualiatas
jauh
wasting
wishes
jsjs
jsjsjs
##laim
pnting
##uiop
24h
raises
ayan
dipakein
##mbah
##cloth
langgan
mistakes
flexibility
mica
##ambah
berkual
bearing
preferred
gimna
##1111
penyot
hdmi
humorous
sustain
##meal
bajux
traveling
bkl
bunch
balloons
soup
akhirnya
nakakad
soalnya
##zzzzzzzzzzzzzzzz
requirements
tulip
##vwxyz
continuously
trlalu
manufacturer
mungkin
supermarket
unbelievably
cubic
pengeriman
kegedean
booming
toothpaste
environment
jewelry
bamboo
anniversary
1nya
4x
akk
ces
dol
fist
g6
hv
hong
iba
jastip
kam
kso
kick
kung
kena
nv
nii
nich
poll
rop
tor
tent
tied
vest
wk
wine
yay
##jak
##bdhd
##gat
##gment
##sl
##fied
##mak
##ipe
##uj
##ubs
##kom
##kah
##cg
##inished
##ela
gooo
proud
##atient
produck
quar
quran
##rees
repon
##astik
bean
##aai
##aaak
okeeeeeeee
resale
##owbat
##emed
loop
nostal
muant
dibl
gausah
satu2
reco
recon
cept
##ounting
skew
##dhf
carved
terb
mantabs
legging
lebar
gket
safer
##istration
bigg
bubl
lgsung
beforehand
##avail
pesenannya
realized
realflex
pengrim
intend
intra
fox
adding
terimkasih
trimksh
partner
stored
manner
mura
ghar
thankyouuu
brew
cushy
solved
lama2
dgn
assorted
111
gfor
court
rolled
pengirimann
responds
##job
informative
##sgs
murah2
gamau
donate
decis
parcels
equival
##goods
deduction
eleph
ome
##jej
initi
ankles
listening
menu
stayed
transferred
##hhhhhhhhhhhhhhhhhhhhhhhh
contrast
located
gnge
screwdr
##aaaaaaaaaaaaaaaaaaaaaaaaaaaaaaaaaaaaaaaaaaaaaaaa
diliat
memuaskn
kurg
bublewarp
tilted
profile
moldy
degree
alhmdulilah
kilat
##129
sketch
##jjjjjjjj
kedep
niece
apology
juncture
batrai
batrenya
fluid
##bagussbagussbagussbaguss
register
whitening
vitamin
province
laris
plisketnya
sanitizer
target
dikirain
bouquet
squishy
coconut
inferior
completeness
2minggu
3xl
68
600
aunt
cw
cate
ges
gfe
guk
gjd
gada
hap
jag
kx
kpn
lak
lacing
mc
mart
mumer
np
ooo
pj
rn
sack
sult
sns
tus
uuuuuuuuu
ving
wings
xie
yaaaaaa
##jdd
##aang
##nice
##gt
##hri
##may
##manship
##doy
##kout
##pot
##cies
##wk
##100
##inks
goood
##ores
##onant
##ilang
shattered
##agi
exter
##igay
##these
sum
okokok
youuuu
##urt
cham
sofl
soooo
##unning
asap
asih
truss
sea
bla
blh
sao
cheating
novel
arried
satin
slack
proses
encl
##abab
untidy
nymp
grel
pictured
terl
##nyaaaa
gker
phil
sukaaaaaaaaaaaaaaaa
gsn
gsay
##tech
immed
ngay
nget
gods
compartment
##ails
peyok
gdist
salah
default
succes
##awesome
##patutan
gcons
##ashing
althugh
20k
laz
sheer
##belum
earth
smelling
mantulll
manage
##kek
penet
mantapmantap
thru
footwear
##ixix
assume
ump
dikantong
bguss
dipengiriman
##venir
##izont
headphone
samapai
##ledge
koko
##juan
ents
mahal
difficulty
hatur
specially
updating
terimakasii
kmaren
sweethear
##ternal
palatable
25th
collaps
fleet
similarly
enjoys
involved
anaku
lemes
besok2
karena
gsuper
naturally
plantar
kemana2
mainly
berkah
gdisc
typical
##bsbsbsbs
nutr
meatball
absorbing
allows
pgn
tiba2
indonesian
mulus
baguuuus
govern
##alalal
dibalikin
ridiculous
yaudahlah
bilangnya
mdh2n
briefcase
jazakillah
pokonyaa
conscious
trashy
obstacle
sndiri
##commend
okelah
registered
luxurious
bnr2
shrink
alternating
upgrade
ujung
mantepp
experienced
platform
jawab
understood
curious
cactus
##stuvwxyz
hibiscus
nostalg
equivalent
57
56
dick
eco
fer
fom
fot
hga
ied
ian
jang
kq
kaaa
kemasan
mx
mnd
masing
nj
nod
nas
nine
naship
pit
pnya
pkk
panty
rb
rs
sik
siss
sbb
tah
tng
tangg
uulit
vd
wad
west
woo
##bk
##g5
##foto
##mal
##opp
##vl
##xcv
##pany
##cjc
##28
##7129
##5we4
gong
prel
prone
productthe
##least
reaso
ored
orang
##agram
sten
stro
notif
notified
speech
sup
resil
resolved
ons
ond
onions
##earched
whom
##idid
upright
##stars
conce
##hhs
greg
ations
atleast
gaf
beautful
slide
##fek
##petasi
herbal
##ksbs
##ngs
##roider
gram
starred
reducing
lesson
descent
flip
custmers
gkh
glam
phase
##mentary
mood
pepper
workmanship
gmem
gdep
crotch
bars
bared
barag
offset
impatient
##jsis
##jsns
gtem
gtrim
##ollow
minn
wrappings
bats
refuse
refres
akn
sticking
cumulus
discont
ggi
belii
roy
mouthful
naorder
bngtt
cushions
assurance
para
complained
puasssss
falls
##iverse
washable
huhuh
paketnya
##jsjsjsjs
decl
##ibat
##itui
50kg
election
##rrrrr
sdkt
ginter
suggests
2016
tablet
kecepat
dissonant
rows
##hhehehehehe
fails
central
consistently
baking
wedding
explained
##sesend
victorious
moisture
manufactured
##tttttttttttttttttttttttt
claims
macam
closer
meaning
gorder
electricity
##mzmz
deskripsi
ticks
stopped
khimars
briefly
plastik
jazakumullah
indicate
prayer
wardah
expetasi
shuttle
bekasi
##checked
facilitate
accelerated
taxable
crime
guidance
beads
handshake
david
method
sultry
sweetheart
4hari
59
5cm
6m
cased
dated
fb
gay
gain
hushed
jn
kai
lt
mim
nurs
qr
tama
xp
ying
##yak
##yah
##bay
##rus
##fsg
##mint
##made
##ov
##oved
##eo
##pu
##za
##erve
##alf
##aled
##item
gosh
##espon
prid
##oms
##arks
anther
##iling
##rew
ree
req
##agen
thankz
excell
speeds
##olute
##embaliin
neon
respone
chop
##irely
##okin
##umes
##str
unya
buyback
trading
##ssed
sequ
##ordinary
ately
hehee
meow
bagos
muat
dipl
comfortabl
ending
##abi
outcome
repack
spikes
wealthy
##ieie
expens
damp
##uded
stroll
##jaw
##shdh
10pcs
scattered
##iship
defic
pengem
instagram
knowledge
nowhere
tasted
gcust
liking
selesa
bangetbagus
reminder
ggo
extend
gunder
advis
properties
assist
gnot
##kkkkkkkkkkkkkkk
##brush
sesui
indust
effectively
hairy
ntr
##msms
pokokx
entirely
imported
float
natry
absolute
lucuuu
consuming
singap
pots
exists
140
beside
fourth
pulaa
bleh
bahanx
preserved
##dfjdg
pngirimannya
maaci
gsubs
##bzbz
##okokokokokokokoko
horizont
##jangkau
nyampeknya
hooks
enakk
recomanded
hgaaaa
mhn
digun
macem
quantities
switched
##kxkx
##oxox
suksess
jazakallah
younger
##eeeeeeeeeeeeeeeeeeeeeeeeeeeeeeee
regardless
##oooooooooooooooooooooooooooooooo
contribution
psenan
south
savings
varied
pwd
inquiry
loosely
admitted
cleansing
encounter
neighbor
fotoin
culott
bangeeeet
luamayan
##dfghjk
convention
hideous
lecet2
irritated
##cense
bracket
regretted
ngecas
rechargeable
satisied
navi
appetite
unicorn
advertisement
wolfis
universal
punctual
pashmina
##defghijklmnopqrstuvwxyz
yummy
chemical
initiative
government
##5we4g5
1w
1minggu
bord
bert
bird
cint
dug
ech
g5
gbs
gyou
hdf
hips
io
ili
ound
obr
pond
panda
ric
sut
tack
virt
wks
zen
##tage
##hi
##mr
##off
##vg
##lly
##ius
##xkh
##cases
##80
thu
##alth
goi
##eding
##enn
##onest
##atory
##arat
anan
shed
##utt
##ented
alo
alter
external
stays
begging
##ethe
##amit
##aded
##aky
facebook
oko
okoko
##aht
##apack
##ste
unst
unavail
agent
##allow
siipp
trap
originals
grec
cheater
##pto
allhamdulillah
ara
arg
##ints
heh
bagua
coba
slmt
bosk
cheaply
##petan
placing
ampun
output
superior
##dha
##oop
mercy
purpos
bangbang
gko
ably
syant
expand
explod
twist
gsell
alhamdulillahh
affix
realize
gmon
gpad
defense
seek
gtri
plastics
tribe
##upi
##upin
adds
registration
akak
##retion
discover
bonusnya
cepatttt
elder
elbow
somewhere
infant
##550
tighter
liable
dgan
##cewakan
nhan
hargany
walked
tuitui
##excellent
##sssssssssssssss
dipeng
##uci
yellowish
numb
nagsesend
distur
decision
garment
##ga5we4g5
##ibly
sgt2
malowbat
extraordinary
signs
camer
kasihhh
receipts
accompany
visual
blnj
kualitasnya
cuz
competition
brooks
amaan
##olution
##aaaaaaaaaaaaaaaaaaaaaaaaaaaaaaaaaaaaaaaaaaaaaaaaaaaaaaaaaaaaaaaa
selamatt
##ahahahahah
kecilin
wkwkwkwkw
clips
leaving
blocks
##nsnsns
deceived
digital
wallpaper
zigtech
jammed
cycle
electronic
claimed
lengk
tangerang
catching
3000
##qqqq
capture
souvenir
pork
##bnm
berbalo
lifting
embroider
celan
consignment
supposedly
mistakenly
okokokokokokok
indicator
mango
individually
radio
baaik
imut2
aqua
judgment
cosmetic
jatoh
pngirimn
constantly
inspiration
irrepar
vegetables
armpit
assalamualaikum
wlaupun
##jelas
bubblenya
traditional
dispatch
spiderman
stacked
cousin
zippers
flattened
inventory
dibatalin
masing2
##ibatun
culottes
3m
6pcs
88
900
cin
cit
ddd
dann
eth
eur
eager
gq
g20
hdfgh
ire
ible
jim
mkn
mounting
nit
rc
rant
rules
sja
tab
wes
wis
xr
xi
xc
xii
yer
##jss
##bie
##nak
##rw
##faat
##mo
##dge
##lin
##list
##iret
##wd
##95
##itter
goff
goodgood
##inggu
##atile
##asss
qualityoriginal
anten
itung
orng
alkh
aloe
incense
stale
thanky
##eters
##amer
awal
##akai
orderannya
oky
##ahabat
##eme
##urse
chine
sop
buka
##idi
##ideliver
##ccess
trbaik
matters
frail
aller
##ettttt
dianter
clue
amat
##nge
outgoing
##engan
ska
caring
bgtu
spoke
merah
containing
conditioner
flag
pape
symmetrical
##qua
##ques
gsub
bai
ngt
ngar
##uda
supplies
comply
happier
josss
everyhing
##wns
workers
baranh
salute
pengu
##jsn
tasting
gcut
gcle
sisters
minh
cleared
secondary
##baj
yaah
cume
discretion
commer
##zzle
management
ghost
infl
125
throwing
forms
reviewed
tidk
maen
dikrm
considerable
codes
##xxh
sealing
cleaned
padin
hiya
nagana
harini
gara
ndk
kalii
kalinya
buttoned
khit
##ciitis
diting
lined
hahahah
panjang
invited
college
kecewaaa
ashes
treated
gatt
trmksih
buru2
familiar
ktnya
170
17th
##ndndnd
unfinished
sampaiii
tengkyuu
penyok
vanilla
ngepres
kaak
mailing
gconf
madam
sakto
nadin
eller
resistance
gando
pantes
closing
##books
degrees
pertahanin
sites
sitting
condtion
fulf
november
nareceived
loosen
employ
queue
##firmasi
magnets
manufacturers
unusual
provinces
mushroom
determin
12345678
khimarnya
exclus
segituu
##pesos
fasciitis
john
ventilation
september
0997129
kejahit
gluten
shredded
mohon
mngecewakan
arbitrarily
ruffled
liptint
konsumen
exterior
affixed
embroidered
hdfghdfg
5kg
bq
bound
bib
cn
cil
cai
dw
ding
ehehe
g3
gang
gala
hok
hays
hihih
iih
kaw
lies
laser
master
namp
pnt
pending
qa
sf
saa
ttttttttt
uy
uss
vl
vary
##jng
##jdh
##hnt
##hopefully
##rust
##fj
##fall
##ober
##khh
##cap
##wj
##713
##65
thro
##elnya
##alt
predi
##anut
##cepatan
##orial
##onious
quiz
##isnya
##oted
shake
##utions
expektasi
##etics
##ament
##this
##akal
neither
chill
chic
sooth
##antages
##una
##bshs
asdg
##alleng
trll
##ards
brake
##iiik
holy
baggy
imitation
dih
sliding
program
clut
club
climb
herbs
##aba
events
eventh
byr
##roach
makass
nyet
nyala
grown
peru
perish
pictres
steps
mantu
gla
glum
twitter
whats
messaged
gsat
gserv
baek
immature
##jait
jdnya
jdinya
##nts
##aving
gbal
gbre
gmas
gdat
gpes
gpur
replying
salted
crem
opens
baikkkk
triang
email
lets
##ressed
confusing
akut
patah
edi
poster
##ario
promos
huft
##keke
bsbs
gunt
##hhhhhhhhhh
pokoe
esp
parahh
fewer
##uuuuuuuuuuuu
headband
##phere
##joj
##cover
##produk
capital
masya
airy
crackers
terbaikk
terimakasiih
teteh
##jsjsjsj
favorites
policy
piecemeal
ngefek
khasan
amannn
illust
showed
midnight
elections
nakab
losses
kasihhhh
ginst
collagen
establ
versions
contract
controll
surviv
counted
wlpun
circuit
ckp
noticeable
crummy
dimens
##iiiiiiiiiiiiiiiiiiiiiiii
strengthen
masha
strict
visitors
##abilis
pacifier
operators
scammer
##ncnc
caption
dpke
ternyat
ambilis
tnpa
clouds
nova
##yyyyyyyyyyyyyyyy
taro
efficacious
pearls
drugs
knitting
harap2
ukuranya
blurred
swimming
technical
airpods
cukup
hospit
hospital
##5g45
chgaaaaaaaa
deleted
literally
expenditure
ngatung
enhancement
components
cardigan
participate
allergic
marinade
international
skewed
elephant
screwdriver
lazada
reasoable
refreshing
##jawab
irreparably
asdg5
2k
3d
5rb
6s
9th
aaaaaaa
bid
bikin
bila
cad
cug
cba
dast
dak
dough
dens
dating
eb
ect
gca
gaming
hny
hanya
hbis
ier
ious
irim
jv
kuk
kasii
lai
mol
nr
nang
nick
nnn
oll
oorder
pine
pect
roo
rasa
tsu
uf
vn
vul
vid
vnd
xk
yog
yaaaaaaaaaaaaaaaa
##tions
##tahun
##jdhd
##afe
##bot
##bol
##nb
##gir
##sbd
##hx
##rol
##ev
##dit
##dom
##uat
##cch
##erous
thes
threw
##alo
##itung
gores
##esive
##cepet
isa
##ompl
##isappoint
toh
##otics
ition
##lek
exec
stove
##usus
##asted
thankful
smog
spect
##rian
okkkk
onya
onto
responya
chap
##essage
##irannya
##bsv
asy
unluck
##cca
conve
##sock
##soci
##ssh
doct
dismant
frau
blend
blaz
saus
atmos
packingx
##estrated
arro
##etti
muda
coil
gaess
slipper
proport
##ounced
outward
superfast
gred
spacious
bangeeee
flannel
maybell
##dulent
##dulillah
custemer
gkal
##anyak
sukab
gscr
cooling
lahhh
corners
score
scatter
##ukak
affected
pesenya
##ungkus
gbut
peanut
gdib
gpel
gpag
luar
luvv
luama
pengiri
sensi
##jsk
incidentally
##ifiable
##upn
apal
insurance
sheath
selam
semi
krng
krudung
remained
cumn
niya
undert
postpon
belanja
commit
##auai
manipis
haluss
interf
solo
##bling
anguished
kering
dikemas
##icturan
caution
samsek
ernya
severely
sidew
yahhh
misunder
holds
depos
depends
member
masa
detect
closet
floating
native
harsh
garlic
kala
kaleng
ultimately
sampeee
expedisinya
medjo
pping
businesses
hurts
ginf
drift
orginal
entert
cookies
##itskg
##shsj
lockdown
180
dissappoint
countless
broc
pembel
microp
##untusan
langganann
labeled
preferably
##jgdfjdg
##fhfh
unsightly
kainx
dipakai
tokony
videos
covid19
particles
macar
settings
cartridge
nantap
learned
presentable
bangeettt
kinder
betul2
##ayayayay
##uterine
##rrrrrrrrrrrrrrrr
denim
condit
buddha
kotak
bner2
jelek
printer
deskrip
pendant
toothbrush
crystal
crib
sepatunya
october
reccomend
breathing
robot
beginners
##ttqtq
influenced
spoiled
pedesnya
dua2nya
lebihin
bntang
orthotics
mushy
ginger
recipient
tumpah2
craft
orchestrated
energy
monitor
sempurn
smokers
##4awe5g45
golf
allhamdulilah
undersell
intrauterine
conventional
hdfjgdfjdg
unavailable
antenna
established
asdg54awe5g45
1c
5m
5hari
89
8th
98
ater
ahhh
ained
bout
cere
dud
dai
dup
djdjd
dksh
ei
ese
gah
hunt
ize
jt
jord
kor
kang
kup
lll
naa
oon
pper
pup
ppppppppp
pony
pjg
ron
saran
sbelum
tends
tmbah
ull
va
zzzzz
##yrs
##bok
##bdh
##nel
##gx
##fa
##fjh
##vous
##date
##dling
##lens
##peng
##cake
##cated
##wjw
##70
thich
thoi
##aling
##itar
goodthe
##ester
prngiriman
##ingly
##oned
##asang
##omed
anch
animal
##iliver
##utin
##reen
ith
anda
selller
alike
fastrespon
##ulillah
aweet
surr
sucking
##akas
##ikum
shield
##imes
challeng
sok
nicevery
loading
##idemic
##antar
asia
uphol
##store
uny
wasnt
convers
##fff
##ffaf
##alll
##eeper
sippp
trjangkau
sepert
fren
deck
dehhhh
deemed
##icking
saver
atc
##pered
canned
coinc
dia
diak
slit
##cape
proceed
ceo
cew
plush
plated
amby
evidence
overfl
##ihan
arrange
makl
ske
nyah
handled
feature
redundant
spre
##osh
sym
syukk
wai
twisted
nganter
ngabarin
##ogs
##ogog
teball
transmit
10th
gpol
cray
crown
salam
salmon
##bbx
gcan
##look
laid
##baca
relation
provision
path
sampain
yaamp
lasts
naikin
bsr
gppa
gpplah
penju
128
tightening
liar
balo
thrown
formed
berfungsi
##llllll
pakaging
lateral
glassware
##bris
stitched
flashlight
styling
breakfast
amazed
depend
cantiik
cleanly
terbaikkkk
30th
harha
sangatbaik
produknyaa
garter
telling
choosing
tombst
nerd
nervous
segtu
figures
frees
panic
patterned
ketek
banyakkk
pillowcases
pinch
pelayan
mbak
absorption
##oyibatun
keknya
terimakasihhh
##jhd
gsupp
earring
mateials
dngan
##ahahahahahahahah
laaah
mantaapp
gimm
applicable
practically
sby
dicoba
madeliver
strengthened
manufacture
grabe
tgl
candle
encaps
concerns
turning
organization
blankets
mamah
disharm
dishonest
examined
activated
bajuny
epidemic
regards
planning
occur
concentration
specifically
ceram
ongkir
##hatiin
wiped
jualan
barngnya
terjangka
fluent
okokokokokokokokokokokokok
heaven
pagkakabalot
##commended
barokallah
primary
##vvvvvvvvvvvvvvvv
##39713
##gwgw
shares
unusable
technology
greetings
subscrptions
prtma
fyi
diskonan
abcdefghijklmnopqrstuvwxyz
##apis2
entrance
pertahankan
accommodate
disconnected
jngn
google
##htrimakasi
narecieve
kagak
keliatannya
reliability
nipple
quarter
courtesy
decisive
collapsed
uulitin
singapore
fraudulent
atmosphere
maybelline
54
69
79
77
7hari
ajj
b4
bkan
cure
dow
dand
drip
duty
fert
fif
g2
gass
geez
het
hahh
hinh
ily
iiiii
ilove
kip
liver
mend
masih
nun
nong
ope
oem
ote
ought
reng
srm
sided
tore
tgg
tali
tdi
uppers
vill
zoom
##yc
##bya
##nm
##sbs
##rman
##fu
##fly
##fokan
##dl
##lal
##lings
##lxxh
##udh
##kr
##xs
##pi
##pict
##wo
##zi
thk
##inform
##eline
##esuai
##anny
##atu
##atahi
queen
qualitas
##isin
anget
toll
##ilan
##rec
##re3
alarm
inno
stith
stem
##igious
smear
smlm
##chi
##cher
##etive
packng
research
##imah
##impen
##uro
chun
##hterima
##icate
lovers
##fulness
##antan
thankssss
servces
##stik
##stive
##cco
hearing
seawe
bles
##aaaaah
greal
##estr
longest
aran
arab
poison
meant
mug
##uui
reclaim
bogor
##cawakan
kgede
cling
amiin
maker
makai
handles
gra
gru
fees
##ensurate
manta
descri
##ggy
whose
abl
abu
##iece
syudah
##quest
glight
phom
twin
keberapa
suke
gsus
tqsm
ngan
##uding
##aci
jdj
10hari
##uk2
##uknya
gbng
gbanget
everybody
gma
gmur
gdu
gdelivery
gps
credi
salem
pengen
pengep
##ifying
sory
aps
refined
##encet
couldn
partially
postman
restore
farm
halal
bsar
bahann
pasang
fairy
processes
dhdhd
helping
berry
berman
ange
keri
parang
gnat
masker
dikard
improper
texting
tapiii
sekale
##coz
memor
pngrm
cantek
entiret
##mmmmmmm
understanding
installing
##ruit
floors
senstive
ourselves
eto
riject
spills
sdg
wiper
banyaak
kasihterima
rounds
dkasih
factors
accomod
rapihhh
waistband
labor
pillowcase
langgann
dlmnya
gatel
##hhehehe
gprom
##cream
bolts
##ambahin
forecast
forefoot
exhaust
tracks
dolls
##jdjjd
stripe
dikirim2
wrinkle
modern
suffering
kulitas
organic
dishopee
kudu
penghnt
eyebrows
estimation
##bgt
woven
pokoknyaaa
adapt
fashionable
noodle
##dddddddddddddddddddddddddddddddddddddddddddddddddddddddddddddddd
tutup
sablonannya
stamps
sorting
chaotic
abal2
mabait
tmpt
thnkyou
swimsuit
beginner
hahaa
##empol
pronation
spoil
households
##33333333
chewy
oiya
g09
critic
cockroach
america
kosong
lumayaan
embarrassed
vehicle
buffer
asal2an
gnti
garden
hungry
aesthetic
inconven
##ertyuiop
barcode
direfund
headache
##hterimakasih
oblique
motorcycle
categ
tuspin
##ahtoyibatun
purposes
##55076
ditingkat
perishable
khasanahtoyibatun
dasternya
unlucky
arrogant
tombstone
disharmonious
2kg
53
700
aid
ains
bam
bull
bomb
d2
dice
dots
eeeeeeeee
font
g4
gate
gdh
gross
ike
ics
ikh
jus
jah
kona
kasiih
lv
lied
malu
mio
mendar
ock
ose
pile
rer
rou
sake
spert
tens
tons
tmn
tinted
uus
uhh
ude
vh
vain
xper
xbo
yaaaaaaaa
yaaaaaaa
##ym
##jem
##aja
##aitas
##bah
##bee
##gara
##hf
##fx
##ole
##oad
##vj
##las
##liness
##iis
##uks
##kc
##kas
##kad
##kasi
##xitskg
##pw
##pass
##cure
##cro
##cock
##with
goke
prd
prnah
##ori
very2
##isely
ano
annd
toptop
##ilty
##utup
ita
reverse
orii
##agat
inh
##ayed
##ayos
beb
bee
thanku
smpet
##season
##et2
##eties
fork
shopp
resi
resent
reset
resolve
nek
valve
chann
social
##umble
asuk
aston
asph
unch
unison
##yesel
origina
doz
dise
matur
brapa
blk
blades
bloom
##aaaaan
nozzle
okayy
meals
bagis
mudh
gajelas
bgttttt
proved
ened
plng
plague
worthless
gran
graph
granted
perman
terk
flowing
flood
gka
gkr
glang
alhamdulil
knob
##nnz
baij
cooler
complex
##nta
##uga
moca
gbat
pekin
pegiriman
gdiff
gdeli
gpak
gpng
gpokok
gpart
continu
bare
barter
baramg
offseason
creased
intense
##aaaan
##ocks
gcap
triple
emer
embo
sayaa
mines
guitar
guilty
##new
##whwh
sheaf
semarang
acid
walo
walang
earned
nire
edited
ggam
ggreat
gann
commensurate
restri
barang2nya
promises
bahanya
pasmina
tym
berpatutan
footprint
angan
gnh
diketer
tub
sesame
scram
improv
texted
##kdnd
gwar
persist
silh
kyanya
choco
varieties
idi
idk
nagih
huhuhuh
dryer
30k
kaler
kalim
ramaah
hrp
khay
##cibed
painted
dito
tips
oils
##rrrrrrr
ppa
pped
poto
furing
irm
expeditions
laugh
##prof
2015
classified
dina
tongs
possibly
perhantaran
tlng
slipped
bullet
pakein
utk
mnurut
verifiable
forgiveness
voltage
gdec
performed
makasiiih
msgs
telep
lamps
instructed
lain2
laahh
##irrah
dilute
##roduk
29th
dtngnya
rotate
dollars
mhon
hyg
toughened
allowance
insyaalloh
kecwa
##ksksks
frequency
trimaasih
velcro
hehehee
gituu
precisely
latter
jwab
exceeds
##7777
deserves
##8888
konfir
bintng
bungkusan
alhmdlh
dulu
admittedly
##4444
compensate
flying
agreement
##wwwwwwwwwwwwwwww
##koin
bjunya
##xgmx
trainer
distribution
poured
##5739713
conclusion
greeting
##jadiin
carelessly
selaluu
reflective
relaxing
clarity
indoor
diinfo
hydrofo
movie
proposal
template
yasudahlah
august
arrangement
manlang
brewing
nostalgic
dickite
##xcvbnm
priduk
chopstick
berbaloi2
trllu
whatsapp
sausage
fifth
seaweed
entirety
2m
2w
9k
aer
aaaaaaaaaaaaaaaa
bv
bast
cess
cks
cinch
dx
dile
dbd
dye
edition
fd
fung
hhhhh
hits
hills
hollow
iw
ized
iriman
iiiiiiii
jm
jal
joo
jbl
joke
jngan
kuu
kedi
kata
lous
laaa
mike
mort
mmm
ments
muted
mabilis
nkk
nhe
nagus
national
oooo
pppp
rw
ris
rick
rac
sssss
ssh
sjsj
s10
tay
tiger
uv
vow
vert
wort
wired
wahh
wkwkkw
xm
xpe
xda
##tract
##yer
##jkk
##hxh
##rest
##moga
##obat
##dag
##kai
##xjj
##xbx
##qy
##qn
##css
##caya
##wat
##23
##zbz
##98
##47
##inn
##elon
##elds
goat
gori
goodjob
##ancy
##ceive
##elli
qui
##arik
##arnya
##isc
##ilangin
shaking
reall
reze
##agues
stunning
thanyou
##igat
##aam
fasting
##che
##chu
##chlxxh
##aksih
##olnya
##iki
neh
sos
##ir2
##ica
buzz
thanksss
servce
associ
aging
##ffh
##eeen
buys
trend
trav
##ldl
brittle
##aaaah
allowing
ati
##estic
ark
ared
##perfect
canc
cohab
dijadiin
gais
therein
bgian
ceaaaaa
herb
amid
ample
ameen
##ihat
outs
makash
makapal
nyem
grest
span
storefront
##ddl
whenever
expecttions
##anyain
gsam
soften
softness
softlens
dama
ngad
didalem
struct
gmy
gmod
gmot
##sia
imposs
needles
##jdi
chatting
##jsjj
tasteless
gcur
20rb
semiga
##ddddd
##rape
okeokeoke
extract
royal
roasted
##irts
pua
puaa
interch
simult
dressnya
##jjh
assisted
takpe
langsung
##iao
##nerable
dipke
sira
causes
acceptability
textured
dealing
##baikin
corrected
silence
narr
swell
swatch
swift
15k
158
pki
detached
nagm
distin
floss
pasti
kayo
##nier
bhanya
paketanya
mantabb
sukaak
psn
kuri
##ibir
lucuuuu
##ggggg
ttg
mantapppppppppp
ditem
ditrima
segel
flowy
factor
periods
tau2
raise
jackets
sprung
##okey
possibility
staying
gval
banyak2
behalf
pinadala
contrived
kecee
dangerous
treasure
leds
galing
randomly
kemek
jujur
990
maxi
sedap
sedih
##packaging
sygnya
608
sampaiiii
crossfit
penjualnya
welding
32gb
pgiriman
##anjut
tgn
suffer
ratio
jazaak
eyelash
##kfkf
sudahh
vacation
betullll
seamlessly
grades
dpake
kirimnya
##alamin
bagusssssss
theres
abrasive
cepaaat
mountain
kedua
costumerku
kotor
hancur
efficacy
january
sporty
fractures
tutorial
constructed
rasanya
bumper
##xxxxxxxxxxxxxxxx
##mhmhmhmh
influence
alternative
puzzled
favour
wlwpun
##vdvdv
plisket
berlapis2
pretend
seblum
vehicles
multiply
nestle
sobek
sexual
tucker
##unggu2
occasionally
pimples
document
resposive
ciput
##aneously
festival
pampers
##makasihmakasih
stationery
counseling
housing
surgery
journey
routine
sustainable
excellence
##okokokokokokokokookokokokokokokoko
tacky
commercial
galaxy
nakabubble
vulnerable
yaampun
##re3en
pekinese
hydrofoil
1l
2hr
4g
4xl
800
ait
aks
bable
bush
caa
cult
daa
dhe
deee
dddd
east
gue
gve
gya
ghead
hb
hin
hall
kond
lbc
lashes
marg
nay
napak
oe
oul
oint
ppp
rash
raz
ropes
sight
tery
tle
tnya
tanya
tkt
vk
vor
vine
wing
yestr
##bear
##gart
##sed
##ham
##fers
##function
##fruit
##djd
##ipet
##kp
##kar
##kck
##krang
##ping
##point
##qh
##cers
##36
##errr
tha
thai
##inations
##ales
gom
prng
pruduk
##anjang
##ctory
##onal
##asal
##ivel
iso
isi
ised
quit
##isition
anh
##ilater
delight
##reg
ited
##leting
rechecked
stik
##usa
##ayang
##igig
fau
thankyu
suw
orderr
##olong
researched
##ands
##apr
youth
youuuuuuuuuuuuuuuuu
chalk
sopee
sooooooo
##iro
bukan
##antu
##unch
comel
ased
##anga
unr
aggress
timber
hearted
siplah
tract
dock
##ldld
seauai
debris
bras
gref
wrab
ates
ative
longgar
ars
host
baguuuuuu
coach
ima
##kkoj
bgi
propr
enk
litter
comfortableand
herein
plump
##xture
outsk
nyaaaa
handwr
recommeded
grace
##rimn
kakkk
leh
bangeeeee
flick
custku
gkas
##osity
glance
##anyaaa
##ists
slows
afterwards
messges
gsol
##ounding
tqtqtqtq
baagus
pleasure
ngisi
careully
##mentation
##inkle
##ugi
##nding
gby
gbi
gbarang
gmen
gmay
gdet
##mmer
creases
luong
emerg
##uha
##bohong
confetti
aph
trimkasih
trimmed
bangets
krena
akt
akas
akasih
kaeo
discol
##ahahh
mantullll
barangya
naideliver
dcoba
interior
rapiiii
guna
lowbat
solutions
thrilled
sincer
beret
makasihhhh
kerudung
gfast
maf
dikembaliin
lagiiii
scrubs
lngsng
gwal
##php
magenta
gakp
depressed
scratching
distances
##anaan
produk2
relatives
tells
polka
##jfg
##ggggggg
2023
gext
btl
ditoko
elementary
163
healing
urn
scheme
##arances
accompan
enjoying
invis
tajem
tableware
ots
msuk
appearances
behav
pelangg
hologram
dibibir
global
bisc
##oyx
feeding
terimakasihterimakasih
nsa
bdn
##ndndndnd
centim
explos
0955076
girlfriend
##crition
walls
dicas
disiniii
kita
##tttttttttttttttttttttttttttttttt
##shshshsh
hehehehehe
##akakak
kulit
commonly
mami
operation
tangled
recorded
recording
terusss
toska
ngajuin
bangeeett
conduct
gsoft
kene
tska
ngebass
yeayy
outdoors
ivory
irritation
harapan
dragon
domin
ukurannya
acquisition
copot
##bungkus
baguuusss
khairan
shifts
puzzle
cosmetics
terimakasiii
wilted
highlighter
american
armpits
embarrassing
bpom
nlng
sophee
indentation
##alagay
sukka
tranport
session
eliminate
branch
pierced
anticip
reassuring
mskipun
berkualiti
sketchers
kpn2
meatballs
concealer
obras
unstable
syantiik
chineck
allergy
soothing
dimensions
brocade
xboleh
##xitskgxn
channels
asphalt
telephone
cohabited
2d
4hr
4star
5g
5d
61
67
7pcs
a5
bth
bicy
cem
cage
dv
dual
diverse
eu
fg
fm
g7
gig
gver
gather
gata
hx
hing
hokey
ich
jut
jasm
jangan
jempol
kaaaa
kkkkk
kiriman
len
lon
lis
mz
mig
nive
napa
nnnnnnnnn
paa
pik
rd
races
sssssssssssssssss
uuuuu
vial
vai
yt
za
##jck
##jbs
##jama
##bing
##bai
##buh
##nua
##gel
##gas
##gun
##gold
##grow
##gian
##she
##sip
##has
##hill
##hob
##mother
##ook
##dj
##lp
##uhe
##uish
##kot
##kuu
##pay
##walitas
##56
##elets
##alid
##alers
goodly
goodness
goodvery
gooddelivery
##edom
##anx
##ception
##en2
##enomen
##oro
##oration
##onnya
##atum
ques
##arind
anter
##otong
sham
##lem
orn
sellu
alkal
exit
stif
##usai
notch
bears
specs
excit
respont
##ession
sooooo
##okes
lohh
serial
serge
thanksssss
##string
unpack
##ccc
conver
mystery
##eeet
disg
disgr
disgu
seb
blast
blud
noi
cancer
baggus
##uuul
gaj
slalu
ening
muchthank
cepee
plg
pling
skull
nysel
carriage
recommends
grape
gravel
grinding
feather
quicker
somehat
bits
##ggh
##ggu2
flush
flask
gkual
drama
drinks
##llq
knapa
kejait
kebaca
cloths
gspr
damaging
ngu
##udi
supper
##aian
##shod
##avings
##uke
##uge
moss
gbet
gbul
pejual
gdt
gdim
gpat
gpok
offense
pengennya
afforded
##jdbd
##aaaat
puts
##bbe
##bbing
##jsb
##jsbd
income
gcu
brgny
##ifunction
emina
##next
actully
insuff
laj
gene
semo
semalem
kren
transporting
coverage
belie
##zzy
cepatcepat
elf
mantulllll
puaaaas
ghad
surplus
bsok
##nsbd
mantapmantapmantap
stocked
liat
balot
balik
lamaaaaa
lamaaaaaa
formula
dapetin
bergo
benang2
angnya
ahan
ahah
assure
smpenya
tuy
dipack
##geon
heading
ered
roller
subordin
subtract
screens
sanggat
kira
leaks
magreply
ukht
informing
player
##iiiiiiiiiiiiii
##ddddddddddddddd
##kgkg
swipe
squashed
capsu
members
masuk
curly
paddling
detrim
enthusiastically
mkch
foods
perfumed
jugaaa
hija
terbaiklah
notebook
specify
husbands
terimaka
psnan
decide
ndnd
lmayan
pressing
ballot
largest
##dyo
drawstring
lagi2
dituker
fila
filthy
communicates
##rrrrrr
hahahahahahah
gstar
ordee
versatile
visc
gshop
invite
taught
bedroom
collections
ksks
entering
##lsls
msa
forgetfulness
bulbs
bby
gthem
pelanggan
calf
touching
recomendet
tdnya
charm
measures
feeder
##super
wlau
wlupun
removing
rosegold
slipshod
cups
##kakak
biru
fishy
mantaaap
memuaskann
ingredient
gimana
##bdbdbd
tokonya
bracelets
350
tgian
tipisss
turf
ganto
operator
dengann
degan
tailor
gnew
mengecewak
bbrpa
kirim2
pores
ridd
chrome
bangeeettt
rewarded
gilaa
##riendly
intentionally
rapiih
cepaatt
salomons
##ismaya
unsatisfied
pendek
##nfnfnfnf
burned
patches
incorrectly
okokokokokokokokokokokokokokokokok
released
division
developed
prestigious
ripened
sabah
dirap
keychains
##ffffffff
sehar
invoices
khair
kualitass
majority
teddy
airpay
sblumnya
saggy
tumpah
relaxed
##months
##suitable
diinfokan
delete
tengkiu
cingkrang
exaggerated
polyester
struggle
encourage
reservation
addicted
walaupon
contnue
pharmac
ladies
totebag
brothers
dibls
biggest
enclosed
immedately
##alalalala
strobes
huhuhuhu
shuttlecock
nursing
bordirannya
okokokokokokokoko
penguriman
employee
1234567890
throat
survivor
roof
sensiivity
dissappointed
challenge
village
smeared
reclaimed
astonished
dozens
chopsticks
lousy
##chlxxhddl
simultaneously
yestrday
aggressive
proprly
outskirts
##chlxxhddlxgmx
1y
4l
66
750
aak
aik
aahh
bust
cig
cue
ders
ddddddddddddddddd
eeeee
fib
fjf
gtt
gie
ives
jc
jem
kkkkkkkkk
ler
lom
lice
lur
lok
lawa
m3
mast
mari
mmmm
naw
nla
ncl
nipis
oer
ough
poles
punya
qq
rah
rushed
rips
rlly
sce
sorts
ttttt
tatt
ually
ute
vy
votes
wound
wkw
xiu
yoga
##tb
##yt
##jas
##aders
##nv
##gjk
##fol
##melon
##eber
##dv
##dis
##dbd
##lk
##lalu
##uo
##uv
##kq
##keeper
##xi
##cal
##cup
##cop
##cra
##zs
##5e
##erent
thik
thun
##elin
##eliv
##elipin
##aly
##alaaa
##itt
##itin
##itary
goy
goodgoodgood
##esanan
thebest
##ork
##orant
##iviv
qualified
##arar
##isis
anw
anim
shsh
itas
ities
rew
rect
reimb
selle
ininform
stones
##usnya
beud
smo
smtp
packged
##ames
##amnya
##amab
##rial
shopper
##akit
##ikn
respin
reseler
resolution
ony
##illes
##andard
##ainnya
ched
whisk
##oki
##ida
##idbd
##bsj
##bsus
asic
uncom
hab
haist
habis
conse
agus
##yesal
trk
##ssj
doble
defe
deffect
brut
brpa
coloring
moneyfast
blown
blunt
saja
sabar
hist
mei
imple
##kku
slugg
##aseh
enake
adaa
clone
plates
##ksn
pix
skipper
bgtau
starts
rede
stuffing
pervas
cepetttt
pictre
meri
tert
teri
termin
manteb
pursu
desider
##gger
bangget
pa2
paced
##osaur
expesive
waving
knot
gsim
softcase
ngant
suppli
bubblewarp
##erto
##erti
jdjdjd
jobs
gbing
gbon
gback
feelings
gmark
gdam
gpin
gpal
gpan
gpas
offic
crew
intensive
intimately
##jdn
##awak
##resent
incrust
##bea
emph
##opi
guava
retro
clever
clems
insisted
terimksih
aking
sampainya
directed
belom
bangettttttt
bangettttttttt
els
mantulllllllllllll
preorder
manners
simpen
dhdh
temple
benef
kerasa
11th
amounts
tubes
##sssssssssssss
sesusai
snee
snoo
howeverthe
considerate
tapos
kira2
preview
ukurn
sekli
##price
##prot
yahhhhh
kynya
lumany
swing
156
pko
cured
sampai2
distant
pasted
kualita
duoc
olive
##uuss
garnier
ajja
kmarin
casan
kalinyaa
politely
##balanced
nakap
palette
##meric
bottoms
dko
2563
potato
hurried
furry
24th
completion
nearby
invalid
##okeid
ketuker
cookie
lembu
meny
rmo
tlga
bandana
##clxitskgxn
winds
kepakai
##ufuf
bahane
##khxj
treats
##anggung
verified
verification
competit
hundreds
doubts
katanya
gprodu
lhat
wallets
sleeved
kembaliin
juar
germin
menge
dumat
tasx
wkwkwkwk
baka
bwah
unsafe
adeem
27th
##yeye
bingits
##asukasuka
token
penjualny
hsd
suspic
tags
welded
##bfj
wholesalers
hyper
ished
cocokk
introducing
200k
cyl
mirrors
kulay
mesennya
turmeric
45kg
##bcbc
dishw
cartrid
##armed
cooperate
named
kinv
##jreng
##nndnd
porridge
weighed
pengemasannya
consultant
lane
tinh
plaque
preparations
hoods
compliment
constrained
hammer
grandmother
burnt
tamarind
sofa
bersihin
##mantulmantul
watery
pagkakapack
domestic
blurry
sndri
##jljj
unharmed
siiip
windows
dizziness
stalls
neighbors
songs
basketball
minggu
ape2
borne
pomp
mkasihh
injury
hasilnya
obtained
significantly
sachets
reservations
addictive
cabinet
disadvantage
gusto
soaked
diretur
focused
dikecilin
chilren
psti
barrel
bublle
accompanying
##ngeable
nrawang
kindergart
diakalin
relationship
##htrimakasihtrimakasi
kgedean
pngrmn
criticism
category
disease
hygien
impossible
interchngeable
favourite
faucet
behavior
explosion
jasmine
alkaline
stifling
sergeant
capsule
1hr
3w
5x
5gb
96
a4
aan
aaaaaaaaa
bok
bile
bwh
bda
bella
cv
cree
cass
cater
duk
djual
dump
een
erg
gend
gna
gthe
gset
hen
hill
hdd
hrap
hmp
hhhhhhhh
ij
ict
ient
ihh
ikan
joos
kent
kri
knya
kuc
lig
lame
loun
lany
lush
mens
mog
nok
nab
nma
oat
obat
pays
rent
river
sca
sedi
sorted
tc
uch
vera
www
xy
xb
yap
yaaaaaaaaa
##tap
##years
##jik
##ader
##bos
##now
##nect
##gv
##giving
##hm
##hin
##fb
##fame
##met
##mic
##mss
##oves
##vb
##vis
##every
##dab
##lis
##iors
##uble
##uif
##kripsi
##xc
##x2
##pods
##cery
##cih
##wow
##zn
thab
thaks
##elight
##alik
prick
##ingg
##atoes
ises
quilt
##omon
toge
##ilnya
##peed
##reh
##reet
rein
reve
orm
sellr
sellee
ality
inex
stere
stalk
stelah
bebe
##igin
fading
facing
##aakk
##etas
##ulnya
awang
shocks
suuu
##aker
##olished
resend
resinya
ontime
##impro
##urh
##uru
##urangin
chass
sog
soale
##iram
##okannya
buah
buku
##anti
##bsks
thanksgiving
aspect
unk
unsu
uniq
unbalanced
hao
haul
##allalal
doi
##arded
seben
frost
dew
deod
brass
grew
allsize
##iie
aren
arang
toop
copper
coordin
ime
##uud
diem
tpis
tpii
recover
boo
boiled
boiling
##cai
enqu
ende
adi
ceaaaaaa
clover
ams
aming
##robe
standart
skip
nyatu
##crif
study
feast
newer
fridge
subscibed
spinning
contour
contnts
bagusd
##issapoint
##gga
wea
abt
abd
abiss
pajama
drained
glag
expanded
diffe
phenomen
apples
kne
knives
##nnf
keca
sukaaaaaaaa
sukaaaaaaaaa
gsis
gsil
gsle
ngon
ngasal
wraping
strain
##okokkkoj
compli
mocca
betimes
##ndkd
##ungin
joa
gbes
gbah
gbur
supporting
##owness
gmb
gmeng
gdig
gput
crad
crap
dahhh
luchu
foldable
gty
gtq
gtur
gtoo
gcal
##update
gui
retain
krang
datng
direction
##rga
educ
postcard
ganun
commend
cepattttt
puppy
sony
dtoko
wherever
fairness
thxx
simpl
dhil
solar
solder
solomon
balances
costly
aviation
footed
pakee
assy
fragrances
gfo
gfit
gfre
gnak
testim
dikrim
lagih
tubers
tujuan
##ucino
snail
flashy
pengirimannyaa
##kdj
lipcream
subhan
tapes
uka
##xxx
players
##iiiiiiiii
naro
autumn
swallow
15th
pngn
sukakkkk
##eship
absence
nkaka
durian
eyed
kuat2
kuyang
produkx
produkbaik
polo
polar
##jfjjf
lucuk
ngecilin
pushed
50pcs
mantappppp
picky
ditunggu
##dhdhh
spilling
filing
jsjsj
ordr
199
##oooooooooo
freeship
##ificial
oduk
gsek
colleagues
dinosaur
brick
rm1
waistline
##shsbs
pesanann
imagination
multifunction
cube
##kkkkkkkkkkkkkkkkkkkkkkkk
mbaknya
adjustment
##angganan
prompted
shapes
220
artificial
burg
austrian
ports
##hhehehehe
##hehehehehehehehe
nsns
gprot
scarves
seasoning
trnyt
ktanya
markoto
##jsjkskd
century
mainst
ademmm
##flly
diligent
seduai
tasnya
##jwjw
bakalan
gimp
rotation
dollar
tinggal
deception
suspect
adhesion
enjoyable
##katkan
sakanya
ziplock
hiks
##opers
aminn
candles
##jcjc
kulaitas
warnax
kereeeen
##mdmd
balesnya
pedest
accountability
operate
records
apparent
activate
nantab
comparing
tumbl
contributions
bagusbagusbagusbagus
techno
captain
riding
nakakas
privacy
kenap
gquality
napicturan
jelas2
pnjualnya
deserved
senengnya
aza
grandson
sebelah
tickets
##zhz
exceptionally
bungkus
gratis
bersahabat
grocery
sumpahh
bananas
chaos
tunggu2
butterfly
copied
moisturizer
##bungkusan
##pedisinya
pisan
robust
##3939
killer
dua2
teaching
concluded
akhirnyaa
##mfmf
faithful
buttocks
allocation
compressed
corrupted
tingkatin
mongers
nominal
##apisin
paintings
dispens
spatunya
decrease
sachet
launched
##luvluv
teeimakasih
insect
khoiron
residue
sodara
subscriber
gooood
recovery
stencil
mimi
deficit
advisable
##dfghjklz
##ptopto
explode
cameras
alkhamdulillah
pntg
clutch
masyaallah
yogurt
microphone
conditon
surrounding
upholstery
french
tggl
inconvenient
ikea
mendarat
embossed
narrowness
vinegar
accompanied
gataunya
##hobic
bludgeon
insufficient
detrimental
riddance
sluggish
pervasive
desideratum
incrustation
clemson
##khxjclxitskgxn
cartridges
1set
5s
555555555
5stars
ave
ather
aper
aft
aaaaaaaaaa
bday
banh
binding
cj
cough
dod
dyed
ej
ecer
fis
gases
groom
gnda
hq
hond
hix
irt
jen
jas
jur
jee
jau
jls
jiw
koo
kua
kpd
lod
lives
mya
nasi
omm
rok
ration
racing
sese
sjsjs
ssssssss
tib
tgu
tangan
tttttttt
ured
ulet
ujan
vas
vagus
wit
xj
xg
xu
yyyy
zo
zzz
##try
##jol
##bas
##bid
##nag
##nic
##nsh
##nha
##gen
##gle
##gard
##gular
##g15
##sb
##sv
##hot
##rot
##rah
##reng
##rali
##rative
##oar
##ea
##ebr
##lt
##lw
##lat
##iction
##kes
##xpect
##pang
##qt
##qllq
##cour
##word
##1g
##zo
##zard
##06
##5d
##3x
##odod
thou
##in1
##inence
##alks
##iter
##itten
goo
##anl
##oni
##atip
##atiin
##isa
##isit
toppp
##pem
shab
##utious
ito
iti
itching
reat
reck
##aget
##aganda
alu
alle
alph
insider
inimah
stage
stab
stems
##ayas
beber
fac
thankk
sme
smapai
##child
##etannya
##amel
##amura
awl
##there
##add
##adar
sunn
supr
okkk
okkkkkkkkkkkkkkkkkkkkkkkkkkkkkkkkk
reserved
##apat
##embang
##urnya
##urunin
valu
church
chairs
##erep
##okkkkk
buds
##idnd
##uman
##ustuhan
##ango
##step
una
unread
unprof
conca
consi
mybe
sia2
column
doain
dobel
mature
deb
brings
grece
grecom
saj
##iiin
arri
arise
##ommended
bagg
bago
bagian
mugs
impe
##uuhh
diab
gact
gaff
beach
recyc
bgtttttttt
slmat
cheapness
proced
ena
muchh
aduh
ceaaaaaaaa
cekout
clasp
amg
##ksms
hasn
pipel
nyal
##rylic
carried
handic
recommed
nextime
redd
perip
pernh
##rimakasih
kakkkk
meron
stepped
bagusa
leading
sendiri
bangttt
##rican
##nye
##outfit
shoebox
gkom
gkem
abundant
pai
dres
sye
glong
glitch
secon
##istrat
bestt
twins
pesetas
suitcase
overalli
tqtq
ngl
ngasih
haduh
corn
coral
10kg
10days
scored
scrape
##aves
##ugs
##ndj
##ndb
realistic
gmel
gmult
gmana
differently
wrongly
gdk
gdil
gpk
gpast
gpost
passes
passion
paired
creative
lub
intest
needless
##ulloh
certainty
chatt
##jsjd
incons
seeped
gtak
gteng
gclo
##ollip
##epend
coupled
dau
##whw
insist
lau
botched
corresponds
acrylic
akalin
patients
partial
sampeny
pinky
rempel
cmco
walnut
cardi
transports
kaca
##azard
undergrow
ggm
restrict
promisc
revalu
##oooood
mannt
manila
nao
muraahh
ghel
ghal
internal
bahany
thxu
##ceptive
watermelon
rubs
tempr
teman2
kkb
berb
berhat
advantages
##jjr
nhah
nhiu
nhieu
langangan
tests
hargaaa
harganyaa
##uuuuuuuuu
##uuuuuuuuuuuuuuu
dipacking
cautious
##gege
scrap
samaa
military
chargers
subsidizing
sizable
##kdks
restaurants
doubled
marsh
breakable
##have
puassssss
luma
personnel
swelling
memuas
pkt
airport
mandatory
sukakkk
##mmmmmm
curve
huhuu
nato
kuwalitas
garments
stretching
##ibay
pushpin
salesman
mala
kerennn
igh
164
terribly
submitting
bio
##ifications
keypad
marketplace
gsec
woww
aamin
baguusss
maintaining
addressed
##mbcch
gchar
kepotong
dibener
dibubble
wonderfully
kwkw
bahannyaa
mbilis
county
maam
payments
terimakasihhhh
jumper
boarding
volumes
360
hesitated
scents
cellphone
##dhdhdh
melon
ibng
bdbd
femin
malls
gadd
gadik
mngkn
mnggu
##fhf
drople
rotating
minimize
penjualx
axis
slime
gcompl
kesetnya
owl
disinfect
cycl
cycles
selfie
rata2
gblack
eyelin
priority
measurements
achilles
pcx
popsock
gpengirim
organize
troubled
##eeeeeeeeeeeeeeeeeeeeeeee
bentuk
operating
ption
mentang
tolerate
mula2
bunny
attracted
kinancel
grid
wangii
##jrjr
sorex
thermal
pokoknyaaaa
latte
gilak
economy
parked
nexs
gabakal
pigmentation
jelas
shallow
hoodie
flavour
celebr
developers
gcepat
rumpled
student
studying
##nnsns
tambh
##llllllllllllllllllllllllllllllll
venture
characteristics
pagkakatahi
##uuuuuuuuuuuuuuuuuuuuuuuuuuuuuuuuuuuuuuuuuuuuuuuuuuuuuuuuuuuuuuuu
clamps
gbgt
squeezed
##jsbsjsbs
primer
vibration
occasions
hadehh
disappeared
rosak
aslii
##okkokeid
plywood
optim
irregular
kabarin
kayanos
clarify
supermarkets
compression
corrupt
tingkatkan
regrettable
approaching
responsiveness
belanjaa
smudged
synthetic
waktu
spatula
##harap
recognized
##shield
batrei
cabinets
rayon
documents
losers
coyne
floral
gjaz
stabilize
lebaran
pkknya
woozy
discontin
diplastik
industry
horizontally
##xkhchlxxhddlxgmx
souvenirs
nitip
eventhough
mantuull
triangle
doctor
outwardly
overflow
skept
spreinya
ketekuk
okokokokokokokokokokokokokokokok
fertil
permanent
quieter
tanya2
##ilateral
biscuit
centimeters
bicycle
excitement
disguised
##alaaajan
beneficial
kindergarten
nokia
togeher
chassis
uniqlo
##okokkkojkkkk
2c
2th
3l
52
87
86
a7
aint
ayy
bong
bie
bater
borrow
cay
cone
cst
caw
dbs
dite
dance
dart
dna
dlam
divers
ehhh
elet
eje
ected
eeeeeeee
f1
fet
g8
gple
gting
gju
hl
hw
hhhhhh
hilt
iff
ios
j7
jaa
jet
jab
jep
kend
kong
kkkkkkkk
kantong
lal
lou
lic
lbs
laaaa
lake
lac
lllll
lalalalala
lollip
mpe
mdyo
nim
nac
nasa
oles
oengiriman
pus
piss
pny
pains
pede
qo
qng
qwr
rere
rely
render
s3
sig
sah
sought
tass
task
tggu
uck
vape
wake
xn
yam
yyy
##tong
##yh
##jb
##bak
##buk
##sc
##sum
##hal
##rp
##run
##fum
##food
##mind
##mask
##vo
##vit
##ece
##dt
##dating
##dra
##lak
##lbs
##litas
##ians
##iated
##uar
##upp
##uanya
##uhhh
##kj
##kb
##km
##kv
##kjd
##kins
##pens
##pants
##qwr
##cp
##can
##58
##32
##eren
thui
##inan
gob
gour
gown
goodluck
##escent
##ceived
##enak
##orong
##orry
##onusin
##ataran
##asinya
##asssssss
produl
quasi
##iso
##isss
shd
shay
shshs
##uts
##recommended
##leaders
repet
oring
##agxk
alan
exfol
sellerrr
storm
stairs
stiap
##ppa
beer
beast
##aaann
##aaatt
smal
smaa
##chch
##chron
##etime
##uls
##ulu
##amam
speck
supe
##akang
##ola
##oler
##iknya
resul
##andar
##imar
##iment
##vey
##urable
chipping
##icious
bug
burem
bugs
##unn
coment
##bsns
servicing
unbe
unsuitable
conc
agg
shopkeeper
disaya
diselipin
sections
matagal
frank
sacrif
##othe
atw
atas
atch
atter
arin
##ettes
greatand
bagt
shipawesome
diorder
gav
gabs
gabe
##kkf
bgitu
slant
##uret
prove
enaak
ady
clana
clogs
##abay
evident
##nga
outboard
makin
makad
maksh
skn
nyh
nyan
nyerep
standardized
yae
yaw
yaallah
friction
repurh
cepettt
kaki
spa
##healthy
##assih
steal
terang
cutee
desc
descrption
descrition
flas
gku
gked
safi
aband
sync
theme
glah
glare
keci
sukaaaaaaaaaaaaaa
poorer
gsens
tqtqtq
baca
ngr
ngom
ngirim
ngrereply
tek
teal
##inkan
transfers
corr
complement
##asiin
##weg15
##ungnya
happily
gbh
gbad
realy
realnya
##iiiih
##artments
gmk
gmic
gmbar
gdri
gpn
gpass
crank
crashed
crane
cravings
barabg
passably
##aterial
penggiriman
instep
giftnya
highway
chats
gta
gtap
gtop
gcq
gcou
gcre
gcost
brgx
definite
##ashfjh
##whuif
20th
battle
terimam
selernya
selipin
modified
sweating
relief
seminggu
krese
##dddddd
akin
sampaa
sampaai
remarks
##belnya
attack
attend
stories
discred
ede
beliin
community
downs
restr
restored
roi
modelny
media
pucet
setup
mana2
dtrima
ghy
gho
huawe
intermit
thankyouuuu
marking
stocknya
12m
homemade
##bdbxbx
replacing
tempted
tempel
##hhhhhhhhhhh
lamm
avoc
sinend
sinii
berat
bench
esc
angat
pakcing
##jjw
##jjz
gfree
tupper
##uuuuuuuuuu
##sssssssss
courrier
numerous
pengirimannnya
endless
100pcs
##baiki
sangay
magnda
administrat
##iiiiiiiiii
murahhhh
gamba
gambr
swivel
##lahh
159
protr
pngen
masy
detox
mka
understandably
jugaaaa
paketny
##kyuu
sukaaak
rubbed
kuat
kuya
##jfj
##ahaja
equation
brushnya
termurah
illah
illumin
gey
##ubah
diterim
ditambahin
nerima
dedeliver
dedicate
films
naked
162
##adaan
urng
dkirim
bioa
author
honesty
keycap
##onym
invitation
gsekal
bedain
kecewain
anakq
perhatiin
basreng
pulses
gthan
##yyyyyy
##yyyyyyy
pina
calam
windshield
dibonusin
bleber
petnya
shocking
presence
preserve
charity
seedlings
saucer
sekaliiiii
pembeli
22nya
trmakasih
wlopun
circles
ckit
gprice
iket
sometime
kemarin
eeh
mixer
##untled
230
separating
muslim
dilapisin
viewing
labeling
gambarr
dumting
mantaaapp
negot
kurng
kurangg
baked
trimaksh
dropping
60cm
##xhx
##xhxjx
##nsnsnsns
digambar
profession
pkokny
gcomfort
offering
##oeoe
maship
kepakek
olshopnya
35k
semuanya
gandoss
ensures
glem
strech
stops
bajunyaa
decorative
murcee
rejek
alhamdu
walaupn
namn
gmantapp
##oooooooooooooooooooooooo
conformity
gprov
nympek
gsyuk
sesuaiii
preparing
physically
wiping
celana
rumayan
princess
millions
negligence
binder
##kksks
padahl
exercising
pokonyaaa
okokokokokokkokeid
kemasanya
fuzzy
sepatu
diperhatiin
siiiip
pumas
wardrobe
##nnnnnnnnnnnnnnnnnnnnnnnnnnnnnnnn
tendon
##xgdh
trainers
##aphazard
engineering
gmakas
gpacking
rinse
orthotic
bangeeeett
mesk
munaf
certification
sarawak
orchid
kimchi
tengkiyu
kwalitasnya
aaaaaaaaaaaaaaaaaaaaaaaaaaaaaaaa
proposed
expendable
165cm
wtf
decreased
asd5g
cheerleaders
##nyamnyamnyamnyam
disconnect
mechanical
gwork
fingerprints
fussy
nalang
ocean
berpungsi
##jjdhdjsjkskd
florals
nkakad
ladyfame
##finitely
appliance
jsjsjsjjdhdjsjkskd
bkln
##komsel
resilient
expensiveness
jazakallahu
1week
celananya
europe
mushrooms
konsumenku
illustration
ternyataa
##ditkhxjclxitskgxn
execution
okkkkokkkkk
postponed
dikemasnya
jordan
transmitted
ceramic
terjangkauu
rengon
dikardusin
router
resentful
diketerangan
improvements
kalimantan
associated
cancelled
structure
nagmessage
anticipated
reimburse
history
enakeun
suppliers
snooze
hmpir
cradle
pedestal
unprofessional
concave
pipeline
undergrowth
promiscuous
revaluation
berhati2
dibenerin
##drawn
1d
2kali
3th
51
72
aat
apt
arir
aaaaaaaaaaaa
bery
bsh
bcs
bbbbb
bbbb
cik
cee
casi
cions
cga
dach
dude
eo
eet
eie
ement
fed
fen
g9
ghh
ggg
gart
gcep
gros
gggg
hsh
horn
haphazard
ired
jing
jss
jsh
k2
kbs
kirm
kde
kats
lk
lw
luu
llll
mack
mcc
momm
mie
nw
nch
nets
niii
nunggu
ook
ost
oval
pck
pah
ppl
poduk
pvc
pppppppp
qt
rul
rame
ries
rda
riz
rats
rrrrrrrrr
sv
sul
sant
tile
tabar
tanyain
ues
uri
uuh
vm
vom
vice
yed
yar
yess
yard
zeng
zinc
##ti
##tell
##tent
##tail
##jok
##jaga
##bil
##brid
##note
##gc
##san
##hai
##hib
##rx
##frm
##mnya
##mine
##mates
##maka
##oard
##db
##d5e
##iid
##uot
##udd
##cb
##cult
##wide
##262
##zic
##46
##37
##82
##oder
thy
##inent
##alty
gooooooo
##ander
##ancing
##ora
##orily
##aten
##asdfghjklz
##ivate
ising
ision
isnt
quaaaaaaaaa
##omantap
##arap
##ister
anl
##ot2
delii
shared
shru
##ut2
ornam
##ags
ino
ined
iness
inih
stil
stim
stok
stlah
beam
##igue
##igree
##ometers
faces
##etly
forest
##ulul
##adhan
suuka
sume
##akt
orderly
okkkkkkkkkkkkkkkkk
resleting
##andum
##imana
##iminary
##ainis
youuuuu
##ural
chua
chains
nicee
##endment
lover
bump
##bsg
asus
aster
aseli
##ights
ups
wellpack
unre
unhealthy
concess
agency
##allu
sipppp
acces
dismay
matured
fryer
deceptive
brfungsi
bruntusan
blink
saudi
sa5d
cheesy
chekout
longev
##apple
arn
##intely
##percaya
hoax
popped
bagi
coal
coals
dif
died
difoto
gair
##kkww
bgni
slop
slipping
bogus
ene
ceaa
cepar
cewa
##ttled
clot
clown
clipper
hereafter
smallest
plis
plans
##abisan
amd
amendment
##ngat
##ngnya
##roh
overhe
outernya
arranged
skid
skills
nyu
yauda
fect
repellent
spf
firmer
tern
terp
terdab
cutie
cuteee
lek
sendal
bangeeeeeeee
conditioning
##icheck
freeong
freezer
gkm
gkay
gkere
paw
drastic
driving
drivers
drunk
##osure
##osition
gleng
waves
##istent
pham
keje
keingin
pesn
suki
gsome
gsqu
tqtqtqtqtq
softball
ngn
nges
careflly
hadeh
teeny
##acin
##acle
jdjdj
105
scoop
compartments
##ndjd
##ishing
gbaik
realme
peb
peoduk
##rophobic
gmed
gmad
gded
gdah
gpot
gpict
salad
salicy
##mmh
defintely
crepe
lup
##sif
intends
sensation
perfection
putus
##bbz
##bbly
gtel
gtal
gtuu
gcy
gcat
gcir
gcoll
##epin
letoy
lovel
daug
dawn
dairy
##opy
##open
koh
##whel
confiration
apes
apaa
batman
insa
insol
terimaa
laff
##baek
ungu
selama
bangetz
sweets
##askan
region
fineness
sampnya
##return
niq
discunt
##ahahahh
nevermind
recomendedd
gger
gged
ggar
ganyesel
belts
beloved
bangetttttttttttttttttttttttttt
extr
downhill
restarant
roots
eliver
promote
##ooooood
manually
nause
warb
gharg
ghahah
penalty
bahn
pasmin
infants
liability
##bdly
##bdjd
##hhhhhhhhhhhhh
pokon
formation
##bln
satisfactorily
tysm
dgambar
benar
anger
ahaha
ahirnya
bosss
##jjx
morbdly
gfil
gflo
nhug
smpk
##ysy
bgus2
acceptance
eraser
severing
##pppppppppp
100ml
indis
sanga
styrofo
finds
substandard
breakage
breakouts
##vvs
statements
##iiiiiiiiiii
##banding
yeu
choc
choppy
brownish
depok
1500
pnghnt
pngrimn
increases
entah
antap
haturn
padet
detach
deterg
mkin
##rupt
kayu
hargax
nkalagay
duitnya
decline
kmna
police
jaj
lmbut
##gggggg
sampe2
malfunction
ttup
nights
gegara
solids
ginian
advertise
ditunggu2
tipu2
photography
filters
demolished
gye
consume
gstre
paler
palembang
pengirimaan
urch
widely
umpteen
bibs
ginv
freedom
pano
flew
odu
##pair
visited
gshi
dries
rais
ically
classification
dining
cooker
otw
ayos
distinguish
incompat
gvis
rm2
ashamed
kancing
kualitasny
pelastik
contraction
cakepp
ringan
##nnnnnnnnn
kecepetan
preserv
deviation
approval
roomy
pemg
karma
ckckck
gdef
kta
##dhdhdhd
##skalaaajan
slips
gemess
##uaskan
pmbeli
jaitanya
profits
uhu
lainkali
berkualitas
gadget
musical
viewed
##color
mantaabb
lapaknya
appreciation
recomded
nutri
nutupin
unsure
mntapp
situations
crumbs
crossed
warpnya
victim
hrsnya
welcoming
##overs
splend
splints
hybrid
madame
framework
premises
applying
hikes
owing
breathes
##ethank
disiniiii
bubblewrapnya
chestnut
##buat
sprayed
aining
tgal
semuany
kdep
kuliatas
warna2
achieve
baju2
##mdkd
ganti
maple
croch
headsets
streets
mudah2han
dengab
udahh
udahlah
regarded
terussss
bangeetttt
##uwai
##qqq
captured
astic
bingitz
##however
##wrapped
##nndndnd
thermos
##kdkdkd
conforms
##gdbh
condens
alhamdulillh
warnanyaa
chanel
bucket
lembutt
tnp
tnks
55kg
jualannya
tiep
professionalism
##dhdhdbdbd
cheesecloth
batrainya
warehous
ekspetasi
##biji
##jejejeje
binigay
cgaaa
divided
thighs
attachment
racket
shaft
bublewrapnya
sabunya
##nznznznz
hadeuh
mukenah
gojeknya
shining
knocked
##jdjdjdkd
killing
distributed
##mmmmmmmmmmmmmmmmmmmmmmmmmmmmmmmm
puzzling
magnitude
hnay
sharing
judge
teacher
lnggann
newspapers
akhirny
##bbbbbbbbbbbbbbbb
dbuka
meski
nmr
kerdusnya
pilih
marathons
jiwa
accelerate
corruption
brackets
supplements
sophist
smudge
##warna
dabest
##utiful
ranging
sidoar
asdga5we4g5
bawak
##4awe1g
buangett
emotion
##htrimakasih
barcod
investment
disapointed
diretly
templates
bulkhead
hihihi
browse
##okokojojo
temenku
smpaii
succeeded
yuhuu
isolated
ordeed
seletingnya
nakakadisappoint
##dhfnf
kedepanya
soflens
succesfully
nutrition
preloved
preliminary
echoes
##although
aloever
##steady
discovered
elderly
3000i
ngaret
fulfill
exclusive
makassar
##jojokokkkojkkkk
density
vidio
##botol
proportion
keringet
deposit
deskripsip
duplic
##penghantaran
anchor
ceoat
sympat
128gb
dependable
encapsulated
bermanfaat
memorandum
ditingkatin
jalan2
ditempel
segelan
razor
teryata
handwritten
bangeeeeeet
gakpapa
jutek
##nsbdskalaaajan
cigar
scene
tattoo
goyang2
smoother
pursuance
sneezing
mengecawakan
dishwashing
hygiene
lounge
lanyard
abdomen
diffeence
compliance
assyiap
reckless
##children
impecc
##mbcchditkhxjclxitskgxn
skeptical
lollipop
##weg15d5e
huawei
intermittent
avocado
tupperware
bioaqua
asd5g4awe1g
##26235
1hari
2cm
2hari
3k
4k
46
5xl
6x
9m
a2
aus
aaah
aaaaaaaaaaa
aaaaaaaaaaaaa
aaaaaaaaaaaaaaaaaaaaaaaaaaaaaaaaaaaaaaaaaaaaaaaaa
bess
bree
bake
bcoz
cct
civ
cny
cities
cuss
dion
dash
dari
dys
djdj
darn
ddddddddddddddddddddddddddddddddd
eve
ehe
eeeeee
erima
easter
fc
fon
f11
g1
gstand
gained
g12
hj
hamp
hampe
hhehe
heee
hdhd
hhhhhhh
ior
ira
ips
jb
jck
jok
kast
kee
kett
kite
kks
krim
kash
kaga
lp
lion
lee
lest
lately
m6
mare
mmmmmmmmm
mggu
nth
nir
nnnn
ool
ove
ode
oven
ooh
overe
oakes
pell
pent
pate
pals
pcking
rx
rays
ried
rog
rains
rrrr
sq
ssssss
sesek
ssssssssssssssss
t4
tally
trem
tier
tamb
tension
ux
uan
uai
uju
uuuuuuuuuuuuuuuuu
uuuuuu
uuuuuuuu
wy
wre
xin
yon
yaaaaaaaaaa
zj
zbz
##yle
##jut
##jection
##jshs
##jkh
##aus
##aann
##bgg
##bound
##bnt
##nw
##hang
##harga
##rh
##rf
##rom
##rup
##fkh
##mar
##mnt
##marks
##oam
##vsh
##eett
##even
##dn
##dly
##laah
##ibs
##iance
##iude
##uang
##ubl
##kss
##komend
##xz
##piece
##cw
##75
##43
##4ga5we4g5
##350
##eria
thom
thok
##inous
##alas
##alhamdulillah
##itz
gopp
gord
##ano
##anit
##anannya
##cek
##enjual
##atin
##assss
isk
isiny
##isode
shy
shu
shark
delivers
delivry
deliverythe
##rek
##entuk
react
rebel
anded
##aght
##agana
alon
albe
exsp
inel
sellerny
steep
notifications
bete
beats
##igo
##igible
##igma
withered
withdrawn
fastness
##chs
##chure
##etion
##ulum
##amental
awes
awkw
##adee
##akitas
orderanku
oked
okke
okeeeeeee
okeeeeee
onkir
##illaah
##ahs
##apy
##urr
ches
ching
chac
cheeks
soy
##iring
##irst
##okee
bukak
##uma
##uming
##usting
sering
##unities
##bsbd
ases
##ongnya
unwill
unlim
##cci
##allaah
timer
siy
siep
trop
trapped
disi
disres
disney
disimpen
mats
fru
brain
##aaaak
sabi
##pting
heated
hehhe
hehhehe
poo
posh
meh
coc
im3
##uuus
dian
diing
recived
bgini
slice
slid
boc
boz
satisfctory
##petnya
kga
enlight
cek
ceaaaaaaaaaaaaaaaaaaaaaaaaaaaaaaaa
anyaa
clim
clna
ami
ified
standby
makny
superd
superiors
skate
nyer
##cript
handker
grind
grasp
grumble
redem
perm
perch
permint
repent
kakgood
kakmaka
spike
sparse
mantuuul
cutter
bagusssssssssssssssss
bango
##rices
##ddagxk
mayoutfit
gky
gkl
abi
abayas
glg
diffcult
##ansi
phuk
purchsing
##nnc
keg
keen
kefoto
keabisan
sukse
evenly
gsin
gsen
gsang
tq2
softened
daylight
ngorder
ngilangin
badge
lgii
lahiran
didlm
strang
strokes
straght
hadiah
##aco
##uality
##achute
scoring
compose
composition
##uuuuul
##wewe
handsfree
##ung2
joined
josssssss
##ishment
gbed
gben
gbig
gbro
gbub
peak
##iiiiik
gmng
gmuch
gdin
gdic
gdid
crust
crab
password
func
dahla
##siw
baikkkkk
seeking
gcard
##rti
matcha
topnot
definately
definition
##because
##bevdvd
##upup
emas
emblem
eminence
minion
mineral
couzic
gucci
kole
api
ap2
apric
aplik
20cm
modify
mono
reluct
provded
accent
akes
akasi
partners
cardoard
attiude
hardness
nihhh
undershirt
bookings
gging
okehh
##arian
puck
##auan
bngtttt
muraaah
ghn
ghg
ghs
ghigh
huf
refunding
motors
bsok2
##004
##00mah
##nsj
penipu
photobook
bahnnya
passss
thxs
##alized
markers
dhs
gunting
lowered
stocking
libr
libby
baler
lamin
lambt
poke
pokemon
formal
##tenance
##blesome
kkd
makasihhhhh
escape
##aaaaaaaaaaaaaaaaaaaaaaa
keros
115
parag
parahhh
parachute
##liest
##cewain
gfin
gfle
gfun
gnar
gnaw
powered
##lued
masking
maskernya
smpainya
mao
maid
maayos
diksh
ular
walker
laggard
##nernya
dipesan
clearance
sesuwai
snake
snails
lngkap
##ekung
improving
100cm
independ
subsequ
correction
gwa
gwell
disappointingly
complied
##joy
hrgnya
kokk
##bhs
sila
sgs
statue
miscar
miscast
miscell
kyaknya
##msm
gamas
membr
protest
pketan
buses
cracking
ently
antaran
##mmmmm
curry
imports
mkapal
rekomen
##ruction
##eshop
pasting
##eeeeeeeeee
terimakash
gaps
gaping
30ml
powering
sukaakk
duit
harmed
benerin
ajha
kmn
##kwkwk
cashew
##gaweg15d5e
polos
lmpu
lucrative
ngechat
ngejreng
##balikan
sampeeee
malady
malobat
nyampainya
50cm
50ml
drawer
mantapppppp
gev
##aahahh
wishing
tipu
rijek
##dhdfs
sunny
sunlight
filed
elev
ility
169
ombre
##uuuul
brangx
gstri
pengirimam
190
bangey
pnjang
expiring
mgk
hurting
ginal
panc
panels
orgasm
raft
##ohan
armour
marketing
gsemu
kayaking
collected
##zzzzzz
ank2
2014
classes
dinner
ketipu
listing
##ghxjj
ayo
begini
##lsl
##conn
besar2
gvi
rm35
pounding
pulaaa
##pnnya
holster
gcho
clockwise
wondered
##khd
moms
vermic
##rban
dissatisf
##lication
australi
brochure
sawtell
jumps
karn
specials
portability
##hehehehehehe
gproduct
lunt
earrngs
limp
175
##bzdag
kembali
doorstep
bdan
females
ihi
##ambot
tower
profitable
telekung
uhuy
maintenance
pulling
gadv
komen
muslin
unfair
birds
evaluated
preferential
typing
##jgz
##jgjg
##bsbsh
##bsbsbs
strips
awaiting
wedge
sampaiiiii
##lights
crumble
##333
bnaget
kelipet
puncture
tagal
ngepress
mails
gconst
apartment
gcomple
roads
lipsick
hydr
premature
gexpl
downloaded
stride
striking
ecpat
flowering
##shshsh
rigorous
semuaaaa
semuanyaa
gandaaaa
kulang
resellernya
destroy
pantesan
malemnya
jossh
balesan
pedigree
turunin
gantung
##bags
troublesome
mixture
dengam
scammers
ional
affecting
episode
deg2an
jadii
jadiin
ilangin
##uwuw
500ml
gmantul
baguuuss
##asukasukasuka
perforation
gpem
pecah2
giler
ceruti
dapt
exceeding
sesuay
furnished
sblm
buckling
grimo
electrical
jelekk
squeak
tsampai
pwede
##kkwkwkw
hanoi
hamster
grandma
springy
stopping
##nnsnsnsns
semogaaa
mudder
overpron
eksp
ekspekt
gluing
beaten
grooves
##draw
fluores
tutu
okokokokokokokok
dragged
gberk
http
rabb
kurirnya
gcontin
sabun
clamping
okelahh
dirag
dirum
baguuusssss
searching
erty
odds
##klwl
ukuranny
laws
papaya
shrill
##405739713
spoilt
gearbox
kuning
breastfe
dicobaa
##muat
mksihh
gaccom
##mgmg
65kg
##jadi
##jadah
prtama
ucuc
muna
upgraded
discussion
dfoto
ragged
facilities
certific
multiplication
smoking
ontario
usahanya
##tqtqtqtqtqtqtqtqtqtqtqtqtqtqtqtq
5555555
sletingnya
movies
vietnamese
##paket
component
recognize
proposes
cardigannya
folder
mechanism
kebesaran
qwertyuiop
tester
syekalii
unsettled
##xdashfjh
fundamental
penjul
keluar2
uploaded
grapes
goooood
leggingnya
cwok
##doydoy
##100koin
philipp
penetrate
oreder
speechless
resilience
declined
jazakumullahu
##ethey
okokookok
boskuh
dipengemasan
jimat
rcvd
determined
hospitable
kasiihh
pineapple
##girl
goresnya
##omplen
chapter
scatterings
apalgi
interface
kaleng2
sempurna
coincidence
syukka
pelayanannya
credibility
cockroaches
tuspinnya
ikhlas
silhou
khayran
kediri
##cssgf
puaass
margin
discoloration
disgruntled
cepeeet
seharus
##elivered
animals
consecut
redeem
terminal
suspicious
kinvara
enquiries
phenomenon
mainstay
kenapa2
honda
nasib
##qllqnsbdskalaaajan
consiered
reddish
feminine
droplets
eyelinernya
##xkhchlxxhddlxgmxmbcchditkhxjclxitskgxn
repurhase
administrator
arirang
casio
deliious
concessions
sa5d4ga5we4g5
longevity
asdga5we4g5aw
##okokojojojojokokkkojkkkk
deskripsiproduk
asd5g4awe1g55
2l
3s
3kg
3pc
4s
5l
74
73
888
a6
ainya
bbs
bih
bbd
cend
cih
cted
cali
cking
crimp
dks
dana
dvd
dmn
dyn
dashing
ef
eed
ero
ection
ehehehe
fx
fears
fence
fare
fath
gble
gion
gur
gee
gug
ghehe
gaman
hom
hue
hbs
hord
hcm
hors
hhhhhhhhhhhhhhhhhhhhhhhhhhhhhhhhh
iik
ially
idd
ilah
ikin
iiiiii
icheck
jeng
jung
jjd
jamb
jlek
kle
kue
kter
kwn
kkkkkkkkkkkkkkkkk
kute
ksek
kesek
kcepatan
las
lord
lage
loka
mice
maaa
maz
maps
maah
mump
nel
ners
nnd
nnnnnnnn
n95
ov
ody
ooooooooo
ount
ocr
pq
pist
pods
ppppppppppppppppppppppppp
rj
rly
rend
rif
rgb
rods
sits
ties
taz
tones
tahun
ued
uul
v5
vot
vint
vague
vxgdh
wb
wd
waa
woi
watt
xck
yupi
zy
zone
zeb
zzzz
##jm
##jeb
##jkn
##bery
##bet
##bdd
##buy
##git
##gnya
##gown
##gsg
##sin
##rk
##ray
##rack
##fone
##fish
##mc
##mad
##mdulillah
##mffaf
##oz
##oing
##oise
##vely
##vdfs
##eon
##des
##dmh
##lot
##last
##ihh
##uq
##uarin
##kdd
##xkx
##pq
##pink
##pile
##pannya
##post
##cod
##cat
##cas
##corn
##cling
##caps
##wain
##zel
ths
thi
thri
thic
##elai
##alh
##itious
gooooooooo
goodgoodgoodgoodgood
##edislike
##ingan
##enin
##orr
##atis
##asil
##assem
##ellar
##iven
isan
isang
istim
##aring
##arming
##isl
anku
##oty
##otnya
##ouzi
##ilo
##ilin
##ilalamin
shp
shaa
shush
shamb
shaken
##utas
##entious
orens
orog
##agag
##agang
aligned
inver
infect
inade
inorder
inpods
stood
beet
pricegoods
##aahhh
withstand
withdraw
smakin
sminggu
##chg
##chief
##eted
awettt
sue
oka
reson
##apan
##ema
##eman
youuuuuuuuuuuuu
nez
responn
responny
chaff
chaf
soi
sobr
whip
##irob
##oken
##okay
loo
loi
loans
locks
buny
##full
##idak
##bscribe
asan
asing
##ongrass
unpl
unggu
unimpro
concept
agin
agal
##ffron
heartbe
doorm
sehat
frm
fring
fray
frames
brs
brl
brav
blj
blo
blower
receives
grev
saffron
wry
atan
ator
##ettel
muatnya
shipout
coats
##uuka
dij
diap
dijual
gax
satuu
##kkxhxjx
sller
slanted
##feels
lovee
muchi
adm
adver
adher
usin
neater
plot
plum
planggan
lighten
lightest
ific
overwhel
disappinting
makaci
makaksih
##engkap
sken
skarang
nys
##dhx
##dhand
##dhood
handbody
recommanded
gras
gracious
subsd
starch
repay
republ
spam
lessons
##edient
##ooh
merry
contamin
bites
bitch
bitten
mantt
mantao
##pective
##gganan
conditioned
##ichat
flights
skins
wealth
steadysteady
getaway
custamer
gkasi
abg
ables
pao
drumah
glin
##lls
##ller
secinta
jgan
jgak
besttt
slowrespon
twel
kna
keadaan
gsun
gswe
bauk
bubbled
plek
pleasing
ngy
ngs
ngir
ngasi
ngdeliver
howl
transl
corre
jdjdjdjd
10m
10x
10cm
scanned
##avs
gbw
gbis
realict
##wnw
pekt
gmaa
gmakasi
gmurah
gdel
gpul
gpesen
##angeet
salut
salable
pairing
defend
dahal
intr
impr
##awo
##awan
gten
gtim
gcp
gcant
gcour
gcond
topic
topup
definitive
thinkers
##bek
##ollen
embr
emasan
minato
couples
daan
dazz
addiction
apak
bata
cleft
##nao
unglued
reload
aces
aced
acing
##berries
partly
remn
remem
cardio
transported
bones
kaft
niacin
bookmark
bookmarks
ggt
ggod
ggan
ggand
ggem
belittle
bangetttttttt
eless
sadistic
manic
payed
naiship
##deh
ghor
ghum
consent
survey
##nsangat
musty
paso
passs
cushining
marker
##ceptible
stockpile
12pcs
tightness
lib
replen
rule
costume
##hhhhhhhhhhhhhh
ava
aving
berc
reviewers
angel
paka
pakett
ahahahahah
##jjcjc
##aaaaaaaaaaaaaaaaaa
keropi
gnice
gnut
gnakak
##kkkkkkkkkk
##kkkkkkkkkkkkkk
langanan
testy
glassnya
##ssssssssss
##ssssssssssss
##sssssssssss
sounded
##gecewakan
##izers
scroll
syukaak
weights
howeverthey
##ekan
endure
textile
considerably
##geri
lacked
sangad
gwl
magorder
##a2nya
maraming
kokonya
sgini
bottled
inclined
lump
gamb
swollen
squat
depth
memo
pngrman
masalah
mahh
padu
##niat
bhgian
kualias
30s
30cm
##jsjsjsjsj
decry
decade
haram
olog
##eeeer
ndj
##ibi
eta
##jfnf
watched
##ofof
40k
lengthy
amannnn
brushed
diter
linens
signed
sunset
dedek
spillage
demi
ila
##works
hahahh
consumed
161
indefinitely
figured
gstu
umptenth
jsbs
lids
banyk
banyaaak
voal
voichat
1999
urs
uran
singlet
brngny
dkasi
potatoes
freenya
winner
similarity
expeditionary
opportunities
gshort
bedaa
bedshe
##zzzzz
144
ketch
ketarik
kecewaaaa
##bxb
##bxjx
lemongrass
msalah
gvari
tenkyu
kanak2
bandrol
bulging
banyakkkk
addresses
cuba
recomendeed
president
mbaa
verse
approve
annual
survved
bross
kekur
kekirim
amaann
terimakasihhhhhhhhhh
grips
katany
kebaya
gladden
locally
gdefin
pagi2
cupboard
horror
tonic
pouchnya
liquidnya
bolster
##urir
##urious
telkomsel
mainland
combine
muscle
##bihin
dilapak
forehead
enakkk
recoment
flavored
bakall
trimakas
counting
kainnya
sben
viettel
deceive
0926235
jaketnya
susp
susah
##uyen
splay
toughness
fatigue
saking
kasar
gkece
200rb
moderation
tko
##akakakak
pkpb
eyelid
population
turtle
gpengiriman
tiada
accounts
mamak
pumping
##hdbd
tangent
ptg
apparel
31st
siihh
tolerated
dissapointing
beneath
occurs
gplay
repaid
kilogram
prosuk
bosqu
captions
gripe
grippy
70k
bagussssssss
therm
bangeeetttt
precious
denied
warnany
sblh
biasanya
bneran
varies
xsama
integrated
pwngiriman
jfjf
grandchildren
bothered
dunno
junk
loosened
inevit
tampered
titan
stinging
reminded
nano
okokokokokok
dragging
fuel
shaver
rasp
presto
sucked
htm
oreo
##pedisi
flourish
gphot
whiteness
##dgdhdfs
rusakk
influx
horrified
roses
aslinya
distributor
pronate
favo
chewing
tricky
conclude
meticulously
jln
bolong2
bolongnya
##glue
reflects
gallon
jogja
gterimakasi
gterimakas
toko2
optimal
hiccup
vegetable
ragu2
pretentious
steril
##gggggggggggggggggggggggg
jreng
##cccccccc
supplement
assalamu
nomernya
originalll
johns
alem
ghtk
dawet
struggled
dispatched
cobaa
syantikk
gardening
##shiper
yield
pakingan
investig
focall
hihii
childhood
headaches
1x24
hhhhhhhhhhhhhhhh
lifetime
pharmacy
mutually
##enggol
##qwqwqwqw
##11111111
dolph
terbai
pengrimannya
##bagussbagussbagussbagussbagussbagussbagussbaguss
martin
macam2
horizontal
cintaa
jatohnya
inflatable
exclusively
bqsm
##khhxdashfjh
climbing
controller
controlled
mashaallah
spectac
bangeeeeet
krudungnya
sidewalk
sidewalks
misunderstanding
boutique
puppet
pppppppppppppppp
zzzzzzzz
conversation
maklum
##ogogoh
sampainy
freesize
stithing
mantaomantap
forecasts
adaptor
prduk
complexion
idiot
##irrahim
risky
rickety
##cheap
##ffhghxjj
ngadain
delighted
youuuuuuuuuuuuuuuuuuuu
disgusting
hijau
okokokokokokokokokokokokokokokokokokokokokokokokok
goodgoodgoodgood
creek
stereo
deodorant
endeavor
testimony
shabby
secondhand
lumaayan
discontinued
resulting
unbeatable
##bdbxbxhd
meskipun
mccoy
tabarakallah
##asdfghjklzxcvbnm
quaaaaaaaaaasssssss
terdabest
drastically
styrofoam
detergent
raisins
sophisticated
sidoarjo
albeit
awkward
unwilling
unlimited
handkerchief
phuket
topnotch
##bevdvdvdvdv
couzicouzi
library
subsequent
australia
##bzdagdhfnf
##irobilalamin
1gb
3c
4gb
4stars
5days
690
7days
8pcs
92
aih
bain
bca
cah
cang
caaa
dre
dii
dition
dting
dbl
daah
dndnd
dksih
ew
fk
f7
gkk
gip
gher
gfore
gment
gamp
gjs
gcent
glet
g10
g15
g16
hii
hshs
hamdulillah
hilang
iq
iat
ild
iced
ida
icy
jaga
jalan
kck
kese
kart
kont
kalu
kkkkkk
kiy
lc
lus
lasih
latch
laced
lllllllllllll
mase
mny
mav
mary
mdah
nage
nash
nns
nama
oq
oss
oooooooo
p1
ppppp
pmb
pto
p30
qty
riv
rens
ramp
rank
rising
sush
sjd
svs
tbel
taper
tbt
tambah
uin
uas
ukk
ures
umin
vw
xjx
xmas
xpel
xixix
yn
yw
yab
yayay
zed
##tys
##yr
##jus
##jja
##jbd
##jected
##bor
##bint
##nr
##nce
##nity
##nss
##nbaik
##gin
##gay
##had
##rer
##rum
##rive
##rans
##rams
##fw
##ford
##mv
##murah
##oin
##oan
##dig
##dud
##dgd
##lum
##long
##lenya
##iful
##uately
##ube
##uccess
##kre3en
##xb
##xo
##pg
##p2
##pit
##poon
##pengiriman
##qo
##qjq
##cieve
##wang
##zf
##910
##02
##01
##66
##53
##erel
threat
##elines
##it2
gos
goodd
goodfast
##cend
##atially
##asus
##asper
produj
productnya
##elll
##ivated
quad
quic
qualitythe
qualityvery
qualitywell
##aro
##arate
##iser
tox
toast
tott
##ils
##ilof
shari
deliverygood
##utter
itt
itam
itive
##leg
##lection
##entea
revers
ora
oral
orts
sellrnya
##agers
alf
alum
alesan
ines
incent
inlove
sellerx
stic
stink
##astikin
##ayo
##ayar
beut
bett
##igence
fai
##aaakk
##eturn
packges
##ulin
##ulan
##ulis
##amsung
aws
awry
shoppers
##thj
sund
suma
##akat
##akkkk
##akitnya
##ueue
##iks
resem
resigned
##ahu
##aham
##ahhhh
##apin
##ainin
ney
neci
##ur2
##urur
chon
chances
socc
soaking
whiff
valueproduct
##erefund
##irap
##icut
##okkkkkk
buh
bucks
bulet
##iduous
##umph
##ustomed
##unc
comic
##orting
##bsis
##anging
##angga
upro
welland
unm
uno
universe
haiz
habit
convert
agile
##ffy
sia
sibl
sipppppppp
trz
trns
##hhw
##terol
doong
accustomed
disorder
dispose
sej
sev
secepet
matibay
brk
blah
##aaaaat
reception
grekom
grecommend
sape
##ptn
atic
##iihh
##appucino
arini
hobby
greatest
mew
mepet
bagnya
dich
diction
bguus
slal
slots
slender
boil
bohong
##iteks
prose
enn
enl
ense
ennya
ensive
enabled
ading
ceaaaaaaaaaaaaaaa
##tte
clotes
hero
plk
ploduk
planned
##abc
##abel
prettier
ampl
##ksjs
ify
##rock
overd
overview
##ihatan
pixy
outsole
maksi
superglue
ski
skal
nyx
nyed
nyep
carving
caramel
stubb
grill
grant
grun
grinder
perth
somebody
reports
##hey
pictnya
merah2
terin
teruk
terniat
mantp
mantaff
mantaaaaaaaaaaaa
purp
ley
lebay
merchnd
##ission
bangs
flaming
flops
##ddn
##dds
whoa
gkd
gkel
gkeb
pafree
drone
syari
glide
expres
african
##ista
phoned
purchaser
customs
keh
ke2x
sukaaaaaaaaaaaaaaaaaaaaaaaaaaaaaaaa
sukaaaaaaaaaa
sukasukasukasukasuk
gsing
gsend
gsmp
gsatisf
day2
damit
daming
badan
godd
##aiin
##ograms
immediatelywill
tefl
jdkd
##shipping
1080
scotch
scoot
compass
##ukaaa
##ukatnya
##ukuret
##asible
mojok
##wek
lotus
giriman
##ndbd
happening
##ampek
gbn
gbit
gbas
gbri
gband
gbab
gbai
gmil
gmet
gmess
gmac
gdem
gpay
gprop
gpurch
backing
crpat
crates
baret
baruu
dahil
dahhhh
creating
creme
luvvv
pengiman
intoler
needing
chatty
##patu
inciner
seep
gtl
gtp
gcm
gcas
gcum
gcro
gcare
topical
##ashati
##beh
##ifin
eman
empek
sayah
sayng
##opus
guddd
##whs
actively
retreat
apron
cleat
##bacco
ungkus
selali
selanjut
monoc
fittings
relish
shortfall
provis
provinc
regulate
aki
aknya
patent
sampling
remax
directions
yaak
hardcase
kaung
##ahaha
ggy
ggak
ganito
belak
cepattttttttt
root
elok2
elmo
mantulllllllllllllllll
pubg
barangy
##irmasi
##tonya
sadd
manj
mane
mani
manif
babyd
##plic
bngat
muraaaa
ghr
ghol
ghear
ghur
ghard
ghapp
interim
bsoknya
thankyouuuuu
##nsive
##nsjs
infin
functionality
stockings
12k
129
solatip
baloi
replica
ingnya
costmer
costemer
##hhhhhhhhhhhhhhh
lamaaaaaaa
poked
cushiony
##blh
siniteks
berm
beruntusan
makasihhhhhhh
tida
football
keropp
assign
assumed
assuming
takde
paras
paris
gfri
gform
gfoot
ume
umi
##kkkkkkkkkkkkk
lego
generic
dikiri
##uuuuuuuuuuuuuu
sesend
sesau
sesusi
soundly
##geh
yellowed
pointed
##elfon
consideration
##ebak
100g
##kdfs
indom
lipbal
lipstik
gwas
gwith
complains
maghri
substatially
##sgsg
silly
##prit
playanan
mism
inclus
kyo
nto
fortunate
murahhhhh
gamuat
swab
depart
depict
ugreen
halfway
ides
ided
airs
washi
difficulties
detected
mkash
mkasii
rekommended
nagreply
picnic
kayanya
building
gapake
tetap
deciduous
haraga
sangattt
sangatte
kuakitas
kmasan
sweetness
kalok
smpek
##jfd
##jfhe
ngebl
sandisk
issued
contacting
khong
40kg
males
termantul
50g
geff
geks
gequ
##ubah2
hehehehhe
signature
midsole
rier
##aaaaaafor
ilt
communicated
hahahaa
consumable
medj
gste
135
jsks
jsjsjsj
jsjdjdjdkd
urban
2562
biy
toebox
fleece
ested
gship
dripping
springs
decently
armrest
gsee
##amaan
freshly
ksong
roughly
ketauan
talked
##bxh
lemb
oto
bands
bandage
accurately
pelay
holders
cuantik
kepencet
dibaw
cucoo
jntnya
charming
adjusting
##mpai
countries
maaksih
kekurang
miniature
rooms
pkek
##ceries
terimakasihhhhh
trmkasih
rocket
burden
sturd
gdiper
##jhs
##hheh
kebanget
steamed
galhm
sharpener
lhoo
famous
cellop
ironing
wrnnya
wrnany
pagi
pagkad
melet
stiffer
ibu
temperament
toned
hopes
##ambil
telat
consistency
lainnya
gdisin
##bbbbb
komp
muscles
unfriendly
tasnyaa
##jwklwl
mantaab
lapis
gasampe
kurangin
##fhfgh
gimpro
systems
veils
wedges
60kg
kainny
mntp
coffe
fireworks
##bdbdbdbd
punch
dimension
dimainin
jaket
mailed
antique
zigact
pigeon
saken
kasoh
gexper
gexpect
gpert
stripping
stripped
cocoklah
bringing
##ological
chickens
boleella
cycling
tkut
mayanlah
##kiu
##jzjz
aches
ached
ensuring
popcorn
makasiiiii
makasiiiiii
lengket
tangible
manuals
dengn
empuk
activation
terusssss
planet
gmantaa
gmantap
gorigin
gituuu
bbrapa
vacant
rimmed
bosque
gripping
wanginya
astag
gradu
pengemasanny
pingg
worldwide
straws
sketches
consultation
cepaaatt
sngt2
tinry
ekpetasi
ekpedisinya
banknote
spiral
ceruty
parking
savety
##hatikan
aux
ngam2
napkins
nextt
gentlemen
ngebantu
##jamin
dunk
gtech
pendulum
ticket
junior
ekspektasi
wander
gedhe
sporting
reminds
momentarily
duluu
fractured
##ihihihih
skrang
groceries
medication
massive
nanem
plastikin
cription
hayy
shaved
mabango
tanam
tanpa
tuned
tunggu
trimakasihh
trimakasihtrimakasih
bumps
copies
hti
laahkre3en
rgaaaa
rgaaaaaa
reordering
##kkdkd
##kkdkdkd
octopus
tanktop
xtau
##mantapmantapmantapmantap
percentage
##heheheh
gumagana
trlihat
swimwear
capsules
trucking
##jxjxjx
shinip
dotted
renew
pouring
barakallahu
intelligence
jatim
xdak
##hole
##mfcssgf
gallery
prtahank
kereenn
crops
##jtgdbh
##galo
highlights
optical
mislead
fucking
pengiraman
eyeshadownya
bagussssssssss
##wlqllqnsbdskalaaajan
sterof
shoelace
dndjd
kusem
sobek2
pengerimannya
indented
smudges
satisying
targets
propeller
synchron
lsau
exaggeration
chubby
ventilated
kutukuret
encouraged
rugi
##ayyayayayay
fades
tranfer
syuuk
syuuka
cetar
sessions
folks
insyaaallah
tablespoon
narecieved
mantaaaap
ciputnya
ceaaaaaaaaaaaaaaaaaaaaaafor
temen2
khoir
makasiiiih
##2929
##hterimakasi
harusnya
##55555555555555555555555555555555
reassess
faintly
resubmitted
subscript
teenagers
hahahahaha
iiiiiiiiiiiiiiii
isolation
baguuuuusss
cocoa
cloak
jauh2
##hhhhhhhhhhhhhhhhhhhhhhhhhhhhhhh
philips
immeditely
jazakillahu
ujung2
ujung2nya
vdvd
##yahhhhh
diplastikin
expenses
digunain
macem2
chemicals
virtually
zenfone
thuong
siippp
alhamdulillahhirobilalamin
ethics
g201
##rwffhghxjj
dianterin
gclean
170cm
gandosssss
fulfilled
determines
099712915
##jojokokojojojojokokkkojkkkk
strictly
nicked
theses
sukabarang
undertand
commitment
drifted
entertain
macaroni
##ttqtqttq
cereal
koran
conversion
maklumin
penjuall
dandy
hahhaha
describes
ablution
pengepakan
rerespon
continuing
minesamsung
##ksksksbdbxbxhd
damaed
distinuished
deeeh
stiker
suwun
unravel
baguuuuuuus
##jfgddagxk
invisible
dominant
nivea
vials
geneally
subordinates
fibers
##dislik
##ivivogogoh
rewadee
gbonus
emphasi
##anggungjawab
cylinder
kentel
reinfor
sogog
unsubscribe
subhanallah
bagusbagusbagusbagusbagus
gasesuai
##course
facility
nglupas
inconsistent
restrictive
cyclone
louder
llllllll
speckle
frankly
terimamakasih
benchmark
munafie
kbsaran
mackerel
shrugging
ngeselin
daugter
haturnuhun
incompatible
nutrients
aloevera
duplicate
hampeh
kettle
disrespect
miscellaneous
vermicelli
fluorescent
diraguin
breastfeeding
consecutive
crimped
ksekian
mumpung
zebra
shambles
unimproved
heartbeat
republic
dazzling
quaaaaaaaaaasssssssaaaaaaaaaaaaaaaaaaaaaaa
##kdfsng
1h
1th
1sao
2y
2gb
210
2pc
2pm
3cm
3tahun
4y
4m
4rb
4days
7m
78
aing
aim
aap
aun
apping
apat
airt
aided
aksih
bom
bble
bowing
bond
bbb
cung
cious
cif
cinc
ccu
caves
dut
dorm
djs
dying
dpa
dmx
daster
ekk
emm
eep
ego
ebook
fount
fsg
fuch
fgh
ferr
furious
ftonya
gast
gik
gks
hf
hc
hes
hint
huu
hers
hamdul
hatch
iri
iro
ience
ijo
iyaa
iiiiiiiiiiiiiiiiiiiiiiiii
jdh
ject
jjs
jjjjj
kj
kate
kkw
kale
kcl
kbes
kkkkkkkkkkkkkkkk
kre3en
lb
lith
lore
lach
lari
lanter
lwt
modu
mrs
meeeee
nour
nwe
netting
nito
nurse
oot
oeng
oud
oops
pess
pir
puu
pamp
pgk
ror
rall
rins
s1
sive
sine
sda
sjz
sring
searched
tig
tik
tss
tact
tung
taint
ttq
tsel
tahan
tttttt
uli
ualitas
v3
vin
vanget
vene
wj
ws
wok
wins
xah
xpect
xai
xjd
xpa
xnk
xinh
xmuat
y9
yuu
yamp
yup
yoy
yabg
yards
york
zi
zin
##tnya
##ych
##yuk
##jen
##jee
##aign
##bhh
##nod
##hery
##hoh
##rant
##fun
##fter
##fdgdhdfs
##mil
##mart
##oso
##vf
##lv
##iit
##iiman
##uel
##uity
##uun
##kanya
##xv
##xe
##qtq
##qtqtqtqtq
##cay
##wich
##21
##zg
##zbs
##zds
##48
##erk
##oded
thq
thak
##inii
##elit
##alain
##alinya
gocc
gooooooooooooooooooooooooooooooooo
##esend
prn
prud
##aness
##annt
##annnn
##enoon
##encies
##oriman
##atur
##atry
productgood
ism
isin
islike
isinya
##omy
##oman
qualityproduct
##arting
##arma
tour
toss
toward
##otine
delie
shaker
deliveryman
iter
ituu
ittt
reen
ofcourse
oriii
##agle
##agnya
##agamit
##agonal
alway
align
alitas
exasper
ination
inib
inject
std
stir
stigma
##ayah
beep
##ometer
##aaahhh
butuh
fastener
##sepatu
##chh
##etin
packe
##uli
##amik
##amide
speeding
##rib
##rih
##rik
awake
##thaste
##adine
subrang
##akx
orderrr
##oli
##olics
##oloko
##olley
okeeeee
onl
oncoming
##pong
##pond
##owsy
shimmer
##ahed
##imp
##im3
##iments
##emy
responnya
chim
chao
soaps
soiled
##erecommend
##icara
##endala
##okw
##okkk
loan
logged
buav
bummer
##idb
##idious
##umm
##umber
##antly
##antumin
##unod
##unnya
##unos
asp
ason
asset
##anganku
upcoming
upreg
unac
unlock
wass
was2
washer
hae
hawa
cones
agi
##fft
##ffg
##ffm
##thern
myster
myim3
trg
trang
##hhx
doank
accident
seized
matul
frayed
degr
deaf
bros
bland
blakang
grease
greentea
greaness
sac
safty
nobility
allaah
ature
##fortably
packingc
longish
##ettttttttt
hebat
hehhee
poin
pooh
shiped
iman
imate
imper
maternity
##uupd
dio
diaku
diharap
gaesss
shippinggood
bgo
bgss
##isfree
##cabut
proph
prohib
probbly
shoesi
eny
ented
engr
muchhh
muchhhh
adh
ades
anyhow
clin
clerk
##fto
##fting
plah
plstik
##abb
amusing
##ounce
##roof
outing
makac
supers
superrr
##engnya
nyimpen
nyadar
cara
bgtz
bgtbgt
handphone
handmade
yaud
gress
grants
feasible
newbel
pera
perkir
someby
repres
kakaa
spar
spelled
friendliness
##oose
merries
mantaaaaaa
mantuuuuul
leis
##ipal
flaky
boxer
weimar
freeze
gkin
gkes
gkon
gkar
gkur
gkep
abiz
dramat
drmh
drowsy
syring
##quick
##quoise
glap
glike
glip
expnya
##anyakin
waj
wajah
wouldn
pricesgood
tweez
clothe
sukas
sukaaaaaaaaaaa
sukasukasuka
gsed
gsch
gsand
gspl
gsbl
gspec
gsaf
tqq
bau
baar
immense
ngaaaa
ngemas
ngitung
##tingnya
##aiable
lgkp
straining
bubblewrapped
teope
transform
jdnd
##shipper
scor
science
##ntly
compound
##ailang
betcha
blackened
gian
##ungan
happiness
joj
gbany
gbias
realf
pek
peas
peck
peac
##iiiiih
gmm
gmus
gdm
gdon
gdum
gdest
gdown
gdeter
gport
gpres
gpop
gpuas
backs
crate
crappy
barrier
barbar
baraang
salh
##mms
defets
succul
funct
intim
intens
impres
##awat
##bbc
askew
gti
gtast
gtid
tastier
gcoun
gconsum
brg2
##beel
triumph
emeral
emuls
sayank
sayangnya
mins
lovin
daun
daisy
opener
openings
##uhuhu
guede
koyak
sorrow
confusion
##undy
retained
retract
20pcs
batches
trimss
selmat
relay
relieve
aci
akala
akhr
repeating
##belin
attribut
attahed
earbud
underest
underarm
discreet
babel
edible
bonuss
bonusnyaa
ggas
mksiih
posters
ganjel
oke2
extends
commended
cepatttttt
elit
eligible
mantulllllllll
baranganya
promising
reven
##oonya
seth
setandar
manth
maniss
trustees
babyku
naik
suka2
warnya
dtangnya
ghat
hua
refundable
halcy
interference
breed
penang
penhantaran
toddl
bahus
infonya
infair
##alian
markings
markets
watering
##bdbevdvdvdvdv
balas
costum
costomer
lamg
lamaaa
avaiable
##anana
sinesend
berapa
berubah2
makasihhhhhh
tidal
benang
angk
ahi
ahahahah
##aaaaaaaaaaaaaaaaa
taknak
praised
lands
gfi
##kkkkkkkkk
##kkkkkkkkkkkk
nho
nhi
legingnya
maju
maantap
##brous
dikabarin
ula
walkin
lagiiiii
lagiiiiii
sesue
scrun
misses
mission
headlights
samapi
milky
flashing
syukaaaaa
dealt
tapiiiii
gwater
##veless
enthusiast
donggg
magg
ukr
ukran
seka
sekarang
##cocok
marble
##bhd
breaker
haircut
puasssssss
kyu
yeyy
lumps
brownies
swak
deplo
capable
mascul
pokokk
pokokna
pking
pkony
airline
ental
entre
ention
##cilan
antem
antagal
hellok
washes
curl
curled
mahhs
nags
nagchat
natured
pastry
##eeeeeeeee
gappe
dryness
##grams
mantablah
30rb
dub
##inyaaa
##emasannya
senders
produk2nya
garis
ajaaa
ajib
usefulness
ultr
ultral
ramadhan
##baloi
contacts
sampei
princi
coton
##pecah
malam
malambot
##raphy
screening
##fits
amanahh
ttm
ttap
layout
nyampenyaa
50rb
nightgown
geh
kerennnnn
expedited
gjg
gje
2x24
ssip
igt
flows
dede
communications
nakamura
hahahha
##jeie
medyu
13th
pallet
pengirimna
uring
ppy
##jxkkxhxjx
bangeut
pnp
posthaste
potonya
existed
cantikkkkkkkk
freak
iring
irnya
flea
##manirrahim
willingly
accomo
accompl
visor
gshoes
meetings
sprinkle
tablecloth
diniliver
keter
ketutup
anakku
bridge
dango
nons
ayub
begun
menurut
menyesal
besok
rm7
rm4
rmah
rm30
basin
dropshiper
dropshipper
reduces
buluk
protects
##hhhhhhhhhhhhhhhhhhhh
pinag
pinaship
utnya
gchat
windy
##nfb
##nfxkhchlxxhddlxgmxmbcchditkhxjclxitskgxn
dibungkus
dibanyakin
blepot
touchs
185
18th
kecep
ipis
presents
##edeh
hhee
##dfh
maacih
##guard
enggk
225
##wajah
articles
##jhgf
##jhkhhxdashfjh
gsubst
kebuang
deducting
maroonnya
circulation
##lamm
lho
brudul
removal
ktny
sleeveless
melting
##kshs
gemp
ibang
ibu2
ibukk
##jsjjsjsj
ihin
inshaa
mixing
pouches
screwed
bolsters
lampu
lampunya
woody
woods
connecting
promoted
##obile
diluted
##hanks
superbly
cuttingan
preference
##jgf
##fhj
recomeded
299
giman
bwat
drove
clicks
60k
60ml
undies
hgty
explore
rotary
sbi
sbnernya
sponges
##xhxh
mhal
26th
viu
tokong
0916
0906
digamab
tilt
hsl
remainder
hdear
susu
absorbency
ngga
##uyu
switching
faltered
firmware
##jdjdd
##iator
saktong
odorless
##2020
gexc
hiked
pgi
humor
gperfect
##anjur
guyss
treads
ignati
bowls
kecii
##shshshs
sources
kdk
kdang
ctions
elected
priorit
leads
molded
ache
turquoise
commonplace
pencils
automated
bhanny
organizer
lengan
crocod
operated
headsetnya
ptoduk
skalian
penghant
degde
pertma
spotting
spotty
jadinya
gneg
alhamdllah
mengecewakn
500g
names
gituh
300ml
rima
riman
captious
70kg
pingiriman
pinggir
porous
pengemasann
ridge
sipplah
gprof
sesuia
##bnb
istic
gqual
retrieve
auction
maliit
ambil
rekomendet
derived
##jfjfjfjf
jualanya
barangnyaaa
tsaka
##fsbfj
ngebas
gokay
gokokokokokokokokok
kingdom
konfirmasi
prinipal
projector
ively
pendrive
tarik2
##jdjdjdjdj
##jdjdjdjdjdj
gcrack
##bijik
ngeluarin
burns
gbook
##balian
anehh
bayi
mizunos
nanam
pelapaknya
watts
crick
stamped
compensated
urgently
nanya2
baguz
reader
comforable
yeaay
tmpat
xtra
pengirmannya
gexped
##fgzds
truz
bsknya
hemm
kiel
viva
lncar
gslow
papalah
##ahiya
##aphil
neighboring
cepeett
hadehhh
kualitan
harmful
wagner
48kg
distribute
jilbabx
gincl
appointed
250ml
judging
nxtym
blgnya
airpod
spandek
cxa
g08
lariss
##glomer
dikitt
critical
jumping
alsothe
dikirmnya
determine
recipients
gmoist
ponakan
contemporary
pegasus
hehehehehehehehe
hehehehehehehehehehe
aceh
ounce
pregnancy
oxid
tingkatkn
camping
miring
##bebebdbevdvdvdvdv
monitored
approachable
onti
entrusted
130x
appealed
appealing
##owowowow
hasilny
makaish
47kg
miminnya
nemu
nempel
bengk
benget
outlets
emotions
kebesaren
innisfree
disadvantages
eliminated
resposible
allergies
insecure
branches
maksimal
remarkably
berpuas
festive
piercing
houses
oblig
podium
wiggle
stabilization
spinner
barrels
dsnii
keluarin
clogged
seleting
##zzzzzzzzzzzzzzzzzzzzzzzz
environmentally
kicks
torch
muantapp
hapenya
uuuuuuuuuuuuuuuu
mahal2
mndarat
sissy
wadi
gafter
minnie
##hhehehehehehe
jnji
ltd
deficiency
advisory
assistance
suture
heheee
ampunnn
elderberry
disturbed
disturbing
wkwkwkwkwk
nampol
gbreak
##covered
vnd2
blazer
proportional
pembelian
pembeliku
##ffafsbd
seperti
nganterin
crayon
crayons
stithes
##question
accomodate
sperti
xperlu
flooding
restricted
scramble
dinaikin
2weeks
basta
dilebihin
joob
mortar
tayo
rezeky
trendy
travelling
jujurr
ointment
gracefully
emergency
sincerity
kirimannya
quesion
shamrock
sebener
grapefruit
mantapmantapmantapmantap
screenshot
mengecewakann
masters
maria
##craft
implementation
competitively
germination
dumatng
##jljjtys
pompom
thabk
prickly
inexplic
aspects
kecawa
education
burgundy
nakakasad
dispenser
aftenoon
vaseline
sunnis
suprise
dobel2
recycled
intestine
tempred
marshm
popsocket
abandoned
escorts
protruding
dkirimnya
fenders
ruler
wellpackaged
accesories
keinginan
selamaat
warbias
sangaatt
kmna2
impeccably
wreck
inelastic
skateboard
permintaan
funcion
dissatisfaction
##jgjgjfgddagxk
ucucivivogogoh
certificate
philippines
ikhlasin
silhouette
horses
jambi
pppppppppppppppppppppppppppppppp
vintage
##mffafdmh
inadequate
doormat
adverised
twelve
niacinamide
pasobrang
titanium
dolphin
renspon
tbtb
quicly
reversed
soccer
uprooted
siblings
stubborn
merchndise
teflon
scooter
mojokerto
incineration
monocle
provincial
keroppi
maghrib
jsjdjdjdkdksksksbdbxbxhd
##jwklwlwlqllqnsbdskalaaajan
##uupdate
prohibited
##mffafdmhbzdagdhfnf
3pm
4cm
420
4000
550
6months
7hr
83
97
aas
aur
acri
acking
aaaaaaaaaaaaaaa
bm
bind
bark
bkt
baskets
banned
cf
cen
cial
cuu
cement
cib
dle
dth
dett
dll
deeee
dirm
dread
diny
dires
dkdkd
djdjdjd
dkdk
djdjjd
ddddddddddddddddddddddddddddddddddddddddddddddddddddddddddddddddd
dbungkus
dcek
eer
ead
eter
elo
era
ety
ega
ebooks
eagle
fj
fog
fty
gill
gpet
gxt
gine
gater
gign
gek
ggggggggg
guud
hil
hack
hant
heeee
hana
hhehehehe
hmh
huuh
hhhhhhhhhhhhhhhhhhhhhhhhhhhhhhhh
iis
ider
ilo
iled
j5
jed
jul
jrs
kol
kht
kic
kkkkkkk
kkkkkkkkkkkkkkkkkkkkkkkkkkkkkkkkk
kami
lht
lived
lick
lint
ligh
lava
mers
mich
msi
mls
mfg
mmmmmmmm
nik
nain
nation
nks
nup
nau
nanj
oz
oos
ooooo
oga
oooooo
p0
pett
pted
pare
psg
pgr
pgh
panget
ppers
ral
rnya
rng
rga
rusted
rcv
s2
sow
sain
sally
sbr
sanh
t2
tamp
taw
tup
tbh
tty
tsp
tanj
tngan
uff
uter
udd
uog
ucul
vg
vz
vivid
wert
waged
wuz
xe
xada
xbx
yk
yok
yub
zer
zing
zag
zam
zest
znz
zipped
##tery
##tic
##tng
##yment
##jid
##jgg
##jnd
##aid
##bble
##bare
##banget
##nas
##ndh
##ndhd
##gss
##gung
##hl
##hc
##hw
##his
##home
##hdh
##house
##helai
##rall
##rase
##rng
##rist
##fat
##fah
##mate
##medi
##ebel
##lq
##lus
##lastic
##lamp
##iel
##iest
##uis
##uak
##udul
##kon
##kld
##kns
##kjtgdbh
##xa
##pus
##past
##prett
##prices
##qis
##qwhuif
##cis
##cub
##cute
##wy
##wal
##water
##wash
##2in
##zk
##6s
##81
##89
##eran
##odd
thay
tham
thunder
thieu
thirst
##elo
##elem
##alang
##itry
##itty
##items
gof
goper
goals
goku
goodproduct
##eskripsi
pric
prody
prolong
##anz
##ancies
##eno
##encing
##orse
##oria
##oning
##onom
##onet
##onder
##onth
##atly
##atang
##atives
##asis
##asse
##assssss
produks
##elly
qualitygood
##aranya
veryvery
anab
annn
ances
topppp
##otin
##oton
##otas
##otation
##oufl
##iles
##pees
shang
shld
shuff
shakes
shatter
delivey
##ckx
##utu
##utny
##really
iting
itcub
##lete
##leep
reaaa
rebat
orted
##agay
alp
iner
innya
inert
inking
stunk
##usss
##usastic
becoz
thankiu
##aab
##aapp
##aaannn
smpee
##chus
##ulah
##ulist
##amd
##amage
##ria
awe
aww
awat
##adong
sukkk
supin
sufah
##akban
orderanya
##ikkk
##ikny
okes
okan
resin
resour
resseller
onge
##imannya
##emony
negeri
valued
chl
chen
chor
chut
chet
chess
chuc
chuan
chronic
##essuks
soooooo
whw
whis
lop
looo
loops
##umma
##ustrophobic
##unh
##bsjs
thanksthanks
aste
asian
##angannya
##stic
##stru
##ongrat
unin
unatt
unquestion
##ccurate
converse
agd
agag
##ffa
##allic
myb
mysp
siiii
siiiiiii
sipppppppppppppppppppppppp
trb
trog
trunk
##hhr
##hhshdh
##hhshshshsh
##tera
dove
displ
sebab
sebulan
seengg
sebijik
frog
deo
debest
braz
blz
bled
blus
grepl
saii
saves
worm
##ptus
nois
##ordable
##ordination
alloh
##othy
atis
##iiriman
##apppp
arily
arge
hex
heating
hoop
hoarse
pose
poooo
canon
greati
greatvery
tooo
toooo
toooooooo
baga
bagett
bagys
mubaj
coast
coba2
coordination
imo
imperfect
##uuy
dipe
gaan
gaut
gabo
gauge
##kkh
recipe
bgg
bgtttttt
bgeet
bgaus
slater
boat
##feel
lovejoy
##cacd
prog
propose
shoesvery
ency
adverse
aduhh
cei
##ersihin
usion
usps
##tty
anybody
clipp
climate
comfortablebut
useable
plung
plangg
pliable
##abd
##abas
amn
amaaaaan
##ksb
##ksl
lightness
byak
##nget
##rocated
##ointed
standr
overbear
##isex
makari
superman
skg
skd
skeet
nyaaaaa
carger
carriers
recommnded
grom
grot
graff
nextnya
newest
##ously
perbaikin
somehing
cepettttt
kakad
kakakak
spelling
pictur
merr
merely
contro
contorting
mantaaaaaaaa
cuteeeee
bagusas
bagusdd
bagusbarang
desert
despat
deskt
desires
sendri
##gge
##ipat
bangg
bangeeeeeee
##ddf
##nyak
##nyah
##nyaaaaa
tryta
##urna
gkg
gkir
packageditem
drp
##ieving
##osa
##osis
syangnya
glik
apped
bestttt
slowres
twe
knd
keo
##ouring
peso
gsak
gsign
gslo
gsau
gsli
gscre
gsangat
bao
baim
baii
bauny
daytime
ngo
ngik
##indo
##mented
lahhhh
dideskripsi
strands
##ogan
##ogen
tex
teens
transition
transmss
coron
##jajaj
##ualiti
jdb
##shopee
scout
scare
scouring
##nty
compreh
##uku
moves
betadine
pesenanya
pesenanku
blacklist
giant
jove
jogger
gbol
gbint
gbers
gbuy
gbox
peps
peppa
worker
##arti
gmom
gmah
gdom
gdou
gdong
gped
gpap
gpun
gpick
gposs
backed
crest
crave
crescent
baref
baret2
passing
offing
successor
lupa
luvvvv
pengin
pengems
foil
affordably
highest
##jsjx
gtang
gtest
gtau
gcer
gcreat
sisst
##eeeeen
definit
##beb
passablepass
trips
hehehhehe
empat
saye
daebak
kook
##white
##which
denting
acts
acting
addit
reti
retired
apun
aplg
20kg
batery
bathing
insan
insane
insulation
terimaaa
laim
sheen
genc
reform
trimz
selemp
selmt
##asonable
couldnt
krd
aken
fins
sampenyaa
daten
datenya
earings
storks
niy
nihhhh
niyo
discs
discard
discrp
##rgdfs
babget
bonusan
bonusny
ggre
ggoo
mksii
extent
commencing
restart
mantullllll
puol
puashati
preform
prominent
babynya
payah
nape
bngttt
bngeet
warming
warned
fragant
murh
ghuh
hubung
normlly
moto
bsks
penh
photocop
latex
effetive
inflamm
dha
rapiiiii
mantapz
gunung
##ankan
12kg
lizard
solasi
solidly
##bdn
##bdkd
baling2
tempting
ingin
ingat
##mins
avent
pokona
##blue
nyesek
sins
kkak
berkh
kindled
sweaters
jean
jeje
ahihi
##jjk
property
keras
parall
paraaah
##liit
gnam
gnare
umb
umah
##kkkkkkkkkkk
nhaaa
langs
diko
dikurangin
ully
tuen
tuong
creamer
##iziz
##izernya
##ucuc
sneng
snare
snagat
sambelnya
pointy
syukaaaaaa
pluss
howeveri
pengirimannn
##okokokokokok
100koin
india
enthusastic
taps
tapu
tapiiii
##athome
gwear
gwang
dongs
dongker
slebih
complaining
magaz
uki
ukan
persp
sekrang
xlnya
marriage
brighten
##vvh
sguro
misrep
##hao
puassssssss
inclusion
yeast
luminous
chopped
murah3x
gamble
gamitin
swind
sweep
swapped
depanya
depths
capo
meme
15rb
canti
varian
idol
pket
pketnya
airbags
antar
sneaks
hatii
padan
##ruff
nagl
natangg
placement
reads
readable
talag
bhsa
kualutas
duly
rubbery
decades
harbol
sangatbagus
kuy
kuching
benerr
##aaaaaat
##olesterol
substantial
klihatan
garn
relatvely
ajalah
kmu
stretches
##nxn
##nxkd
favorably
casually
kaloka
etong
oppor
opposed
jaja
ngej
ngeg
ngeh
sandwich
nicest
tomato
khog
405739713
fixing
amanh
brushing
illed
destinations
##ayanin
##ciy
gevery
btre
hangg
pickles
ditangg
hehehehee
legitimate
##dhdbd
segede
camni
167
168
omni
##jeke
jsis
pengirimin
pengirimnnya
honor
metallic
##amatanya
##jxbx
singing
singles
pnh
pnas
heeled
25g
25rb
hurm
speaks
pleasantly
goldnya
wince
ird
pancake
inexpnsive
vision
gshipping
org2
sleepwear
armor
icial
bedding
kayaks
2013
pills
pilling
keterang
wasteful
obedient
msak
mslah
rm8
rm10
rm60
##555555
basag
bando
labelled
banyakkkkkk
bbw
gthr
##yyyyy
pinang
pelan2
utter
winding
kepak
kepend
dibag
selective
fearful
bleached
##nnnnnnnnnnn
threadbare
kwlitas
engiriman
charms
charlot
globe
hhg
hhd
adjusts
bisaa
verd
questionable
##mpel
announced
peeler
udaah
thorbaek
broom
kcptn
pemb
hijabnya
##suw
artic
artisan
warrnty
karet
lednya
gdirect
##jhj
gsuit
kebayar
nsb
nsn
gladly
gproduk
galhamdul
##hari2
gngeb
ironman
iki
lima
pagk
##gkir
seriousness
gtrust
melar
##bznz
saturated
gems
stiffness
ideas
##jsjsh
makasiihhh
cupnya
centered
gerce
lampux
mengh
combining
fiikum
fibrous
##wwwwww
##wwwwwww
lainn
berkalik
connections
connecticut
##bbbbbb
musim
dilakban
gambarnya
fishing
wkwkwkw
wkwkwkwkwkwkw
##jwb
mantaaappp
lapisin
##jgx
bakit
bwesit
trimakasii
trimakasiih
clicked
cords
explains
rota
rotated
bnk
cpett
fantasy
tengkyuuu
tinggi
##sesuai
##bdbdbdb
tokox
deceit
digit
digits
hdbd
susceptible
nggu
dicancel
slimy
claustrophobic
switches
kaaih
gconv
gconnect
antiques
gcompet
gcomfortable
splattered
hype
madura
semuax
piggy
kasut
kasya
gexcl
hikss
gagain
kitten
ignoring
bowed
sustained
200ml
##puted
ella
gandaaa
##nhkhh
##nhmfcssgf
eyelids
malem2
populist
tipping
45k
450
maci
settling
gresp
pertama
mulberry
##aannn
decorum
uuhh
bunions
gneed
80k
gmantab
kilos
betuls
betulin
##bgus
##123
bosku
souls
##ietqy
##wrapping
##rieved
abrasion
pengemasn
cepwt
nakakap
0838
gsyn
gede2
economically
cerah
kedu
kenk
150k
kotak2
buckled
sixth
lifted
foreigners
electrically
##fsrwffhghxjj
trafficking
nieces
gcepe
fondly
maximal
##kzkz
gcook
hampered
##safe
bismillahirrah
43kg
##zhfk
shsj
exceptions
jane
ampuun
spoons
dulillah
spreads
binh
usted
nyamenya
pesananya
requirement
tulis
okokokokokokokokoko
okokokokokokokokokokoko
heavily
skitar
altitude
cguro
izing
##adoin
lambatt
hayst
sumpahhh
1month
jilbb
##sequential
sepatuny
reflection
mrah
dipert
featured
##qwertyuiop
moisturize
micky
viruses
##namon
pumps
primarily
##bbdbd
mattresses
gdraw
pisa
smuaa
scissor
coklat
##cepatcepat
wagel
becoming
##kskss
daddy
sepre
kardusin
##573
kegedan
akhir2
acknow
jatuh
shadows
wlwpn
##gljljjtys
inspired
inspire
ngerus
ggoods
reciprocated
borong
##vkv
pengiroman
gfrag
bagusssssssssss
bagussssssssssss
potential
polishing
kosher
anjir
counterfeiting
oxford
seblak
campus
sudan
sobekk
siap2
tebelll
gcolle
gresponse
uniformity
melts
##alagi
asal2
##asukasukasukasukasukasukasuka
kacamatanya
zhang
exaggerating
sobra
bukaa
toothpick
kutek
nemuin
dispute
outfits
struggling
guidelines
syuuuk
dropsip
settlement
cakeep
alerts
asdgaweg15d5e
lepas2
bawah
launch
participated
aesth
pimple
inconsequential
155cm
tesco
rekomnded
bleaching
##dfsfdgdhdfs
borders
mngecewakn
bodo
observed
unsealed
remarkable
##jjdhdjxkkxhxjx
64gb
residual
counselor
sebelumnya
kfc
tnyta
nipples
humidifier
motorcycles
bantuin
nilai
ordeer
inaccurate
environmental
recoend
biggish
pengrimn
terimakasiihh
baguuuussss
56kg
6mth
nursery
maaciw
virtual
boskuu
lengkappp
cinnamon
xrugi
awal2
ngarep
hihihihi
nampak
tttttttttttttttt
predictions
eventho
gservice
triangular
doctors
dismantled
peanuts
undertone
interfere
entertaining
cereals
ambyar
srmoga
innov
innocent
credible
pengepack
penghntaran
restrictions
fungs
vows
okeokeokeokeoke
ould
gomawo
sincerely
nnnnnnnnnnnnnnnn
ssssssssssssssssssssssssssssssss
##jckkck
semogga
ukhti
viscosity
dirapihin
pharmacies
750ml
oernah
uncomfortably
##resentation
##beautiful
nakaplastic
borneo
3weeks
henna
##fbffafsbd
##x200
buku2
ditungguin
fisher
groomed
seseuai
alpha
grecei
arriing
periphery
dresnya
glitches
cstmr
nimble
pissed
qwrqwr
rendered
aggrieved
sacrifice
makadih
discredited
professionally
rejekinya
nkakadismaya
mommy
difotoin
salicyl
##mmhmhmhmhmh
bangetttttttttttttttttttttttttttt
nauseated
malfunctioning
preservation
crochet
condensation
##dhdhdbdbdbebebdbevdvdvdvdv
barcodes
ditempelin
cigarette
cctv
civil
diongkir
hampir
##bntu
##anitizer
awesom
tropical
disiini
fruits
superduper
redemption
apricot
##00490
paragraph
miscarry
gamasalah
membrane
pancakes
dirumahaja
qwertyuiopasdfghjklzxcvbnm
##100koin100koin
xckup
##vdfsnhkhh
goodgoodgoodgoodgoodgoodgoodgoodgood
shushing
oroginal
##chgjgjgjfgddagxk
contaminated
ngirit
bedsheet
kekurangan
hiccups
focallure
llllllllllllllll
riview
amplifier
nyedot
sukasukasukasukasukasukasukasukasukasukasukasuka
provisional
babydoll
lipbalm
##jfhefsbfj
sturdiness
kebangetan
zigactivate
disrespectful
##kdfsngmffafdmhbzdagdhfnf
dormant
fountain
fuchsia
loreal
upregulated
newbelance
perkiraan
somebymi
syringe
tweezers
barbaric
emerald
retractable
halcyon
toddlers
mahhsuuka
blepotan
090677
digamabr
ignatius
##fgzdsjhkhhxdashfjh
##pretty
rebates
1s
2mm
2hri
2tb
4a
5a
5pc
6t
6hari
720
81
8hari
9d
9kg
a3
ajs
aaaaaaaaaaaaaaaaaaaaaaaaaaaaaaaaa
aries
aangat
aaaaaaaaaaaaaa
bhh
bann
bana
bka
cried
dhh
dper
dac
dba
dbal
dps
djjd
dwar
dddddddd
duduk
dddddddddddddddd
eq
ece
euc
eops
eeeeeeeeeeeeeeeeeeeeeeeee
fel
fone
fret
fungsi
gly
gess
gid
gther
gans
gult
gnd
gild
gile
gns
gemas
genth
g11
g19
guality
hut
hans
hha
hshsh
hdhdhd
hiih
hdhs
hqua
hantar
iah
iry
ires
iga
jay
jig
jdd
jade
jjj
jsg
jje
jjx
jimin
k3
kamp
kert
kanya
kpa
lact
luk
lung
lbr
lense
lanj
lpas
luke
mq
mok
mour
maw
mne
mangg
miri
nbs
nja
nug
nde
nvm
nahan
nuw
niih
nurunin
nelfon
oa
oom
ods
ooooooooooooooooo
oacking
ojol
pome
pans
ptop
pppppp
qjq
rh
rv
rik
rrr
rape
rawang
russ
rides
rbu
rsa
ruth
rails
rrrrrrrr
s7
sse
sri
sall
sage
sigh
sssssss
sksk
tth
tue
tain
tia
taller
tahi
tnao
uth
uous
uhhhh
ura
ulu
uhhh
vr
vx
v2
v1
v4
vast
vay
vase
vry
vip
vsh
vaz
vents
vua
vga
vvvvv
vita
wus
wink
wished
wicking
weren
wkkww
xkh
xxxxx
xleh
xsem
xxxxxxxxxxxxxxxxx
xblh
yel
ydh
yoo
yampe
ydah
yha
yata
yuka
yaaaaaaaaaaaaaaaaaaaaaaaaaaaaaaaa
yakk
zan
zuri
##tam
##tak
##too
##tthj
##yx
##yp
##yuu
##jal
##jbb
##jjdjd
##jkg
##ael
##aannya
##bp
##bin
##burn
##bdhdh
##bounced
##nse
##name
##gak
##gah
##ghh
##gud
##sd
##sks
##suk
##hour
##held
##fn
##fold
##m2
##mem
##mkk
##mdd
##mpat
##most
##mph
##ois
##occ
##oever
##oek
##vn
##vil
##vant
##vdh
##vshs
##viate
##easy
##din
##dery
##duk
##lang
##lai
##lama
##iers
##iai
##ucc
##kam
##kids
##xix
##xnx
##pent
##pick
##pai
##cit
##city
##cant
##cpt
##cond
##crow
##cision
##cancel
##was
##wag
##woo
##waw
##2cm
##zu
##zes
##zation
##znz
##zhs
##73
##700
##42
##49
##4cm
##86
##erer
##erves
tht
thirt
##inery
##eling
##elver
##elamat
##also
##itic
gobs
gopt
goof
gopen
gooooood
goodi
goodwill
pru
prist
prpd
##anng
##ancial
##enary
##oral
##oray
##orow
##ornya
##ono
##asak
##asain
##asnya
##asui
productvery
##ello
##elle
##ivable
ison
isend
isnya
quanl
##oma
##arna
anf
anja
anne
ankku
topping
toshi
tofu
##otant
##ilh
##ilih
##ilai
##peh
##peet
shg
shore
shout
shins
delivary
delivred
deliverythank
itude
ituuu
##leted
##lebih
reatt
ories
sellle
sellwr
alq
alin
ales
aled
aling
alamin
alarming
examp
exert
inu
inal
ining
inting
inget
inju
sellerso
sellerrrr
stt
stun
stating
stump
stellar
##usj
##ppl
thann
beget
beverage
beki
##iging
##igraphy
fakes
thanked
thankkk
##aaap
##aaih
butas
butcher
smape
smoked
##etik
packin
packinh
forem
forcing
##uld
##ulates
##amn
##amins
specks
exciting
##rior
##rika
##rifle
shoots
##things
sua
suze
##akw
orderrrr
##ikt
##ik2nya
ok2
rese
resort
resize
ressel
reserve
ongr
##illl
shiper
##andy
##andi
##andahan
##andulillah
##imi
##apt
##apia
##empet
youuuuuu
youuuuuuuu
yousmile
nea
neo
##uruh
chy
chiu
cheek
chunk
cholesterol
##essss
soan
##yai
##ico
##icular
bukn
##idd
##umi
##umnya
##umably
##umination
##umulloh
##antic
##bsb
##bss
##bshd
##bsibs
thatthey
servants
asik
asks
asdfghjk
asleep
##anganya
##angkat
upin
upward
upwards
likee
likeable
likewise
##stone
##stals
##ong2
##ongan
unw
unle
unified
uncon
unpacking
unchecked
uncovered
unisex
hajj
concur
condo
agglomer
##ffle
##allal
myvi
##eekk
sihhhh
sibsibs
trained
trolley
colokin
##terima
doff
dogged
dispar
discharge
sees
sean
sect
sech
sege
seiz
sebagus
sebanding
mates
mateng
fres
fright
frothy
deer
dept
dehhhhhhhh
debt
debes
debay
brit
brightly
brman
bruno
brkah
brunch
blut
blng
blanj
blends
grequ
grecomm
grefle
saia
saangat
worht
worrying
wrape
##ptic
no2
atuh
attered
ational
packingg
packinganya
packingnyaa
##iip
##estyle
arat
arent
arnya
arigat
hohoh
hooray
pooo
mej
mega
baguuuuuuuu
baguuuuuus
muah
muantul
coo
diw
dibel
tpy
tpu
tpos
gae
gach
gaenak
gajadi
saties
##kksk
recitation
sla
sls
slices
bobc
##fec
cheapo
beautify
projection
programs
ender
eness
cece
ceat
ceck
usi
usan
anyting
clog
comfortablei
comfortablethey
##fteen
plays
pliant
##abol
amit
amah
amaaan
unting
untied
##ksa
##kses
##ksns
lightens
##ngah
##nggu
overly
overlook
##ihed
##ihihi
piping
##engin
skl
nyamb
nyiram
##dhe
##dhlp
cari2
handset
grg
grac
graz
grgr
grump
grama
grilled
grunning
fever
fries
starter
##ouses
stuffy
perception
repost
repairs
cepet2
kakkkkk
kakakk
spice
spun
spai
##ooper
merit
teru
terry
terbar
terpercaya
cuti
cutest
puro
purely
purpl
descend
firstly
lea
leb
lepast
##ipat2
banger
bangtttt
flies
flared
flakes
##ricane
##nyata
wei
weave
webbing
shoevery
maycre
alhandulillah
gkw
gken
gkil
gkul
gkek
gkualitas
aba
abuse
##oskin
syuuuu
themthey
glas
glng
glory
##anyan
differs
phuc
phony
bigsize
applies
cuteits
bestseller
twil
tweed
customized
runsepatu
gsg
gsd
gsent
gshe
##tea
##tex
tqtqtqtqtqtqtqtqtq
durale
ngere
ngab
ngek
ngta
ngembaliin
ngurangin
##udes
##udud
carefree
lgy
teb
tep
teat
coretannya
complements
complementary
##shot
##shss
##arket
10ml
scul
##nti
comprom
##avan
##avag
moore
mozz
molek
betuul
handsanitizer
lotions
gif
makeovers
##ndks
##ndnnd
jozz
##ishs
gbot
gball
gboss
everytime
supporter
pey
pea
rights
righteous
gms
gmi
gmam
gmks
gmist
gmnt
gmpang
gdg
gds
gdur
gdike
gdiss
gdrop
gdex
gdeliver
gpg
gpw
gpill
gpain
gpake
cram
crude
crinkle
croton
photor
barange
barriers
##irimanya
salmat
##mmd
defetive
offices
funky
funeral
creation
crema
luffy
pengiiriman
inta
inted
intinya
impotant
gifted
ops
opis
##jds
##jdf
##jdk
##jdjs
##jdkf
putative
##bbh
betterdelivery
##jsjdjd
##jsnns
incld
incident
yours
yourselves
vey
gt1
gtil
gtet
gtok
gtum
gtight
gtip
gcel
gcow
gcush
gcart
gcount
gcli
gclass
defined
##epit
##epas
tries
trials
sayanya
couch
dao
wrappers
guarate
##looks
##response
addidas
retire
apai
apiece
20gr
20000
mmf
genius
refur
refuge
trimah
ungsi
seles
selallu
mona
##askin
relpict
krg
krain
acy
accep
acak2
akuh
finest
financial
pati
patters
partnered
cm2
walpaper
walopun
cardy
yaahh
yaahhh
cumaa
##aza
underpants
discour
bookstore
ggil
ggap
ggir
belin
belon
belah
belinya
bangetttttttttttttttttt
okeoke
commute
commander
##atched
cepats
role
roomm
elly
pudd
revise
revised
revoked
designer
sons
setel
setebel
lastly
manst
manik2nya
trustable
payetnya
##plings
##dec
dtunggu
ghas
ghay
ghang
conserv
farming
##rene
halu
suru
motiv
##cscs
photocard
infr
simpel
##ceptable
mantapss
mantapantap
12v
lier
lipet
thrust
thrive
thrives
rucks
rupees
temp
tebel2
avy
aves
forming
tyta
tyaka
dgd
beras
berik
berries
tidakk
esa
angin
ahin
bosskuu
delicately
delicous
##aaaaaaaaaaaaaaaaaaaaaaaaaaaaaaa
##aaaaaaaaaaaaaaaaaaaaaaaaaaaaa
119
11kg
parin
paraah
parrot
parfum
nyeselnya
gfing
gface
gflu
gfriend
gnk
gner
gnun
umr
umer
umullah
powers
powdery
langsng
langgganan
mauu
##bras
diker
dikomplen
dikurir
ulang
ulated
lageee
##ssssssssssssss
dipas
dipict
dipasang
heavyweight
thoughts
sniff
samain
samyang
erase
syukakk
plusnya
pengirimanpun
futile
##ebest
indian
gwi
gwed
gwee
gwind
gwrap
gwkwkw
##phon
complace
doub
magag
ukay
ukrn
informs
sekoga
##iiiik
##iiihhh
##cope
##bhn
##sgsh
brightened
static
yahhhh
jobgreat
playpen
bouncy
##hajwklwlwlqllqnsbdskalaaajan
kyalitas
ntin
fortuately
lumyn
naruh
mudahan
gamat
gamers
soldout
##kgd
##kgx
swap
sword
153
pokokknya
cantumin
cantiiik
vario
ids
idin
idly
entities
bouncedbounced
##ttttttttt
donkk
donation
donuts
curse
mahalan
mkasiih
perfumes
species
natal
natupi
pasta
##iinn
##iinya
kayany
readily
talent
talii
kuali
##eeeeeeeeeeee
##eeeeeeeeeeeee
nkuha
##jsjsn
duhh
psnn
psych
leftover
deciding
senior
kls
produknsangat
garm
garri
ajip
##eeeet
kmbali
##nxnnx
sweetener
kalin
kaliny
kalopun
etic
etude
polished
##jfkf
##dsd
rambut
tombol
tomorow
realpicture
khach
khoy
##pecially
malah
malchus
illa
illumination
layanan
probem
geese
kerennnn
picks
pickled
expedtion
##ubagus
gjel
gjum
ditaro
neraang
signals
rio
ripe
igned
camoufl
deduted
filament
element
elements
ilis
nakailang
gyuui
16gb
omer
##jeck
medal
brangny
gsty
gsto
gster
gstat
gstore
13cm
lidinya
prodaknya
rounded
potted
cantikkk
biarin
bianget
hurricane
gelap
panass
completo
odors
demanded
demanding
visually
visits
gshope
##dio
jackfruit
sprint
additionally
##ohoh
icon
ication
tao
taoi
dustbag
kayaknya
lycra
lymph
2011
14th
ksa
ksao
ksksks
classmates
dinote
kecewaaaaa
##ifferent
listened
chargernya
maintains
menstr
msy
gvol
rm3
tenkyuu
navynya
ashed
giraff
tlaga
slippage
faults
pulp
bulleted
bgs2
conveniently
protecting
kualitasx
bbq
gthin
gthere
gthick
util
gchin
##clcl
locking
cuank
ringing
langganaan
kepeng
kepanjang
blisers
securing
misty
touches
petals
##nnnnnnnnnn
recomendasi
ipaship
presumably
tdg
tdinya
charred
##max
mbps
hhs
helpfull
seedling
verb
##opek
##kingnya
constit
competed
devil
announce
thorns
allahumma
forgetting
kcpatan
sekaliiiiii
sekaliiiiiii
pembungkusan
interests
wholehear
##wax
artist
karawang
burkat
buruan
##ppppppppppppppppppppppp
##hhehee
alhmad
##ssssssssssssssssss
katun
kata2
volley
volatile
nsx
micnya
hesitation
steamer
gdece
gprin
gprint
scarlet
lunar
bruised
bruises
gnger
gorgan
gorgous
ikl
iklan
pagkap
##gkusan
##crepe
markotopp
179
melody
##bzvz
saturation
kembal
kemakan
shopeeeee
performs
eez
ibm
ibility
##jsjjs
bdj
##ndndn
999
jaitnya
gterny
28cm
##kakakak
germinate
lampung
mintanya
##unta
##untuk
combi
23th
fifteen
##ahahahahahh
gadmin
gadvert
##flake
komple
laam
dilayanin
views
##hane
sediment
gambarny
dlwa
dumplings
tasny
##ortedly
##jwiw
mantaaab
gasempet
schools
##hrs
##hrhr
trimaksi
undis
undone
hgaaaaa
hgtthj
sampaiiiiiiii
logistic
270
mousepad
##ecewakan
bnrn
bnigay
spongy
##xhs
blockade
90kg
kelain
##bdbdbdhd
punyaa
dimari
tilapia
warped
hsus
walling
hdjd
susuai
suspected
iihh
ngepack
gconsider
##vsvs
splash
offerings
madep
rusting
sukaaaak
kesenggol
dalemannya
owow
pgen
sanagat
##kxk
selerr
gaganda
shovels
dikirimm
aminnn
gkec
grows
growth
elled
ellow
kdg
banner
guidebooks
youngest
aching
pedal
turban
pacak
gpengir
automobile
##bagian
makasiiiiiiii
mamaku
mamtap
pumped
videoin
jarang
frustration
overloaded
assembling
gleg
tangle
tangsel
blsan
cntk
examination
penghantar
penghataran
##hewksbs
affects
affections
epic
decorate
bkalan
bklan
excessively
##masan
avoiding
alhamdllh
5000
wheat
plane
planner
tummy
tumagal
gplast
kilometers
prospective
amanahhh
amanahnya
identified
pengemasanx
bingitss
3xnya
innernya
strawberries
rearview
necklaces
woow
calculator
##baby
cepay
nakakah
healthier
komplin
komplit
komplain
jahitannya
rewards
concentrate
mlki
helmets
deniliver
warnaa
economic
cerah2
ceremony
kedenger
exceedingly
sesuaai
##bnant
##bnjj
##frame
##hati
ambah
biasaaa
biasa2
xsabar
xsampai
rekomendasi
napo
napkin
adapted
cloudy
##pasang
syekale
ngeborong
nxnx
pwde
collecting
consignor
focusing
hanasui
uwuw
hunted
konfrm
##mzm
##market
prince
##dhdhdhh
cows
ivity
mileage
pendants
##enyok
looser
overpower
editing
xiao
quietly
##jejeje
alhmdllah
sufficiently
gedeeee
glux
knitted
patchwork
mengecewakanlah
gbaguyu
datangnyaa
diamondnya
bersih
crystals
grock
bayar
bayik
baymax
okkee
okokokokokokokokokok
pools
plaster
mantuulll
throws
diva
heelsnya
dompet
kemasnya
dtengnya
##panas
overlapping
unboxed
abalot
aaaaah
mangkanya
diperbaikin
featuring
okelahhh
retailers
##products
##mhmhmh
75kg
rushing
##nznznz
scalp
bsk2
dibales2
cabbage
queued
trlanjur
occasional
eeeh
malaysian
##jxjxjj
baaag
vitamins
shifted
gpackag
gusah
asliii
gacor
##mmmmmmmmmmmmmmmmmmmmmmmm
bxbx
gincre
renov
microfi
fhoto
mikanya
mikir2
unusually
trickster
breasts
gappro
##ydoy
refrain
luamaaaa
pngirimnnya
##pppppppppppppppppppppppppppppppppppppppppppppppppppppppppppppppp
g099
xxxx
selaluuuu
criteria
##ssssssssssssssssssssssssssssssssssssssssssssssss
joger
deterior
sagging
##value
recipes
perekat
pengiruman
scrubnya
sanitizernya
iyah
ounces
vegetarian
pilot
excluding
bakaln
gdikirim
kaosny
gthankyou
jwbnya
bpuas
campaign
cubes
oysters
##pesanan
sempoi
ngecwain
tebellll
gcolor
belanjan
snowflake
gresponsi
##ribuan
respom
tucked
substituted
hydro
kecilll
aaaaaaaaaaaaaaaaaaaa
experiencing
buka2
bukunya
makaih
lumayanlahh
rtuuu
##field
islands
##ckckck
encouragement
ayaw
biking
bikini
obtain
obtaining
cobak
gcommunic
pertahankn
cetaphil
cheerful
accommodated
scanner
launching
ribet
yields
gremo
handbags
insyaaallaah
kadih
somuch
pakingannya
sksjs
pesannan
keliatan
makasiiihhh
pitcher
insecur
gsesu
reliance
gcheap
##4567890
kardusny
karduspem
gulingnya
lifestyle
contnued
anticrack
soda
tisue
haizz
cosrx
teenage
modestly
lancarr
route
applique
gspeed
baranng
bangettttttttttt
dolly
##maker
reconsider
reconfirm
bublenya
68kg
600ml
cwo
gukoo
gadapet
npaka
##jddn
nympk
nympenya
succesful
earthbound
nutritional
ridiculously
nostalgia
jangn
supaya
glamor
peppermint
##mzmzmzmz
comfortablelight
##ieieie
pengemesan
digunakan
bertele
ponds
lengkapp
##qqqqqqqq
citrus
rante
itungan
##idiately
gangerti
kawan2
saakin
prediction
akutu
akutuh
##jsjsjsjjsjsjsj
gores2
convey
dismantling
##ungkusnya
gpagkak
crafted
jordans
sokay
##oshilof
breakfasts
dowdy
dandruff
sekaleh
penghntran
tutupny
##3333333333333333
700ml
eeeeeeeeeeeeeeee
spertinya
xpernah
maturity
blkng
mudh2n
##nnznz
gpaket
gpokokny
continuation
gcapt
scrambling
persistence
khayr
tongsis
buzzing
nyemprot
softlensnya
distinct
keceewa
kemek2
jazaakillah
voroshilof
##april
invisibility
gathered
hinge
lonely
##uheuhe
anterin
skullcaps
cepatcepatcepatcepat
viscous
##jasam
brutally
gbingit
officer
lumanyan
lumanyun
lembuut
lembuutt
laneige
coordinated
weaver
commendable
swallowed
polaroid
multifunctional
banhet
zoya
alleviate
##idndnk
debate
handicap
gtengky
bahanyya
fertilizer
f1s
fetish
tassel
##pensable
smalness
gabsor
slanting
sampaaii
tempelannya
alhamduillah
bindernya
reimbursement
grosir
haphazardly
vomiting
goooooooood
stimulus
niqab
indispensable
pemgemasan
splendidly
warehousing
sympath
aaaaaaaaaaaaaaaaaaaaaaaaaaaaaaaaaaaaaaaaaaaaaaaaaaaaaaaaaaaaaaaa
breeze
eastern
overeas
pellets
uuuuuuuuuuuuuuuuuuuuuuuuuuuuuuuu
##jkhnd
##rupiah
alonso
##okeeokee
dianak
diinginkan
strangely
koleks
kerosene
jumpsuit
gcomplet
##nnsnsnsnsnnsnsnsns
ertyuiop
##405739713405739713
dynam
giong
kesekian
oooooooooooooooo
thrift
chafed
sobrng
unplug
brsahabat
bloated
adherents
subsdies
ngyon
correpond
kaftan
bercak2
decryption
1999rifle
inevitably
favoite
johnson
dbls
toxic
incentives
awsome
dictionary
enlarg
overdue
purportedly
intolerable
sesaui
cellophane
pagkadeliver
##fhfghfhj
##hterimakasihterimakasi
##yahhhhhyahhhhh
lantern
##elitian
exasperated
inibagus
unacceptable
haega
hawaii
##ffmjkhnd
mysterious
prophet
engraving
dramatic
realfict
revenue
costumers
masculine
entrego
ultralight
principle
accomoating
ibukku
hgtyu
degdegan
marshmallow
acrid
dettol
dirmh
dinyalain
gaterlalu
sanhat
wertf
shanghai
itcubic
##ongratulations
myspace
displays
mubajir
##cacdnhmfcssgf
clippers
overbearing
graffiti
desktop
transmssion
barefoot
passablepassable
discrpant
##rgdfsfsrwffhghxjj
inflammation
misrepresentation
harbolnas
charlotte
##1234567890
bismillahirrahmanirrahim
eeeeeeeeeeeeeeeeeeeeeeeeeeeeeeee
##dhlpote
##fhfghfhjietqy
1t
1size
1bulan
1cai
2a
2b
2s
2yrs
2in1
3g
3mg
499
4sao
4pm
5c
5ml
6k
6mm
71
7kg
8cm
890
93
a1
aly
azz
aired
a10
achy
ajuin
bff
baaaa
bkk
bact
bnding
c3
cort
caaaa
ckt
celet
cinta
d3
dse
ddddddddd
dje
djx
diving
dmd
dbw
dpnnya
ewan
eeeeeeeeeeeeeeeeeeeeeeeeeeeeeeeee
f3
fou
fash
fict
fandom
fumble
gck
gyes
guse
gade
gund
gare
gali
geb
g18
g14
g17
ghehehehehehe
hz
hed
hast
haa
harge
hank
hilar
hamb
hirap
j2
jir
jers
jac
jari
jirr
kity
kint
kame
kng
kurn
kda
kcew
kms
kaaaaaa
kunt
kiw
lor
lent
lns
luuu
lanh
lalag
lorry
mre
mle
mff
misf
mamp
mote
mjo
mjh
munt
mites
mario
mliit
nig
neng
nmm
nmer
navel
nrin
nomer
nungg
nambah
nambahin
oj
och
obe
oof
oats
opted
pv
ptt
piled
qm
raa
rapp
rach
rail
rapping
r11
rashes
sere
seng
sash
soll
sbd
sbh
sapa
scen
tj
tand
tlah
tins
tapping
tgh
tmp
uhe
uuuuuuu
uuuuuuuuuuuuuuuuuuuuuuuuuuuuuuuuu
vu
vong
vise
v11
wod
wth
wong
wie
wll
wud
winning
wlo
wilt
xks
xber
xpn
xpy
xnak
xpanas
yq
yol
yow
yra
yank
yangg
yeeeee
yaaaaaaaaaaa
zara
zjz
zzzzzzzzzzzzzzzzzzzzzzzzz
##tik
##tee
##tagal
##yf
##yel
##yam
##yfy
##yayayayay
##jat
##jix
##jbz
##aer
##aet
##apon
##aant
##aoke
##bm
##bill
##bahan
##nl
##nbnb
##sis
##skin
##hj
##hg
##hood
##hope
##rj
##rit
##rence
##rilateral
##fkk
##fung
##fire
##fjf
##fbf
##mod
##mog
##mbar
##mended
##material
##oft
##vt
##vq
##v4
##vention
##vita
##vgljljjtys
##ean
##ehe
##dity
##dss
##dnya
##dos
##lity
##low
##lop
##ienya
##u3
##uing
##uue
##ukkkk
##uop
##kel
##kis
##kut
##kos
##kjs
##x1
##xjs
##x13
##pf
##pah
##part
##pron
##qa
##qk
##cin
##cah
##cnm
##wb
##wer
##wis
##wid
##whe
##wuw
##walk
##2k
##26
##zb
##zjx
##96
##650
##5k
##500
##3e
##83
##erahan
##odh
##odi
##inct
##elike
##eliti
##alon
##alase
##always
##alala
##itated
##itannya
##itipin
gog
goce
gore
gogg
goats
gowns
goooooood
goodies
##eses
thebacco
prl
pri
pred
prote
##anat
##ing2nya
##eners
##onfirm
##atat
##atures
##asin
##asya
##asic
##asikan
produm
produkn
produkkk
producing
producers
##ellll
query
##omp
##omam
##omah
##omile
qualify
qualifying
qualitycp
##arine
##arny
##arne
##arella
##isu
##isions
##isana
##isters
anting
anonym
toppppp
##oter
##otor
##otok
##ouble
##ilies
##ilaian
delvery
delevery
##peer
shen
shou
shann
shots
shaving
##uters
##utannya
##uttering
##received
##leys
reel
reborn
orang2
sellau
##agh
##agak
alr
alk
alay
alamat
alaikum
alley
alittle
exising
inad
inher
inbut
inox
inaba
stel
stich
stations
stages
stool
stacking
stinks
thans
##igen
##igure
fave
##aable
##aaha
smtt
sma2
smarting
##cho
##etely
##ethanks
packnya
packge
packngan
forces
##ulator
##amw
##amaa
##amaaaa
excise
goodsthanks
##rick
awarded
shook
shoop
##thx
##adi
##adeliver
suz
sugg
suja
sumat
##akis
##akable
##akkk
facemask
##ol2
##olannya
##olokin
##ikh
##iko
##ikir
##ikirim
okproduk
resized
resident
respo
reserves
onwards
##pons
##ahal
##ahat
##aholics
##img
##apo
##aped
##apapa
##emb
##emes
##emat
##empat
##embung
##embalian
##aini
neu
chok
chup
chuck
choke
##hter
##htran
##essed
##esssss
soso
sober
soggy
whil
##irroh
##ici
##icol
##ician
##endous
responsefast
loe
looooo
buil
buanyak
##idah
##idjd
##idkd
##umib
##umurah
##ante
##antaged
##antek
##antakan
##uster
seri
serius
##unik
##unakan
combed
##bsk
##bsjsjs
##bsbbs
thatthe
server
asel
##angled
##angkan
##staking
uni
unli
unco
unwell
haarga
hazard
confort
agx
agility
agakk
##sosos
##alli
##yesell
servicevery
##veru
mydin
siis
siang
trun
trused
trms
trawang
trma
trwd
againthank
againwill
itemfast
##hhu
##hhjj
##hhdhd
shopi
shopaholics
timeframe
accu
accused
disag
disem
disld
disamp
seper
seja
seber
mata
matcing
fitt
fitness
fitvery
frying
fraction
frappucino
brace
brash
brubah
blu
blot
recei
saba
sajadah
worries
justify
##ptoms
##ategy
##ialhamdulillah
atm
##fortunately
okayyy
arc
arises
##perform
heem
header
pope
pook
canopy
greatlight
meg
meong
mehong
tooooo
##ommodating
bagai
baguy
bagettt
bagoes
mugi
shipent
##uuhhh
##uuuus
dies
dior
diber
diband
dibeli
dijak
dijawab
diwajah
gait
gauth
##kke
recome
thereof
therewith
bgsss
sli
slama
slma
slops
loveeee
prox
probe
props
kgk
enable
enaaaa
enorm
energ
enaaak
enlist
adj
adlh
adiku
aduhhh
cepp
ceet
ceaaaaaaa
ceiling
usaha
clump
clsao
plz
plenary
##abor
##abet
##abah
amoy
untu
untapped
lightcomfortable
byar
bysa
##roblem
overla
overized
overdo
overtime
overrun
overrall
overcrow
pian
pipetnya
disappon
##plek
maksa
superrrr
##engers
skb
skx
nyus
nyok
nyaaaaaa
nyman
carr
cares
carries
studio
handful
##acter
##nings
worthed
recommende
recommendable
senta
gravy
greli
grabs
newdelivery
perk
perna
perme
peramah
perlis
perfec
##rimannya
kakaaaaaaaaaaaaaaaaaaaaaaaaaaaaaaa
sphere
##hea
storey
pictt
picturan
##assy
##edium
contest
terum
teros
terlu
terluv
mantya
cuteeee
desper
lece
lever
leverage
lecture
##issa
##ipnya
##ipation
bangtt
bangeeeeee
flute
flaking
fluttering
##rical
##ddhh
expectasi
boxers
mayung
alhasil
custmr
gkpp
gkind
gkompl
abang
paul
pacing
drum
drank
##osnya
themso
##olded
##quin
glh
gler
glot
gland
glab
glamp
glog
gluc
gloos
expr
expos
explo
exposure
##anyaaaa
afa
waena
##lla
##ansfer
##ansuper
phu
alhamdullillah
appreh
sloww
kno
kea
keu
kebe
kebeli
kehab
afteroon
pesa
pesanya
pesnan
sukah
sukaaaaaaaaaaaaa
gsou
gske
gsize
gsiz
gsuc
gsque
bacon
softener
accommdating
bubel
pleas
pleaant
immidiately
dami
ngin
nged
ngaw
ngaaa
ngpas
ngisinya
wraped
whichoever
bada
##udrw
shopeepay
lahi
strategy
##ogo
tepat
teether
tebeel
howeer
##inkling
transation
corset
coraknya
##achat
##acheck
##shell
##shine
##shdhdhdhdh
##arkan
10d
10hr
scall
compred
computers
##uki
##ukur
##asihh
##ugated
affair
mops
##weh
pesenn
jossssss
gbt
gbb
gbus
gbay
gbak
gbum
gbun
gboun
gbuck
gbeli
gbubble
gbanyak
##iiiip
##ighly
gmh
gmes
gmor
gmand
gmain
gmir
gmint
gmake
gmash
gmba
gmax
gdan
gdent
gdir
gdun
gdeng
gdish
gping
gpor
gpil
gpow
gpant
gpos
gpac
gpron
gpower
crush
cruel
barber
barbie
passport
salenya
salahh
offended
##iously
luog
luph
pengg
pengi
pengit
pengah
pengok
pengrman
pengoriman
pengelem
impl
##aaaannn
puter
##bbal
##bbed
##jsg
##jsksk
incised
incoing
vepat
gts
gtan
gtom
gtot
gtut
gtre
gturn
gtuh
gcg
gcam
gcamp
gcert
gcuc
gcool
nyampex
toples
toplah
definetly
definetely
##ifa
##ifah
##ifact
##epare
hehehhee
##upa
altho
emak2
sayy
miniso
coust
dave
##opic
##uhin
guilt
gurih
##boy
koy
kost
##when
##what
##respond
confuse
retak
apl
apalagi
20m
insy
insult
insidious
customernya
terimkasi
mmbntu
blueberry
##bait
seleer
seluar
smoothies
monar
transpotation
semalam
shortcake
krman
rego
regime
finihed
##berfungsi
samplenya
remin
remed
remot
remek
##belah
datas
datangnya
cme
cmu
cmp
carded
earing
giveway
defected
hardware
##azing
edu
joyous
bonusin
bonusss
gget
ggad
ggener
ggift
mkshhh
gannnn
belim
beliii
believed
beli2
bangetttttttttttttttttttttttttttttttttt
okei
commission
commdity
##arium
modelnya
elong
elders
elsa
barangnnya
preen
prefect
preced
setnya
setau
setelah
manjur
payung
##plak
##plane
nyawaw
bnged
bngettt
bngeett
##dean
murr
ghade
ghyd
##kww
##kwow
consigned
##kecil
##kecepatan
dcuci
interaction
interru
breached
##nsv
##nsms
##nsls
penq
penalized
bahanyaa
pas2an
pasni
pasangin
infokan
datengg
##beda
##ceptan
mantapo
gunain
1200
12pm
homework
tightened
soled
##bdnd
##bdnx
##bdbf
rui
ruby
tempo
costing
##hhhhhhhhhhhh
lamaaaaaaaa
##bli
tooks
dapett
nyese
nyesal
dgr
berhari2
review2
kindle
bothers
esk
esok
sweaty
pakicheck
resulted
ahahahahahah
bosses
##jjss
valuespeed
##aaaaaaaaaaaaaaaaaaaaaaaaaaa
kerjasam
takt
11d
11pcs
parepare
gfill
gfab
gfav
gfirm
gfunction
gfriendly
gnu
gnin
gnom
gnet
gnad
nhaaaa
nhiet
smpurna
legible
dikulit
ulala
ulcers
bgusss
lagisana
##uuuuuuuuuuu
##uuuuuuuuuuuuu
dipil
dipingg
clearer
creams
sesyai
seserahan
cair
caantek
##gecawakan
##izar
missp
accepts
snin
snugg
forwarding
syukur
##ppppppppp
##ppppppppppppp
weighting
pengirimanan
subsidizes
photoshop
indifferent
subm
subjected
gwin
gwid
gwall
gwash
gwarn
gwonder
stylus
##veled
respondents
chinat
mager
magaganda
perspic
sekrng
##a2an
catokan
##cool
##inci
##bhshs
##remely
breakdown
effectiveness
##produ
statment
availble
misua
sealer
##jdjdbd
##jdjdkd
##jdjdjjdhd
kyg
ntk
lumpy
##msmm
dsinii
murahansuper
auti
gama
gamer
calligraphy
swmoga
squad
depeding
memgecawakan
15m
masyallah
masira
masalh
cantekk
cantolannya
airplane
entangled
expressed
donut
antise
pada
padal
paden
padhal
detained
hib
nagk
nagustuhan
nagandahan
terbaikpenghantaran
floats
##alsy
natrep
natuna
pasty
pastiin
absent
talks
kualits
terimaksh
nk2
mantabnbnb
30pcs
##jsjsjd
dui
ps3
rubbish
harin
kurier
senen
klang
klaten
ajhh
ajaaaa
##eeeen
##kwkwkw
##nxm
ourhome
casannya
kalem
kaliii
kalitas
polll
jaffa
lmb
##jfh
##dsk
##dsdhlpote
lucuuuuu
ngecharge
sandy
nicotine
ballast
40pcs
40rb
malas
malol
destruction
nyampeny
followers
mantappppppp
geven
gecon
bts
flooring
regulars
keren2
expedite
expedisi
##ubungin
gjer
gjam
gjad
gjual
painless
painstaking
2xnya
diturunin
ditalinya
dititipin
links
ssngat
midday
midfoot
tipiis
colourful
ripping
especally
segar
dedu
filtered
demo
nakaka
motifny
gyaa
hahahahh
hahahahahah
hahahahahahahah
sdp
sdung
16th
gstock
gstru
gstretch
paling
ordin
pengiriminnya
pengirimqn
banyaaakk
metabol
19rb
urine
pnjng
poses
wides
widened
dkirm
25k
256
25ribu
potluck
facts
bian
flattered
printilan
24cm
collage
gelect
irer
irain
expert
experiments
oduct
demands
visa
rajut
jackpot
sprawl
sprints
##u2nya
##ughter
gsever
gsepat
gsemp
taik
taun
tabs
errands
wowww
commented
mighty
odered
canceling
possble
lists
##lllllllllll
stayathome
strapnya
strapless
besokannya
gvo
gvent
gvac
rm5
rm100
tenkiu
powdered
bandan
surprises
pulaaaa
aamiinn
buli
aromather
protectors
pesananan
gthor
gthese
gthanks
##mbps
soapnya
##hhhhhhhhhhhhhhhhhhhhhhh
pinak
pinap
multple
multitude
multicol
gcharg
gcheck
calar
calar2
fillings
gaam
##nfnd
##nfnnf
kepasang
dibersihin
selecting
cuci
cucumber
fearing
mistique
paints
clocks
##nnnnnnnnnnnn
kasihkan
recomendded
keceh
keceo
kecewe
threaded
ipack
kwal
kwkkw
shockingly
preset
presumed
engross
lipsticknya
##khfs
##khjfhefsbfj
##dfzhfk
treas
adjustments
dissolve
constitu
constrict
competing
devast
counts
maac
maaff
forgiven
broader
measles
hitting
pembungkus
terimakasihhhhhhh
trmasuk
artistic
artifact
karaoke
specialized
portions
dusk
##jhg
##jhc
kebukak
nsnns
microw
micros
locations
gdeh
gdeal
gdevel
gdecor
families
bruise
gnga
ngecewakan
cellar
thoroughness
dalaman
limb
##dhdhs
gtran
gtrou
mele
meleber
##bzbbz
byk2
kemaren
shopeem
shopeenya
geme
eehh
ibuk
juz
juall
##jsjss
bdg
makasiihhhh
99k
daughters
pm2
ramahhh
gterbai
tele
teliti
main2
combinations
fifty
fields
consists
connectivity
connectors
separation
gdisappoint
gadjust
##flix
langgananan
sedeng
sedikt
gambarrr
dluu
dumb
cuttings
cuttingnya
preferences
##jwj
mantaappp
##jgvdfsnhkhh
##package
enakkkk
kuran
##roduct
recomented
gimn
gimag
bwes
bwisit
tracked
clicking
ld11
optional
##uitous
hgaaaaaaaa
hgaaaaaa
hgaaaaaaa
kainis
mntanya
otherwiseit
logical
adekku
luvly
luvluvluv
275
dipaking
##xhd
tengkyuuuu
tengkyuuuuu
tingle
penyokk
90ml
cucokk
puny
0936
minimarket
digant
dime
##mhkdfsngmffafdmhbzdagdhfnf
susus
susai
##ocus
macet
##hsfsg
dicolokin
weld
mailbox
gcondition
firmness
neto
netflix
gcomb
wholesaler
##iatrist
fatty
sakura
gbright
kasik
kasiiiih
apa2an
humili
mashed
yaaaawww
gperf
##ethese
disiniiiiii
bnyakk
##anjutnya
##oxo
reaching
##ttttttttttttttttttt
ignition
ignited
##ksksksks
sprayer
suffice
suffered
semuaaa
candied
gandaa
guidebook
jeansnya
sampeknya
tipis2
tipisan
tipisssss
kulang2
##mei
##gsfbffafsbd
##jzh
turb
pacaging
gpengh
gpengemas
tiba
organizing
organiser
4500
45678
hugs
troubles
macbear
appearing
closest
closure
cropping
mirip
##eeeeeer
glemb
gnyampe
tangal
thoii
weaker
scams
tolerance
bhnny
pertanya
meanwhile
decorated
bunches
ffm
circumcision
circumvention
500gr
namin
namely
rigidity
gorth
30000
jerk
kilograms
goverall
bosq
bosen2
techs
techni
wangiii
wanginy
dpkai
pdahl
southern
##alamualaikum
flawlessly
gbuble
therapy
theraskin
cepan
cepaaaat
bangeeettttt
082
0812
gmbrnya
##9050
pecahh
gilaaa
keda
kedai
kenapa
150rb
cherries
intentional
sesuau
furnace
sblom
##from
bilangin
gquick
##777
ggrad
ggrand
lembuttt
napaka
adapters
##jfjfjf
55k
laptops
squeaky
##pennya
ngebul
ngebentuk
robek
robek2
mildew
pwed
smartphone
apologized
seger2
yeayyy
mauve
deformity
hunters
konfirm
ciamik
gtext
inquire
studied
cramps
bills
gudang
gratuitous
cancelling
deeper
silkygirl
spiritual
10000
gflow
gflash
harapkan
##llllllllllllllllllllllllllll
dmating
sofar
gclos
datangya
briefs
gliter
glitters
gliternya
jazakumulloh
jjdhd
kalix
tutoring
exercises
relevant
cgaaaaa
cgaaaaaa
divide
izany
##444
gprev
gprefer
indicating
indicates
splitter
deliberate
1m55
1m58
fuji
##139
kurirny
casting
prayers
champions
sepatunyaa
bagujus
##uuuuuuuuuuuuuuuuuuuuuuuuuuuuuuuuu
mabigat
tuna
tuning
##vwvw
gbangeeet
gzig
##jlkjtgdbh
dirumah
html
barokalloh
tenderness
tmen
xtaw
pengirmanya
##oooooood
##hhhhhhhhhhhhhhhhhhhhhhhhhhhhhhhhhhhhhhhhhhhhhhhhhhhhhhhhhhhhhhhh
75k
yuhhu
scaled
dentistgreat
hemmm
radiator
##koj
gphoto
bjnya
bjuny
ccat
gummy
tendency
unloaded
ukuranx
5thn
ghealsy
reeds
gsukak
gsukaaaaaaaaaaaaaaaa
hrusnya
hahaah
lawful
neighbour
hadeuuhh
published
kualitaa
cepaattt
shiniship
drilling
knocking
gdesk
gwhit
rosy
asliny
gaccept
lumayn
jilbabnya
culprit
##nxnxnx
yasin
sepadan
aquarium
fhm
kzl
mika
sharply
##shshsjjdhdjxkkxhxjx
trickle
shutdown
intellect
##bxbxbx
kpop
stringent
pelayananny
bntg
bntng
jlk
jlas
jljj
xdpt
##hoot
pngirimanya
terimakasiiii
terimakasiiiiiiiiiiiiii
batiknya
selaluuuuuuuuuuuuuuuuuuuuuuuuuuuuuuuuu
dikit2
convin
##ssssssssssssssssssssssssssssssssssssssssssssssssssssssssssssssss
kereennn
cocktail
ngerakitnya
ngerasain
sagat
romper
romoss
romantic
cartoons
gotta
clarified
nyamann
gmanufact
indoors
rags
crunch
pakaian
##tqtqtqq
certified
pretending
chgaa
irritating
unbelievable
unbelievers
##cence
seblm
lumayaann
##gggggggggggggggggggggggggggggggg
400ml
mirage
miring2
miracle
oyster
monitoring
kusuk
toppoki
sudsh
sophie
waxing
sandalwood
crimson
buffalo
usahain
plugging
puaassss
injection
injured
ngatur
gmerch
outbreaks
leaning
chiang
traded
polyster
nyeselll
sedikitpun
099573
daganganku
blows
decreases
jahitanx
##paksa
shameful
syngnya
gsemog
ribett
mechanic
appetizing
gworth
kebesar
sompel
someday
somplak
ummy
##608
alahmdulillah
disadvantaged
gwrapp
rekoment
kereeennnn
zippered
mantaaaaap
dikecewain
fussed
gengs
nalng
observ
gsesua
gsampa
muter2
arbitrary
contnues
putih2
botolnya
duoerr
hitam2
gtransport
ganyan
mutual
podiatrist
tnyata
manloloko
smpaialhamdulillah
hahahahahh
hahahahahahh
humidity
selebihnya
journal
appliances
baranq
berkualit
reponsive
okeeeeeeeee
okeeeeeeeeeeee
muantep
omega
##aaaaaaaaaaaaaaaaaaaaaaaaaaaaaaaaaaaaaaaaaaaaaaaaaa
bublewarpnya
gukur
jagoan
mcam
chamber
chamomile
soflennya
penetration
fleeting
##bsbsbsbsbsbsbsbs
nutritious
mulusss
baguuuusss
noda2
stenlis
baragnya
discontent
declar
gayo
##fsgchgjgjgjfgddagxk
sequins
stroller
industrial
140k
maaciww
gsubsid
punctuality
bertanggungjawab
echo
##hijab
argue
exploding
numbuh
disturb
visuals
g202
rantangnya
thankyous
madamage
gandosss
12345678910
099712919
vlog
chilli
diharga
nyetok
nyetrika
hospitality
denser
ebony
specter
asymmetrical
dismantle
blazon
bangeeeeettt
sukabagus
selamt
postpone
misunderstand
microph
tokonyaa
macaroon
ponytail
saranin
overflowing
symptoms
pathetic
gsupport
encapsulates
occurrence
ceramics
##vvvvvvvvvvvvvvvvvvvvvvvvvvvvvvvv
##gwgwgwgw
iloveit
kipas
##recomended
makaihh
sdgkn
accomodat
bamget
mudh2an
graphics
alhamdulilaah
alhamdulilahh
gpartic
emerged
acidic
nirefund
silhkan
huhuhuhuhuhu
##44444444
kedip2
vertically
nyemil
okeokeokeoke
puaaas
puaaasss
swells
swatches
kurirr
jazaakumullah
##vdvdvdhdhdbdbdbebebdbevdvdvdvdv
##okokokokokokokokookokokokokokokokookokokokokokokokookokokokokokokoko
cultivated
hallo
voracious
youthful
comel2
##ldldld
baguuuuuuuus
aktifin
kerudungnyaa
##oyxoyx
terimakasihterimakasihthank
nguoi
balotelli
dipackingnya
subordinate
terimakaih
hahahahahahahahahah
pharmacist
totebagnya
cuepet
license
##alyptus
whiskas
defec
brutal
pixel
meriahh
nganternya
kualitaas
germinated
##jljjfgzdsjhkhhxdashfjh
dumped
hrapan
kucing2
oatmeal
scabb
buahvita
sebenrnya
coordinate
boobs
tumblr
tumbler
dodge
jauhh
rationed
witness
valuable
diabetic
procedure
procedures
nyalaa
handicapped
gmultip
lubric
walnuts
kacauu
ghelp
berbicara
gadikasih
##jsbsjsbsjsbs
gjazak
fertilizers
gourmet
ngomongnya
corrugated
attendance
restrain
illuminating
calamansi
negotiable
yarns
unreasonable
overheating
insolenya
pasminanya
pokonamah
pnghntaran
##pairs
kdepannya
palsu
##fkhdfsfdgdhdfs
thomas
shucks
repentance
independent
##uuuulllll
luntur
ekspektas
dmn2
farewell
fathoms
kterangan
vxgdhv
##assembled
istimew
##otype
inverted
fringes
bravo
admire
overwhelming
manttul
remnants
liberty
replenishment
##jjcjcjckkck
092623500
thermometer
spectacular
dtingkatkan
##bintang
quadrilateral
slaluu
pafreebie
shortfalls
manjiw
129k
departure
depicted
kekuranganya
lengket2
prtahankan
reinforced
airtight
herself
kbesaran
ootd
rallied
yampun
delievery
alignment
packeging
buavita
degrade
packingcongratulations
diharapkan
clinic
superscript
represents
peacock
functoning
intimid
intensity
emulsion
attributed
infairness
enthusiasts
deployment
keterangan
nonsense
touchscreen
keciiil
crocodile
maksimalbarang
inexplicably
deeeeh
dreaded
nainform
nanjing
thirsty
prolonged
anabul
choruses
seengganya
bagaimana
gaboong
plangganku
makarizo
merrell
selempangnya
parallel
magazine
swindler
opporunity
##5555555
articulated
berkalikali
sepreinya
ngerusak
kuteknya
pengepackan
dwarf
eucalyptus
eopsso
ruthless
sallernya
tainted
xsempat
thirty
pristine
prpduk
quanlity
toshiba
examples
ingetin
injuries
foremost
sibsibsib
disparate
seizure
sebandinglah
brmanfaat
arigatou
satiesfied
bobcats
grumpy
descendants
lepastu
maycreate
compromise
guarateed
accepable
patterson
rucksack
produknsangatnbaik
menstrual
wholeheartedly
volleyball
kedengeran
overpowering
gbaguyu7
microfiber
karduspembohong
1999riflemen
##ffmjkhndcacdnhmfcssgf
##fhfghfhjietqyrgdfsfsrwffhghxjj
disldged
2nya
84
ader
ahhhh
azy
apers
bnn
bdhd
cery
cid
cies
cccc
dmh
dfs
dfg
esh
fkh
ffff
gss
gggggggg
hdh
hanks
hhehehe
iant
iate
ift
idah
ige
iling
ico
iku
ici
iew
jq
jkk
jgg
jjf
kv
kss
kshs
kksks
keeper
lr
lass
lilah
mj
mv
mmmmm
nis
nse
nud
nugg
nnnnnnnnnnnnnnnnn
oan
ole
oid
ouse
ott
oms
pf
p2
pih
ppppppppppppppppppppppppppppppppp
qy
qn
rk
rive
rying
tion
tir
ttqtq
uit
uci
uality
vable
vvvv
xo
xjs
xix
ym
yp
yallah
yyyyyyyy
zu
zzzzzzzzz
##tf
##tely
##tens
##tps
##yg
##yk
##yun
##ynya
##yuka
##yangnya
##jy
##jing
##jet
##jue
##jun
##jud
##jne
##janya
##jkd
##jinal
##aih
##aways
##bess
##bike
##bought
##bies
##brg
##buss
##bfh
##bener
##bkz
##nu
##nud
##norm
##nbx
##nmk
##god
##gon
##gsi
##gence
##ganan
##ginal
##giao
##sell
##snya
##hir
##rel
##rut
##rint
##rage
##rowing
##rations
##fz
##fan
##fon
##fim
##fee
##fade
##fix
##faf
##foy
##fashion
##mately
##mau
##mbh
##mnx
##meter
##matan
##mkoj
##o2
##oore
##vr
##vdd
##vav
##vdhd
##ei
##ext
##egr
##dry
##dnd
##drop
##ln
##lgd
##iar
##iere
##irect
##ianya
##iary
##ijab
##uah
##uip
##uhhhh
##uzz
##ujuan
##kum
##kokokokok
##kdhd
##kernya
##kualitas
##kurang
##xp
##xjd
##xia
##xkg
##xux
##pod
##pill
##pap
##pnya
##qb
##qs
##qe
##qng
##cn
##cq
##cot
##cust
##cuu
##coo
##certain
##canya
##cured
##wq
##wes
##worm
##wvs
##zv
##zan
##zon
##zak
##zoy
##zxcvbnm
##92
##7t
##72
##79
##78
##03
##6e
##8e
##87
##85
##84
##840
##838
##ern
##erine
##erence
##odol
##inny
##eles
##elding
##already
##alation
##alayan
##alahh
##itanya
##itute
##es2
##esis
##eds
##eder
##anu
##anc
##anong
##ananya
##anha
##erya
##ctly
##cecer
##inga
##enne
##org
##orthy
##onys
##atap
##aters
##atively
##atars
##atangg
##asaa
##asik
##asher
##ivi
isy
ister
##omuch
##arh
##aris
##aret
##around
##icent
##isance
anks
anny
aneous
##otive
##otape
##ouw
##ckey
##uting
##reou
##recommend
##request
##regalo
ital
ites
itan
##leable
##enting
reb
oft
oro
ores
orable
orrow
##agg
##agu
##agan
##agara
##agingnya
alal
alnya
inder
inning
inyaa
sters
##us2
##user
##usap
##uskan
##usuka
##ayg
##ayat
##ayyy
##igg
##igon
##igning
##iguous
##aad
##aau
##aakkk
##aakan
##aamat
##sette
##ulang
##amas
##amis
##ambut
##ambat
##rif
##then
##though
##thebest
##adating
##adia
##akanya
##akka
##ols
##olo
##olite
##ikasih
okin
onnya
##illh
##andang
##ahny
##ahmat
##apik
##apang
##apnya
##apih
##ainy
##urannya
##urahan
##urusin
##urusan
##uruhan
chron
chief
##htrn
##https
soever
soci
##iru
##iras
##irou
##icable
##icians
##endo
##ido
##idod
##anting
##anting2
##unting
asm
aser
asty
##angny
##stall
##stock
##stood
##ongs
unn
##ccok
ager
agat
##soft
##socks
##alling
aret
##eeh
##eeppp
sider
##hhg
##hhdh
##hhgg
##hhshsh
##terbaik
##ldkd
##ldls
##ardus
brt
bris
##ickers
##aaaahh
atin
atnya
atisf
##iif
##iiee
##iiiss
##estone
##apppppppp
arb
arap
arant
ards
hew
##ommend
imi
##uuc
##uuun
##uudd
##kkj
##feb
adee
plak
##abit
##abak
##abnya
##ksj
##ksan
##ksnd
##ksmd
##ngu
overs
nyim
nyata
##active
##ineal
##ensitive
##ediately
##oosh
##ggs
##ggan
##ggies
##ricult
##ddos
weh
abar
##iep
##osk
##osyal
##anye
##anyway
##llkhfs
##istan
phon
##nnt
##nnv
##tec
##tebal
##udy
##udjd
tec
##jabs
jdn
##shssh
##arkn
##okoknya
##ntr
##aven
##uko
##ukup
##ukanya
##ukuran
##ndm
##ndns
##ungk
##ungkot
gbaa
peed
peen
peet
##ighth
##artis
##mmed
offs
##sibs
##awah
##aaaang
##bbles
##resh
##jsm
##jskk
##jsnn
##jsnd
##jsms
##jsgs
##behe
##iferous
##olls
ember
##oped
##neg
##lov
##unda
##undi
##naan
mms
mmetric
selem
aky
akallah
##belit2
##arefund
##ahahaj
gge
ggest
roid
elt
ela
elle
##itched
bsg
##nskx
dhj
avel
##black
##block
##yyt
esan
esuai
ahit
ahahah
##aaaaaaaaaaaaaaaaaaa
gfu
uma
umble
ulation
lagiiiiiiii
eral
##pppppppppppp
##ek2
##ekal
##joe
uker
ohan
##incing
##bhdh
misd
##jdjdnd
yees
fortable
##dddddddddd
##msns
idy
idence
antul
antik
##kyuuu
##gran
##uusss
##ibg
etik
etnya
##jfx
##jfz
##dsaa
##balance
issapoint
ills
##ubung
ilater
omi
##jehe
##jehd
jsjsjsjs
urang
##jxhx
##merged
bijik
##queen
armed
icate
##zzzzzzz
ota
ayay
##lsk
##lsns
##cons
##ktkn
##shshewksbs
##hhhhhhhhhhhhhhhhhhh
##hhhhhhhhhhhhhhhhhhhhh
uti
utu
ution
##clh
##arsa
##nfn
##nfkf
petan
ipin
##kkkkkkkkkkkkkkkkkk
##khs
aaat
##ihijab
##jkf
##agaan
##success
##waist
nsj
ikit
##dhdhdhdhd
##dhdhshdh
##comfortableand
##bzjz
##jsjw
##uaskn
##kaka
##kaks
##unturan
instruct
##ractive
##bsbsb
osed
osity
##iskidndnk
##mhz
##hsb
##vsvvs
firmasi
##overall
aaaah
##mnc
##katkn
##oeke
##kxj
##kxg
jamin
##tttttttttttttttttt
##buhh
ieu
elli
##tqtqtqtqtqtqtq
cture
kereeeeee
##atornya
##hdb
rimakasih
##foam
##ayayay
##inches
##nndndndndnd
##rrrrrrrrrr
##jfjfjjf
##jdjdjdjdjdjdjdjd
shshh
##abledurable
##bagussbagussbaguss
izes
##jvh
##jvx
##uuuuuuuul
jxjx
##xxxxxxxxxxxx
wards
##fghh
##kook
##fffffff
##vvvvvvvvvvvv
arik
ncnc
##ttqttqtqttq
##kkkkkkkkkkkkkkkkkkkkkkkkkkkkkkkkkkkkkkkkkkkkkkkkkkkkkkkkkkkkkkkk
uuuul
gwho
##shshsjsbsjsbsjsbs
##muanya
##uhuhuh
##glow
ogog
##bbbbbbbbbbbb
##vkc
ushed
##padala
##xyzabc
##kwkkwkwkw
##kwkkwkwkwkwkw
ressed
##180
##okokojojokokojojojojokokkkojkkkk
##ywyw
ropri
##ujanan
##jjjjjjjjjjjjjjjj
kxkx
##potnya
##kekr
##hhehehehehehehehehe
##fsgfhfghfhjietqyrgdfsfsrwffhghxjj
##oxoxoxox
##offs
##official
##stein
##sbdjdb
##fhfhf
##rrrrrrrrrrrrrrrrrrrrrrrrrrrrrrrr
##77777777
##88888888
##makasihmakasihmakasihmakasih
##karon
cemil
##arararar
##beauty
##mantulmantulmantulmantul
##htrimakasihtrimakasihtrimakasihtrimakasi
##allalalallalal
##hehehehehehehehehe
##39393939
##ptoptopto
conect
bbbbbbbb
ddddddddddddddddddddddddddddddddddddddddddddddddd
kkkkkkkkkkkkkkkkkkkkkkkkkkkkkkkk
##casenya
ification
##dgdffmjkhndcacdnhmfcssgf
vdvdv
##essuksessuks
##bgusbgus
##70000490
ongrat
##bdbdbdhdvdvdvdhdhdbdbdbebebdbevdvdvdvdv
##bnantbnant
##arnegara
##udrwvgljljjtys
##dfzhfkjljjfgzdsjhkhhxdashfjh
##jgvdfsnhkhhfsgchgjgjgjfgddagxk
##hsfsgfkhdfsfdgdhdfs
##gsfbffafsbdmhkdfsngmffafdmhbzdagdhfnf
##jlkjtgdbhkhjfhefsbfj
##shshsjjdhdjxkkxhxjxjjcjcjckkck
1a
1g
1cm
1box
1tb
2tahun
3y
3a
3e
3q
3ce
3rb
3kali
33333
3bulan
3in1
3333
4t
4kg
5t
5v
5p
577
5pm
5yr
6e
6gb
6yrs
7k
7cm
82
8ve
8kg
850
9pcs
aow
aai
ays
aaman
aitas
aaya
ahhhhh
aahhh
aids
aikum
a37
b5
bya
bic
bter
bdh
brim
bfore
bount
bini
bility
bwa
bended
busted
bends
bberapa
bshsj
c4
cis
cim
cii
cca
cie
cua
cire
csg
caya
cian
cieve
celler
caaaaaaaaaaaaaaaaaaaaaaaaaaaaaaaa
dq
dch
dain
dok
dss
dld
dnt
dne
ddddd
dmit
dchat
dfgh
dllh
dbdb
duuh
daaan
dddddd
ddddddd
ees
erect
eding
eren
ebr
eek
ements
egy
eeeeeee
erial
ejoe
fic
fid
ffect
ffer
gpon
gere
gfort
gink
gep
gever
ghhh
gweight
ggggg
gaaaaaaaaaa
gvers
g13
ghehehe
g22
hith
hust
hore
hter
hng
heng
haaa
hare
hjj
hxh
hhhhhhhhhh
i7
ius
iem
iful
ium
iding
ihhh
iru
ika
iao
ipped
ichat
iiiiiii
iwill
jin
jol
jess
jong
jai
joooo
jshs
jjr
jangka
jjcjc
k0
kod
kre
kink
kop
kuh
kann
krem
kaaaaa
kump
kama
kiu
kado
kucing
lq
lz
lul
lind
lug
lish
lalu
liness
lanjut
m9
m4
m8
mse
mss
mould
mkk
mih
mink
mond
mber
m55
mlu
mbr
mia
mbut
mjk
mended
mesan
mlem
mrek
nes
nce
nur
nase
nip
nding
nnx
nndnd
nanget
nfg
nsos
nuker
nnnnnn
nnnnnnn
oen
oso
ooth
oop
ober
oty
oesen
oxy
oesan
pid
poun
pese
pind
peep
penya
porn
punt
p10
papers
ppppppp
pencet
pppppppppppppppppppppppp
ql
qi
qp
ril
rol
rally
rore
rca
rite
ront
ria
rict
rrrrr
rply
rata
rival
rhy
roknya
rreply
sas
sso
sint
sans
srg
sksks
siti
sjsjsj
sssssssssssssssssssssssssssssssss
tter
tance
tart
tbaik
tors
tony
tnk
ttttttt
tiram
tiring
uct
uar
uot
ury
uding
uted
uished
ubt
uala
ubg
ubung
uenak
vt
vb
vou
vet
vess
vort
vely
vav
vious
vign
vdhd
vcl
viable
vnfxkhchlxxhddlxgmxmbcchditkhxjclxitskgxn
wg
wik
woth
wkk
woooo
woy
waahh
wwww
wwwwwwwwwwwwwwwww
wuality
x2
xku
xcv
xberapa
xoxo
yd
yc
yal
yag
yhe
yep
yooo
y15
yyyyyyyyy
yaaaaaaaaaaaa
yesss
zb
zs
zw
zel
zee
zise
zns
zhs
zvs
zalo
##tn
##tw
##tis
##tag
##town
##tles
##yot
##yra
##yata
##yanyan
##jp
##jch
##jcc
##jks
##jie
##jug
##jsi
##jke
##janh
##jnsns
##jvs
##jaknya
##jbv
##jshd
##jjsjsjsj
##juga
##ae
##aq
##aes
##ajs
##bus
##bun
##bter
##bnn
##bjd
##bjj
##bia
##bvvvv
##bye
##bili
##bkl
##bantu
##bjlkjtgdbhkhjfhefsbfj
##nell
##nso
##nhh
##nkk
##njd
##njs
##nces
##ncy
##giv
##gth
##give
##gate
##gks
##gng
##gds
##gitu
##gu2
##glass
##ser
##sanya
##sory
##hz
##hed
##hen
##hor
##hil
##hcm
##hshs
##hukk
##rc
##ris
##rak
##rere
##rous
##range
##rna
##rates
##fv
##fc
##fus
##fnya
##fud
##face
##frt
##fof
##fkf
##maa
##many
##mose
##mond
##mbo
##moon
##mbr
##maya
##mbx
##mara
##metic
##mkasih
##oed
##oong
##ople
##osos
##ovy
##occo
##v3
##vice
##vbe
##vision
##vsgs
##eing
##eiriman
##ekkk
##d9
##dle
##dent
##dak
##dld
##dens
##dug
##dep
##dress
##drg
##dgh
##dives
##dler
##lx
##lery
##laa
##lso
##lnya
##lide
##lie
##lose
##lined
##lasm
##lines
##liner
##lqwertyuiop
##iing
##iess
##iya
##iating
##iop
##iba
##ijdjd
##iety
##ije
##iaga
##iders
##ield
##uut
##uall
##uca
##uations
##uitive
##ubhn
##ken
##kil
##kay
##kem
##kep
##kms
##kinya
##kbz
##kmd
##kmnc
##xm
##xok
##xie
##xnd
##xbh
##xuf
##xvd
##xjc
##x12
##pant
##pres
##purch
##puf
##qp
##cck
##cue
##cya
##cug
##cular
##ws
##wm
##wu
##wak
##wkw
##wire
##wib
##wcw
##1b
##zin
##zat
##zip
##zky
##zbx
##91
##94
##71
##7000
##64
##6cm
##5s
##52
##450
##3h
##362
##8t
##eri
##erie
##errrrr
##odoy
thot
thaa
thorn
##inum
##inement
##elp
##el2
##elek
##alm
##al2
##alike
##alny
##alkan
##alhamdul
##itah
##itting
##itau
goon
goid
gobl
gooooooooooooooooo
gompel
goodoriginal
##espan
##especially
theory
prht
##edeliver
##anf
##anes
##aning
##anua
##annyaa
##anian
##ctx
##ingx
##ingat
##enx
##enan
##enice
##enially
##enye
##enuous
##orative
##onan
##once
##only
##ataa
##atam
##atik
##attt
##ateng
##atif
##atkan
##asn
##asd
##asu
##asar
##asssss
##asannya
##asgas
productdelivery
##ellas
##ivest
isss
isting
quin
quan
quote
qulity
qualitu
qualityy
##aras
##arrr
##araya
veryy
##isbs
##isher
##isole
ancel
anned
anime
anjan
analog
toi
toits
##otan
##otol
##otop
##ilk
##ilbab
deleg
##peeee
##people
shh
shor
shad
shja
shank
shaded
shaky
delivries
deliveryseller
##utnyaa
##rey
##real
##requ
iten
itely
ittle
iture
itation
ither
itted
italian
##lee
##leak
##lett
ream
rebook
reiter
andaming
orih
orinya
oriiiii
orennya
sellalu
##agt
##agon
##agsg
##agyan
alb
alw
alask
alred
aluss
inks
ingg
inie
iniiii
inaction
iniii
inbok
inupdate
sellernyaa
sellergood
sellerthank
sellerthanks
sellerwell
sellerrrrrr
stout
stnd
staining
stgh
stirr
stngah
##usw
##usbs
##usks
##usuk
##usli
##ussss
##pport
##ppies
##ayu
##ayaa
##aynya
thani
thansk
##igation
##aaahh
wither
smpat
smkin
smsm
smooh
fastt
fastthank
fastening
fasteners
##chhh
##chair
##eting
packer
packanging
fores
forgo
forbid
##ulating
##amm
##amya
##amine
##amantul
##amiliar
speedgood
##rio
##riim
##ribe
awt
awas
awoke
awey
shoo
shox
shose
##tho
##that
##thailand
##adal
##adah
##ademy
supee
suai
subd
suara
suport
suami
suaranya
##akun
##ak2an
##akanku
awesomeawesome
orderbkl
##ioned
##uee
##uehe
##ueie
##iksa
oker
oken
oknya
okeeeeeeeeeeeeeeee
okkkkkk
okedeh
resh
resel
resched
resumed
ona
ono
onest
ongoing
##illing
##owj
##owo
shimm
##earned
##andreou
##ahalan
##imo
##imity
##imeter
##imakasi
##apah
##apint
##aplast
##emn
##emin
##emmm
##emuaskan
nei
##vev
##urg
##urely
##urpr
##urities
chag
chong
chug
chung
chaka
chibi
##htan
whs
nicegood
##erecieve
##irth
##icited
##endat
##okke
lob
locom
lobat
buu
bukt
bummed
##idh
##idap
##idently
##idjjd
##idmatan
##umbs
##uns
##unan
##unog
##unctory
##unfortunately
comft
comended
comedy
##bsi
##bsvs
thankssssssss
thati
servic
servant
servise
serviced
aso
asis
asure
asha
##angn
##angal
##angang
##angkin
##angaat
upi
upas
upto
uphill
##stered
##storm
##stup
##stttt
##ongin
union
unik
unuse
unres
unda
unik2
unilateral
unwrapping
unzip
unearned
hav
hape
haired
hawk
console
agents
agricult
##soh
servicenya
servicethe
##eeett
sippppppp
tren
trum
tros
trends
trasp
trlebih
colder
collet
againveru
origins
##ssih
##ssfsgfhfghfhjietqyrgdfsfsrwffhghxjj
##hhaahahh
##term
time2
doan
doom
dope
doors
accid
accounting
diset
dishe
diseb
disitu
disaster
dispo
sebb
math
matap
matted
dea
deac
depl
deco
debut
deivery
dehhhhhhhhh
bral
brooo
brukatnya
[...]
