#version: 0.2 - Trained by `huggingface/tokenizers`
Ġ s
Ġ t
e r
o d
Ġ a
Ġ p
i n
Ġt h
i t
e l
Ġ g
a l
Ġ b
r e
Ġ o
o od
Ġ f
i s
Ġ d
v er
Ġ c
Ġ w
a n
e d
Ġg ood
Ġth e
ver y
Ġp r
c e
c t
in g
Ġ m
e n
e s
o n
Ġ n
a t
o r
Ġ h
a s
od u
odu ct
Ġ l
el l
q u
Ġ is
Ġ qu
Ġpr oduct
it y
o m
al ity
Ġqu ality
Ġ re
i ce
t h
a r
Ġ very
el i
o u
Ġt o
i l
Ġa n
p e
l y
Ġd eli
Ġ e
c k
Ġs h
u t
o t
Ġdeli very
u s
l e
r i
en t
Ġan d
Ġo f
Ġ it
Ġ i
Ġ k
Ġs ell
Ġ y
a g
Ġsell er
as t
a y
p p
a ck
Ġ in
Ġs t
Ġpr ice
Ġn ot
Ġb e
Ġa l
om e
an k
it h
Ġf a
Ġw ith
Ġ u
v e
Ġb ut
Ġs m
c h
u l
a m
Ġf or
x c
Ġs pe
d er
xc ell
xcell ent
Ġspe ed
s e
a a
Ġp ack
g h
Ġo r
a d
w es
Ġth ank
wes ome
Ġsh o
k e
b le
Ġf ast
Ġfa ce
g ood
o l
Ġs u
Ġgood s
i on
u e
Ġ v
s p
Ġor der
Ġ j
Ġl i
il l
e t
Ġo n
o w
sp on
an d
e ar
th e
Ġsh i
a k
a p
a in
Ġy ou
i m
a h
a ble
Ġsm il
Ġre spon
Ġv al
e m
Ġo k
Ġn e
Ġa wesome
gh t
Ġval ue
Ġc h
o k
en d
u r
Ġsmil ing
th er
s t
Ġs o
Ġw h
f ul
Ġpack ag
Ġrespon se
er e
us t
u m
u n
on e
Ġe xcellent
Ġ r
s s
al ly
i r
y a
an t
o re
Ġs er
i d
Ġl o
Ġb u
or t
t t
Ġth at
Ġser v
Ġc om
Ġn ice
p r
b s
an g
Ġu p
Ġserv ice
v ed
s o
on g
Ġw as
al l
Ġli ke
y es
el y
Ġw ell
e xcellent
Ġth is
Ġt im
Ġa s
Ġa re
Ġh ear
f f
Ġh a
Ġc on
Ġhear t
Ġa g
us e
Ġthank s
Ġo ther
Ġu n
Ġal so
es s
Ġe yes
g in
Ġo ri
Ġ 1
Ġshi pp
Ġs i
Ġs e
ad y
pr oduct
Ġbu y
Ġw ill
i c
Ġa c
Ġag ain
Ġm y
c om
gin al
Ġe x
Ġc ol
Ġt r
Ġtim e
Ġori ginal
ar d
Ġre ally
Ġd o
one y
Ġm oney
Ġd is
l d
Ġm at
Ġd e
i ck
Ġ 2
z e
Ġf r
Ġsho p
Ġcol or
Ġb l
Ġf it
ce i
n ya
re at
Ġpackag ing
t er
Ġit em
or d
Ġha ve
Ġs a
h h
p t
Ġn o
Ġj ust
i al
Ġw or
Ġch e
w ay
um bs
f ort
Ġw r
a wesome
e e
Ġth umbs
a pp
l o
Ġb r
i ve
Ġsi ze
es t
Ġh is
Ġl ong
Ġd i
u re
Ġal l
Ġre cei
p er
in t
aa aa
at e
Ġm e
com m
Ġit s
Ġc an
o pe
er ial
Ġto o
Ġshi p
Ġok ay
Ġb o
Ġm u
ful ly
i i
am e
re ady
t le
Ġi m
Ġfr om
Ġa r
Ġpack ing
Ġmat erial
ou ld
Ġh e
Ġt p
a ut
Ġp re
l i
c a
Ġ 3
th ank
Ġc o
Ġac c
f e
at is
Ġp o
ag e
as e
Ġc p
atis f
aut i
Ġproduct s
it e
s h
Ġk g
auti ful
Ġrecei ved
ou gh
fort able
Ġche ap
k k
Ġshipp ing
Ġth ere
Ġpr o
Ġmu ch
Ġb g
pe t
Ġl it
Ġsho es
Ġal ready
Ġh ope
Ġs atisf
ca use
Ġa t
Ġlit tle
Ġacc ord
o p
Ġbe cause
Ġh ere
Ġlo ve
Ġg a
Ġm ore
Ġan y
at ion
i g
u u
Ġcom fortable
Ġg reat
f t
Ġ us
Ġa d
a b
f ast
tt y
er s
Ġ use
Ġb ag
x t
Ġne at
a i
ou n
i ed
o int
Ġb y
Ġon e
o o
Ġsm all
Ġc e
Ġbe autiful
Ġp l
Ġth in
Ġon ly
Ġli ght
Ġun t
Ġd ay
n g
Ġst ore
a ke
Ġp i
is e
app oint
Ġi f
Ġo ut
i h
r y
an ce
a re
and ard
c ri
Ġo ver
d h
v en
Ġa m
Ġar ri
Ġy es
Ġth an
Ġshipp ed
Ġunt il
Ġdis appoint
Ġpre tty
Ġh as
way s
a ct
Ġs k
Ġst u
Ġh and
Ġsatisf ied
Ġbg t
comm end
en g
n ing
at ely
Ġy a
it ion
Ġne xt
Ġcom p
Ġn y
Ġs ent
Ġwor th
Ġf e
Ġre commend
Ġst ar
Ġhope fully
Ġf ri
good s
h e
Ġre d
l ow
Ġstu ff
Ġqu ick
re e
h er
Ġ 5
Ġs ame
Ġst andard
in e
ou s
Ġfa b
Ġal ways
pt ion
k s
Ġre p
Ġne w
en s
Ġfri end
as s
Ġpi ct
ri m
Ġb it
at ing
Ġcon t
Ġp er
d ition
Ġm er
Ġk ak
Ġst ill
Ġs ome
Ġg r
Ġlo ok
g a
Ġc lo
Ġsu per
Ġthe y
Ġl ess
ir st
Ġbe en
ed i
Ġsu bs
pe ct
cri ption
Ġw ear
Ġp ur
Ġmer ch
is s
Ġ en
Ġd es
Ġh er
Ġpackag e
ol d
Ġ ri
Ġcon dition
and ise
n y
Ġs p
ri c
Ġmerch andise
Ġsk in
Ġce pet
Ġdisappoint ed
Ġc ut
pp ing
d eli
Ġ 4
ou t
ak as
Ġf irst
Ġex pect
id e
g e
Ġfriend ly
e ady
Ġwh en
Ġb ang
Ġbo x
Ġl e
Ġsho e
i ght
Ġg i
Ġaccord ing
p ack
d ul
ur n
Ġt er
Ġtr y
h am
Ġsa f
ce ss
Ġm ay
Ġpict ure
Ġthe m
Ġw e
Ġs end
Ġpackag ed
Ġw ant
le t
an y
Ġarri ved
n ice
Ġwh o
o ther
fe ct
Ġp a
g g
ill ah
Ġitem s
Ġfab ric
deli very
ou ght
ham dul
b e
Ġex p
Ġdo es
Ġdi ff
t ing
Ġc ust
Ġf ree
s u
Ġsaf ely
a it
Ġa f
Ġb ig
Ġse c
Ġp h
Ġthe n
od ating
Ġs y
Ġa b
Ġw ould
Ġg et
Ġqu ite
Ġpur ch
Ġ x
th es
Ġany way
ou r
hamdul illah
pe e
Ġt w
Ġk n
Ġsho pping
c i
e ct
Ġorder ed
i ch
d d
Ġprice s
Ġthe se
n t
Ġt one
Ġaccord ance
is t
Ġe ven
Ġs low
o s
Ġr un
am p
Ġsa fe
oun d
Ġwh at
Ġde h
thank s
Ġaf ter
comm odating
Ġa pp
Ġquick ly
Ġim m
Ġj g
Ġd ur
Ġcut e
Ġm ess
Ġbu b
Ġsu it
f ore
Ġac commodating
Ġc ome
Ġst eady
Ġm ant
Ġsh ould
u d
ast ic
m ent
Ġorder s
Ġwr ap
Ġcust om
Ġrecommend ed
s i
Ġso ft
Ġday s
d ay
Ġd r
Ġf l
in d
th ing
Ġimm edi
Ġsho pee
Ġbe fore
Ġover all
Ġsu pp
Ġc are
Ġl g
w h
Ġp le
Ġwh ich
Ġimmedi ately
Ġl ah
Ġbub ble
Ġk e
re ss
in k
Ġb est
li ght
Ġdiff er
Ġd am
Ġus ed
Ġp es
Ġh i
Ġco ol
Ġtw o
er t
w e
n n
k a
Ġd id
j a
Ġtr an
Ġh ad
Ġk iss
Ġbang et
Ġb ad
a ch
ri er
ar t
Ġw ait
Ġbag us
b ag
a c
Ġg od
us h
Ġt q
a il
l l
Ġg o
a v
aaaa aaaa
Ġst r
hh hh
u al
Ġ1 0
Ġm o
Ġsubs cription
ul t
Ġhand s
Ġt e
Ġl ot
un g
Ġh ow
Ġm ake
Ġa ff
ow ing
am pe
Ġcomp let
a ce
Ġj o
Ġc or
or m
Ġsupp ort
o se
re ct
Ġbl ack
Ġj d
is h
ow n
i e
li ke
Ġha pp
Ġs c
n e
al hamdulillah
w n
ai k
Ġw ere
Ġfe el
Ġo ld
Ġc r
Ġwor k
Ġri ght
ss ss
Ġth ick
ang e
in ning
i v
Ġmess age
Ġcont in
Ġdeli ver
Ġy et
th is
Ġb ack
Ġdiffer ent
f in
re spon
Ġb ought
Ġgr inning
Ġexpect ed
Ġheart s
Ġan other
Ġrep ly
g reat
Ġph ot
Ġe very
Ġtim es
Ġg k
Ġsu c
Ġpa ir
ing s
a u
at ed
il d
Ġc ar
ar k
it s
at er
Ġen ough
n d
Ġof f
Ġpo or
i p
n ot
at her
akas ih
ert ain
Ġdur able
oun t
Ġs al
Ġsuc cess
Ġbl owing
i es
i rim
light ly
Ġm any
Ġin t
on d
Ġt urn
Ġpes en
Ġs ens
Ġp e
kk kk
Ġhapp y
Ġgi ft
Ġe as
Ġne ed
Ġin st
ord able
Ġc ertain
or der
re d
ct ion
Ġkn ow
bag us
a w
ok ok
Ġneat ly
b er
r op
Ġs ay
Ġre al
b r
Ġsens it
ear s
Ġf old
Ġch at
Ġple ase
Ġaff ordable
Ġbe tt
Ġhi gh
b o
uu uu
Ġpurch ase
Ġbett er
p en
Ġb ar
end ed
Ġp ass
Ġf un
ul l
ok en
p at
ii ii
Ġyou r
it em
Ġs lightly
Ġche ck
rop ri
Ġwh ite
un ately
ropri ate
j d
tt tt
Ġd ah
Ġmat ch
Ġp ut
il e
ag ed
Ġse e
Ġcertain ly
m m
Ġpl astic
Ġper fect
Ġl u
Ġwr ong
Ġs is
Ġbr oken
Ġthin k
it ely
Ġg l
Ġt ri
th ough
Ġim age
Ġsuit able
Ġfold ed
Ġde fin
Ġcomplet e
Ġn ow
am ing
Ġsu re
Ġ ve
Ġt ast
i k
aa a
Ġclo thes
un d
j s
Ġny ampe
Ġc l
ant s
Ġas k
Ġn g
Ġcare fully
Ġdefin itely
i f
Ġhe he
as h
Ġh u
v es
Ġre s
Ġsmil e
Ġrun ning
Ġdeliver ed
Ġc ou
e p
Ġp eng
Ġwr app
n a
Ġo pen
Ġw ee
Ġbe aming
Ġ 6
Ġstandard s
Ġapp ropriate
Ġsu k
u p
the y
o ck
ad e
Ġto p
Ġu dh
Ġab out
ar g
oo th
ot e
Ġm in
or ry
Ġservice s
Ġcon f
ig n
Ġbl ue
Ġre com
pp pp
Ġpass able
u ally
r t
or y
Ġl et
ble m
Ġd ent
Ġcolor s
n o
Ġad d
b ut
Ġ2 0
Ġcustom er
Ġc ame
Ġpro blem
Ġk o
an ya
m ant
Ġg ot
Ġr ather
Ġg u
ar ge
Ġre t
Ġin c
Ġb aik
Ġdes cription
Ġstar s
pack ing
Ġli k
Ġc le
u es
as on
u k
Ġf o
Ġshi rt
l es
Ġsm ooth
Ġm on
m y
Ġfit ting
Ġm od
respon d
Ġs amp
at ter
Ġre f
ee p
Ġn i
re en
ens ive
m o
s ide
en ce
ry ing
a z
Ġphot o
Ġsec ond
p le
Ġth ough
Ġm m
Ġm as
Ġal though
Ġo ke
sh op
Ġs we
Ġch ild
Ġc ould
re t
Ġtran sp
Ġeas y
en er
Ġdam aged
Ġb ot
fort unately
su per
as ed
Ġo wn
v ing
Ġseller s
Ġe m
Ġf ull
Ġa ct
Ġs el
Ġsh ort
Ġ 9
Ġwith out
Ġso on
l ing
r o
Ġm ou
Ġ z
Ġsec ure
Ġsh e
Ġp ink
Ġpro v
ee ee
Ġp art
ation s
Ġre g
Ġc rying
Ġbr g
ir t
g et
Ġwrapp ed
y ou
d e
Ġpack ed
at ch
Ġk r
Ġa ja
Ġst ick
c ed
Ġlong er
Ġg ive
Ġc ase
Ġre pe
Ġk eep
irim an
Ġc ard
er y
Ġc m
ir m
Ġter im
c o
Ġd a
Ġon ce
Ġdi rect
t r
Ġtp i
Ġb on
Ġs em
Ġun g
Ġa tt
0 0
ul ous
Ġtransp ort
b u
Ġy aa
Ġcontin ue
re cei
Ġw al
Ġjo y
b b
Ġd at
Ġc um
Ġh ard
s m
Ġlook s
Ġt ears
qu ality
Ġco ver
Ġcou rier
b el
d ah
Ġbon us
Ġt rim
en ya
Ġun der
Ġde fect
Ġcor respond
Ġsm ell
Ġun fortunately
Ġim p
Ġb ab
Ġwr ote
l ess
Ġgi ven
Ġus ing
ar y
Ġcar rier
Ġd own
Ġfe et
ar i
Ġpo st
wh at
Ġre st
o ke
Ġe ar
thes e
Ġre ason
Ġmou th
Ġmod el
ou d
akas i
Ġm edi
Ġsu b
Ġrepe at
u g
p l
Ġbo ok
Ġm k
Ġt ake
Ġp ants
Ġy g
Ġne ver
Ġh el
il y
Ġfit s
Ġcheap er
Ġsubscription s
re n
ie w
Ġex act
Ġrecom ended
Ġs et
Ġmedi um
p o
Ġt ight
Ġstore s
Ġfab ulous
Ġtri ed
Ġre v
Ġwh y
Ġmo st
Ġce pat
Ġf ine
Ġbuy ing
e ce
Ġret urn
Ġdes ign
i ent
Ġ el
Ġdis c
Ġf in
be autiful
recei ved
Ġk a
ah ah
Ġd ate
Ġbab y
r ow
Ġwee k
Ġp ay
Ġl ast
Ġ 7
Ġs ad
Ġsu r
Ġs on
av y
Ġs dh
Ġf ar
Ġpr om
Ġre qu
Ġsal e
Ġcom m
Ġturn s
Ġm ak
Ġref und
dd dd
m in
i ous
r r
it ch
Ġc reat
ion s
Ġse em
f orm
Ġb ng
Ġp en
Ġsensit ive
ce nt
Ġtr ust
Ġfr ag
Ġg pp
Ġth ose
Ġh r
Ġl oud
Ġmaterial s
an nya
Ġarri ve
o ga
Ġh al
u h
Ġg an
Ġ 8
Ġp u
Ġm ust
Ġsa id
op le
e ver
Ġcom es
ter day
Ġm ade
ell er
p re
od ay
Ġpro cess
k w
n ess
c s
Ġd t
b ed
Ġwh ere
Ġm an
Ġn a
Ġin ter
in i
Ġe ff
ag es
s ive
al ready
Ġmon th
Ġexact ly
g r
d a
Ġn orm
Ġwor ks
ke t
pr o
Ġt oday
Ġpe ople
Ġm ot
Ġm ur
Ġbl ess
Ġgo ing
Ġc ush
ce pt
Ġh our
Ġbar ang
Ġl a
Ġ 0
w ard
Ġcon s
al i
Ġw ater
Ġclo th
t ed
Ġl ate
Ġrecei ve
Ġd c
Ġh ome
Ġcustom ers
a pe
z z
or i
Ġcum an
Ġp ok
Ġa p
Ġfun ction
Ġst ock
Ġlo ves
Ġyes terday
Ġpi ece
Ġhel p
w r
Ġdat eng
e ad
Ġs im
Ġcreat e
Ġse ver
n s
ag ing
h a
w ell
h is
Ġthe ir
Ġtran s
gg ing
Ġprov id
po or
t en
iv ity
Ġh ar
Ġs ol
Ġth x
Ġb ah
Ġl arge
s w
Ġcorrespond ing
b l
Ġc pt
Ġc re
as i
Ġco st
Ġw ar
product s
Ġb ri
on t
g t
Ġ1 2
Ġbr and
Ġm ar
n er
st eady
t on
Ġam c
Ġcush ion
Ġth r
Ġh im
ain t
Ġp as
Ġe ver
Ġri ch
Ġfor m
Ġt em
Ġs orry
bo ard
Ġloud ly
u b
f it
am a
k ing
oo oo
Ġth ings
Ġb al
Ġsatisf act
Ġre m
Ġinst ead
Ġconf irm
i re
i ally
Ġfa ir
id y
re ally
cri bed
Ġrev iew
Ġr ap
Ġswe at
Ġte bel
j ust
Ġk ind
Ġfo ot
u a
Ġg reen
an an
Ġsome what
Ġk lo
ci ous
Ġsensit ivity
Ġdam age
Ġres ult
i red
Ġd ress
Ġval ues
yes el
ok ay
or n
Ġl ater
Ġl ine
Ġan sw
Ġthank you
Ġw ay
l u
ur ch
pre tty
Ġdeli ery
lo ve
Ġchild ren
Ġto ok
Ġstr ong
Ġt y
Ġsu ka
mo st
Ġad v
Ġs in
Ġpro per
Ġrequ est
ap er
Ġbo ss
ent s
c el
e x
t q
Ġrespon sive
on ya
Ġl ow
Ġda pet
Ġbo th
Ġb s
b d
Ġy ung
he he
Ġreason able
Ġt ak
pack aging
Ġ q
5 5
and ed
Ġam ount
ab ly
Ġb atter
g n
s eller
ou se
ish ed
i ct
Ġshop s
Ġm or
Ġ1 1
Ġtast e
ell ow
us ed
as ih
b a
i x
Ġp at
are d
i ze
t o
Ġw ide
Ġfrag r
Ġn yesel
Ġlook ing
Ġfe w
Ġhu gging
Ġb re
Ġint o
a ise
am an
Ġp ow
Ġs l
Ġm akasi
Ġj e
Ġrep l
Ġl ang
Ġthr ough
Ġt est
Ġch ange
Ġmas k
y ing
Ġl ag
Ġevery thing
Ġansw er
Ġa v
w or
Ġtast y
y y
Ġdis like
Ġb er
il ity
as ing
Ġpacking nya
Ġgl ass
y s
Ġwear ing
Ġkr n
c m
Ġc our
Ġexp ensive
Ġdirect ly
ud e
Ġmant ul
Ġcle ar
Ġst itch
ac ed
hhhh hhhh
Ġfast er
Ġt idy
Ġa k
Ġsc r
Ġb el
Ġsmall er
Ġs ir
Ġfor ward
Ġhe avy
Ġr ol
Ġcre am
Ġsm p
Ġd g
Ġlo ved
ll ll
el f
Ġh ot
Ġprovid ed
Ġle g
Ġsatisfact ory
Ġth ought
j j
od y
si der
Ġcard board
Ġy ellow
Ġl ng
n i
Ġpo int
l ine
Ġa ss
Ġd h
Ġd one
ic s
sh i
Ġlik ed
Ġar ound
ou ch
Ġbe ing
st andard
Ġother s
Ġm a
ther e
Ġfl ash
Ġwe ight
ut ure
Ġdisc ount
Ġth ing
bu y
Ġrespon d
Ġbot tle
b ar
Ġm il
Ġg ener
Ġin side
arg er
Ġpl us
Ġn um
us i
Ġproper ly
Ġs ound
Ġt u
g er
Ġr o
Ġserv es
Ġwas h
Ġask ed
nn nn
e k
Ġal hamdulillah
Ġnorm al
v al
Ġdent ed
Ġe ach
Ġf uture
is ed
Ġac cept
Ġim pro
urch ase
Ġcon sider
l ed
Ġe at
ch ange
Ġexpect ations
a ur
Ġde al
Ġhe ad
act ion
Ġmk sh
aaaaaaaa aaaaaaaa
Ġn ya
p es
et s
Ġc od
Ġte xt
i a
Ġt orn
Ġg un
Ġhigh ly
ic al
Ġship ment
Ġen th
Ġphot os
Ġn h
hh h
kkkk kkkk
d o
Ġpeng iriman
Ġp ar
f or
i ble
al e
Ġd ear
Ġh o
st and
Ġal most
Ġin s
Ġt ap
Ġd ark
Ġenth usi
Ġn ge
pp er
Ġs es
eli e
Ġpurch ased
Ġrest aur
Ġdeli cious
b h
Ġm iss
Ġk k
Ġturn ed
tr a
v el
d i
Ġsu ch
Ġlu ck
Ġact ually
Ġr el
Ġl anded
Ġsi p
Ġcor rect
Ġch in
Ġsi z
Ġpicture s
Ġ10 0
Ġbatter y
c ol
Ġst y
p s
Ġdi k
r on
Ġlo ose
Ġrestaur ant
i z
Ġsm oga
Ġcour se
Ġd ong
ori ginal
Ġp ake
re m
Ġwh ile
b aik
s orry
Ġs qu
y e
ach ed
Ġsever al
Ġf ind
ce pet
Ġf ol
or s
p ake
Ġbuy er
Ġcomp l
ce w
Ġm ark
Ġdisappoint ing
Ġin form
Ġk er
ul ar
Ġsell ing
ink ing
Ġs ide
Ġa w
Ġpre v
Ġle ak
Ġd ou
ssss ssss
at h
Ġl l
Ġd irt
m it
c p
Ġtrim akasih
Ġy ears
Ġd d
Ġf re
Ġn aman
ir ain
Ġpok onya
v or
Ġsin ce
Ġseem s
shi pping
p h
Ġl ack
Ġsubs id
Ġreg ret
j o
Ġpr odu
Ġad min
Ġbre ak
f er
Ġrep urchase
k ak
Ġp dh
Ġfun ny
Ġeff ect
Ġex t
Ġpur ple
Ġbri ght
ge ther
Ġbg us
Ġjo b
Ġ ent
Ġs n
Ġs ya
Ġbagus s
d k
u c
Ġhow ever
an n
Ġgun s
Ġp ers
end ing
Ġse am
Ġfol low
Ġc at
Ġh ouse
Ġx l
b and
Ġmant ap
h ope
Ġph one
Ġsub st
Ġst at
o ice
k n
ap a
Ġbanget t
al ways
Ġpr aise
Ġpl ay
Ġbot t
Ġs le
Ġse k
Ġcare ful
Ġav ail
uuuu uuuu
Ġd ue
l ah
no on
Ġcle an
Ġnum ber
Ġmay be
p or
Ġafter noon
Ġh old
s g
Ġb ody
Ġcom fort
pt y
Ġs old
Ġb oun
Ġv ari
Ġse al
en u
Ġha ir
Ġwork ing
t e
Ġy ah
Ġde p
Ġinc l
Ġhour s
s end
Ġs il
Ġwait ing
Ġcom ing
Ġno thing
Ġdur ing
Ġc all
ck s
j u
Ġc a
Ġcomp ared
pppp pppp
Ġm ag
Ġf all
Ġ end
Ġus ual
Ġw a
Ġsubs cribed
com fortable
Ġpl ace
Ġperfect ly
v ely
Ġe h
Ġpers on
Ġtext ure
Ġlik es
Ġs li
Ġw inking
ch e
Ġbr own
Ġbr other
Ġinc re
Ġdefect ive
Ġs ang
Ġp aper
Ġn ar
th y
Ġfor t
Ġhal f
Ġk ok
Ġpr ot
Ġto gether
Ġe xc
okok okok
int ing
ii i
p ict
Ġmu dah
Ġb a
pr ice
Ġd ri
Ġo h
Ġin d
Ġgl ue
jd jd
Ġbah t
Ġresult s
ap s
Ġter m
Ġdt g
Ġscr atch
k g
ic ult
enu ine
Ġb us
all ah
Ġout side
Ġsh ape
un t
Ġtr ue
Ġcr ack
Ġm and
Ġ1 5
Ġbag s
ut e
Ġexp ress
ne ak
Ġrol ling
h as
Ġd s
Ġcushion ing
k om
m at
Ġth ree
ast e
Ġmur ah
order s
Ġem pty
Ġty pe
ect ion
Ġcod e
m b
Ġg t
Ġf lo
Ġm ah
Ġavail able
Ġboun ced
c il
Ġg ak
Ġm em
Ġimp ort
Ġenthusi astic
a f
an a
Ġl eng
pack age
Ġunder stand
Ġk y
re ad
s pe
Ġm is
Ġdirt y
u ck
Ġd on
u ka
Ġs neak
Ġdiff icult
Ġlo vely
Ġpu as
ss s
Ġsend ing
Ġeas ily
Ġinst all
Ġtem por
Ġpa id
rem ely
o on
Ġam az
u ed
Ġqu est
b est
Ġwee ks
Ġu m
Ġ od
us band
Ġnot e
Ġr ub
Ġbr oke
Ġconfirm ation
Ġs w
Ġl am
Ġfeel s
f ree
Ġp ic
Ġy ear
Ġpr in
tttt tttt
d is
t y
Ġsp ark
Ġre ady
az y
Ġimp ress
Ġ ed
Ġan g
c on
it as
Ġrespon si
Ġa ir
Ġf ood
Ġn ag
Ġbu ild
br g
Ġk id
Ġp ad
mant ul
l m
v v
Ġp ng
al s
Ġk ay
iv ely
Ġd et
Ġh ell
t im
Ġmiss ing
x x
Ġpiece s
tt t
Ġdis t
Ġhu h
Ġ ver
k y
an s
change able
Ġt al
e en
ain s
iiii iiii
Ġopen ed
Ġpow er
Ġnar row
o g
Ġt et
ri ed
Ġus ually
bagus s
Ġsamp ai
Ġfin ally
Ġp k
Ġp ol
Ġgr ay
Ġhar ga
Ġclo s
Ġinter changeable
Ġ es
Ġa q
Ġre ad
r u
w w
in y
u ai
Ġn at
Ġh ol
Ġwith in
em ent
Ġli p
Ġup d
Ġg enuine
Ġc ap
Ġchin a
Ġwor n
ret ch
Ġbal ance
Ġon line
Ġfree b
Ġs at
Ġm akasih
Ġclo se
p al
r a
Ġd ry
ant ially
Ġ3 0
Ġc ur
Ġle ft
ne w
s y
s ih
Ġwal king
i in
Ġh usband
Ġbuy ers
ap h
Ġsome thing
spe ed
respon se
hope fully
k an
ny aa
Ġwr it
Ġsubst antially
Ġbng et
Ġincl ud
Ġuse ful
Ġfort unately
Ġsatisf ying
Ġst retch
Ġk irain
Ġu g
Ġp cs
Ġn t
Ġbe t
ab ility
Ġseller nya
Ġr elie
js js
dddd dddd
u us
a ff
Ġt ell
we ight
p cs
Ġp okok
Ġbox es
mant ap
Ġbng t
s atisf
a ir
k u
Ġf ound
Ġd u
Ġa bs
Ġa way
Ġh at
Ġg am
Ġcont ents
m er
Ġo pp
n x
Ġb at
Ġa j
ay an
Ġde c
m ore
p ite
Ġbut ton
se t
c u
in ess
com p
Ġterim akasih
Ġtrans action
o ver
Ġbig ger
Ġa h
Ġp ush
Ġsuccess fully
mm mm
Ġrepl ace
Ġimport ant
Ġs en
Ġfa vor
Ġu k
Ġsm pe
and a
b al
t p
Ġsuk ak
ic ed
oo se
Ġ20 2
ent ion
Ġk m
aaaa a
Ġb ener
p ar
Ġ er
it ude
Ġc ant
id ly
Ġbuild up
Ġch arge
Ġcont act
e et
Ġsal es
Ġl um
Ġrelie ved
Ġg ap
Ġre kom
Ġsm a
ah a
kw kw
Ġext remely
Ġu l
Ġso cks
ks ih
ci ally
Ġpdh l
Ġof ten
Ġkiss ing
Ġsc reen
g k
Ġt om
Ġk l
ri p
Ġpair s
Ġsuk aa
Ġmand ate
Ġprin ci
g ot
Ġjd i
Ġprom o
Ġto t
it u
un ic
Ġw atch
Ġk al
Ġown er
Ġsty le
ver t
Ġe qu
Ġlg i
Ġswe et
wr ong
i gh
Ġfr ont
sh o
Ġany thing
Ġrel at
pp ed
Ġc as
Ġk u
che ap
Ġug ly
i b
Ġs ampe
Ġc ot
Ġm al
Ġcontin ued
d y
Ġmonth s
Ġo b
em as
Ġsuccess ful
Ġo ur
Ġcontin ues
Ġgift s
pes en
i ence
Ġl ay
th in
Ġch arg
ect ed
Ġmor ning
Ġf ix
Ġflo or
Ġt ill
Ġn ight
Ġy e
Ġch oose
Ġ4 0
Ġprodu k
Ġs gt
Ġb h
Ġb all
mat erial
Ġrub ber
Ġd est
Ġsho w
Ġdes pite
Ġfl ame
j f
Ġdr aw
Ġsmp ai
Ġdiffer ence
gr aph
Ġmil k
Ġtet ep
x l
in ya
Ġfabric s
Ġleng th
Ġtempor ary
Ġm other
Ġfragr ant
Ġpre ss
Ġlag i
Ġpar cel
b g
c y
Ġl arger
Ġhr ga
Ġsang at
j e
s ome
Ġs and
Ġp atter
si ze
Ġex tra
Ġtap i
pe cially
kk k
Ġcot ton
Ġr ope
m an
Ġg ini
ith er
lo ved
Ġbless ing
Ġfragr ance
it ed
el ay
et y
Ġexp ed
ex p
Ġf low
Ġw ish
Ġmatch es
Ġadd ed
v ice
or row
Ġpro b
p ly
s k
Ġa ble
Ġp ain
Ġphoto graph
Ġreg ular
g ed
as ant
Ġad vert
s a
Ġb t
ul ly
Ġbr ush
Ġ5 0
g o
ter s
ro ad
Ġsol id
Ġp ick
Ġhehe he
Ġo il
Ġn ic
Ġfriend s
Ġsqu inting
g an
Ġsu n
ir d
Ġd em
Ġst and
Ġsp ill
Ġadv ice
Ġp s
Ġg m
e b
Ġab road
p a
w ill
Ġs am
aa h
Ġr am
lo ad
Ġl in
Ġes pecially
u th
ad a
Ġcol our
Ġso le
item s
b idly
Ġint act
Ġpake t
Ġk ual
Ġy aaa
Ġkak a
Ġpesen an
at ive
Ġwr na
ang er
Ġam an
Ġlo ss
f its
Ġb en
Ġc am
eeee eeee
Ġf il
ed u
ay a
um e
Ġcomm unic
ri ble
Ġover se
sm all
in s
Ġr u
Ġny amp
r or
t oo
Ġs pr
Ġn k
ah h
Ġmak es
Ġj u
Ġclos ed
Ġatt itude
c ust
Ġst e
Ġsk irt
Ġmot if
c ome
Ġw i
Ġl bh
Ġli d
un ya
Ġas ics
Ġhe al
Ġsis ter
co ol
Ġprev ious
Ġtom orrow
li er
Ġmor bidly
on est
am at
pt een
Ġga ve
Ġdou ble
Ġin de
Ġ1 3
Ġmodel s
Ġf ig
Ġfl aw
Ġdefect s
Ġrelat ively
Ġfin ished
l s
Ġg ar
Ġb any
gg gg
Ġgu ess
Ġsmooth ly
Ġbott om
c ord
Ġp ast
Ġe ither
Ġfa ct
Ġsi gn
Ġlight weight
m a
o i
Ġe v
um p
Ġr ound
Ġp n
Ġp al
Ġm ach
on es
Ġh ahah
Ġimpro ve
it ies
Ġf an
Ġk h
Ġ1 9
Ġproblem s
Ġbus iness
Ġs ch
Ġn er
t op
aaaa aa
Ġar ch
Ġprob ably
Ġt ip
Ġw om
Ġl au
Ġact ual
Ġstitch ing
in ation
re al
Ġhe el
Ġany more
Ġmess ages
b ad
Ġt au
es e
id d
Ġwe ve
gg est
Ġstr uck
aw ang
Ġstitch es
Ġsneak ers
pteen th
c ial
f y
j ual
Ġs ing
Ġw id
Ġto e
ore d
Ġper i
Ġconsider ed
col or
Ġel se
Ġcons um
at a
Ġre mo
Ġdent s
c c
Ġ2 4
f irst
h m
h ow
s er
s elf
Ġf ur
il ar
Ġj ga
app ing
Ġmant ab
Ġple asant
Ġhal o
o ss
Ġb i
Ġn ak
un ity
Ġsem pet
el ess
Ġd k
Ġ1 6
Ġ2 5
Ġz i
Ġu da
Ġsem oga
Ġtransport ation
cust om
o h
Ġreal pict
Ġtrust ed
b ack
Ġ eng
Ġg old
Ġd it
Ġopp ort
l ong
Ġor ange
Ġsu ggest
Ġli fe
Ġtr s
Ġexped ition
Ġc art
Ġw in
Ġspe ak
Ġpo s
Ġarri ving
Ġsiz es
Ġlau gh
Ġwill ing
Ġex per
Ġleg it
Ġperi od
Ġto ld
Ġcon ven
Ġre ached
Ġsho wn
ment s
Ġtak es
comp let
m s
at es
Ġpurch asing
Ġwhere as
Ġses uai
b t
er ed
Ġstat ement
d ed
l a
el t
Ġg as
Ġpr int
Ġtry ing
Ġterim a
u as
av or
Ġpatter n
Ġh p
Ġme et
ain ed
Ġhe ck
Ġdem and
c ute
p as
Ġp ot
Ġh ur
st ick
Ġcr azy
Ġum pteenth
Ġf le
satisf ied
o ol
y ed
Ġpat ient
Ġoverse as
Ġw on
Ġl ama
Ġk asi
Ġj ug
Ġlo st
Ġopport unity
u ished
Ġsim ilar
m k
Ġn ear
Ġsle ep
Ġmant app
Ġcon n
Ġcol l
Ġpo ck
Ġfunction ing
Ġnic ely
complet e
Ġd elay
Ġin i
Ġconf used
Ġdet ail
Ġb as
Ġb ny
Ġmot ive
p os
s ent
Ġse w
Ġkeep ing
Ġkay ak
Ġlaugh ing
Ġa am
Ġd ust
Ġpr iced
Ġad dition
Ġsy uka
Ġ20 1
b at
k er
t i
Ġp ensive
Ġm akas
Ġin exp
Ġst ay
Ġkr na
rr rr
Ġpoint s
ar ant
Ġpack s
Ġreview s
b ang
j x
j ect
Ġm et
Ġj ack
r g
tq tq
Ġimpro ved
Ġver s
Ġm ight
Ġcol le
Ġdo ang
dh d
Ġexp ired
wh ile
Ġpeng irim
Ġrekom ended
Ġch oice
Ġr ough
Ġdes cribed
Ġfo am
Ġgener ally
c or
Ġt able
Ġc able
ain ing
Ġlight s
Ġa uth
Ġ1 4
ai ght
bo x
Ġwid th
Ġp an
in ary
Ġb es
Ġpr od
Ġpo ss
Ġke y
Ġstr aight
Ġstick y
k o
w are
Ġb ai
Ġe ye
Ġhe at
Ġen jo
Ġn ame
Ġh onest
Ġtr ail
Ġde cent
Ġpat ron
Ġrepl aced
Ġprinci pal
Ġinexp ensive
st ill
Ġrecei pt
Ġwh e
Ġcan cel
uu u
Ġcomplet ely
ace s
Ġwal k
wr ap
Ġzi pper
Ġd in
Ġd lu
Ġdi pake
Ġcl apping
Ġrap i
Ġsubsid ies
Ġkid s
Ġ ill
Ġsamp enya
Ġfavor ite
Ġan ak
Ġfre sh
d am
Ġw aste
Ġcl ass
Ġseam s
Ġs ist
Ġf ore
Ġm cm
Ġv is
Ġpacking an
Ġcomp any
Ġmar ket
Ġgener al
Ġin f
Ġr ate
sh ip
Ġmach ine
Ġdis ting
Ġinst ant
Ġmm g
Ġp ak
m ing
Ġt ong
al though
Ġbr ng
Ġpatron ize
on y
b gt
s el
deli ver
Ġeffect ive
Ġm aint
ak an
Ġco ok
Ġfeel ing
g i
Ġsm ua
Ġ3 8
d s
Ġin it
Ġits elf
Ġpow der
Ġinform ation
Ġaam iin
Ġd n
Ġch arger
ic ally
Ġbang eet
Ġho le
Ġp ound
Ġb ed
Ġin v
Ġorder ing
Ġaccording ly
Ġexp ir
Ġfl at
Ġstr ap
Ġpart s
Ġbel ow
Ġincre ase
Ġfig ure
Ġf ive
Ġre eb
Ġfor get
Ġor d
Ġdi p
Ġtest ed
j ab
Ġc li
Ġk et
Ġresponsi ble
Ġreeb ok
Ġag a
Ġsy uk
wh ere
Ġsay s
Ġf our
Ġn avy
Ġr ice
Ġred u
Ġtri al
Ġsub mit
oooo oooo
Ġdisting uished
od ity
Ġp ill
Ġori gin
Ġconven ient
cri be
cew a
ent ic
Ġadd ress
Ġstick er
Ġnorm ally
Ġaccept able
Ġamaz ing
Ġspark ling
Ġl ist
Ġac com
Ġarri val
su ka
Ġupd ate
Ġgap apa
Ġbany ak
ar an
Ġter baik
Ġab is
Ġwa ist
Ġprot ect
Ġm ed
Ġk asih
Ġfa ult
Ġsim ple
Ġtrans fer
i or
n ed
o ve
Ġne ck
oo f
k d
n ja
Ġt ks
Ġp ul
is ing
Ġl ab
Ġmat ter
Ġacc ur
Ġatt ached
Ġear lier
Ġsur pr
Ġseal ed
i ant
Ġg low
Ġny o
Ġrun s
Ġear ly
over all
Ġexper ience
Ġt ape
Ġh arg
Ġbe h
Ġch ang
ust ed
Ġdr op
wor thy
b x
Ġ ess
en ed
ou l
us s
ee e
Ġstu ck
Ġper h
iss ion
au ght
Ġner awang
g u
al u
Ġcont ent
Ġap pe
Ġod er
u dh
Ġo l
Ġf elt
Ġso ap
Ġsaf ety
Ġds ni
g od
Ġt ear
Ġfair ly
Ġquest ions
c l
Ġg el
Ġm ksih
Ġr a
Ġpes anan
Ġsand als
b all
i ff
p ass
s dh
ar p
Ġbl is
Ġnyamp enya
i er
Ġd an
ol es
Ġj nt
Ġter rible
Ġsec ur
re nt
ar s
ter im
order ed
Ġcheck ed
sho es
Ġsing le
Ġv s
Ġcharg ing
t rim
Ġf ear
qu ick
ag a
un e
Ġcam er
r ant
t s
Ġb ul
Ġw ind
d ing
Ġw et
Ġw ord
Ġj ne
lo ok
ure d
Ġim ag
Ġtrust worthy
llll llll
c lo
Ġb ase
ct ed
Ġm sh
Ġm ult
Ġan k
Ġch o
Ġul tra
Ġt a
Ġn ih
qu ite
Ġst re
Ġlo ck
dis appoint
Ġm om
Ġl em
Ġcont ain
Ġle ast
Ġgu arant
Ġinde ed
Ġauth entic
Ġth read
el s
at s
Ġh aha
Ġ1 8
Ġim ages
v i
Ġm en
id es
Ġsmall ness
Ġreturn ed
Ġsli pp
p ut
Ġt en
Ġt ouch
Ġf ill
Ġfa ke
Ġr ating
aut y
Ġsur ely
custom ers
Ġp aint
Ġg ir
Ġm es
Ġqu al
Ġany one
Ġget ting
Ġbrand s
Ġfreeb ie
Ġadvert ised
b ought
d g
ce pat
as k
Ġr ing
Ġwant ed
Ġbanget tt
Ġhelp ful
Ġsubsid ize
b is
s es
Ġb and
Ġd lm
Ġc u
ush ed
Ġsel ect
Ġpill ow
a wn
Ġ 00
on s
se ver
Ġad a
Ġfle x
Ġsew ing
Ġg re
Ġli ve
ic ation
l am
al a
Ġre sp
Ġk sh
Ġpackag es
Ġr m
Ġse en
Ġar om
di rect
Ġdest ination
dam aged
Ġst ain
Ġse ed
ih i
Ġg aa
Ġn in
are nt
ph one
Ġabs or
Ġposs ible
g anan
it ive
Ġco at
Ġexpect ation
ci e
Ġscratch es
Ġhuh u
e very
Ġd anger
Ġm g
yy yy
Ġh ang
Ġsho ck
Ġbr ang
Ġsp end
Ġjg n
Ġdr awn
zz zz
Ġtal k
f r
r b
Ġch ar
Ġcont r
Ġst able
Ġad just
und red
Ġrecom end
Ġquest ion
c r
h es
n f
Ġun like
Ġple ased
Ġoke e
Ġdou bt
unt il
cord ing
Ġp in
Ġc ount
Ġpack et
Ġclo ck
Ġperh aps
Ġth ird
Ġm idd
Ġk an
ust ri
sh s
Ġrap id
Ġro om
Ġcompl aint
Ġker en
Ġth or
Ġm n
ol l
ap ed
Ġsil ver
Ġaccom odating
Ġt l
Ġt tp
Ġc al
Ġh it
Ġsc re
Ġevery one
Ġtak en
Ġcamer a
b ud
g ing
Ġh undred
Ġal one
Ġcon st
e ed
pr oof
Ġthin ks
Ġdescription s
pass able
k t
m ess
o f
z ed
re commend
Ġm ist
ft y
fin ally
Ġpe el
Ġsek ali
Ġkual itas
Ġpock et
Ġjack et
s ue
Ġp ke
Ġsa w
Ġbr o
Ġfe ed
Ġlip stick
p in
p un
se m
Ġcondition s
Ġent er
Ġwon der
c an
qu e
Ġcl ay
Ġpng iriman
ru ction
Ġvers ion
Ġord inary
b y
c le
f ab
Ġs d
Ġn on
Ġny aa
Ġrequest ed
Ġlay er
disappoint ed
u f
ar ri
ot s
Ġcom pet
Ġni ke
Ġprov ide
Ġsek al
w a
Ġis sue
Ġv oice
Ġme as
Ġ3 9
and om
un ch
Ġr ain
Ġbo y
we en
Ġbook s
cew ain
Ġky k
Ġwom an
c er
Ġ ing
Ġc ake
Ġst aff
ic ated
Ġshop pe
Ġle vel
ci f
Ġer ror
f un
i o
ill iant
Ġcom fy
if ied
Ġmon day
Ġinter est
hhhhhhhh hhhhhhhh
Ġwrit ten
k in
m e
per fect
Ġpl ug
su it
tim es
Ġnin ja
Ġd edu
Ġm ind
Ġall ah
Ġdid n
Ġpay ment
nnnn nnnn
Ġbet ween
c ok
an ja
eli ver
Ġbr illiant
ac cording
55 55
Ġbott les
Ġbeh ind
Ġh es
hh e
Ġ3 7
m i
Ġd ail
Ġc ir
Ġ2 2
Ġmin i
Ġpost age
Ġcomm odity
Ġt iny
in ed
Ġk c
ur dy
Ġwho le
Ġneed ed
wor th
kkkkkkkk kkkkkkkk
Ġhes it
al ah
ort s
Ġbl nja
Ġper o
Ġglass es
Ġgaa da
Ġb ur
ed e
Ġde ch
Ġke pt
Ġfrag ile
Ġbah an
Ġglow ing
Ġdail y
j k
Ġw l
as es
so ever
Ġde ad
app ropriate
Ġke k
Ġ202 0
Ġbt w
Ġgas ket
fab ric
l ish
s ung
Ġs ng
Ġag o
Ġdis ini
Ġbg s
bar ang
Ġste am
w ith
ad ing
Ġbo ard
Ġapp ro
Ġfreeb ies
pos able
h ari
Ġv ouch
Ġj um
Ġr ow
Ġ3 6
ud ah
Ġte a
Ġneed s
emas an
d id
t a
u ff
Ġt eng
Ġf ully
Ġm ba
Ġspe cial
Ġv ol
Ġr andom
Ġse ason
Ġtw ice
Ġhi jab
Ġcomplet ed
Ġsever e
Ġwar rant
Ġprod ct
Ġthor ough
il ah
Ġk ap
Ġnot ice
Ġr ock
Ġac ne
Ġmat e
Ġde hh
Ġpl aced
Ġwrapp ing
Ġcm n
Ġspark les
ustri a
r n
Ġg rip
Ġsay a
j h
l ass
v ious
Ġy o
Ġmar oon
Ġsle e
Ġinclud ed
Ġcant ik
Ġwarrant y
Ġfa m
Ġr ose
Ġr ada
Ġlah h
af ter
ra id
p eng
ent ly
price s
Ġamaz on
Ġtong ue
Ġa ut
qu id
Ġcol d
ii h
Ġar m
Ġmil es
Ġexpress ion
Ġc ell
Ġm b
Ġl h
ar a
Ġlo c
Ġdis posable
Ġown ed
Ġhr g
Ġgt u
Ġinstall ed
Ġblis ters
l od
Ġd us
Ġn d
im ate
Ġsa ve
sh irt
Ġaf raid
pl aced
Ġleg s
ic ient
Ġtr ny
Ġsa uc
Ġhe fty
Ġsmell s
iz ed
Ġleak ing
Ġs ll
Ġb und
Ġbe auty
Ġv ia
Ġdo or
Ġbl m
Ġbr u
Ġlook ed
Ġwal let
pl ay
Ġmark ot
g es
i an
m as
s low
Ġ est
Ġs cent
Ġm co
Ġpo bud
he ad
Ġsc ar
Ġgu ys
Ġins ert
Ġnge cewain
Ġimpress ed
Ġhol es
Ġexpression less
w ise
Ġt uh
Ġd ont
or ge
Ġsh aped
Ġi d
Ġi ron
Ġst urdy
Ġpl ant
dh dh
Ġper form
ker en
aught er
n se
u i
Ġf em
Ġst ri
Ġst iff
Ġmin us
Ġsat ur
orge ous
d f
il ang
Ġsho pe
Ġ1 7
Ġfit ted
Ġlack ing
Ġfall ing
mk sh
h ad
m l
el et
Ġb le
Ġw are
Ġm ic
Ġfa il
aaaa aaa
Ġap a
Ġsol es
Ġshipment s
Ġresponsi b
Ġnat ur
Ġwhe ther
g s
l er
Ġp em
at ic
Ġare a
ha ve
c ase
Ġp et
Ġp ouch
Ġc asing
on ly
ri ght
ol ut
Ġon es
Ġr eli
sh e
Ġsk rg
Ġhand le
Ġdu per
Ġdraw ings
Ġmaint ain
w ear
Ġt ired
Ġp ag
Ġm all
il i
Ġex change
Ġby k
Ġx xl
Ġel astic
Ġwrit ing
Ġb reat
re p
Ġc up
Ġm sg
ar ily
Ġin sh
se c
Ġgreat ness
Ġsome one
Ġsubs cribe
Ġmk asih
Ġtot al
Ġram ah
Ġju ga
Ġeng ga
h r
Ġs lo
Ġp ort
al em
am b
Ġser ious
ist ry
ssss s
js j
Ġear r
Ġfur ther
Ġaccur ate
direct ed
r d
Ġsh arp
Ġas h
Ġ2 8
Ġevery day
Ġwar m
Ġfollow ing
b z
l h
Ġm ix
Ġex ist
Ġsamp le
Ġmak ing
Ġreplace ment
Ġheal thy
n z
Ġp p
Ġd aughter
Ġl ens
Ġde vice
Ġn one
Ġh op
Ġl ain
et t
uuuuuuuu uuuuuuuu
Ġdep ending
Ġess ent
Ġp ull
Ġk em
ion al
Ġli quid
et er
Ġde f
Ġme ets
Ġx a
Ġsn ug
pppppppp pppppppp
Ġsli p
cor respond
m ed
Ġh ihi
Ġse par
Ġsatisf y
Ġam a
Ġsel amat
Ġstick ers
re ci
Ġw ire
Ġk at
Ġ9 9
kw k
Ġmate ial
b ai
Ġo ath
ut es
ak ing
st em
gin i
day s
Ġplastic ity
Ġtem per
ssssssss ssssssss
Ġaddition al
Ġk w
Ġno se
Ġwr n
Ġpro fit
Ġpl ain
dddddddd dddddddd
Ġlab el
Ġscre w
a ve
b ain
Ġd ng
ak sih
Ġsome times
nd nd
Ġpost ed
Ġma x
val u
Ġmem uas
Ġconn ect
lod ged
c ing
c um
m n
is ting
ort ed
Ġ2 3
thank you
iv es
br ang
Ġgl ad
Ġprom pt
hehe hehe
Ġlang ganan
recommend ed
j ang
Ġb is
Ġl ed
so ft
Ġse g
Ġdis lodged
Ġper f
Ġab ove
red ient
bo ok
Ġmur mer
Ġbri an
Ġed ge
correspond ing
b ih
Ġw ood
Ġm ain
Ġn nt
Ġre ce
Ġbe ating
Ġcom b
Ġtran sm
packing nya
Ġprom ot
Ġcur rent
Ġpokok nya
Ġgam bar
Ġsch ool
Ġt el
Ġm us
Ġe valu
Ġsu ng
si p
Ġterim akasi
Ġev ent
th en
th at
Ġbe ar
Ġsp ending
Ġsy stem
Ġthink ing
Ġhat i
bg us
Ġslipp ery
lass es
h at
Ġg orgeous
Ġb b
Ġb eli
Ġre cent
Ġsm g
ol ving
Ġj ait
ow ning
oun ter
Ġrecommend ation
Ġgr owing
Ġmo ga
Ġcrack ed
Ġsatur day
g b
Ġw ore
Ġm el
Ġm aa
Ġk ya
Ġdis s
Ġdis play
Ġfr owning
Ġmin istry
Ġatt ention
Ġcum a
uh u
Ġc ent
as a
Ġre cie
Ġto w
Ġv iew
um er
Ġsa vor
Ġpre fer
Ġwash ing
Ġob vious
Ġspill ed
Ġsavor ing
Ġw kwkw
as y
Ġl amp
Ġst ate
Ġspe cif
em ber
Ġex ha
Ġtr ade
Ġunt ried
Ġapp reci
Ġbar g
Ġmin utes
Ġlow er
Ġber k
1 0
f ri
j g
p ants
v id
w ow
Ġt i
Ġt on
Ġp el
Ġc uc
all er
Ġoke h
Ġconfirm ed
Ġwash ed
Ġpdh al
Ġfix ed
suit able
h s
n et
p y
Ġcom ment
pr aise
Ġun comfortable
Ġle ather
Ġapp l
ser vice
Ġsubmit ted
Ġmarkot op
u ri
v m
ver age
Ġrev olving
Ġguarant eed
Ġmidd le
Ġing redient
Ġfem ale
ce s
Ġl aa
th umbs
Ġk as
Ġwr ite
out ing
Ġsy g
Ġho ok
Ġincre asing
Ġmis placed
Ġphotograph ed
Ġhahah a
Ġjum bo
fri end
j w
Ġm ng
as m
ell ers
Ġlu cu
Ġsim ply
Ġhur t
r at
y m
Ġp ity
Ġo ption
Ġf ish
at ure
ri but
Ġi de
ah it
Ġtr ack
Ġ2 9
Ġbl anja
li es
Ġstar t
Ġcut ting
Ġmatch ing
Ġcl ick
Ġtight ly
Ġanswer ed
Ġds ini
Ġchang ed
vi ved
n nya
Ġd um
Ġk om
Ġor g
im a
com ended
Ġar t
Ġdr ink
av es
Ġcou ple
Ġsur vived
okokokok okokokok
Ġlum ayan
h an
Ġs itu
Ġp outing
Ġb ol
Ġb ir
Ġb elie
Ġlo se
Ġse ction
Ġce pe
ait ed
ac ing
Ġint r
ahah ahah
Ġcons ist
Ġvouch er
olut ely
Ġf i
Ġm eng
or ing
id ent
ca re
Ġco ins
Ġ5 55
Ġper sever
Ġexc lam
Ġcart on
Ġcolle ction
Ġexclam ation
c ur
Ġf ing
ur ing
Ġdoes n
Ġfl avor
wh y
Ġsuk aaa
Ġlast ing
a ustria
Ġl ap
ak a
ap oint
bs bs
Ġad em
Ġthin ner
Ġinst ruction
Ġve il
Ġpart y
Ġca use
Ġexc ited
Ġinclud ing
Ġsecur ely
Ġpersever ing
y aa
Ġt as
Ġpr act
Ġe t
Ġr an
Ġha ven
Ġdi b
Ġnyampe k
Ġng ak
bb bb
Ġdesign s
Ġdt ng
tim e
Ġbutton s
Ġsung lasses
h igh
Ġg at
Ġd l
Ġw ed
Ġm ir
Ġk t
Ġag e
ic y
com ing
Ġpackaging nya
auti fully
aaaaaaaaaaaaaaaa aaaaaaaaaaaaaaaa
Ġbny k
Ġbai kk
n k
er nya
is ion
Ġn ut
der s
st ore
Ġke cewa
Ġoff ers
Ġaccept ed
trim akasih
Ġearr ings
el ent
re s
ang g
Ġbl ame
Ġfri day
rim p
wh ich
Ġwait ed
Ġlag ii
Ġincreasing ly
a way
s lightly
Ġf ire
Ġw ow
Ġ2 7
app y
Ġco ff
Ġus b
Ġbag uus
Ġmant ep
Ġlg sg
Ġbook ing
m p
y ok
Ġh or
Ġk ar
Ġst ains
ant i
Ġbl ock
Ġme at
Ġtrim s
Ġrem ain
Ġfeed back
b f
c ul
Ġs aller
ver s
Ġis su
ah an
Ġex isting
mant ab
Ġmou se
Ġfam ily
Ġresponsib ility
Ġc ord
Ġk ur
Ġfor got
Ġv ict
Ġ2 6
Ġstar ted
Ġsoft ware
Ġke cil
av el
Ġoff ice
Ġ6 0
Ġsun day
Ġcontr ol
Ġnatur al
Ġt il
Ġm int
Ġl aces
Ġre c
ot o
Ġy ong
Ġcr oss
Ġmin im
Ġstat us
Ġflow ers
Ġjug aa
Ġqual ty
Ġarom a
Ġexha usted
Ġingredient s
1 1
l it
r ated
y u
Ġw ent
odu k
Ġproduct ion
Ġne g
Ġlo ad
Ġus er
ab les
Ġhr s
Ġpu ass
Ġak o
Ġpaket an
Ġpengirim anya
Ġinit ially
Ġresp nse
k h
en se
Ġl ol
Ġl azy
gg age
su b
ign ed
Ġsur f
Ġwar p
Ġabsor b
e g
f l
l um
Ġf irm
Ġy un
pp p
ch at
Ġv an
Ġj ap
li ed
Ġmo ve
ple ase
Ġdist ance
every thing
Ġtransm ission
Ġrecent ly
i ri
ell ed
Ġv ide
Ġr ot
Ġbr a
Ġsp ent
Ġgir l
Ġhesit ate
k at
s c
s le
Ġb ing
Ġd im
Ġm s
Ġn et
Ġr ange
Ġlo g
Ġdi e
Ġexpect ing
Ġmo ist
Ġthick ness
Ġoke y
Ġfin ish
Ġs light
Ġt ag
Ġm ail
en ing
Ġqu ant
Ġst ability
Ġex ce
Ġco in
wh o
tttt t
Ġlu v
Ġcl a
Ġshirt s
Ġsamp a
Ġker ry
Ġsw itch
Ġbase ball
Ġmult ip
Ġcho col
Ġ00 0
fun ny
Ġreli able
Ġcoff ee
Ġm ace
so le
Ġsuper b
Ġslow ly
Ġoff er
ik in
Ġmakasi hh
mmmm mmmm
h i
m ay
an h
Ġsh rimp
Ġbe come
um pl
Ġse gini
Ġad hes
Ġkn p
Ġlu ggage
Ġap art
Ġro ad
Ġenjo y
k ok
o c
ar in
Ġk ain
ff er
Ġha ving
Ġbl i
lo ves
Ġbang ee
Ġkn e
Ġcr ushed
Ġmis directed
Ġpk ok
Ġwi der
Ġnear ly
Ġrece ved
Ġbelie ve
v s
Ġto ys
Ġli ps
ic ial
Ġex cept
Ġcheap est
ne at
Ġsuk aaaa
Ġwater proof
ns ns
xx xx
Ġperform ance
Ġbir th
Ġissu es
Ġchocol ate
ur s
jd j
e h
Ġg er
Ġin k
Ġtr us
Ġwor ried
Ġrecei ving
Ġlot s
ece w
Ġconsider ing
ww ww
Ġbreat h
Ġt d
Ġt ough
Ġa x
Ġp m
Ġp ant
Ġy aaaa
Ġbe gin
Ġsm ga
Ġtim ely
Ġfr ame
Ġ3 2
Ġexp l
Ġke pake
Ġ9 0
Ġbook ed
Ġset s
Ġcepat t
Ġdateng nya
Ġprot ection
Ġang ry
Ġ201 9
Ġmeas ure
Ġvol ume
Ġsitu ation
e v
m akasih
r al
Ġc pet
Ġw kwk
Ġh g
il a
Ġall ow
Ġcomp act
Ġsp ong
Ġz ig
Ġpen jual
Ġadv ance
Ġsneak er
Ġessent ially
a o
f h
x h
Ġs ana
Ġt ree
Ġa verage
el d
Ġd ic
Ġw all
Ġk aa
Ġfa de
ul ting
Ġbu ble
Ġtr action
Ġwhich soever
bag uus
Ġgive away
Ġrefund ed
Ġtu be
Ġfil m
Ġkap ok
Ġinsh a
e ven
f air
f avor
n ers
o id
Ġs ides
Ġv i
Ġch ance
ang at
ig e
gg u
Ġdown load
Ġseem ed
Ġ0 9
Ġsty lish
Ġhell o
Ġexpir ation
Ġstre ng
Ġbund led
h appy
Ġt v
Ġb ass
oo o
Ġle ave
Ġbubble wrap
Ġsay ang
Ġlik ely
Ġsem ua
Ġel ect
Ġsatisfact ion
bd bd
Ġod or
Ġcli p
Ġdedu cted
Ġpr inting
Ġn ail
Ġre ach
Ġsho vel
ang an
Ġag k
Ġbr ing
Ġdi am
Ġbg tt
ist ics
Ġbagus sss
Ġgu y
Ġsel er
Ġz ip
Ġrespond ed
Ġteng ky
Ġs us
Ġp aste
Ġg ym
al so
Ġb w
Ġf al
on a
Ġn ad
Ġother wise
Ġun i
Ġ2 1
Ġco vid
Ġwear y
Ġle aves
Ġwant s
ail and
Ġsl im
Ġclear ly
Ġterm s
Ġdetail s
Ġbny ak
2 0
k i
t g
Ġd il
Ġd oll
Ġm ad
ell a
Ġch est
Ġwr ink
Ġpro f
os ed
Ġapp ly
Ġsupport ive
Ġyour self
Ġaw aited
Ġsen se
Ġdust y
h ar
o per
t ry
Ġt reat
Ġt uk
Ġt read
Ġf at
Ġh nd
Ġwh oles
Ġr ust
Ġaff ection
Ġ20 0
Ġdik irim
Ġed ges
bang et
Ġappe ar
uf act
Ġperf ume
n h
o e
Ġb ased
Ġd alem
ant aran
Ġcom ments
Ġmy self
Ġdo g
Ġslow er
Ġcar ry
Ġbless ings
Ġins ya
sel ves
Ġol shop
g iriman
h and
w ould
Ġs ama
Ġk es
Ġsu ks
id ed
ong rat
Ġdis in
Ġres ist
Ġrem ember
ire s
ex act
vv vv
Ġabs olutely
Ġtot ally
Ġspr ay
deliver ed
e f
g ar
Ġg x
Ġm h
Ġn are
il t
Ġan ti
Ġpack ging
un fortunately
ir nya
id as
Ġsi i
Ġcan not
wh en
hhhh h
Ġgu ide
pake t
Ġaw ful
Ġgm n
5 0
b ab
g y
Ġs our
Ġg ame
Ġe c
Ġin complete
ul ations
Ġser um
Ġcolor ful
Ġco cok
Ġam in
Ġgr ow
Ġsel ected
ced ent
Ġman ufact
Ġform er
Ġenthusi asm
Ġequ ally
Ġtrny ata
b i
d es
Ġg anda
Ġf ell
an e
an j
ce p
ut ion
Ġi p
Ġk it
Ġj os
Ġyou ng
Ġbr ac
est ed
Ġter bai
kn own
iiiiiiii iiiiiiii
Ġstretch y
Ġchar act
w as
Ġg one
al hamdul
Ġm i
Ġh um
Ġe id
Ġsi hh
Ġpur se
Ġdes ired
Ġoverall s
Ġmas ks
Ġfollow s
Ġpk p
Ġequ al
Ġflow er
Ġcuc ok
Ġt ues
Ġp age
Ġth ailand
Ġd pt
Ġh y
Ġto y
am s
Ġj a
Ġj ak
Ġch ick
Ġsi h
Ġad e
Ġclo thing
Ġmant aa
Ġsel f
Ġpart ic
Ġvari ation
Ġkal o
Ġredu ce
Ġadhes ive
h ouse
k irain
n ow
o b
s amp
Ġto es
Ġe y
Ġbe autifully
Ġdi g
Ġco z
rim an
Ġeven ing
Ġbanget ttt
Ġthick er
Ġint imate
Ġlu c
Ġnat ure
Ġdip ak
Ġword s
Ġcontain er
Ġappreci ate
k en
t u
Ġs ust
re comended
Ġn or
Ġan te
Ġst ated
Ġser ve
pt ed
int ed
nn n
Ġbal es
Ġbel t
Ġpol ite
Ġexpir y
mess age
Ġscar f
Ġbarg ain
Ġgat au
b n
k al
x y
Ġs j
Ġw ast
Ġpr ior
at or
Ġi r
Ġfa ded
ak k
Ġshop pee
Ġworth while
Ġen vel
iiii i
Ġres eller
val ue
Ġchin ese
ph ones
Ġmem ory
Ġye ah
Ġdest ro
some what
Ġcommunic ation
Ġremo ve
Ġcompet itive
rep ant
Ġnnt i
Ġet c
Ġspong e
c pt
f o
r s
v d
Ġt k
Ġp c
al am
Ġc and
Ġm old
at t
Ġl mb
Ġbe y
ol og
ful l
Ġcon cer
Ġwor ry
Ġhe ight
Ġlight er
Ġkm rn
Ġsampe k
Ġmal em
how ever
favor able
ongrat ulations
Ġtues day
Ġante cedent
r an
Ġn gg
or ies
Ġdis ab
Ġacc ount
if y
Ġreason ably
Ġbarang nya
Ġcons ulting
ex pect
Ġsurpr ised
Ġhop ing
Ġt id
Ġp ig
al hm
Ġb ow
Ġh d
ar ely
ent ive
ak es
Ġser ies
Ġbo le
Ġhas sle
ny ampe
Ġstr ange
respon sive
Ġhehe hehe
Ġmod er
ner ed
Ġcompl ain
tttttttt tttttttt
Ġprodct s
Ġcla im
m u
n ah
Ġp d
Ġm nt
ad i
Ġac cess
Ġfri ed
Ġen c
si ble
Ġsn ack
Ġmakas ii
Ġseed s
Ġaut om
c us
i ful
n c
Ġs an
ur an
id ay
ang nya
Ġtr aining
sh sh
Ġover load
Ġng k
Ġsem u
Ġpen cil
Ġje ans
Ġtal aga
Ġcas es
Ġdelay ed
Ġvide o
c ast
g l
r act
u w
Ġb n
Ġm ine
Ġm ks
Ġsh are
Ġin ch
Ġu d
Ġj ar
Ġlo go
Ġun known
Ġtr ou
Ġgr ab
art a
ac y
Ġsecure d
Ġluck y
Ġimpress ive
Ġhol iday
sa fe
Ġconsist ent
Ġbirth day
k l
Ġt re
Ġp un
Ġp apa
Ġp ump
ing nya
Ġsu mm
Ġli mit
ant ik
Ġori gn
Ġdo ing
Ġbl s
Ġri g
Ġdent al
Ġcm a
Ġru pt
Ġlog istics
1 2
d r
p n
Ġe ating
ul it
Ġface pal
st r
Ġup on
Ġtr avel
Ġad ult
Ġtq vm
Ġem g
Ġatt entive
Ġman ual
Ġwar na
Ġlam aa
Ġvis it
Ġevalu ation
Ġorign al
Ġfacepal ming
b c
k x
k ual
s ame
Ġs ak
Ġb an
Ġc ity
Ġw el
Ġh s
Ġl d
Ġi phone
Ġk sih
Ġnot es
Ġal hamdul
ak ak
Ġship ing
Ġwe ak
ber y
Ġtri p
Ġbrg nya
bu ka
Ġfre qu
Ġind ones
Ġsleep y
Ġthorough ly
b less
u it
y et
Ġsh ell
Ġor gan
ic ations
Ġ3 1
ks ks
Ġrep lies
gg ed
si zed
Ġke cepat
Ġcomm and
Ġsound s
gggg gggg
Ġstreng th
Ġbey ond
3 3
b it
b les
d l
j z
r as
Ġt ur
Ġth o
Ġb ored
Ġf ant
Ġc atch
Ġm ap
Ġl un
ar n
Ġj am
Ġcomp an
su k
Ġgu est
min ate
Ġimpress ion
look s
Ġrecie ved
Ġquant ity
umpl ed
c ame
e xt
m akasi
o pped
p d
r ang
r ather
us ing
Ġbl ank
Ġpo p
act ually
Ġsk ali
Ġaff ect
Ġhigh er
Ġact ive
Ġbatter ies
Ġav oid
Ġtip is
Ġflex ible
Ġfing er
Ġwholes ale
Ġrupt ure
k f
k ap
Ġb ent
Ġo m
en cy
Ġl ear
Ġst op
am used
ke ep
Ġun amused
Ġgod bless
Ġmake up
Ġass ess
Ġcomplaint s
Ġmemuas kan
b ell
n es
r m
Ġs ite
Ġl and
Ġto ler
Ġr arely
Ġbl om
Ġbr ought
ance s
Ġsp ot
Ġpake k
Ġinform ed
Ġhold ing
Ġwom en
Ġdiss apoint
l ace
o y
p on
t w
it i
Ġg and
Ġb ak
Ġc k
Ġm ention
Ġl ace
pp y
Ġst rip
Ġne ut
Ġdis app
Ġfr ust
Ġno on
Ġ3 5
Ġter us
Ġexp elled
ne ver
Ġpe ach
Ġcard s
Ġben e
Ġtemper ed
Ġdestro yed
Ġs z
re am
Ġn b
Ġh ote
il ing
Ġst ep
Ġpre sent
Ġco oper
Ġad idas
Ġoff line
Ġcompl icated
Ġsil ic
Ġba ju
Ġcrack s
Ġprinci p
Ġbrac elet
Ġjak arta
h d
j c
ap ak
um b
Ġpre p
Ġhope ully
ai red
Ġby e
au iful
Ġact iv
wor ks
Ġgar nered
sec ond
Ġinstruction s
Ġvict ory
Ġmultip le
p el
er o
Ġa while
Ġp ed
Ġd eng
Ġto ol
ast y
im e
Ġun favorable
li p
Ġcomp ar
Ġcomp are
pack ages
any way
Ġjo ss
Ġcr is
Ġreturn s
Ġtl g
sub mit
Ġax ial
Ġsuks es
b ody
h o
m iss
m any
p ose
s ellers
y an
it o
Ġb un
Ġc ash
Ġm ending
Ġn ga
Ġsh oul
Ġi gn
Ġk ud
ch y
ke y
Ġme an
he w
Ġsp ace
Ġgi ving
su kak
br ow
Ġlu x
Ġhehe h
ro ss
Ġdisc repant
Ġtempor arily
Ġlay ers
la ju
bis a
mi um
Ġcir cum
Ġton er
Ġcompan ies
k us
m ar
m pe
u y
Ġs su
Ġt t
is es
Ġan no
Ġal ong
ous and
Ġmerch ant
Ġthem selves
Ġpurch ases
Ġdid nt
Ġhapp ens
aw a
Ġimp act
Ġrequ ired
Ġeff orts
Ġmag anda
Ġball oon
Ġcoll ap
Ġmist ake
arri ved
Ġslee ve
Ġneut ral
Ġm lm
as uk
Ġch ain
ic ing
Ġcol ored
ter baik
Ġ5 00
Ġbad ly
Ġatt ract
Ġcomm on
Ġconsum ers
Ġmir ror
Ġprincip ally
i der
Ġb ath
Ġk en
Ġk li
Ġj s
Ġreg ard
Ġmur ce
wor k
Ġsiz ing
Ġplay ing
dis like
Ġinf o
m et
Ġt ail
Ġth ousand
Ġo per
Ġf ather
Ġc y
Ġc un
Ġm w
Ġm ul
il ities
ere ply
Ġun it
Ġex cess
Ġout er
Ġcont ribut
be cause
su bs
Ġpes os
Ġoff ered
Ġ8 0
bl ed
Ġrem ote
Ġhead set
Ġaw et
Ġscratch ed
Ġdec or
Ġflaw less
terim akasih
ecew akan
b ow
b bery
m on
s on
Ġa pr
Ġb br
is k
Ġdeli c
Ġsh eep
em ic
Ġas sem
Ġpl s
Ġx de
Ġdam ned
bb on
Ġpen gh
Ġmot ives
Ġseam less
Ġcas ual
Ġbh an
Ġconsum er
Ġimag ine
Ġloc al
b ers
e y
s ing
Ġt ing
in ch
re qu
Ġh mm
Ġin coming
Ġu dah
ke cil
Ġr at
Ġ3 00
Ġover sized
Ġbagus ssss
ik it
Ġey el
a x
j i
Ġp and
Ġg em
Ġm am
Ġv ac
Ġbag uu
Ġkak k
Ġen ak
Ġpesen nya
Ġopen ing
Ġrepe ated
stand ing
Ġbet ul
Ġpos laju
Ġeye brow
Ġenjo yed
Ġmes h
Ġsll u
Ġest im
Ġintr odu
Ġrig id
r ap
Ġm ac
ell y
Ġin sole
Ġj er
Ġj az
Ġso re
Ġfr uit
Ġwor ld
Ġsp icy
Ġkn ee
Ġoff icial
urch ased
Ġass igned
Ġdiscount s
Ġcall ed
Ġinstall ation
Ġbh n
Ġfore ver
Ġbing it
Ġinsya allah
b es
y o
Ġp dah
al in
Ġc ounter
Ġre j
Ġk ore
ok o
ter n
Ġpre mium
Ġple ading
Ġmo b
Ġcr umpled
Ġpen yok
Ġmot or
Ġcushion ed
Ġrem ains
Ġfre ight
Ġbus y
Ġ202 1
Ġcommunic ative
Ġpound s
Ġredu ced
Ġcontain ers
Ġmes en
high ly
Ġsurf ace
Ġresist ant
Ġec q
Ġchick en
a an
m ur
u an
od ing
it ure
or a
Ġre ar
ag us
Ġj une
ak en
st ar
Ġpl a
Ġpl an
Ġper t
Ġper for
nt ik
amp oo
ind i
Ġpeng emasan
Ġcons ult
Ġak u
Ġdiscount ed
Ġsen der
Ġlin es
Ġta unya
Ġpract ical
Ġssu ai
Ġ ilang
Ġs oul
Ġg on
aa k
Ġr ude
ff icient
ess ional
Ġdi bal
Ġga bisa
Ġri bbon
Ġ4 5
if ication
Ġconf orm
Ġmak sih
Ġtrust ful
Ġeff icient
Ġrap ih
Ġnge pas
Ġperson al
Ġpokok ny
Ġgm br
Ġaman ah
eeeeeeee eeeeeeee
real pict
Ġremo ved
Ġbas ic
Ġclass y
Ġpeel ing
jang ka
e gr
Ġs it
er ima
Ġm id
il is
Ġk irim
Ġk lu
Ġin ner
Ġbl um
Ġbl oss
ud a
Ġwrap nya
Ġcover ed
Ġprovid ing
do es
Ġcap t
mess ages
Ġdng n
Ġwed nes
Ġbloss om
i ah
Ġs ed
Ġs ke
Ġto s
Ġk ere
Ġal i
Ġv el
Ġne p
ang et
Ġse wn
com fort
act ory
ac ity
ll l
Ġstr aw
recei ve
Ġcover s
Ġtak ing
Ġstand ar
Ġheal th
Ġprevious ly
Ġspeak er
Ġsng at
Ġware s
Ġwednes day
h ol
m d
Ġs ou
Ġs ket
Ġt in
Ġt ank
in es
it a
Ġre cord
th ick
Ġe con
Ġk s
Ġk il
ad es
ak allah
im b
Ġcon cent
Ġte ch
Ġdat a
Ġhel d
Ġ7 0
Ġ0 8
dk d
Ġmag net
bal oi
Ġmed ical
Ġank le
Ġslo bbery
Ġmus ic
friend ly
expect ed
Ġnep hew
a at
j am
Ġb ank
Ġpr iv
Ġm ount
Ġh oney
Ġqu i
ri d
Ġal as
Ġon gk
ap at
Ġch r
Ġso al
Ġbg d
Ġya udah
dul illah
Ġwe igh
Ġfl av
nn d
Ġcor ona
Ġask ing
Ġem p
Ġrol l
Ġvari ant
Ġsuggest ions
tqtq tqtq
Ġneck lace
Ġsng t
Ġide a
Ġkom pl
Ġpdah al
c ell
u ous
Ġ ice
Ġb kn
is on
Ġd ed
ce t
Ġm os
ant ap
Ġun used
Ġar ms
Ġlight ning
Ġny mpe
Ġwear s
Ġsp ir
Ġwe ather
Ġcor ner
Ġtransp arent
Ġkind a
Ġdark er
Ġleak ed
Ġcommunic ate
Ġtow el
eg ant
Ġo cc
Ġw o
Ġre ward
Ġsh ampoo
Ġnot iced
Ġrecommend ations
Ġsc am
Ġint ention
Ġsamp les
mo ga
Ġterim akas
Ġcost s
Ġty pes
Ġregret s
Ġba j
Ġps bb
Ġwi fe
Ġinit ial
oooooooo oooooooo
Ġwonder ful
Ġdelic ate
a ud
c ah
p uas
t urn
z en
an ced
Ġm l
Ġi b
Ġu r
Ġtr ous
Ġdi chat
ate ver
Ġbg et
Ġter ny
Ġab ras
Ġdur ability
Ġbagus bagus
Ġret ri
Ġprom ised
pro x
Ġ0 5
Ġluck ily
Ġdik asi
Ġ15 0
Ġcap acity
sy uka
Ġben der
Ġste el
Ġecon om
g ener
h ang
u ul
Ġs dk
Ġp ark
al al
ent y
ay ay
Ġal right
Ġu h
Ġfor ce
pr om
Ġsi x
Ġde g
Ġbo s
Ġrep aired
Ġle ad
Ġapp arent
ult ra
bl ack
Ġmar ks
Ġsiz ed
col ors
satisf actory
air s
edu le
Ġjug ak
Ġcancel ed
Ġfill ed
Ġseg itu
Ġobvious ly
urs day
Ġdipak enya
Ġmob ile
i fe
p m
r os
Ġs g
Ġt nx
Ġa prox
Ġm ash
en ance
Ġn am
Ġl my
ent le
Ġv end
Ġr ace
ir king
Ġser ing
Ġ3 4
Ġlet ter
Ġsol ution
Ġcost umer
Ġass ured
Ġclean ing
Ġum br
Ġsat ified
Ġlin ing
Ġcoll ar
Ġpul ak
Ġkecepat an
Ġdissapoint ed
o x
th x
Ġan t
ck ing
Ġsm irking
am az
good good
im an
Ġch an
Ġcon d
Ġtr a
Ġde cei
ii k
Ġco ated
Ġsiz enya
Ġvari ety
Ġdon k
Ġcur t
Ġsecur ity
Ġnd ak
Ġsauc y
Ġnad eliver
Ġsust enance
Ġenvel ope
Ġindones ia
Ġdisapp inted
Ġtrous ers
1 5
9 0
p ic
q q
y ung
Ġs bl
Ġt f
Ġf ee
Ġd en
Ġsh all
Ġk el
Ġli ft
Ġlo h
pr oduk
Ġtr mksh
Ġsa u
Ġwor se
li k
Ġbg ttt
ail ing
aaaaaaaa a
do or
Ġcompl im
Ġvari ations
Ġps en
Ġtable ts
Ġmg kn
Ġsauc ony
Ġid ent
Ġwast ed
c ise
w al
Ġt ie
Ġb ait
Ġw ip
Ġl bih
Ġne x
Ġch i
Ġch er
st er
Ġfr aud
Ġbo ther
Ġpl ate
Ġsubs idy
Ġ4 2
Ġmay an
Ġab u
Ġbub bles
Ġke ce
Ġke buka
ne xt
Ġint egr
Ġsel alu
Ġshort s
ro om
Ġtrim a
Ġrem aining
Ġdist orted
Ġupd ates
Ġdec ided
Ġcharg ed
Ġfil ter
Ġsch edule
rrrr rrrr
Ġfore ign
Ġevent ually
Ġjait an
Ġappl ication
Ġexce ed
Ġperfor ated
e asy
j r
k it
n ight
Ġg lo
Ġg rim
Ġc ongratulations
Ġpr icing
Ġn ap
ur y
Ġbu ck
Ġtr aff
Ġsa ving
Ġam en
Ġworth y
Ġpur pose
Ġwork out
ash ion
mant app
Ġel egant
Ġpok o
Ġprovid es
Ġpaket annya
Ġbangee et
Ġelect ric
Ġtrou ble
h ere
t ooth
y al
Ġ ut
Ġa head
Ġp ing
in a
Ġth ursday
Ġo pin
Ġd m
se mb
im ately
ok ed
Ġwh atever
Ġup side
Ġkn own
Ġdr opped
Ġbanget tttt
av ing
Ġmo th
Ġcr o
kkkk k
Ġshe et
Ġhelp s
lu cu
material s
Ġol der
Ġlem but
Ġconst r
Ġscent ed
eter minate
cul ated
Ġminim al
Ġaccess ories
keep ing
Ġkud os
d c
g ress
i w
s angat
z ing
Ġt ang
Ġb ner
Ġm dh
Ġm ild
Ġh ood
Ġh indi
Ġk in
ch ed
Ġsho ot
Ġsu dah
ah hh
Ġne cess
un ggu
Ġtime out
Ġacc oding
Ġus ers
Ġad ap
Ġke cew
ne ath
Ġneed le
ik es
Ġng am
sm iling
Ġkind ly
Ġro be
di ffer
Ġvari ants
Ġca ve
Ġinclud es
Ġadvert ising
Ġsam sung
Ġcolle ct
clo thes
Ġcent er
Ġlap top
Ġbegin ning
Ġsumm er
ext remely
e xc
v an
Ġt ee
Ġg entle
Ġu pper
ain ya
end s
Ġbu d
Ġtr m
Ġde vel
Ġdes k
deli cious
any aa
Ġint ent
if i
Ġfo cus
Ġdown cast
Ġpok oke
Ġind eterminate
Ġ202 2
jf jf
Ġinde x
Ġger cep
Ġngg k
Ġpig ment
b ah
k z
n is
in ce
Ġg ede
Ġf ond
Ġn ie
at an
or able
Ġe gg
Ġk ot
Ġbe ige
Ġal hm
ve t
ak nya
Ġso ck
Ġshipp er
Ġsi pp
Ġmu ken
Ġar my
Ġhe y
li g
Ġdes er
Ġph ys
Ġsupp osed
av a
aaaaaaaa aa
ung kus
co ver
Ġbreak ing
Ġgir ls
Ġgre y
Ġmax im
Ġkar na
ev able
Ġtengky u
Ġtoler able
Ġattract ive
Ġpand emic
b ot
c ar
m illah
r el
Ġs s
Ġs na
Ġf urn
Ġc ntik
Ġm au
om on
Ġbe g
Ġsm art
Ġex tr
Ġsa v
ope e
Ġsy ek
Ġab it
Ġkn ife
Ġdur ation
iiii ii
Ġmon key
Ġsel ection
Ġunder neath
Ġwar n
Ġincl ude
Ġincre ased
Ġpn jual
Ġprotect or
Ġapr il
Ġgon na
Ġumbr ella
a bs
l and
s ale
Ġt n
is i
Ġh ay
wes t
Ġch ose
Ġpro ject
op ened
Ġrep ut
Ġhi king
Ġlot ion
Ġwork ed
Ġpoint ing
Ġses ua
mer ch
Ġku ri
Ġvis ible
Ġfault y
Ġcand y
Ġguest s
Ġretri evable
Ġopin ion
7 7
Ġd ora
Ġl an
th eless
Ġk ed
Ġy ng
et ic
Ġch art
Ġde form
Ġget s
Ġstr aps
Ġsuk aaaaa
Ġfo ol
Ġz ero
Ġkr m
Ġear s
jj jj
con s
Ġev il
Ġorigin ally
Ġsurpr ise
Ġpromot ion
Ġkne w
Ġpkok nya
Ġnare cei
Ġsilic one
differ ent
9 9
m ission
n am
Ġt dk
Ġp atch
Ġg w
al an
al ham
re pe
Ġf ashion
is m
or ance
Ġl m
ut er
Ġin put
Ġbe auiful
Ġfor ced
ill aah
ap ers
un y
Ġse ger
Ġce p
Ġdisappoint ment
Ġrun ner
ound ed
Ġcr amp
Ġown ers
tr usted
Ġwal au
Ġber baloi
Ġses u
Ġmand ailing
Ġunderstand able
Ġupd ated
Ġkm ren
Ġpress ure
Ġbi as
Ġprint ed
Ġmet al
yyyy yyyy
Ġsekal ii
Ġprof essional
Ġshoul der
b w
b ble
h ip
j ek
k ali
l ay
r ation
Ġs ca
Ġs ni
Ġg ag
Ġn ha
Ġl ink
qu ito
ort ion
ang ka
Ġas semb
ic ulous
Ġdis ni
Ġpre par
Ġco py
kk w
Ġ5 5
Ġgr ad
uuuu uu
Ġpeng emas
da pet
Ġansw ers
Ġfollow ed
jdjd jdjd
sho e
ib ility
Ġspr ing
Ġlist ed
Ġimag ined
5555 5555
Ġappro x
Ġdus nya
Ġuni que
Ġdalem nya
Ġtos ca
Ġtraff ic
b et
b ig
d at
m is
Ġs ini
Ġp ear
it al
Ġb ill
Ġd un
Ġre ject
ar se
Ġto k
Ġsh ade
Ġin qu
Ġst ory
un like
Ġr ated
ir eless
Ġup set
app ed
Ġacc orance
kk s
Ġga es
Ġarri ves
Ġrecommend a
Ġ4 3
Ġke c
Ġmo on
ip is
ction s
Ġshe ets
Ġprom ise
Ġeff ort
Ġeff ic
Ġty p
Ġpengiriman nya
Ġent ire
Ġdri ve
Ġdetail ed
Ġcook ing
Ġguarant ee
Ġarom atic
Ġmix ed
Ġwkwkw k
Ġbow l
asuk asuk
Ġbbr p
jangka u
Ġapparent ly
Ġcher ry
r nya
w ar
is ter
Ġc er
Ġm ab
Ġj oint
Ġlo os
Ġun expected
Ġagain st
Ġno ise
ure s
Ġcan cell
Ġar row
Ġpl ants
Ġstu d
fect ive
ber ry
tr an
bb y
Ġdt ang
Ġinstant ly
Ġcell s
Ġfal con
Ġassess ment
requ est
Ġqui et
Ġspir it
Ġdora em
4 5
f low
s ng
Ġt ar
Ġp g
Ġg est
Ġf ile
Ġd ull
Ġc ow
Ġw ang
Ġl at
le g
ank u
Ġj ahit
un ting
Ġbu ilt
Ġun fort
Ġmu d
Ġpacking annya
Ġus age
Ġce pa
Ġgr and
Ġen han
Ġri de
dd en
Ġ10 00
Ġpoor ly
uuuu u
Ġem br
Ġap olog
Ġprot ected
unt ried
je je
Ġmantapp p
Ġmom ent
zzzz zzzz
Ġinsert ed
Ġcurrent ly
gener al
d us
j v
s l
is y
Ġk ul
Ġst ing
aa p
Ġsu gar
Ġsu fficient
Ġyou tu
Ġch ip
Ġme ans
Ġus eless
Ġrep ort
ist mas
amp le
Ġsuit ed
Ġfl u
Ġke ith
Ġcr ow
ash ed
Ġshort er
eeee e
Ġnum bers
Ġbas ically
Ġprotect ive
Ġlmb t
rap id
Ġmos quito
Ġgrim acing
b ank
c antik
Ġt ick
Ġp w
Ġp end
Ġg os
Ġg love
Ġb um
re g
en e
Ġn ood
Ġl unch
Ġsh elf
ot a
Ġst or
Ġbe at
Ġse bel
ic le
Ġ3 3
Ġwe ird
Ġdr ug
iv id
Ġcou d
Ġko q
Ġref er
de fective
Ġsem og
Ġbarang ny
Ġcomfort ably
Ġhol der
Ġgm na
Ġflaw s
Ġpatient ly
Ġpock ets
Ġninja van
Ġrock ing
Ġcepe tt
lum ayan
Ġwrink led
Ġabras ions
z h
Ġs b
Ġt iss
re kom
Ġd p
Ġc s
Ġpr a
Ġpr ize
Ġn s
Ġk on
Ġj un
Ġr p
Ġfr act
Ġlight ly
Ġsk it
Ġsp read
Ġblue tooth
Ġterim aksih
oke e
Ġbri ef
Ġadv ised
Ġins oles
Ġpuas ss
gi ven
Ġsd ikit
Ġneg ative
Ġdiam ond
Ġcharact er
Ġpriv ate
Ġemp lo
amaz ing
Ġintent ions
Ġdoraem on
p c
p id
Ġ ens
Ġa th
Ġth er
Ġth row
Ġm ile
ir a
Ġdi ke
Ġsome how
Ġgr ound
Ġsp ort
Ġapp le
Ġcar pet
br ng
Ġmin or
Ġpart ying
Ġprocess ing
Ġpad ah
Ġbat am
nf nf
Ġbreath able
Ġterbai kkk
Ġchr istmas
Ġassemb ly
8 8
l ack
m g
n j
r ating
r ereply
Ġth igh
Ġg aper
Ġm ass
en der
Ġsh iny
ri es
pp ers
Ġj ual
Ġso f
Ġex er
Ġmat te
Ġche ese
ca ke
Ġpo ol
Ġkak ak
gg ings
wh ite
light weight
hhhh hh
Ġsc uff
Ġhel met
Ġrequ ire
Ġcreat ed
Ġcorrect ly
Ġsil ky
Ġkl w
Ġob st
Ġnak ak
Ġpos ition
Ġbes ar
Ġess ence
llllllll llllllll
Ġpel apak
Ġdum ating
Ġjap an
Ġstrip ed
mar ket
Ġintegr ity
Ġenhan ced
a j
b ul
n ks
p ay
r ain
r ng
r ors
u um
w ait
Ġs dah
Ġt it
Ġp or
Ġc red
Ġm ill
Ġl ma
Ġv ent
un o
ir us
Ġsi ch
Ġdis k
Ġpo pper
Ġsp lit
gg er
nn s
bag s
Ġeas ier
atter ed
Ġla ju
Ġ0 1
Ġrap ii
to ok
Ġthrough out
Ġeffect s
che ck
Ġed it
Ġsat u
Ġrekom end
Ġheel s
Ġwin der
Ġwin ter
Ġpos itive
Ġhur ry
Ġnyo bain
Ġcontent ed
Ġhang ing
Ġcount ry
Ġcal culated
Ġconstr aint
Ġmaxim um
1 00
b on
k asih
l g
m z
o st
p ot
r un
s im
t asty
er g
al es
Ġb int
Ġc ry
Ġy an
ad o
Ġsu dden
Ġli e
pr int
pt op
Ġhand y
Ġcomp ens
Ġsp oon
Ġ4 1
pack aged
Ġx ia
si a
aaaaaaaa aaaa
nd a
Ġsay ing
Ġcheck ing
mant ep
Ġret ur
Ġinc red
Ġatt ach
Ġdat ang
Ġprocess ed
Ġcons ign
Ġrem ind
Ġbre ad
Ġexc elent
Ġgam es
Ġowner nya
ib ly
bg s
oi der
Ġconn ection
Ġmaint ained
Ġfail ed
Ġmeng ecewakan
Ġneg lig
paket an
Ġcollap sible
Ġvel vet
turn s
Ġcomplim ents
Ġtiss ue
e er
f und
v c
it ter
al itas
re ply
ct ure
Ġn anya
Ġk d
Ġy h
Ġj w
um ah
id ence
Ġmat t
Ġtoo th
Ġcp at
Ġpro gress
Ġunt ested
Ġout standing
ih ih
dh dhd
Ġhand ling
Ġrep air
Ġbang t
Ġle af
Ġkn it
dd d
Ġdr ag
Ġtast es
Ġng el
Ġoke ee
Ġshort age
Ġcepat tt
Ġ0 6
Ġpok ony
Ġbal ikin
Ġadv ent
Ġbs a
Ġnh anh
Ġstat es
Ġdon ated
Ġhuh uhu
sa o
Ġsuggest ion
Ġmult i
Ġbur st
Ġplant ing
Ġoption s
Ġsampa ii
Ġtreat ment
Ġpartic ular
dl illah
Ġfant astic
tw o
Ġpengh antaran
Ġflav ors
Ġdevel op
Ġcancell ation
a we
h al
h ee
k nya
p an
Ġs ear
Ġs ort
Ġt am
Ġa ction
el er
Ġb urn
Ġw ool
Ġn an
ar ang
Ġan cur
Ġst amp
Ġorder an
Ġj el
ak i
ak s
um in
yes terday
Ġag ed
Ġse at
Ġex ample
ab l
Ġny angka
Ġfe ature
Ġgi ao
Ġsend s
Ġmant ull
Ġsupp lier
Ġgo es
ung si
Ġbar u
Ġbar ng
Ġfun ds
ile ver
Ġcl oud
ash es
Ġwrapp er
Ġmas i
Ġhar ap
Ġca used
Ġpem giriman
Ġanno ying
Ġkompl en
Ġapprox imately
3 0
i u
l ate
p urchase
s ay
v as
Ġg il
Ġw an
ed y
Ġre comm
il ed
Ġbut ter
se qu
Ġthank ss
Ġyou thank
Ġserv ed
Ġse hari
Ġce aaa
Ġpl ast
Ġrep urchased
Ġbang at
Ġle ggings
Ġx s
art ment
ac commodating
hhhh hhh
Ġatt em
bu bble
Ġsur v
Ġdt eng
Ġtrans it
Ġlack s
te bel
Ġperson ally
Ġmurah h
jsjs j
tp i
Ġnyamp ai
Ġelse where
Ġpan el
Ġbes ides
Ġbed a
Ġaccur acy
Ġrating s
Ġinterest ing
Ġslee ves
Ġware house
Ġpet ite
ident ally
Ġmoder ate
Ġwel come
Ġali as
Ġfurn iture
Ġembr oider
Ġgos end
Ġobst ac
1 6
d ear
h old
w l
Ġt ut
Ġg g
Ġf ly
Ġf to
ver se
Ġc ore
Ġn ude
at ically
Ġh anger
Ġy ang
ch arge
se e
ap pe
Ġlo west
Ġtr ash
Ġout door
Ġthan x
Ġstuff ed
ssss ss
Ġcontin uous
Ġback hand
br oken
Ġhu ge
Ġbarang x
ted ly
Ġcat s
Ġpad ded
Ġflaw ed
Ġra ised
Ġrain bow
Ġserious ly
Ġbw t
exact ly
Ġphys ical
c as
m en
m ag
Ġt une
od s
Ġp ure
Ġth us
it ation
Ġg ud
Ġb ay
Ġf u
Ġn mn
Ġh ri
Ġh tt
Ġdeli ber
Ġsh a
le x
Ġy rs
Ġy arn
am ed
se y
Ġyou u
Ġok ros
Ġr ab
Ġag re
Ġun ited
com es
Ġbl ur
ord inary
Ġbo ots
Ġpre st
Ġany where
Ġdisappoint s
Ġny ari
Ġrun ners
Ġpes an
ence ng
Ġsmell ed
Ġbab ies
Ġset ting
Ġlast ed
Ġdress ing
Ġma j
Ġhead phones
Ġplace s
Ġdraw ing
Ġpatter ns
Ġwi pe
gi ft
Ġslipp ers
sever e
Ġrm h
dddddddddddddddd dddddddddddddddd
Ġappear ance
Ġlimit ed
Ġblank et
Ġconcent rated
Ġsca red
Ġath let
b re
b ener
c ut
m x
m ber
w ah
Ġs nd
Ġb ers
Ġb anan
Ġd apat
Ġc g
Ġw ireless
an other
en ess
Ġn yes
Ġh am
us in
Ġal co
Ġv irus
em s
Ġch a
um my
bs h
Ġhear d
Ġun box
Ġde ep
Ġdi per
Ġpl enty
ens ion
Ġen gin
Ġpa c
Ġsy ang
ik an
Ġret ail
Ġref le
eeee ee
gr am
ward s
zz y
Ġnge b
fer ence
Ġcontact ed
Ġshow er
fr om
Ġberk ali
Ġautom atically
suk aa
miss ing
Ġvac uum
Ġbaguu us
Ġeconom ical
c d
d ou
i y
p ric
s n
v a
w an
w ant
er ous
Ġp ang
Ġb in
Ġo ct
Ġc ast
Ġc ya
Ġw ise
Ġpr ay
Ġe e
Ġe k
Ġi rr
Ġk emas
Ġsell s
ch ers
ol ved
st ers
id s
ic ate
Ġex pet
Ġde ce
Ġsa bl
Ġnew s
Ġgi ves
tttt tt
Ġak h
Ġflash sale
Ġfort une
Ġky ak
Ġpad ding
Ġsen eng
Ġshow s
ged e
Ġbangeet t
Ġra ising
Ġwind ow
Ġten der
Ġband ung
cr ption
Ġbol t
Ġrust y
Ġdisab ilities
mu ch
Ġgaper nah
Ġalco hol
4 0
f g
h t
n ic
x ious
Ġs edi
Ġp elay
Ġm ang
Ġre ality
Ġre order
ch arg
Ġpack ets
Ġsu dh
Ġch amp
Ġr ush
Ġac ross
Ġcan s
Ġpre s
Ġco bain
Ġper cent
Ġpa ce
Ġke b
aw l
Ġsmp i
Ġrel e
Ġprev ent
Ġleak y
Ġstretch ed
Ġnt ar
rip si
bad an
Ġkey board
Ġmidd ling
Ġinterest ed
Ġpag kak
Ġsepar ate
Ġmel ted
Ġkur ang
Ġmoist uri
Ġbuble wrap
Ġenc ounter
Ġdibal es
Ġongk irnya
Ġcramp ed
dat eng
Ġyoutu be
1 9
c ard
d u
i at
p ad
p ick
p ress
s ed
u x
v w
Ġs r
el ah
Ġg oo
Ġb ju
Ġd are
Ġm op
Ġm iz
en nya
Ġn di
Ġl aah
Ġk ali
Ġr ack
Ġun responsive
Ġun opened
Ġam pe
Ġny am
Ġsp l
Ġter uss
Ġdr pd
Ġcar go
Ġsal amat
Ġsal omon
Ġpe cah
Ġbar ok
Ġcl amp
Ġcl inch
pppp p
Ġdent ist
Ġinc or
Ġfunction s
bl ue
Ġkind s
Ġsqu ee
Ġent ry
Ġwa ve
Ġind ivid
Ġlam bat
Ġpush ing
Ġul tim
Ġkl au
Ġkh im
Ġten nis
Ġflex ed
Ġshock ed
Ġtel a
Ġide al
lit tle
Ġinsha allah
Ġlux uri
Ġsudden ly
pric ed
Ġsabl on
a cious
b ok
d j
d ll
s ound
Ġt ul
Ġp um
Ġm ick
en y
en ak
Ġh an
Ġan xious
Ġsh ot
Ġk enceng
Ġu rg
Ġsm u
Ġsu ck
Ġj an
fe el
Ġexp ire
Ġhands ome
Ġput ting
Ġsub mission
Ġdesign ed
Ġhelp ed
Ġcream y
Ġdist ortion
Ġpower bank
Ġnt n
aff ordable
Ġdu ct
Ġmal ay
Ġball s
Ġsam pee
Ġprod ak
nnnnnnnn nnnnnnnn
Ġappl ications
Ġfi eld
Ġkit ty
samp ai
Ġdisab led
Ġcontribut e
Ġmount ed
Ġsdk it
Ġsau ce
Ġpigment ed
leg it
Ġstor age
Ġmatt ress
Ġclinch er
g enuine
p ort
Ġt an
Ġt end
Ġg loves
al k
Ġb ice
Ġd ense
Ġc el
Ġm r
Ġm gk
en ced
es h
on ce
Ġh h
ou p
Ġst one
aa hh
ad d
im sy
Ġsi ii
Ġse pat
Ġdis h
Ġbl ouse
Ġbl amed
Ġad mit
ng an
Ġny e
pack ed
be en
Ġdoes nt
Ġdam ages
Ġknow s
Ġcustomer ku
Ġrol ls
iz er
ann el
mantap mantap
par cel
Ġgar a
Ġkey ch
ming gu
Ġdrop ship
ses uai
Ġpillow s
med ical
Ġsepar ated
Ġfinish ing
Ġfrust rating
subs cription
Ġrej ected
Ġconsult ants
Ġsket chy
prom pt
Ġbice ps
a ing
f irm
h n
n orm
r in
w el
Ġt all
od e
Ġg im
Ġb d
Ġd om
Ġd ar
Ġd jd
Ġc ation
Ġc ac
Ġis n
om i
Ġre ci
Ġre co
Ġsh ad
ri f
ri ct
Ġk ing
Ġseller r
ast er
Ġin ii
Ġst all
Ġfa cial
am in
Ġne igh
ore s
Ġcon c
Ġun load
Ġtr ain
Ġtr uck
Ġtr uth
sh ort
Ġad o
ng iriman
Ġbagus sssss
ac cept
kkkk kk
Ġwal a
ari zed
pl astic
Ġ7 5
Ġhr us
Ġmust ard
Ġ0 3
Ġ0 4
ha ir
Ġhim self
Ġtap ii
Ġmiss ed
Ġpower ful
Ġbas ket
Ġchoice s
Ġsyuk ak
Ġbanyak in
clo th
Ġshock proof
Ġmist aken
nz nz
Ġbis a
care fully
Ġdisin ii
Ġtail oring
repe at
Ġincor rect
b ng
m ah
n an
p aper
s af
v iew
od dy
Ġa ch
in it
Ġb end
Ġm ali
at ively
Ġqu ota
ar m
Ġto wn
pe kt
Ġk eli
Ġbe came
Ġal to
ul ate
end ar
Ġso o
Ġwh it
un der
ore m
Ġun satisfactory
Ġun ilever
Ġdis comfort
Ġbl ush
Ġdi apers
comm odity
Ġus d
Ġpl is
ist ed
Ġfl imsy
Ġte am
Ġsc iss
Ġdeliver ies
bo th
Ġ6 2
Ġ6 3
shi pped
Ġsqu are
Ġpol arized
Ġpokok nyaa
Ġuk ur
Ġcant i
Ġfact ory
Ġpal m
Ġinv oice
Ġmed ic
Ġappe ars
terim a
Ġblock ed
Ġexce ption
Ġdic o
Ġvi br
Ġcharact ers
Ġcris py
Ġathlet ic
b v
m int
Ġt ai
Ġf oto
Ġc aps
Ġc aught
ce ed
il bab
Ġsh in
ch a
ch ang
Ġfast est
ol f
Ġv oi
sp ort
Ġshi ft
ok an
ur ang
pr od
pr odu
ff ff
Ġdis appe
ter rible
Ġad s
Ġsk rng
eng er
Ġgr oup
Ġri der
let ed
ist ic
Ġmant uul
Ġfl our
ja ja
Ġgo jek
Ġsal ty
Ġcheck s
Ġlu on
Ġres er
Ġres ellers
Ġem ang
Ġem ng
Ġsoon er
Ġreg ister
Ġrest ock
rr r
Ġhar m
Ġmakasi hhh
Ġbel ong
Ġrespond ing
Ġind icated
mb ol
Ġkay a
Ġclos ely
Ġstretch able
Ġwatch es
small er
Ġimprove ment
Ġhonest ly
Ġinf lu
Ġsurpr ising
hhhhhhhhhhhhhhhh hhhhhhhhhhhhhhhh
iri es
xxxx xxxx
Ġfrequ ently
Ġprep are
Ġdecor ation
Ġassem ble
Ġrepeated ly
Ġjer sey
Ġcro oked
Ġnarecei ve
Ġsear ch
a as
g ive
j os
k asi
l ama
o om
al og
Ġd ot
Ġm im
as uka
qu is
Ġre ed
ri b
Ġi h
Ġal us
Ġal tern
Ġv iv
ah in
em p
em por
Ġr isk
ant er
Ġtr u
Ġno isy
Ġwor st
ate ful
Ġme jo
Ġpre c
Ġsp ots
Ġ4 8
Ġkn owing
Ġapp lied
Ġswe ater
Ġweek end
Ġpay ing
Ġpu bl
Ġstock s
bl m
Ġmar ch
Ġrem edy
Ġq c
ba ek
Ġlng sung
Ġhouse hold
Ġyah h
Ġsw im
nx nx
Ġob ject
Ġpal ace
Ġsleep ing
Ġbul ky
Ġgre asy
Ġslo ppy
uuuuuuuuuuuuuuuu uuuuuuuuuuuuuuuu
Ġsnug ly
Ġcomb ination
Ġrecie ve
Ġtil es
Ġbn r
Ġtre es
Ġactiv ities
Ġdecei ving
Ġprepar ation
Ġnood les
Ġscuff ed
Ġconstraint s
Ġneigh b
c ertain
g at
j l
j jd
l ang
p ak
u ary
v able
v ular
y ang
in h
al ing
Ġo sh
is an
Ġd ream
Ġto ko
Ġe ase
ent al
ent ed
Ġfa v
Ġyou uu
Ġrespon ses
ok k
ir y
Ġlo yal
Ġde ket
Ġpro of
fast er
Ġover night
eng iriman
Ġgr ade
ny aaa
Ġab al
Ġkn ock
Ġmo ved
Ġte bal
fin itely
br ush
Ġsuk aaaaaa
up as
no thing
Ġpost al
Ġmost ly
Ġinter net
hehe he
packaging nya
Ġtal king
Ġequ ip
jx jx
Ġtrail s
Ġharg alah
Ġstre et
fr ag
fr ont
arri ving
Ġble m
Ġspecif ied
Ġbole h
Ġbene fits
Ġjaz ak
exc elent
Ġkuri r
Ġcepa at
Ġpadah al
Ġmaj or
h our
m ak
n yesel
p u
r ass
Ġa y
Ġd ad
an nn
Ġm ama
Ġh m
Ġl aw
Ġe a
Ġk ill
ul a
ap on
ah i
ur ance
st uff
un ate
Ġr as
ant age
Ġun s
Ġsi ya
Ġshop ing
Ġdi badan
Ġpro sp
Ġover priced
Ġsk li
ks k
Ġgr at
Ġexp ires
ist les
Ġmess y
Ġfl uff
Ġke j
Ġhad e
aaaaaaaa aaa
ung ent
bagus bagus
Ġtri gger
Ġhu b
gr own
Ġbah annya
Ġpat ience
Ġdh l
Ġdri ed
Ġdist ribut
Ġgap ap
Ġcas enya
Ġru bb
Ġpal a
Ġeng lish
Ġra pet
kkkkkkkkkkkkkkkk kkkkkkkkkkkkkkkk
Ġaut o
Ġdevice s
Ġdiam eter
alhamdul illaah
Ġcooper ation
Ġcurt ain
Ġwip es
Ġadap ter
Ġhtt ps
Ġdeliber ately
Ġchamp ion
Ġalto gether
Ġequip ment
2 2
3 9
c ont
c ara
d tg
g us
k es
k sh
p ed
q w
v z
Ġs ong
Ġt g
Ġp ale
Ġth nk
Ġd ir
Ġd ua
Ġc ab
Ġc oun
Ġc cok
Ġpr im
Ġh unting
Ġis hip
ar ies
Ġan e
ay y
se tt
Ġr up
Ġun damaged
Ġun even
Ġde hhh
Ġco arse
Ġcomp at
Ġsec ret
Ġsy mbol
Ġke kecil
00 0
bb d
Ġpost s
oke y
ug ly
uh un
gt ly
Ġ12 0
lu ck
Ġsl h
Ġpad s
baguss baguss
Ġbat re
Ġaj ah
Ġuk uran
Ġsangat t
Ġmotif s
ump ah
Ġsyuk aa
Ġlist en
sec ure
Ġ555 5
Ġhor ns
Ġexpl an
Ġallow ed
Ġtid ak
Ġmnt a
Ġcircum ference
Ġocc as
Ġgrad ually
g d
h ard
j el
j an
j sh
m ot
v h
v est
y i
Ġt s
Ġp ics
in nya
Ġg it
re sh
Ġpr on
Ġn xt
Ġn imb
at i
Ġst o
Ġv o
Ġj aya
Ġj adi
Ġr ates
ir on
Ġtr c
Ġche w
lo c
lo ck
Ġbr istles
per s
ig ent
Ġout grown
ih in
are t
Ġgr ateful
Ġsp o
Ġhapp en
mm m
und ry
Ġcou p
Ġprov ider
Ġhard ly
sm ile
pl us
Ġsad ly
Ġman a
Ġadmin nya
Ġnag rereply
Ġer rors
Ġben ar
Ġmet iculous
Ġpengirim n
Ġrapi hh
quick ly
Ġpem b
Ġport able
Ġtrack ing
sc ar
Ġkne es
Ġconcer n
Ġped es
Ġkore a
Ġglo ss
rel atively
Ġcrow ded
Ġneglig ee
Ġpelay anan
Ġmiz uno
Ġmick ey
subscription s
Ġcac at
Ġunload ing
Ġosh awa
a q
b an
f ot
g w
m f
t ion
w arp
x g
Ġp ap
in al
in ci
it ing
Ġb aa
Ġo ily
Ġc ok
Ġn ka
Ġn ikes
at able
Ġe ight
Ġsh ut
us ion
Ġy as
Ġy ak
ag al
Ġsho ope
Ġv it
Ġj ad
Ġr us
Ġun us
Ġpre ser
op es
ation al
Ġbag et
Ġunt uk
are n
Ġover lay
Ġle bih
Ġter jangkau
Ġsuit s
Ġdr ill
Ġfl ushed
Ġstr u
Ġmo ving
Ġte ach
Ġhapp ened
ssss sss
Ġtri ck
ash ip
tr ue
sm p
itch en
Ġpu zz
Ġla undry
Ġthankyou u
Ġbre ast
Ġplay ed
ky u
pesen nya
Ġye a
Ġconn ected
Ġtouch ed
Ġconst ant
Ġconst ruction
Ġbro ad
sem pet
cle ar
Ġloc ation
Ġtrny ta
Ġrot ten
mmmmmmmm mmmmmmmm
wwww wwww
Ġmanufact ur
house keeping
kual itas
Ġban ality
Ġcompar able
Ġlmy an
Ġextr as
Ġexer cise
Ġblem ish
4 4
d ate
f ine
h y
i pped
j n
j js
l on
l alu
m nt
r am
s ell
u in
od er
Ġa qu
Ġp ungent
in er
Ġth nks
al nya
Ġb old
at o
Ġh ari
ar ch
Ġk cewa
Ġal ot
Ġfa ith
se k
Ġsu mp
Ġv ote
ah ank
em pty
Ġok okokokokokokokok
ur a
un used
Ġr g
Ġlo pe
Ġbl g
sh opee
Ġad ek
Ġstar ting
Ġnew sp
Ġgr ain
Ġdr inking
iv al
Ġback pack
nd ed
Ġgl ued
Ġconf ident
Ġkeep s
Ġeat en
ye es
kak a
Ġfall en
Ġend s
Ġnag deliver
Ġdifference s
Ġbrush es
Ġ16 0
Ġ25 0
Ġconven ience
Ġsist a
Ġblis ter
Ġdedu ct
peng iriman
Ġjait annya
Ġbangee eet
Ġnail s
Ġfal se
vvvv vvvv
Ġalhamdul ilah
Ġprep ared
Ġtt ep
jam as
Ġnecess ary
Ġbud get
Ġdeser ve
Ġpear l
Ġlat est
Ġpanel ed
Ġmalay sia
Ġshad ow
init ially
Ġsciss ors
6 7
g f
t es
t ot
Ġt ub
Ġt sk
it es
Ġg anti
Ġf ellow
is like
Ġw ifi
Ġm ut
Ġe hh
Ġsh r
le ad
Ġor th
Ġval orem
st al
Ġr aya
tt q
Ġse ats
Ġex am
Ġche ated
Ġbr oo
Ġsk y
Ġdes ire
Ġjg k
Ġpe king
Ġpeng irm
packing an
Ġlag iii
Ġcour te
Ġak uu
Ġdik it
iz ing
Ġdep leted
Ġread ing
Ġlum yan
Ġpain ful
Ġlin ings
Ġprint s
Ġimag in
clo se
Ġlem on
Ġcir cle
Ġstri pes
pppppppppppppppp pppppppppppppppp
Ġtd ak
Ġconcer ned
Ġlear n
mur ah
Ġtee th
Ġdeform ed
Ġunbox ing
Ġrefle ct
Ġnimb us
c uc
g anda
m ayan
m ksih
p ens
Ġg da
Ġb ell
ed ay
Ġm ent
Ġh em
Ġh df
Ġl ar
th ose
Ġin sp
Ġbe comes
ul ed
Ġj ump
ap i
Ġwas n
Ġcon cl
Ġsi ip
Ġdo zen
Ġfr o
Ġim ut
Ġhe av
Ġco sm
Ġat o
Ġmore over
Ġsubs crption
Ġri d
deli ery
be auty
Ġjo gging
Ġpass ed
Ġunder wear
Ġear phone
ren cy
po st
min a
Ġbarang nyaa
Ġfunction al
seller nya
Ġ11 0
Ġthought ful
Ġdik irm
Ġent ered
Ġcat tle
Ġkid ding
Ġbat ik
go ing
Ġru gged
Ġdk rm
Ġdit erima
Ġdelay s
Ġ201 8
bat ory
Ġpak enya
Ġgre et
Ġmic ro
Ġscrew s
Ġprompt ly
Ġtow els
Ġtuk er
Ġsnack s
alham dlillah
Ġcompat ible
Ġexplan ation
Ġcourte ous
Ġimagin able
b ak
g as
l arge
r ing
s au
v k
Ġt um
Ġp ins
Ġb oring
Ġf ight
Ġd pet
Ġd rying
Ġc us
Ġw il
Ġw ild
Ġm lh
Ġh ag
Ġl n
Ġk itchen
Ġy aaaaa
Ġj ilbab
ap ai
Ġok k
Ġcon v
Ġsi ck
Ġpo le
Ġpro pos
ab al
Ġstu pid
Ġsp and
Ġsp orts
Ġcut s
Ġbang ed
Ġapp oint
Ġfl atter
aik um
respon sible
Ġcar eless
Ġint ended
uuuu uus
Ġbar akallah
Ġcheck out
Ġmas cara
ret e
oke oke
Ġear phones
Ġbless ed
Ġhar vest
Ġsl amat
Ġtu i
Ġdik asih
rem e
Ġmag n
Ġleng kap
Ġsgt u
Ġpal ms
hm hm
Ġbi asa
Ġdk rim
Ġspeak ers
Ġmeet ing
Ġwhe els
Ġboy friend
Ġport ion
Ġlens es
Ġnone theless
Ġterimakasi hh
Ġmaa p
Ġnet work
Ġland ing
Ġmention ed
Ġcash back
Ġvend ors
Ġsbl um
flow er
Ġens ure
Ġurg ent
Ġmedic ine
Ġsurprising ly
scar f
c les
d own
f gh
f ant
f ungsi
k dk
s is
s ince
z er
Ġ eli
Ġt m
Ġp om
el alu
Ġg ant
Ġm ush
Ġn u
Ġh ah
as er
Ġl y
Ġqu er
ut an
Ġi g
Ġk ah
Ġprice y
Ġsu ns
Ġj at
Ġj ud
Ġj elly
ill ed
Ġso oo
Ġbu anget
so s
Ġha v
Ġag ree
Ġdis ability
Ġbr p
Ġdi zzy
Ġgreat er
Ġya ch
rim a
ny amp
Ġ4 9
Ġwe b
su pp
ci k
Ġmess enger
Ġstr ing
Ġbar ely
ull ah
Ġhu g
ep h
Ġ6 5
ro id
Ġpen y
Ġpen ny
zz z
Ġsol ve
Ġbs k
Ġsl ick
Ġtest ing
Ġscr ub
Ġmil o
Ġgener ous
Ġdeal s
jdjd jd
sk irt
Ġnic er
Ġcolour s
Ġsch ed
Ġmakas iih
Ġpak ai
Ġnyo ba
Ġharg anya
bx bx
fun ction
Ġrock s
Ġmb k
Ġinsert s
ssssssssssssssss ssssssssssssssss
book s
bbbb bbbb
Ġhg aaa
Ġkes el
Ġluc uu
Ġfried ly
Ġck up
Ġassem bled
Ġkil o
Ġreward ing
Ġsav ory
Ġtit le
Ġfeature s
fot able
b j
d ress
h ell
k ir
k lo
l ic
l anded
l ilah
m ash
Ġs ulit
Ġa z
Ġa ud
Ġa ustria
in c
Ġg e
Ġg ri
is inya
Ġc ub
Ġw at
an o
ice pat
ar nya
us es
le y
ri ers
Ġu w
ul ated
ad v
ak u
ir ation
Ġare as
Ġtr ay
Ġdis hes
Ġdi aper
ii hh
Ġany ways
Ġus es
Ġimm ac
Ġgo al
bo ss
Ġoke eee
sm ell
Ġbonus es
Ġmk asi
uh uh
Ġ8 5
Ġla en
Ġbal m
Ġlang u
iz es
Ġker dus
Ġcat alog
Ġod d
Ġpng irim
Ġul it
Ġpress ed
Ġoverse a
Ġarch es
Ġcart oon
Ġpot ent
Ġchang es
Ġbul b
Ġlock er
Ġstain less
Ġpeel ed
Ġcompet e
Ġsekal iii
Ġdead line
peng irim
Ġessent ial
Ġbis cu
Ġmaa f
Ġdisplay ed
Ġmng kin
Ġlmb at
Ġmks i
Ġtra ders
tran sport
rekom ended
Ġemplo yees
sequ ently
Ġengin e
Ġado pted
Ġplis ket
b bs
b orn
c id
c reen
d t
f i
f s
g ak
i ency
l ast
m idd
s ad
u kk
y ah
Ġa st
Ġb elly
re tt
Ġo pt
Ġc x
Ġw ag
Ġm ung
or ous
qu ired
Ġre apon
us an
ad ding
Ġj kt
ak n
Ġok okok
Ġch air
Ġr in
Ġr om
Ġcom fotable
Ġas li
Ġun able
com end
Ġdo gs
Ġbl ow
Ġbo ys
Ġpre gn
ab aya
Ġny aaa
Ġrep lied
Ġsp art
Ġpa jamas
Ġdiff rent
Ġbanget tttttttt
Ġjo in
Ġblack head
Ġcr op
Ġcar s
kkkk kkk
Ġhigh light
Ġem bar
Ġhar der
Ġsl ot
Ġdeal er
Ġexc use
Ġdtg nya
Ġlam aaaa
Ġdet er
Ġpol ish
Ġcur rency
Ġfound ation
Ġbh annya
Ġstand s
Ġkasi hh
Ġbanyak k
Ġchang ing
Ġsekal iiii
shirt s
had ow
Ġsepar ately
Ġevalu ate
Ġart icle
Ġfing ers
Ġabsorb ent
Ġpant as
fo ot
Ġadult s
umb en
Ġcris p
Ġintrodu ce
Ġkore an
Ġstraw berry
Ġbaj unya
mis directed
Ġchip s
Ġcred it
iat as
Ġconc rete
saf ely
Ġbelong ings
Ġquer ies
Ġspart an
a ult
b ali
c ap
c reat
c ream
p art
z y
er ic
Ġp ere
in st
al thy
Ġb j
Ġd ol
Ġc d
Ġc uk
an x
Ġn om
Ġn anti
at nya
Ġh n
as ure
as ics
Ġre se
Ġre action
Ġto il
Ġe ks
Ġsh awl
ent ious
Ġk i
Ġk un
Ġk ard
Ġnot ification
Ġbe ware
Ġbut t
ch an
Ġsu ction
Ġj ava
Ġso oooo
all oh
Ġas l
Ġac comp
Ġbl ood
Ġno body
sh ould
ab arin
Ġam ong
Ġsuper market
Ġri pped
Ġbang kok
be fore
Ġimmedi ate
Ġbagus ssssssss
aaaaaaaa aaaaa
Ġint ell
mm g
Ġcl ar
Ġsel al
Ġz any
Ġsub ject
Ġsur abaya
Ġcre ase
Ġmar ath
Ġdapet nya
hhhhhhhh h
Ġho sp
Ġsty les
Ġaw ett
Ġprodu ced
Ġext reme
Ġsli gtly
xx l
ru cted
Ġaj aa
sho pping
Ġpick up
mk asih
Ġmet er
Ġharg aa
hhe he
Ġhesit ant
Ġseg it
Ġpromot ional
alhm dulillah
Ġsan it
Ġsemu aa
Ġtool s
Ġvend or
Ġident ical
Ġinqu iries
Ġunfort unate
Ġfract ure
Ġjapan ese
Ġdisk on
Ġretur ning
Ġbanan a
dll h
norm al
Ġprosp erous
Ġflatter ing
1 3
5 7
e ach
g x
l in
n ak
p ink
r ori
s gt
u hh
Ġs ag
re ng
Ġd pat
Ġpr t
Ġm na
Ġh ose
ot ch
le m
Ġk si
ag i
Ġfa cil
Ġspeed y
em er
st ances
ant ong
Ġup gr
Ġcon sequently
Ġse h
Ġbl ender
op en
Ġus able
Ġny aman
Ġgr ams
Ġle cet
Ġter rain
gg g
be k
be be
Ġph ones
Ġsuit ble
we et
Ġbanget ttttt
aaaaaaaa aaaaaa
Ġsupport ed
ne ed
Ġevery where
Ġpe ace
Ġng er
if ic
Ġconf ounded
Ġni o
ple asant
Ġtrim akasi
Ġsmell y
pl ace
ori gin
ha ven
Ġboss ku
Ġsl ah
yy y
Ġrel ax
Ġseal s
okokokok okok
Ġmurah an
Ġnarrow er
iny aa
jsjs js
Ġopp o
Ġfavor able
Ġproduk nya
Ġsam eday
Ġju ice
Ġsign al
Ġbes ok
Ġcli ent
Ġdan cing
Ġwl w
Ġwl au
Ġvouch ers
Ġbund le
Ġinsh allah
Ġpromot ions
service s
Ġbene fit
Ġregard ing
Ġexcess ive
Ġtech n
rid ge
Ġded icated
Ġgede an
Ġgest ure
Ġxia omi
Ġembroider y
chang ed
Ġpubl ic
fant astic
2 4
6 2
a ja
c al
d om
f lex
l ap
m h
m ill
m ade
u ch
Ġ il
Ġa hh
Ġp arent
Ġg b
Ġg ad
Ġg ni
Ġb c
Ġb ite
Ġb nt
Ġb kal
re w
re fund
Ġm lah
es an
Ġn uhun
Ġh idd
as o
Ġqu e
Ġe uy
Ġsh ar
Ġk au
Ġin appropriate
se ctions
un a
un k
Ġr ay
ir r
Ġserv ing
Ġacc eler
ig nya
uu h
ab g
Ġam ann
Ġam eric
ny am
Ġskin care
Ġ4 00
let ing
Ġfree gift
os en
ud ung
ress ed
Ġaff airs
Ġcr unch
uuuu us
Ġpass ble
Ġdah h
Ġve get
if orm
Ġres pect
Ġdress es
Ġadv ise
bd b
Ġins pect
Ġtap ed
Ġcrack le
Ġang le
Ġnt ah
Ġaj h
Ġdraw back
Ġstand ing
Ġram ahh
Ġlin en
Ġju ly
Ġskirt s
Ġtip iss
Ġhp nya
Ġbai kkk
Ġwhe el
Ġcli ents
Ġreebok s
Ġauthentic ity
bis millah
Ġspecif ic
Ġran cid
Ġmint a
Ġbak al
Ġcompar ison
Ġestim ated
Ġreput ation
Ġsof ter
Ġirr it
Ġkeych ain
Ġfluff y
inci ble
Ġsuns creen
Ġembar rass
Ġtoil et
rori ate
b ol
b tedly
c cess
d jd
g em
h el
j dh
m ers
m ake
m udah
o ff
p ok
r ate
v x
w t
y our
Ġs icepat
Ġa a
al ed
Ġd ul
Ġc ert
Ġpr nh
Ġm ga
Ġm sih
Ġl ps
Ġan al
ut nya
ot ic
ri bu
Ġand roid
Ġit u
Ġk re
ack ed
Ġin box
Ġst an
Ġst ab
Ġnot ed
Ġal ham
Ġal loc
Ġpack aing
ke cewa
ap un
Ġval id
Ġr ag
Ġr os
Ġr ings
Ġun certain
Ġde eh
Ġbo om
Ġar rang
Ġgreat ly
oun ced
Ġce a
Ġam b
Ġhand ed
ree bok
Ġcont empor
Ġle ap
Ġle ash
Ġwant ing
su ccess
dd y
Ġsupp ly
Ġsupp le
Ġlu am
Ġgl itter
js bs
Ġhehe hehehehe
up ulous
Ġref ri
Ġreg rett
Ġstick s
co at
Ġdisc uss
Ġweek ly
Ġmot ion
ha ul
Ġadv anced
ys is
Ġgener ation
Ġpar ah
Ġmark ed
Ġlum ay
Ġhehehe h
Ġhahah aha
Ġbi ke
cor rect
Ġdipake k
Ġbrng nya
Ġta x
Ġscre aming
kt u
Ġplug s
Ġappro ach
Ġtemper ature
Ġbol ong
store s
Ġforgot ten
Ġhum an
Ġautom atic
str ong
Ġign ore
Ġting kat
Ġintrodu ced
Ġmash allah
Ġbuck le
Ġshoot ing
Ġmuken a
Ġsyek ali
Ġdevelop ment
Ġagre ed
bre ak
charg ed
hour s
Ġhav ent
Ġsched uled
Ġlangu age
3 8
b en
b elie
b ahan
c ere
d est
d ik
g el
m ark
p it
t ies
Ġs x
Ġs ling
Ġt at
Ġp il
Ġp ly
Ġb atch
Ġb kin
Ġf ans
Ġd uh
Ġc amp
Ġw ard
Ġpr ime
Ġm sk
Ġn da
Ġto pp
Ġk ase
Ġst ap
Ġsm s
ul es
am g
aa ah
ill a
Ġch osen
Ġr aw
Ġun happy
Ġun dou
Ġun iform
Ġeyes hadow
Ġac comm
Ġbl ade
Ġdi j
Ġdi in
Ġacc identally
ig a
Ġpl u
Ġcomp uter
ks i
Ġx d
ci es
Ġdam per
Ġstr ay
Ġmo cha
Ġreal pic
uk er
de finitely
Ġfin al
uh an
Ġtrans act
bl um
Ġstrong er
Ġext ended
Ġbright er
Ġsn ow
Ġexc l
Ġpuas sss
Ġlam b
Ġpng riman
Ġimportant ly
Ġsukak k
Ġequ ipped
Ġram ad
Ġspr ti
Ġpast u
Ġdk it
Ġcart ons
Ġkasi an
Ġpak ingnya
Ġcook ed
Ġthread s
Ġadjust ed
Ġadjust able
Ġbur ning
Ġberk ual
Ġadem m
Ġsurf aces
neat ly
Ġexpl ain
Ġwrink les
Ġhnd i
Ġdalem an
Ġip ad
33 33
Ġlear ning
Ġlmy n
bet ter
Ġstud ents
bul an
Ġjw b
Ġmgk in
Ġtai wan
Ġdisappe ar
Ġgapap alah
Ġspand ex
midd ling
Ġrefri ger
b age
c ongratulations
c ross
h usband
k ids
m t
u ct
v y
v is
w ood
w ide
Ġs atis
Ġp is
Ġth umb
it an
Ġg ed
Ġg ently
Ġo ak
Ġf uck
Ġd nd
Ġd elet
Ġc b
Ġc ia
Ġm ik
Ġm ale
Ġm elt
on k
Ġn c
Ġn man
Ġh ic
Ġh ide
us ah
Ġk ahit
Ġsm ok
am i
Ġor ch
Ġsu ffer
Ġv ar
ill s
ap or
im p
im al
Ġch g
ok s
Ġr ama
Ġbu at
ong ru
Ġme al
Ġcan vas
Ġpre t
Ġco ck
Ġsp are
Ġke gede
Ġpeng ir
Ġmin ute
Ġmon it
Ġsamp i
Ġni hh
Ġcm an
Ġwal ks
Ġdat es
Ġtrim aksih
kw kkw
Ġanswer ing
Ġscr upulous
Ġrel ated
Ġsubst it
Ġvari ous
Ġwa x
Ġregular ly
Ġ13 0
Ġmach ines
Ġremo vable
Ġ16 5
Ġmantapp pp
Ġpul a
Ġultra fast
Ġwl ang
Ġkap an
Ġhor rible
Ġminim um
Ġslight est
har ga
Ġtrip od
gggggggg gggggggg
Ġcollap se
Ġkli atan
Ġmul u
subs cribe
Ġske chers
Ġtank s
Ġcompens ation
Ġconsign ee
Ġobstac les
Ġrab bit
Ġrele ase
Ġsmu anya
pekt asi
sett led
Ġimmac ulate
creat e
Ġparent s
6 0
e qu
f ood
j ah
m aking
s d
s and
Ġ rim
Ġs ss
Ġt ide
Ġt arg
Ġp ens
Ġb ending
Ġf as
Ġf oul
Ġd ili
Ġc z
Ġn x
Ġn en
Ġn est
at ors
Ġh nya
as an
qu ate
th u
th etic
Ġsh oddy
le h
le ading
Ġk hair
Ġy uan
ag ue
ag ger
Ġst om
Ġnot if
Ġbe gan
Ġsm oke
Ġfor th
Ġsu ede
Ġok lah
ok nya
Ġag an
Ġag ad
Ġtr ace
Ġdis charged
Ġdi pesen
Ġbo ot
Ġbg tttt
op ard
ab ar
Ġbag u
Ġce aaaa
Ġam ik
rim e
Ġle opard
Ġexp end
Ġcust umer
Ġapp s
Ġmant af
Ġdr ain
Ġsupp ose
Ġdam n
ail ah
Ġte bell
Ġaff ord
ne y
Ġcr it
ond ing
Ġsens or
mm et
js ks
Ġrecom en
Ġgot ten
recei pt
Ġel ok
Ġinter sections
Ġcons ci
ns n
Ġstrong ly
Ġadv antage
Ġsin cere
Ġbel um
jj f
Ġlng ganan
Ġtu ck
iz ation
uc ing
Ġsle ek
Ġdep artment
Ġnag send
sy uk
Ġbnget t
pesen an
Ġcharg es
Ġremo ver
Ġwidth s
Ġsyuk aaaa
Ġsyuk ron
Ġlock ed
ask ed
arri ve
Ġmeas ured
Ġlevel s
Ġkc wa
Ġbis millah
Ġti en
Ġhook ed
Ġhor se
Ġpuass elalu
Ġfirm ly
Ġvi et
Ġnor th
Ġholiday s
Ġsak in
Ġfrust rated
Ġcooper ative
Ġcircum stances
Ġminimal ist
Ġdesk ripsi
merch ant
Ġparticular ly
mag anda
Ġindivid ual
Ġdico bain
Ġtru ly
Ġnewsp aper
Ġheav ier
nyamp enya
Ġaud io
Ġhidd en
Ġundou btedly
b as
b um
e kk
g al
g ann
m r
m edi
m ali
n ut
p aste
p ods
t ake
t eng
w o
y allah
er r
od ities
Ġg d
Ġb ilang
Ġd j
Ġd ang
Ġd aw
Ġd uck
Ġw ats
Ġw ktu
ing gu
at ur
Ġis land
Ġk z
ag er
ag uuuuuus
Ġin j
Ġspeed cross
ah un
Ġval vular
Ġch ili
Ġso ph
Ġr are
ant ies
id ing
Ġcon di
Ġun its
Ġun yu
Ġsi kit
fe els
Ġpro p
Ġad ain
xt ure
Ġpl at
Ġunt ung
Ġ5 8
Ġnew born
Ġgr ass
Ġdes ir
Ġsp ite
Ġbang eeee
Ġle an
Ġwe bs
Ġsy n
Ġsy aa
Ġkn pa
ist ent
Ġfl esh
Ġlah at
Ġhi ke
Ġbagus ss
Ġstr ings
Ġcor ru
ber apa
br a
uuuu uuu
Ġsee ing
Ġve h
super b
Ġshort ly
Ġcomm anded
Ġhal us
Ġinter n
Ġ0 2
bl om
Ġbel nja
Ġhot el
Ġhead scarf
Ġnh ung
ye ay
ath ers
Ġmantap keren
Ġsubst ance
sg s
Ġcall s
Ġbus ui
Ġdist rict
Ġgam is
Ġkm rin
Ġpain ting
Ġsun flower
Ġkh aki
bang ett
Ġmet ers
Ġket erima
Ġpul se
Ġfill ing
Ġcal endar
Ġest imate
Ġshope ee
Ġfi ber
Ġbaguus s
Ġmint ak
Ġkain ya
Ġmantaa p
Ġinch es
Ġfrequ ent
Ġfant a
Ġlux ury
merch andise
Ġsemog aa
Ġdece mber
Ġsquee ze
Ġultim ate
Ġdream y
Ġgloss y
Ġfro zen
Ġblackhead s
Ġanal ysis
c j
c at
f oto
h ance
k m
l ng
n ag
p ing
r ance
s en
s bs
w ed
w ing
w ang
w ash
z bz
Ġ ended
Ġs ar
Ġt umpah
Ġa pe
in ing
Ġth nx
it is
Ġg en
Ġb ird
Ġb unch
Ġb ilis
Ġd b
Ġd y
Ġpr ang
Ġm ong
on n
Ġn ung
Ġn ua
Ġl ite
Ġre n
th r
Ġto long
Ġdeli ered
Ġsh el
Ġsh ades
Ġk im
ag ement
Ġbut i
ul us
ke e
Ġli ving
ear t
ak h
ap al
Ġok i
st ars
um ed
Ġr ad
Ġr ise
Ġlo op
Ġex agger
Ġde ath
Ġsa ved
Ġbr ack
Ġdi y
Ġlit er
Ġout let
ven ess
Ġhas il
Ġny lon
ric al
Ġ4 4
Ġhi p
av ail
Ġcr a
Ġcar bon
Ġcle ats
Ġmod e
Ġact ivity
Ġ9 5
Ġdown side
Ġpost ing
Ġear n
Ġreason s
pre s
Ġman aged
oooo o
lu c
ba j
Ġmantul mantul
Ġbel anj
Ġcream nya
ye y
Ġsubsid ized
Ġbreak s
Ġext ension
Ġmantap lah
Ġind ic
Ġpk onya
Ġphotograph s
Ġpast el
Ġsign ific
Ġsuggest ed
Ġ201 7
Ġmakas iiii
Ġinv incible
Ġsyuk aaa
Ġqual ities
Ġresponsib ilities
Ġpract ice
res onding
which soever
Ġms lh
oc re
bab y
gl ue
Ġdeng an
Ġanno yed
Ġhmm m
Ġeyel ashes
Ġchi pped
Ġsock et
Ġreput able
Ġsesua ii
Ġsting y
Ġvent il
Ġattem pted
Ġakh ir
nic ely
Ġmoisturi zing
Ġviv o
Ġgrat itude
Ġkekecil an
Ġcoup ons
hell o
Ġpregn ant
Ġinspect ion
Ġstom ach
3 5
8 0
c v
e pp
f ake
i ya
j ur
m es
m em
m akas
m ask
s moga
y ee
Ġ xt
al most
Ġb one
re st
re ason
Ġc ul
Ġc akes
Ġw ak
Ġw ah
Ġw oke
Ġm ai
Ġn ed
Ġn em
Ġh ung
Ġh ence
Ġqu arant
ck ck
ent ial
Ġal ert
am ah
ad ed
ol ve
Ġsu cks
Ġok el
Ġch annel
Ġlo ving
Ġthat s
Ġcon fortable
Ġun lik
Ġsi e
Ġse pt
Ġse ven
Ġtr aces
Ġdis pat
Ġche at
Ġmu ddy
Ġco ating
fe it
Ġany time
ai h
Ġfe br
ass alam
Ġcont ains
Ġcont ained
Ġmer ah
Ġen hance
Ġdes cribe
Ġle pas
dul ilah
Ġapp roriate
Ġdr ool
Ġsupp lied
av i
Ġjo g
Ġchat nya
Ġmatch ed
und ant
Ġhu bby
Ġpeng er
Ġlet ters
Ġinc ongru
de h
sm ooth
Ġset tle
Ġtight en
Ġcomm odities
Ġman is
wr apped
Ġrap idly
lu cent
llll l
do y
Ġleak age
Ġfre es
Ġavail ability
Ġsil k
Ġba aguuuuuus
Ġwrit ings
Ġopp os
Ġbat r
kwkw kwkw
Ġwatch ing
Ġkal au
Ġconsum ables
Ġbi ar
Ġnak a
custom er
Ġgold en
Ġcoll ision
Ġdin eliver
Ġabsor bs
Ġappro ved
Ġwire s
Ġbarg ains
care ful
Ġcord ial
Ġload s
Ġtread mill
Ġenc our
gl ad
Ġorgan ized
Ġpop ular
bell s
Ġign ored
Ġestim ates
Ġterny ata
Ġfraud sters
Ġping in
Ġproject s
Ġfool ed
Ġapolog ize
Ġincred ibly
umin um
Ġprest ige
Ġnyes ell
Ġsedi kit
quis ite
Ġrus ak
Ġbroo ch
abal ot
Ġdikasih nya
Ġcrunch y
Ġviet nam
Ġsignific ant
Ġincongru ous
c ou
d it
d en
d ri
d edu
g le
g ir
h b
h x
l ated
m ya
m ond
m ile
p urchased
s il
w ater
z i
Ġt b
Ġt gk
Ġt ires
Ġa e
Ġth ks
it ate
it tle
Ġb or
Ġb ou
Ġb eng
Ġo s
Ġf ate
is in
Ġd ess
es ter
Ġn ah
Ġl sg
qu et
Ġre charge
Ġsh anties
ent a
Ġk cil
Ġal ive
ch o
ch ing
Ġsho el
Ġsu kk
Ġv io
et te
ear ly
ak in
im akasih
ok a
um ullah
Ġr ug
Ġcom bo
Ġas al
Ġun equ
Ġsi ap
com ings
Ġsa b
hh ee
Ġno v
per t
sh shs
Ġthere fore
Ġat e
Ġad orable
Ġpi pe
Ġcomp on
Ġ5 5555
Ġmer iah
Ġri p
Ġbang e
nt i
Ġwhat soever
Ġmess aging
Ġshopee haul
aaaaaaaa aaaaaaa
Ġaff orable
Ġcor k
Ġback up
ip un
Ġfold ing
jd g
jd nd
Ġproblem atic
Ġko in
Ġgu id
ret urn
Ġshort comings
Ġunder st
Ġbarang g
Ġtrans lucent
bd j
Ġro b
Ġsqu ish
Ġsn ap
Ġclean er
Ġmurah hh
con dition
Ġpng emasan
Ġdec re
Ġrelat ive
Ġsand al
Ġps anan
Ġconsum ption
Ġpan as
Ġorigin all
cie ved
Ġkeren n
Ġkyk nya
Ġteng ki
Ġhrg anya
Ġble ak
Ġbreat he
Ġwrn anya
may be
Ġzig s
Ġsour ce
Ġhy d
Ġpartic ip
Ġir responsible
Ġenvel opes
Ġthousand s
mon th
Ġpert ahank
Ġsg itu
Ġident ify
Ġexceed ed
Ġpengemas anya
Ġmosquito es
Ġmill ion
Ġincred ible
Ġdar ling
Ġreco gn
accept able
Ġrubb ing
Ġstru gg
Ġappoint ment
Ġpere gr
Ġaccomm od
Ġwebs ite
Ġquarant ine
Ġunlik ely
Ġfebr uary
Ġdess ert
Ġvio let
c ode
g ant
h on
h ab
h onest
m al
m il
p i
p om
v l
Ġt long
er gy
in o
Ġg n
Ġg um
al o
Ġb kl
Ġc ape
an ny
ce ption
ct s
en yaa
es a
Ġn ila
or ious
Ġh k
Ġh he
Ġh mmmm
Ġl ha
th an
Ġan ts
pe ople
Ġsh s
ut y
Ġk ac
Ġy uhu
Ġsm ud
Ġsm ashed
aa an
ad s
Ġli me
Ġch u
st one
st itch
Ġr umah
Ġsi g
Ġse x
Ġex changed
Ġde e
Ġbl ind
Ġche er
Ġwr ist
ee k
Ġdi v
per ed
Ġar gu
sh d
kk d
Ġus ah
ng n
are na
ven der
Ġbit ter
Ġwear able
Ġ4 7
Ġbox ed
Ġthem es
other wise
be autifully
Ġsy ng
Ġke ys
nn x
ja j
Ġsc ary
Ġdeliver ing
Ġcar rying
Ġpe cking
Ġfold s
iiii iii
Ġgl ut
Ġhehe hhe
Ġsuk aaaaaaa
Ġem ot
Ġshort ages
Ġpart ner
Ġcard ig
Ġsub tle
Ġmak a
Ġrefund s
gr ound
Ġsever ance
Ġ12 3
Ġins yaa
Ġaw are
dk dk
lah h
Ġclean ser
Ġsil ent
Ġmis leading
Ġsen ang
Ġkual iti
Ġexper i
Ġbas is
where as
Ġredu ction
Ġtear ing
Ġcu ff
Ġhang ers
Ġmeas uring
Ġrain y
Ġest ate
dhdh dhdh
Ġkw alitas
Ġwood en
hat i
Ġti ba
des pite
olog y
submit ted
miss ions
Ġbath room
Ġkere een
Ġsoal ny
Ġworkout s
ungkus an
Ġsesu ailah
Ġkec ill
Ġeffic iency
Ġtyp ically
Ġjoint s
Ġgest uring
Ġbarok ah
Ġluxuri ant
Ġpum a
rif ic
Ġcab in
Ġoccas ion
Ġsto pper
mash allah
origin ally
Ġcontempor aries
Ġtransact ions
Ġconsci entious
Ġwats on
Ġdesir able
Ġoppos ite
cou rier
Ġperegr ine
b dh
f ace
h ing
k ul
k aa
m aa
Ġs well
Ġt un
Ġt shirt
Ġt umben
Ġp b
Ġp on
Ġp ash
it nya
Ġg ust
Ġg ard
Ġb ail
Ġb ik
re es
Ġd ag
Ġd ial
Ġd ab
Ġd ung
Ġc ous
Ġw olf
ing in
Ġn ant
Ġn cc
Ġh ate
il iant
Ġk ut
Ġy r
Ġal uminum
ul ation
aa at
ad ala
ke k
Ġj au
et nya
Ġso il
Ġr od
Ġbu agus
Ġserv is
Ġag es
Ġ1 55
Ġdis apoint
ee z
lo vely
Ġme chan
Ġbo cor
Ġpo h
Ġstu ds
Ġfe athers
Ġred mi
Ġmerch ants
Ġen v
Ġsp ider
out s
Ġx xxl
Ġbub bl
Ġmant aaaa
ind ing
light s
Ġcor resonding
Ġsupport ers
ie u
Ġput ih
pppp pp
Ġadd ict
Ġgu ard
Ġinc on
Ġprov in
Ġdirect ive
Ġel dest
Ġka os
Ġmak enya
Ġpu aas
Ġdt o
Ġap pet
fit ting
Ġway s
lu v
Ġbatter ed
ix ed
ron ic
Ġsqu id
Ġboun ce
Ġca using
Ġdri ver
mb ali
lm n
Ġkay ano
Ġpush es
Ġbh nnya
Ġshow ing
Ġpick ed
Ġpick ing
Ġlin er
Ġgar bage
Ġmakas iii
gi an
Ġbul k
Ġcu ri
Ġabsor bed
Ġcal m
Ġplant ed
df g
Ġble ach
Ġpull ed
Ġspecif ications
Ġnut s
Ġmove ment
Ġmeasure ment
Ġmanufact uring
ane ous
Ġgand os
Ġpresent ed
Ġsyek al
abs olutely
Ġwalau pun
Ġunexpected ly
Ġrefer ence
Ġencounter ed
sound s
Ġprec ision
Ġrup iah
Ġcok su
Ġyas udah
smp ai
nyam nyam
Ġstan ard
Ġrefriger ator
Ġcondi ion
Ġunequ al
6 3
c ant
c ases
f ir
g un
k c
n m
p ill
p ow
q r
t nya
x j
y g
y ak
Ġs pt
Ġt ire
Ġa ug
Ġa unt
Ġp ages
Ġp ket
Ġd av
en n
Ġh ee
oduct ion
om er
Ġre min
ar r
Ġan n
Ġdeli v
Ġsh ame
Ġy u
Ġbe aut
Ġbe ef
Ġal ter
ch ild
Ġfor um
Ġfor give
Ġor ang
ad min
Ġj i
ow s
Ġch iff
st ery
um n
um ble
Ġbu ang
ang gan
Ġup front
Ġun clear
ess ion
Ġex elent
Ġmoney good
Ġshop ie
Ġsa ch
Ġdi et
Ġmu a
Ġco ba
Ġpo ly
Ġce aaaaaaaaaaaaaaaa
Ġout break
Ġover come
Ġhand sh
ition al
he avy
Ġrep orted
Ġbang us
be auiful
Ġph p
thing s
bag u
ual aikum
Ġsal t
Ġreal pick
Ġlu vv
Ġ20 00
mant aap
Ġref ill
Ġref used
co al
Ġcover ing
bel um
Ġnever theless
Ġla unch
Ġrap iii
Ġpengiriman x
Ġfind ing
ann ed
Ġhouse keeping
jdjd j
Ġsw i
Ġsw ear
Ġpk ai
Ġlay ered
Ġmother s
Ġadvert is
cc cc
Ġdk t
Ġvers us
Ġinv est
Ġappe ared
Ġresp os
cie ve
Ġrain coat
Ġboard s
Ġstri ke
ili ar
Ġhop ed
Ġconnect or
Ġappreci ated
Ġti ptop
Ġrec comended
umpl it
Ġuni vers
Ġdikirim in
xy z
Ġtra der
Ġcurt ains
Ġchart s
Ġcow bells
Ġjahit anya
reg ular
Ġsurv ive
Ġexpet ed
Ġnyam pee
Ġvibr ant
Ġreser v
Ġsecret ly
67 8
cuc ok
Ġbiscu its
Ġmarath on
pok onya
Ġplu gged
Ġramad an
Ġdrool ing
Ġargu ably
Ġchiff on
1 4
1 7
2 5
5 4
c w
d ue
f d
g or
k ar
l z
m oney
n ately
p ac
p ient
s an
s ii
v g
w on
w aw
Ġt int
Ġa es
Ġp our
Ġg c
al er
Ġb od
re dd
Ġf ul
Ġd au
ed ed
en a
Ġl il
Ġl cd
Ġto wards
pe k
ot es
us nya
us ually
Ġit chy
Ġi i
Ġk b
Ġk so
Ġk ka
ag ak
Ġu j
ve ment
am er
am bar
se ems
Ġv apor
Ġon ion
ow ow
ak y
ap es
em ed
ur ut
un yaa
Ġr ereply
ant ed
Ġlo sing
ff ect
Ġsi ih
Ġsi hhh
Ġac quired
Ġdo cum
Ġdis satisfied
ord in
Ġbr an
Ġall erg
Ġme th
Ġbo ong
Ġco p
Ġco co
Ġrecommend ing
ny aaaa
Ġskin ny
Ġexp osed
Ġwrap s
Ġke bes
ail s
Ġsupport s
Ġsc ars
aik in
Ġwork man
fin ished
au th
Ġpe yok
aaa as
Ġcou riers
Ġpeng riman
Ġconf idence
uk an
Ġni a
Ġsecond s
Ġem s
Ġsel eb
Ġpart ies
Ġrequ ires
Ġla vender
Ġ0 7
Ġtem en
Ġtem pl
Ġbal anced
Ġdress ed
nnnn n
Ġhead ach
Ġins yallah
Ġdong g
Ġbright ness
te ch
Ġsang aat
Ġmem ang
dis c
Ġver ry
Ġcur ved
Ġbat alin
Ġob t
Ġye ay
Ġps an
Ġfil es
Ġru ined
Ġkh o
Ġspeak ing
tqtq tq
Ġlab els
trim a
Ġhit am
Ġfail ure
Ġelastic ity
amb ah
amb oo
Ġkem ana
Ġcomb ined
Ġkas o
Ġmeng ecew
bf ounded
ahan in
Ġload ed
Ġ09 9
iiiiiiiiiiiiiiii iiiiiiiiiiiiiiii
bn rnya
Ġir re
Ġfinger print
Ġsilic on
Ġeyel iner
Ġmagnet ic
Ġweigh s
Ġnecess arily
Ġegg s
asukasuk asukasuk
Ġsebel um
Ġattem pt
Ġtul ip
Ġsymbol s
belie v
Ġstap le
Ġsubstit ute
Ġned a
2 9
b ably
d ur
h ong
i jk
n b
o q
p urch
s js
t aste
u ar
w y
Ġs id
Ġs bs
Ġs ink
Ġp gn
Ġg in
Ġg itu
al ag
Ġb amboo
Ġo pa
Ġo tg
Ġd er
Ġc ain
Ġc act
Ġc ents
Ġw t
Ġm uter
Ġl ying
th ought
Ġan ni
Ġk us
Ġk os
Ġk ons
Ġsell eer
Ġy uk
ack ing
Ġin fer
Ġst er
Ġst ead
Ġbe ans
Ġal bum
ad em
Ġsho opee
Ġv c
Ġok s
Ġch il
Ġso b
Ġso ak
ir an
Ġag ak
Ġun pleasant
Ġtr f
Ġdis adv
Ġsa iz
hh d
app p
Ġbr ow
Ġdi ret
int a
Ġship s
Ġar bit
Ġpre cise
Ġco con
Ġlight ing
Ġfe b
Ġpa vement
su dah
Ġab x
ud uk
Ġpes ann
Ġhi bis
ll u
Ġsc an
Ġsc ale
Ġcr ash
Ġsuc ceed
ip u
Ġsal er
pat ient
jd kd
js ns
Ġ6 4
Ġtop s
Ġmas angnya
ro fo
Ġsub missions
pl ah
Ġdisc onn
min us
pro bably
Ġbrand ed
Ġrequest s
Ġlang gan
jj e
jo b
Ġprodu ce
Ġsubst ances
Ġcall ing
pict ure
Ġdu o
Ġwish es
Ġpn ting
Ġhahah ahah
Ġclass ic
Ġflat ten
Ġmed yo
Ġra ises
Ġcu co
Ġflex ibility
Ġmist akes
Ġmic a
Ġdef lated
Ġprefer red
Ġintr oduction
vers ary
Ġip od
Ġtravel ing
Ġballoon s
tern al
Ġsoal nya
Ġweigh ing
tqtqtqtq tqtqtqtq
Ġkot ak
Ġlan car
Ġwang i
Ġmass age
cake p
Ġrequire ments
Ġngel upas
Ġwan na
Ġcontinuous ly
Ġsablon an
wel ry
Ġreci pient
Ġobject s
frag rant
Ġcoun sel
Ġpeny ot
Ġmung kin
Ġboom ing
mmet rical
Ġbou quet
believ ably
Ġopa que
Ġanni versary
Ġstead ily
Ġarbit r
7 0
9 5
a ii
d n
f ill
f all
g old
g ment
k ah
m od
m other
o op
s al
t ried
u bs
x jx
Ġs om
Ġt ad
Ġt unic
Ġp itch
Ġp da
el e
Ġg de
Ġb aw
Ġb ali
Ġo ce
Ġf est
Ġf ist
Ġd gn
Ġd alam
Ġc c
Ġc ables
Ġw ig
Ġw ine
Ġpr izes
Ġm umer
Ġn ich
Ġh t
as p
Ġl ady
Ġqu ran
th n
ar om
eli pin
ut ed
Ġi u
Ġi ba
Ġk ad
Ġk ab
ag ain
ast ip
Ġst ained
Ġnot ify
Ġbe an
Ġfa int
Ġu ang
Ġsm w
Ġspe c
Ġthank fully
Ġj aw
Ġli f
ow bat
ah nya
em ents
Ġch em
st u
st ock
Ġlo v
Ġup load
Ġas ide
Ġun less
Ġori g
Ġse xy
ic les
Ġtr lalu
Ġdi bat
per h
Ġar r
Ġhe a
Ġco s
Ġco y
ab at
Ġbag uuuuus
oun ting
Ġstore d
Ġrep o
Ġcont n
Ġsubs cri
Ġsp in
Ġter baek
Ġsaf er
Ġcust mer
ist ration
amp un
Ġbefore hand
Ġlg s
Ġlg sung
Ġke cik
Ġmo i
Ġmo v
Ġcomplet eness
Ġsc ales
Ġback ground
Ġint end
Ġpe g
rop h
Ġreal flex
jd b
Ġres ale
up date
Ġrecom nded
mant ull
Ġmod est
Ġz onk
Ġprov ince
bb b
Ġset t
Ġman ner
Ġsol ved
Ġform at
Ġrem ark
Ġthankyou uu
Ġ11 1
Ġrol led
Ġrespond s
nnnn nn
Ġhead s
bh an
Ġinform ative
ph oto
Ġadmin ya
ju in
che aper
Ġba e
Ġind ent
mb ah
Ġbat t
Ġru ff
Ġfan cy
Ġstay ed
Ġexpired nya
Ġpak ing
Ġinv ent
cl adding
Ġank les
Ġchar coal
Ġcontr ast
Ġwonder ing
me al
Ġbur u
Ġappro batory
Ġseason ed
Ġloc ated
Ġton ight
aaaaaaaaaaaaaaaaaaaaaaaaaaaaaaaa aaaaaaaaaaaaaaaaaaaaaaaaaaaaaaaa
Ġtil ted
Ġpant ies
Ġprof ile
Ġhum id
Ġwast ing
Ġmold y
Ġhd mi
Ġshoul ders
Ġmotor cy
Ġdeg ree
goodgood goodgood
Ġnie ce
Ġwarn anya
55555555 55555555
Ġunfort nately
Ġapolog y
Ġjun cture
Ġbint ang
Ġtooth paste
Ġmim in
Ġvit amin
Ġmanufactur er
Ġlar is
supp ort
Ġintell igent
Ġsanit izer
Ġupgr ade
Ġtarg et
avail able
dedu cted
Ġseleb ih
ijk lmn
Ġinfer ior
Ġcocon ut
2 8
c g
c ca
c de
d ry
d ish
d lh
e o
g reen
h p
i j
s li
u j
x k
Ġs od
Ġs ns
Ġt is
Ġt ied
Ġt anger
er al
Ġa ri
Ġp st
in ter
Ġth b
el a
al f
al ala
Ġb om
Ġd el
Ġw ont
an cel
Ġm un
Ġm enu
on ant
Ġn asty
Ġh ih
Ġh ous
qu a
Ġqu ar
Ġre ass
Ġi e
Ġk p
Ġk ick
Ġk ung
Ġy aaaaaa
ast ik
Ġu ulit
Ġsm e
ch er
ch es
Ġspe cially
aa i
Ġsu da
Ġj l
Ġj im
Ġj oo
Ġj our
Ġli pt
Ġyou uuu
Ġch t
ok i
Ġso ooo
um en
Ġtim ing
Ġas ap
Ġcon ce
Ġun ic
Ġsi u
ic able
Ġtr ad
Ġtr uss
Ġdo s
Ġde v
Ġrecei ver
Ġco b
fe k
Ġpro ven
Ġga usah
ab ab
ng e
Ġout fit
Ġover al
Ġover size
Ġarri ed
Ġhand bag
Ġcomp artment
he h
Ġnew ly
Ġpur case
Ġsp at
Ġpicture d
other s
su ch
Ġsy uu
ud ing
Ġbagus an
Ġgo ood
Ġte en
Ġcar ved
nd n
Ġsal ah
pat utan
Ġng at
Ġng ay
Ġres id
Ġsuk aaaaaaaaaaaaaaaa
Ġsuk asuka
Ġko g
Ġfo c
Ġbot ol
Ġsel et
eeee eee
Ġterim ak
Ġsmell ing
Ġmonth ly
Ġcons cious
Ġwar ning
Ġthr u
Ġbs ok
to y
Ġsl ack
Ġsl am
Ġmantul ll
Ġass orted
led ge
Ġnh g
Ġdik antong
Ġkok o
Ġdon ate
Ġdifficult y
Ġnt i
jsjs jsjs
Ġgam au
Ġkm aren
Ġequ ival
je j
Ġpal atable
la im
pas ang
Ġdipake in
Ġanak u
Ġinit i
Ġinv olved
Ġamazing ly
Ġlist ening
Ġtransfer red
Ġpul aa
Ġdrop s
Ġcu y
Ġmg nda
Ġcake p
hhe hehehehe
Ġwl pn
Ġplant ar
bai kk
Ġmemuas kn
Ġbear ing
Ġcepe et
Ġkur g
Ġabsorb ing
Ġbuble warp
samp enya
Ġpun ct
Ġsumm ary
Ġindones ian
Ġken a
Ġgem es
Ġrej ection
Ġsou p
Ġkil at
Ġyaudah lah
Ġterny ta
Ġkecew aa
Ġked ep
45 678
Ġflu id
Ġbrief case
check ed
Ġpokony aa
Ġobstac le
Ġtrash y
Ġsnd iri
Ġek sp
Ġluxuri ous
Ġwhit ening
Ġregister ed
Ġaltern ating
jel as
iron ment
Ġpemb eli
Ġshr ink
Ġpengirm an
Ġcub ic
Ġstab il
Ġkegede an
thu gh
Ġbilang nya
Ġplat form
thr ough
Ġshel ves
Ġunderst ood
Ġsquish y
Ġenv ironment
child ren
Ġcact us
Ġhibis cus
ijklmn op
Ġequival ent
7 6
b os
b atter
b right
b ounced
d ep
f old
g lass
h ur
j ss
l an
l im
l ist
p is
s ol
x i
x s
Ġs ack
Ġs ult
Ġs bb
Ġt ent
Ġt ny
Ġt ables
er ing
Ġa tle
Ġp am
Ġp ong
Ġb ared
Ġo re
Ġo bs
ver n
Ġc rime
Ġw ings
Ġpr one
Ġm c
Ġm ood
Ġn v
Ġn il
or o
Ġh ori
Ġl ad
Ġis ol
Ġqu a
Ġproduct the
Ġre con
th eart
Ġe co
Ġsh it
le k
Ġi deliver
Ġk ir
Ġk pn
ag en
ag ram
Ġst ress
Ġnot ified
Ġbe kasi
ve y
Ġj ars
Ġok la
Ġch am
ur ah
Ġwh om
Ġr um
Ġup right
so cks
Ġse a
Ġbl nj
Ġno vel
ee theart
Ġdi bl
Ġbo ost
Ġim patient
Ġhe hee
li que
Ġsk i
Ġcomp le
Ġstar red
ks kd
Ġless on
Ġdes cent
Ġsp y
Ġle bar
ait as
Ġph ase
Ġbub l
ud ed
Ġfl or
Ġgo vern
ange et
Ġoff set
Ġreal ized
Ġbar s
tttt ttt
Ġres olved
Ġcou pon
up i
Ġref use
Ġni pp
Ġstick ing
tr ans
Ġsem p
bu h
Ġcum ulus
Ġmouth ful
Ġel ection
Ġel eph
Ġpu ff
Ġman age
pro f
Ġmur aah
Ġmar in
Ġfoot wear
Ġsl ide
Ġass urance
Ġwash able
pes an
Ġpar a
Ġcompl ained
Ġmag ic
Ġfall s
Ġsang t
Ġind icate
Ġpuas ssss
Ġclos er
Ġupd ating
Ġbat s
Ġdec is
itu i
Ġparcel s
Ġsuggest s
Ġfle et
Ġcoll aps
Ġ201 6
Ġtable t
Ġenjo ys
ship ments
ses end
Ġdedu ction
Ġfail s
Ġnatur ally
Ġkem bali
Ġbeli i
Ġcent ral
Ġberk ah
ahahahah ahah
Ġconsist ently
Ġwed ding
Ġvict orious
Ġmoist ure
Ġexpl ained
des cription
Ġhum orous
Ġade quate
Ġcoz y
Ġom g
Ġant ic
Ġelectric ity
Ġalhm dulillah
Ġmuken anya
sng at
Ġbrief ly
Ġexpet asi
mint a
prod cts
sau cy
Ġplisket nya
Ġacceler ated
sand als
reason able
Ġexperi enced
Ġcuri ous
Ġdav id
Ġhandsh ake
Ġmeth od
Ġworkman ship
cde fgh
Ġsult ry
Ġatle ast
b k
b ay
c ould
c op
d rop
f j
f an
g z
g aa
i um
j q
j t
k ere
k out
m ate
o pp
o ved
p oint
s ya
t ell
t ks
t iny
u ing
Ġs leting
Ġp j
Ġp nya
Ġp kk
Ġth ri
Ġg ear
Ġg ain
Ġg ila
Ġb ant
Ġb are
Ġb orn
Ġb aking
Ġd ated
Ġc et
Ġc ip
Ġw k
ed ing
Ġpr oud
Ġm nd
Ġn as
Ġn un
Ġn ine
Ġn dk
Ġn aship
Ġh v
Ġh ap
Ġh ushed
Ġl acing
Ġre fin
Ġre aso
Ġan ther
Ġsh ine
Ġsh attered
Ġsh redd
Ġi ya
Ġk am
Ġk aaa
Ġk emasan
Ġk ira
Ġk umplit
Ġy i
Ġy ummy
ast ed
Ġst ation
Ġbe ads
Ġspeed s
ke ke
ol ute
Ġv est
ap r
im pro
Ġok ie
Ġso brang
un in
Ġr out
ir ely
ant ul
Ġse p
Ġbuy back
Ġbl a
Ġno stal
Ġche ating
lo s
Ġpacking ny
pet asi
Ġat a
Ġout come
dh a
ven ir
eng g
Ġcomp ress
Ġred ucing
Ġgi a
pack et
Ġwe althy
ish ip
Ġsc attered
Ġsuc ces
Ġinst agram
pen ya
Ġnow here
Ġtast ed
js is
Ġng et
Ġwrapp ings
Ġ6 8
Ġ6 00
up un
Ġmin n
Ġadd ing
Ġfo x
Ġref resh
Ġmas ing
tr act
sm ission
Ġtrim akas
Ġtrim ksih
Ġmedi ocre
Ġpen j
Ġpen et
uh uhu
Ġna order
Ġcush ions
zz le
Ġproper ties
Ġje welry
hhhhhhhh hh
jj dhd
Ġass ume
Ġhead phone
Ġpengiriman ny
Ġeffect ively
Ġext end
Ġhair y
Ġds n
Ġmah al
Ġimport ed
Ġpng r
Ġnat ry
Ġsat in
Ġpaket nya
Ġconsum ing
Ġpot s
Ġbes ide
Ġdip engiriman
llllllll llll
disappoint ing
Ġble h
Ġexist s
Ġdef ault
Ġscrew dri
cum an
Ġmain ly
Ġdum bfounded
anti kk
Ġquant ities
Ġswitch ed
Ġpant y
Ġhg aaaa
Ġallow s
ooo ood
Ġmanufact ured
des ign
Ġyoung er
Ġluc uuu
Ġmoder ately
Ġclaim s
makasi hh
lip stick
ho st
Ġcontribut ion
Ġbaguu uus
Ġcounter feit
Ġdibal ikin
Ġsdk t
Ġpsen an
Ġsav ings
jjjj jjjj
Ġloos ely
Ġplast ik
Ġpray er
Ġadmit ted
firm asi
Ġgim na
Ġcanti kk
Ġfoto in
Ġneighb or
qw qw
Ġshut tle
Ġpreser ved
Ġfacil itate
Ġalloc ated
Ġregrett ed
Ġtax able
Ġdili at
Ġshoel aces
Ġappet ite
Ġremin der
Ġunic orn
Ġiniti ative
Ġgovern ment
Ġnostal g
2 3
a ang
d et
d ip
f k
f x
g low
j ahit
k as
l ens
m th
m ic
m ist
m sm
m aksih
s ang
t age
v j
w atch
x n
z ont
Ġs iss
Ġp od
Ġp anda
in der
in form
it ar
it ted
Ġf b
Ġf om
Ġd al
Ġd ap
Ġd ick
Ġd amp
Ġc i
Ġw est
Ġw ks
ing er
es uai
Ġn al
at ory
at annya
Ġh on
Ġl az
il an
pe m
Ġe i
ot tes
Ġi v
Ġk ata
Ġk arena
Ġst en
Ġst opped
Ġst acked
Ġfor given
se ams
Ġor de
sp r
Ġj astip
Ġli able
ak er
Ġch oo
Ġso bek
um es
Ġr ang
id a
id eliver
Ġbu ka
bs hs
Ġag ent
Ġex ter
Ġtr ap
Ġtr ading
Ġsa o
aut ion
li ance
Ġpro ses
Ġus a
Ġpl acing
ng s
ng nya
Ġpi er
Ġout put
Ġny ala
rim n
Ġmer cy
Ġsome where
Ġsuper r
Ġpur pos
Ġsp ikes
Ġbang bang
Ġbox nya
Ġle aving
Ġpa cif
hamdul ilah
Ġexp and
Ġbig g
Ġimm ed
Ġke p
Ġhi ps
Ġgod s
Ġstr oll
Ġknow ledge
Ġreal ize
br oke
Ġsee k
Ġplastic s
Ġtri be
js n
pppp ppp
Ġadd s
ret ion
Ġshe er
Ġreg istration
bu ying
Ġbonus nya
Ġunder sell
Ġcepat ttt
Ġel bow
Ġcomm er
Ġbng tt
Ġcush y
gt u
oooo oo
ix ix
Ġyellow ish
Ġtu itui
pes os
Ġho i
di ff
Ġker ing
Ġent irely
Ġhair pin
ju an
Ġpol l
Ġhat s
Ġdec ision
comp act
Ġtom b
Ġku at
Ġbi o
Ġkasi hhh
Ġ14 0
Ġpan jang
Ġreceipt s
ship ing
Ġfour th
Ġharg any
terim akasi
look ing
Ġlem es
Ġcu z
Ġbro oks
Ġcompet ition
Ġbahan ny
olut ion
Ġdef ense
Ġspecif ication
Ġhook s
bsbs bsbs
Ġmeat ball
Ġkecil in
11 11
Ġmace m
Ġelect ronic
tttttttttttttttt tttttttttttttttt
Ġclaim ed
Ġmakasii hh
Ġcatch ing
Ġbaju x
Ġmul us
Ġsou th
oooooooooooooooo oooooooooooooooo
Ġlift ing
Ġsupposed ly
Ġinqu iry
Ġtyp ical
zzzzzzzz zzzzzzzz
mz mz
Ġconsign ment
say ang
Ġkhim ars
luck y
mot ive
Ġconstant ly
Ġinsp iration
Ġrid iculous
Ġconv ention
sad ly
Ġkard us
Ġirrit ated
Ġvar ied
Ġfas ci
Ġexpend iture
luc uu
Ġindic ator
Ġguid ance
Ġpash mina
Ġcous in
Ġwolf is
Ġunivers al
won der
Ġuj ung
Ġchem ical
Ġdibat alin
Ġtrad itional
ijklmnop qr
cdefgh ijklmnopqr
1 8
6 5
b ing
b dhd
c ain
c ock
c ro
d ge
d ark
f u
f ol
f ish
h mm
k p
k ot
l al
l ly
m or
m uk
r ub
t ong
t ahun
w k
w he
y uu
z a
Ġs ja
Ġt ack
Ġt ama
Ġt unggu
Ġp li
Ġp mb
in complete
Ġg host
Ġb ung
Ġf lip
is ely
Ġd ann
Ġc ate
Ġc ased
Ġw ai
Ġw oo
ce nse
Ġm t
Ġm um
Ġm ounting
on nya
Ġn od
Ġn tr
Ġn urs
Ġh ga
as ss
om g
Ġquality original
Ġto te
Ġi bu
ay ang
Ġin cense
Ġst ale
Ġbe gging
Ġal mond
ve mber
ch i
am it
Ġspe e
aa ak
Ġpack ignya
gh dfg
ad is
Ġface book
Ġorder annya
Ġon ions
the ir
em e
Ġne on
Ġch op
Ġr ules
Ġun finished
Ġex quisite
Ġex ternal
Ġmat ters
Ġbl h
ter ed
Ġno vember
Ġdi pl
int s
Ġme ow
Ġmu at
Ġmu antap
sh aped
Ġcheap ly
ig ay
ft en
Ġam p
Ġbgt u
Ġcomp ly
Ġ5 9
Ġcont aining
ga ve
Ġher bal
Ġcondition er
Ġsp oke
Ġsend alnya
Ġsy mmetrical
Ġx ii
Ġx ie
ist s
Ġfl ag
Ġbanget bagus
ail ed
Ġgo i
Ġaff ixed
Ġjo sss
ie ie
Ġhapp ier
Ġcr otch
Ġwork ers
Ġcar ing
Ġpesen annya
Ġpe pper
jd i
Ġtast ing
Ġres il
Ġmin h
Ġrecom anded
Ġlik ing
Ġcle ared
Ġsel esa
Ġ9 00
Ġterim kasih
Ġyaa h
Ġtrim ksh
Ġear th
Ġtight er
Ġel ement
Ġdisc ont
Ġdisc retion
min i
Ġman agement
Ġ12 5
Ġthr owing
Ġreview ed
Ġadv is
Ġass ist
Ġconsider able
Ġcod es
ia o
Ġpengiriman n
Ġnge cas
Ġnge pres
Ġent ity
Ġclean ed
Ġseal ing
Ġnag ana
Ġnag sesend
Ġpad in
Ġhol o
Ġabs olute
Ġbutton ed
cu it
Ġproduk ny
sa id
Ġsam apai
Ġben ang
Ġgar ment
Ġhahah ah
Ġzi ppers
Ġdit unggu
Ġcolle ge
Ġwalk ed
Ġvis ual
Ġinf ant
Ġinv ited
cepat an
Ġkualitas nya
Ġpngiriman nya
Ġbahan x
Ġrow s
Ġfam iliar
df jdg
Ġdef ic
Ġwkwkw kwkw
jg dfjdg
Ġkt nya
Ġnut r
Ġvan illa
Ġmail ing
Ġsampa iii
hi jab
Ġpant es
Ġzig tech
Ġkaa k
Ġtreat ed
Ġresist ance
Ġdig ital
Ġdipak ai
nc nc
Ġtre nd
Ġjam med
Ġregard less
Ġcy cle
Ġ300 0
Ġpert ahanin
eeeeeeeeeeeeeeee eeeeeeeeeeeeeeee
Ġsit ting
Ġsou venir
Ġdeg rees
Ġcond tion
Ġkecew aaa
cover ed
cons istent
Ġnarecei ved
yyyyyyyy yyyyyyyy
Ġloos en
Ġjahit an
Ġpor k
Ġembroider ed
Ġkej ahit
bagussbaguss bagussbaguss
Ġunus ual
Ġhdf ghdfg
Ġjat oh
Ġjud gment
Ġaccomp any
Ġsegit uu
Ġbrack et
Ġcul ottes
Ġsept ember
Ġdispat ch
Ġpenger iman
Ġsig ns
Ġglut en
Ġprovin ces
Ġbeaut ful
Ġadvertis ement
Ġirre par
Ġarbitr arily
Ġjaw ab
stu vw
Ġruff led
Ġinvent ory
Ġtanger ang
Ġhori zont
Ġfasci itis
7 12
b us
c un
d ra
d uring
e a
e as
f a
f jf
f aat
g iv
h u
h op
h xh
i ate
k q
k ss
m el
m os
m ach
m atch
o j
r ust
r ada
s dah
t d
t em
t ip
u z
w j
Ġt x
Ġt ig
er ine
Ġa aa
Ġa sp
Ġa weet
Ġp ending
in ks
re cieved
is o
is nya
Ġd w
Ġd ai
an ah
Ġm f
Ġm aster
Ġn avi
at un
at ile
Ġh ong
qu es
om en
Ġre si
ou red
pe tt
Ġe ur
Ġe hehe
ot ed
Ġi y
Ġk has
Ġin do
Ġal oe
Ġu mm
se ason
Ġsu d
et ics
ain able
Ġch ine
ok in
ur t
st y
Ġso fl
um ber
um pteenth
un gin
ir annya
ant ing
bs v
Ġdis hope
Ġfr ail
Ġbl n
hh s
app ro
Ġbr ake
Ġbr iliant
Ġdi anter
Ġim itation
Ġpro gram
ab i
Ġbag gy
Ġby r
Ġunt idy
Ġ5 6
Ġrep ack
Ġpict res
Ġper u
Ġher bs
ight ly
let s
Ġpa pe
Ġexp ens
Ġx r
nt s
Ġimm ature
Ġmess aged
Ġhi ya
ual itas
Ġjo hn
Ġjd nya
Ġjd inya
Ġreply ing
Ġsal ute
br as
br and
Ġcl ub
Ġpeng em
irt y
Ġsem i
Ġcum e
Ġpost er
Ġsur g
Ġmur a
Ġpok oe
Ġap al
Ġpiece meal
wr n
Ġsl mt
Ġsl iding
wor king
Ġdg an
ni ke
Ġma en
pes anan
ye ah
cew akan
Ġprodu kk
kak ak
uuuuuuuu uuuu
Ġmem ber
Ġair y
Ġair pods
Ġpol icy
Ġclos ing
Ġcap ital
Ġkal ii
Ġlin ed
Ġaman nn
Ġloss es
small ness
Ġev ents
Ġkh it
Ġsing ap
Ġdit er
Ġkasi hhhh
Ġsimilar ly
Ġcoll agen
rrrr r
Ġvers ions
Ġbai kkkk
Ġdip eng
Ġcli ps
Ġcontr act
Ġcount ed
Ġcir cuit
Ġwl pun
Ġarm pit
Ġ17 0
Ġselamat t
cur rent
Ġblock s
sc reen
Ġstreng then
Ġmad am
paket annya
str ing
kx kx
Ġstep s
Ġmean ing
Ġmac am
Ġjaz akallah
Ġsit es
Ġmid night
Ġcapt ion
Ġcapt ure
Ġske wed
Ġdecei ved
lik ed
bot tle
mis placed
Ġeffic acious
tran smission
Ġtar o
Ġpw d
Ġjel as
Ġindivid ually
wel come
bng t
Ġexception al
Ġjazak illah
tot ally
Ġcosm etic
Ġmush room
Ġuw u
pengirim anya
Ġhosp ital
Ġveget ables
gem es
Ġsatis ied
Ġchg aaaaaaaa
Ġventil ation
assalam ualaikum
Ġenhance ment
Ġcompon ents
Ġparticip ate
Ġcardig an
Ġspider man
Ġkons umen
Ġflatten ed
Ġhea ven
Ġngat ung
Ġreaso able
Ġrefresh ing
Ġexter ior
Ġirrepar ably
stuvw xyz
9 8
c ush
d ga
f ly
f resh
h ag
i ret
k j
k rang
l eng
n el
o ber
p ie
s um
s cent
t ions
w jw
Ġ ze
Ġs ap
Ġt or
Ġt ah
Ġt angg
in n
in appropriate
Ġth ro
it ass
it ung
Ġg all
Ġg olf
Ġb am
Ġb ert
Ġb ikin
Ġb ila
re cent
Ġc ba
Ġc rib
Ġm art
on ed
Ġn ang
Ġn ii
at in
or ial
Ġh anya
Ġh bis
Ġl av
ell i
ell ing
Ġqu iz
Ġto h
Ġan ten
Ġe ager
Ġsh ed
Ġsh ake
ot ics
Ġk ai
Ġy aaaaaaaaaaaaaaaa
ag at
Ġin no
Ġst un
Ġst ove
ank s
Ġfa d
Ġsm oo
Ġsm og
Ġor ng
Ġthank z
Ġv irt
sp here
Ġj h
et ti
Ġon to
and y
ap an
ah abat
Ġrespon ya
Ġch ill
Ġch ic
Ġr b
ant ages
id id
so ck
Ġas dg
Ġdis e
Ġsa i
pt o
Ġche ater
ee h
est rated
aut erine
ca w
ca pe
Ġpo ke
sh dh
ab ub
ng a
act ual
Ġsk a
Ġen clo
Ġsp acious
Ġcust emer
Ġx pe
Ġwhat s
si zing
Ġlah hh
ja w
Ġmo hon
Ġcor ners
au ai
not e
okok o
br own
Ġsis ters
js b
Ġcl ut
Ġcl ue
Ġhu ft
up in
Ġsecond ary
Ġoke eeeeeeee
de cent
co st
bu ble
bb x
Ġcum n
Ġtrim ak
ari o
Ġmk n
Ġprom os
gr inning
Ġsever ely
ns nns
Ġhar sh
Ġsol o
Ġform s
ub ah
Ġro bot
Ġho ly
Ġmantap mantap
Ġclean sing
Ġyah hh
Ġdep ends
Ġflo at
Ġang uished
Ġdet ect
Ġdist ur
ww w
jsjs jsj
Ġpokok x
Ġfavor ites
Ġlum aya
Ġkal inya
ib atun
Ġsampe ee
Ġmal owbat
some thing
Ġextra ordinary
Ġsam sek
Ġgar lic
gggg g
Ġev idence
Ġtip u
Ġcart ridge
Ġpot ato
Ġill ust
Ġbangeet tt
Ġappe al
Ġlock down
rb an
Ġcount less
shs j
Ġbro c
Ġgasket s
barang x
Ġstri ct
Ġlabel ed
Ġmng ecewakan
Ġintr auterine
Ġrec comend
fl ash
Ġvide os
Ġdim ens
Ġbreath ing
fh fh
baguus s
Ġelect ions
Ġnad in
Ġmh n
vd vd
Ġsak to
Ġlear ned
Ġgand o
Ġpresent able
mon ious
Ġterny at
qq qq
ifi able
Ġhay s
Ġpear ls
Ġtick s
rekom end
abl ished
Ġsurv iv
cas enya
Ġblur red
Ġsetting s
Ġoct ober
Ġmang o
Ġultim ately
bng et
Ġinflu enced
Ġuns ightly
Ġbatre nya
mot if
Ġmanufactur ers
Ġorth otics
Ġhdf jgdfjdg
Ġmush y
skirt s
Ġpngirim n
Ġdeter min
lap is
Ġque ue
Ġlumay ann
Ġhide ous
Ġsmok ers
Ġorch estrated
Ġmonit or
Ġrad io
mes en
Ġjau h
Ġallerg ic
Ġlipt int
toy ibatun
Ġeleph ant
Ġshredd ed
Ġconvention al
cdefghijklmnopqr stuvwxyz
Ġcate g
712 9
dra wn
Ġkhas anah
7 5
a ay
b im
b ya
b ee
d ont
d bd
e ck
g c
g orgeous
i ap
j ak
j ng
l amp
p ur
p ngiriman
r ound
r ock
s am
s ana
t an
t as
t ul
u riman
v o
v ous
y er
y rs
Ġs f
Ġs aran
Ġs bnrnya
Ġt us
Ġt ng
Ġt gn
Ġt gl
Ġt mbah
Ġa ka
Ġp t
Ġp nt
Ġp jg
Ġth ich
Ġth oi
Ġth rew
it t
it ip
Ġg ong
Ġg ada
Ġb order
re view
Ġo t
Ġo x
Ġo y
Ġf ot
is a
Ġd jdjd
Ġc it
an ut
Ġgood the
ct or
Ġn amp
Ġn kak
Ġn aikin
Ġh ihih
Ġl en
Ġl aaa
Ġl aser
om s
th o
ar at
ar ik
Ġe xcell
Ġe pid
Ġsell ler
ay o
ch u
ch oose
se moga
gh antaran
Ġthank ssss
ol nya
Ġv ul
Ġv nd
Ġv ary
et tt
Ġch all
ur ate
st able
Ġr asa
ir ing
ya allah
Ġlo s
Ġlo ading
ang k
all l
Ġha i
Ġun believably
Ġun available
Ġsi ppp
Ġse gtu
com fy
Ġex pektasi
ard s
Ġde ck
Ġde hhhh
Ġde emed
Ġbl end
Ġsa ver
Ġno va
Ġdi ak
aaaa ah
Ġbo sk
kk u
Ġpro ceed
Ġat mo
ab ove
Ġpl ated
Ġsk s
Ġhand led
Ġred undant
Ġrep on
ass igned
Ġgr own
Ġen ergy
ny ata
Ġle gging
pack s
dul ent
Ġtw itter
Ġcool ing
ert y
nn z
ac c
Ġte ball
Ġsc ore
au dulent
nd j
Ġsal mon
order an
br is
Ġbar ter
Ġtri ang
Ġcl imb
Ġng abarin
Ġconf using
Ġmas a
shop s
Ġz en
Ġprov ision
co z
Ġtight ening
Ġlast s
Ġgpp a
Ġhal uss
Ġla id
Ġhar us
Ġcre m
Ġthr own
Ġpas ang
Ġform ed
Ġrem ained
Ġlater al
Ġbs r
Ġq r
55 0
ba ca
Ġpat ah
Ġsl it
Ġcour tes
Ġbel anja
jj j
Ġhead band
Ġnh an
Ġins urance
Ġdik rm
Ġent rance
Ġclean ly
te xture
Ġdep os
Ġba iik
Ġdri ft
unt usan
Ġcrack ers
Ġflo ating
Ġsw eetheart
Ġprin ter
iiiiiiii ii
Ġes p
Ġclose t
Ġtell ing
Ġhat ur
Ġdec l
Ġkal eng
ib ir
Ġshow ed
Ġspr t
Ġgar ter
Ġner d
Ġner vous
Ġhur ts
Ġpan ic
Ġpak aging
Ġbanyak kk
cl oud
Ġ18 0
Ġabsor ption
Ġmg anda
hhe hehe
fabric s
did n
Ġnotice able
Ġreli ability
ili ver
Ġearr ing
ndnd ndnd
Ġterimakasi hhh
hat iin
Ġdiss appoint
Ġdiss onant
Ġprefer ably
Ġappl icable
Ġlaa ah
Ġnyampek nya
Ġkain x
Ġmanufact ure
Ġterbai kkkk
alhamdul ilah
Ġcand le
Ġconcer ns
Ġshare s
Ġorgan ization
Ġstrength ened
Ġtur ning
bell ine
Ġactiv ated
ho le
Ġoper ators
Ġconcent ration
Ġongk ir
Ġcond it
Ġden im
Ġwip ed
rrrrrrrr rrrrrrrr
Ġbud dha
Ġtn pa
Ġtok ony
Ġflu ent
Ġpend ant
Ġdp ke
lack ing
Ġknit ting
Ġcloud s
Ġsepat unya
produ kk
Ġswim ming
pu ass
Ġprim ary
Ġspo iled
Ġlebih in
Ġaqu a
Ġexam ined
Ġmagn ets
Ġcuk up
Ġdiskon an
Ġwlau pun
Ġtechn ical
Ġward ah
Ġexcl us
Ġdelet ed
wash ing
Ġbatr ai
Ġrecharge able
Ġpertahank an
Ġaccommod ate
Ġquar ter
Ġuulit in
45678 90
batter y
Ġnipp le
Ġdecis ive
Ġcollaps ed
Ġscrewdri ver
Ġlaz ada
Ġspee ch
Ġanten na
Ġepid emic
Ġatmo sphere
Ġcourtes y
3 2
3 6
b eli
b ear
b arg
c ot
c up
d ig
d uk
e es
f okan
h ome
i que
j em
k ind
l k
l ings
l my
m ended
o at
o ad
o ci
o ath
p w
r us
s ampe
u ci
v bn
w ire
x d
x p
x kh
y ellow
Ġs by
Ġs ided
Ġs belum
Ġt di
Ġt ends
Ġa jj
Ġp ee
Ġp up
Ġp ony
Ġg h
Ġg ala
Ġg ores
Ġg nti
Ġb k
Ġb ord
Ġo order
Ġo pens
Ġo iya
Ġd ough
Ġd ug
Ġd uty
Ġc ing
Ġc ong
Ġc int
an anya
Ġn n
Ġn ick
at ahi
Ġl ai
Ġl arg
Ġre submit
th ird
il ty
Ġan imal
ut t
ut in
ut ions
us a
us us
ri ved
ri age
Ġi ve
Ġk q
Ġk or
Ġk aw
Ġk agak
Ġy er
ast ernya
ay os
Ġu uu
ch nge
gh nt
Ġor ginal
ad iin
Ġthank ful
ke ith
Ġsu cking
Ġj alan
Ġj ngn
Ġli ver
ap ack
im ah
Ġrespon e
Ġok okokokok
Ġok kkk
Ġok elah
Ġch ap
ok es
ur se
st ive
st ik
ful ness
ss h
ant an
Ġlo vers
Ġnice very
pr ot
pr os
bs ks
Ġwas nt
Ġex e
Ġoriginal s
Ġbl es
Ġbl az
Ġsa us
Ġme ant
Ġcan ned
Ġbo gor
Ġmu da
ii ih
Ġar ro
Ġco il
Ġpo ison
Ġpro s
ab a
Ġpl ush
ven ient
Ġam iin
Ġam by
eng an
Ġny et
Ġfe es
ens urate
Ġri ject
out standing
Ġexp lod
Ġsy antik
Ġtw in
Ġdr o
Ġfl annel
ind eed
wh wh
Ġke pak
Ġke berapa
Ġaff ected
ish able
Ġsc atter
Ġsal am
Ġsal ted
Ġbar code
jd n
Ġlu ar
Ġng anter
Ġpeng iri
Ġsuk ab
Ġni ya
Ġcould n
Ġsel am
Ġz oom
sm sm
Ġrest ore
Ġfar m
Ġprocess es
Ġhelp ing
Ġhar ini
Ġbs ar
Ġpat h
Ġfew er
Ġmask er
Ġber lapis
llll ll
Ġflash light
Ġro y
Ġro yal
Ġtap iii
Ġnge j
Ġnge fek
Ġses ui
Ġrel ation
Ġside wal
Ġaw al
ph p
Ġprodu ck
Ġhold s
Ġdep end
pppppppp pp
Ġflo ors
Ġunderstand ing
Ġmis under
Ġinstall ing
Ġamaz ed
con f
Ġpad d
iiiiiiii iii
Ġnat ive
Ġul tr
Ġob lique
bg d
Ġexped isinya
sk in
Ġspill s
Ġwi per
Ġbany aak
Ġfact ors
Ġround s
Ġbusiness es
Ġdk asih
Ġdit ing
Ġpattern ed
Ġstay s
Ġrapi hhh
Ġfore foot
Ġket ek
Ġwaist band
Ġkasih terima
terim aksih
Ġpillow case
Ġpillow cases
Ġpin ch
shs bs
Ġmb ak
Ġest ablished
Ġstri pe
ilang in
Ġdng an
Ġlangganan n
Ġpel ayan
Ġtrack s
Ġart if
ahahahah ah
Ġgat el
Ġcoin c
Ġwall paper
fair ly
Ġwrink le
Ġpartic les
Ġmoder n
Ġvisit ors
Ġck p
Ġregard s
Ġeyebrow s
Ġestim ation
Ġpokokny aaa
Ġkere en
Ġali ke
Ġocc ur
Ġkin der
Ġtrm ksih
Ġfashion able
war na
Ġdrug s
Ġdike mbali
Ġcry stal
Ġsort ing
Ġcha otic
Ġpagkak abalot
dateng nya
card board
Ġgoo gle
Ġach ie
emp ol
Ġhousehold s
Ġswim suit
Ġpron ation
Ġspo il
Ġunus able
vvvvvvvv vvvvvvvv
Ġtm pt
Ġrese arch
Ġhosp it
Ġtechn ology
Ġbnt ang
Ġembarrass ed
Ġdul u
Ġsuffer ing
Ġliter ally
Ġhung ry
stitch es
Ġgard en
Ġbubbl enya
Ġaes thetic
auth entic
Ġheadach e
Ġ099 7129
perh aps
Ġsett led
Ġmotorcy cle
Ġsemp urn
Ġmarin ade
Ġrefin ed
Ġpurpos es
Ġtomb stone
Ġdishope e
abub ble
Ġkhasanah toyibatun
Ġchall eng
b ung
b ie
c jc
d on
f ied
g en
h ot
h ahah
i us
j ection
k ad
k ai
k ann
l iness
m c
n ar
n one
n ua
p are
s ur
s un
u per
u anya
Ġs ce
Ġs aa
Ġs dg
Ġt ab
Ġt su
Ġt ons
Ġt mn
Ġp ine
Ġp imp
Ġp oured
Ġth u
el ine
Ġg al
Ġg inger
Ġb out
Ġb ound
Ġb au
Ġb aret
Ġf h
Ġf ren
Ġd ow
Ġd ens
Ġd ating
Ġd ud
Ġd ash
Ġd ots
Ġc in
Ġgood good
Ġpr nah
Ġpr ngiriman
ing ly
Ġm io
Ġn m
Ġn r
at u
Ġh ok
Ġh unt
Ġh inh
Ġl atter
Ġqu een
om ed
Ġre set
Ġre verse
Ġto re
Ġto ll
Ġto ptop
Ġan nd
Ġe g
ut up
Ġk kk
Ġy aaaaaaaa
Ġy uh
Ġy aaaaaaa
Ġin n
Ġin door
Ġal o
Ġsm lm
am es
Ġfor k
Ġpack ng
gh jk
Ġor y
Ġsho pp
ol or
Ġv ill
Ġv ain
Ġj k
et ive
et ers
et ies
im pen
Ġrespon s
st ay
ant e
id i
Ġserv ces
all hamdulillah
Ġas ia
Ġhear ing
Ġcon vers
Ġun ison
Ġori i
Ġtr jangkau
Ġmat ur
Ġfr audulent
Ġbl ades
Ġbl oom
cei ve
Ġsa ke
Ġno zzle
Ġbr apa
Ġlong est
Ġdi a
Ġdi refund
per f
aaaa h
aaaa an
Ġme als
Ġhe h
ca i
sh oddy
Ġpro ved
Ġbg ttttt
Ġlit ter
Ġat c
Ġpl ng
Ġpl ague
Ġout ward
Ġout going
Ġover flow
dh l
Ġhand les
Ġny ah
Ġ5 7
Ġsuper ior
Ġen akk
ny e
ge ge
Ġbang get
Ġter jangka
Ġter rific
Ġmay belline
Ġwho se
gg y
Ġph arm
Ġsy m
Ġsy ant
Ġtw isted
ci bed
Ġsupp lies
we ve
Ġmo ca
Ġevery hing
Ġoff season
ip s
Ġint ense
Ġinst ructed
bo leh
Ġtri ple
ik u
aaa an
js k
js jj
Ġng t
if th
if ying
Ġres olve
Ġlet s
Ġgu itar
Ġgu ilty
Ġmon o
Ġmas ih
Ġmas uk
ro ach
Ġshe af
Ġpart ially
Ġkr udung
Ġsem arang
Ġpost man
oke h
Ġel der
Ġprom ises
Ġmak lum
Ġgpp lah
Ġhr p
Ġhal al
Ġ8 9
pre vious
Ġman lang
Ġhar ha
Ġcre ased
Ġfair y
Ġfoot print
Ġty m
ex ception
ba ju
Ġbre wing
Ġlang gann
Ġber man
Ġber patutan
Ġstitch ed
Ġak ut
jj h
bar ng
aaaaaaaaaaaaaaaa aa
Ġtext ed
Ġtext ing
Ġpar ang
stand ar
Ġsty ling
Ġdik ard
Ġdik irain
Ġker i
jo ss
Ġbreak fast
Ġbgus s
Ġent ertain
Ġent iret
Ġmantap s
Ġvari eties
Ġky anya
Ġver ifiable
iiiiiiii i
og og
Ġtet eh
ru it
Ġsen stive
bal o
Ġkal a
Ġour selves
thin ner
Ġflow ing
Ġoil s
Ġram aah
Ġtip s
Ġfur ing
Ġdit o
Ġexpedition s
uas kan
Ġ201 5
Ġbai j
Ġclass ified
Ġfore cast
Ġinf l
Ġcook ies
Ġdlm nya
kkkkkkkkkkkkkkkk kkkkkkkk
Ġkek nya
Ġvol tage
Ġperform ed
amb ahin
bz bz
Ġama an
Ġlaa hh
okokokokokokokok okokokokokokokok
Ġpract ically
Ġrec laim
Ġrot ate
Ġbegin ner
Ġbegin ners
Ġallow ance
Ġtengky uu
Ġsus pect
Ġdil ute
Ġinsya alloh
Ġnare cieve
Ġkit a
Ġtid k
Ġenc aps
Ġmakasii ih
Ġtre asure
Ġfrequ ency
Ġblank ets
kf kf
Ġkud u
Ġmam ah
Ġmac ar
Ġplan ning
Ġwo ven
ayay ayay
Ġut k
Ġmab ait
Ġkon fir
Ġdike mas
Ġexer c
run ning
Ġcompens ate
Ġjw ab
Ġtooth brush
awe ed
Ġagre ement
dddddddddddddddddddddddddddddddd dddddddddddddddddddddddddddddddd
charg ing
Ġbarok allah
mantapmantap mantapmantap
Ġtrain er
Ġmistaken ly
Ġkeli atannya
prod ak
Ġjazak umullah
Ġdistribut ion
Ġgit uu
Ġchew y
Ġpedes nya
Ġbaa ik
Ġsump ah
Ġreflect ive
Ġconcl usion
Ġsubscrption s
Ġgreet ing
Ġgreet ings
Ġpropos al
Ġcareless ly
Ġhah aa
function ing
Ġdol ls
Ġclar ity
Ġprt ma
Ġarrang ement
Ġdiin fo
Ġintern ational
sen eng
honest ly
Ġyasudah lah
Ġaug ust
Ġkos ong
Ġdisconn ected
Ġarr ange
sol id
Ġobs er
prof essional
kere en
Ġnostalg ic
Ġdick ite
Ġforgiven ess
Ġchoo sing
Ġpacif ier
diff icult
rub ber
adis appoint
appro batory
Ġsingap ore
Ġwhats app
jaw ab
Ġsaus age
Ġarro gant
Ġentiret y
3 7
4 7
a der
b or
b ly
c asing
e at
f c
f ig
h f
h ri
h ah
h rg
i q
i is
i as
i veness
k uu
l ot
m ac
m aka
n sh
o bat
r k
r ings
s ir
s ure
s ales
t or
t ap
t oday
t ipis
u o
u at
u arin
v b
w at
x bx
y d
y uhu
z n
z s
Ġs jsj
Ġt es
Ġt ens
Ġt gg
Ġt tg
Ġp y
Ġp it
Ġth k
it ten
el nya
Ġg or
Ġg ul
Ġg ok
Ġg ate
Ġb ater
Ġb kan
re et
Ġo un
Ġf ont
Ġf yi
Ġf ifth
Ġd x
Ġd ak
Ġd pake
Ġc ad
Ġc ug
Ġc inch
Ġw ired
Ġw kwkkw
an cy
Ġgood job
Ġm p
Ġm end
en jo
Ġn ay
Ġn ong
Ġn he
Ġh et
Ġh ny
Ġh its
Ġh ahh
Ġh ills
ell ent
Ġis a
ar ched
ou ter
Ġe to
Ġsh aking
ri ch
Ġk up
Ġk uk
Ġy og
ag ues
Ġst ith
Ġal thugh
Ġsm pet
am ent
se am
Ġthank sss
ke ce
Ġsu ke
Ġj ord
Ġj ake
Ġli ar
Ġne h
Ġch ann
st e
Ġso cial
Ġr c
Ġr ata
ant ar
tt e
Ġserv ce
ang a
Ġup hol
all ow
Ġas hes
Ġun lucky
Ġsi ght
Ġse blum
Ġse aweed
Ġbuy s
Ġac id
Ġtr av
Ġfr ay
Ġbl k
ter angan
Ġsa j
ial s
ee ks
est ic
Ġokay y
Ġbo o
Ġmu ant
Ġat s
op un
Ġga is
Ġce aaaaa
Ġstore front
Ġpi e
Ġam id
Ġam een
Ġcomp lex
Ġny mp
Ġ5 4
Ġgr atis
Ġgr oss
Ġdes cri
Ġexpect tions
pack ging
any ak
any ain
any aaa
Ġcust mers
su d
Ġtw ist
ment ation
Ġsoft en
Ġsoft ness
Ġfl ood
Ġcool er
Ġdid alem
Ġgo sh
Ġcr ay
Ġsal em
Ġpe giriman
Ġpe anut
pen ed
pen jual
pat an
Ġlu ama
Ġtast eless
up on
Ġmin es
Ġinc identally
Ġsamp ain
Ġem ail
Ġshe ath
Ġkr ng
co ba
Ġsem iga
Ġwal ang
Ġear ned
pl enty
Ġcomm ensurate
Ġmak er
Ġmak ass
Ġmak apal
Ġ8 8
bed a
Ġman ipis
Ġla j
wr itten
ner able
bd nd
bd jd
Ġtak pe
ict uran
Ġber fungsi
Ġak n
ni er
Ġass isted
Ġro asted
nnnn nnn
Ġaccept ability
Ġdeal ing
Ġpar ahh
Ġses ame
Ġcorrect ed
ps en
Ġsqu e
Ġsek ale
Ġsil ence
Ġtexture d
Ġsli pped
Ġflo ss
tttttttt t
Ġed ition
con n
Ġnag ih
mantul mantul
Ġkay o
Ġpk i
Ġhol low
ra ud
bal anced
Ġye y
Ġproduk nyaa
Ġpain ted
Ġkual iatas
eeeeeeee ee
Ġspr ung
Ġpast i
Ġfact or
Ġdk sh
Ġperiod s
stick s
Ġposs ibility
Ġposs ibly
dam age
Ġfigure s
Ġdip ke
Ġorigin a
Ġaccom od
Ġlab or
Ġbeh alf
clo ck
Ġcho co
Ġdanger ous
Ġpin adala
Ġmn urut
Ġconst ructed
kin ese
Ġrandom ly
peng emas
Ġmic roph
Ġled s
Ġtel eph
Ġmaa ci
Ġlamp s
Ġspecif ically
Ġexha ust
Ġpel anggan
Ġbol ts
Ġdtng nya
Ġcross fit
Ġsampa iiii
Ġmultip ly
jdj jd
Ġpenjual nya
Ġdoll ars
Ġmad eliver
Ġmh on
Ġdig un
Ġluc uuuu
alhm dulilah
Ġmnt ap
Ġalhamdul lilah
Ġorgan ic
Ġjs jsjs
Ġbagusssss ss
Ġeyel ash
Ġvac ation
Ġbetul lll
Ġkere ee
Ġcostumer ku
ox ox
Ġexceed s
Ġkot or
Ġdeser ves
77 77
Ġcep aaat
Ġeffic acy
Ġcer am
Ġnood le
Ġfract ures
Ġsport y
88 88
Ġjual an
sim ple
Ġstamp s
Ġbarng nya
Ġtut orial
dou ble
Ġkhim arnya
Ġjan uary
Ġgim ana
Ġinflu ence
Ġaltern ative
Ġprec isely
wwwwwwww wwwwwwww
Ġmut ed
ttq tq
gas ket
Ġast on
Ġokokok ok
Ġameric a
Ġluam ayan
Ġdij adiin
Ġpret end
Ġcock roach
Ġnest le
Ġcrit ic
Ġtuck er
Ġveh icle
Ġhyd rofo
aneous ly
gun s
Ġrespos ive
Ġtempl ate
Ġcounsel ing
Ġfest ival
arom atic
Ġhous ing
Ġjour ney
Ġcomple ment
trans fer
mist aken
Ġcommer cial
Ġtack y
Ġtig er
Ġvul nerable
Ġpimp les
exception al
Ġhydrofo il
a verage
b ility
b angeet
c ated
c led
c aya
d ent
d uh
d irty
f ruit
j ait
j dhd
l ol
m am
n ant
n atur
n umber
p ang
p okok
p apa
q n
r ice
s at
s weet
t ow
t orn
v ity
v ari
v ouch
w d
w ent
w aited
x kx
y ears
z j
z es
Ġs ession
Ġt kt
Ġa i
Ġp ond
Ġp giriman
el in
el ds
Ġg om
Ġg ut
Ġg aming
Ġg bu
al y
Ġb id
Ġb ush
Ġb ull
Ġb pom
re sp
re comend
Ġo em
Ġo ren
Ġf ert
Ġf uss
Ġd ice
Ġd dd
Ġd ye
Ġc n
Ġc ure
Ġc aution
Ġw lo
Ġw aw
Ġm d
Ġn kk
Ġn sa
Ġn lng
as al
Ġl bc
Ġqu it
Ġre q
Ġre ss
Ġre ze
Ġre cording
Ġre checked
Ġe th
Ġe ast
ut i
ri an
Ġi k
Ġk ang
Ġk ip
Ġk ona
Ġu ppers
Ġspe ct
Ġspe ci
gh h
ad ah
Ġthank y
Ġthank yu
Ġsu p
Ġorder r
Ġj n
Ġj ngan
Ġshi eld
im ar
Ġval ve
Ġok ok
Ġok okokokokokok
Ġch alk
ur o
Ġso p
Ġso pee
un ction
Ġr er
Ġr is
Ġr aise
ant u
Ġbu k
Ġbu zz
Ġtim ber
Ġun d
Ġun stable
Ġsi a
Ġac quis
Ġdis mant
Ġdis har
Ġde bris
ick ing
Ġwr ab
lo g
Ġpacking x
Ġco hab
sh ot
Ġkg ede
Ġthere in
Ġbg i
Ġga ess
ab out
Ġbag ua
ai an
Ġpl ump
ng k
Ġout do
Ġam pun
Ġfe at
he althy
Ġper man
Ġper ishable
Ġkak kk
Ġgr o
Ġgr ades
Ġgr anted
su fficient
Ġsy ukk
Ġab ility
Ġx per
Ġx da
Ġx boleh
dd n
nt a
Ġslow s
os ity
Ġfl ick
Ġple asure
ka u
Ġcr ummy
Ġsay aa
br u
Ġchat ting
Ġbar ag
Ġgl ance
Ġcl ing
Ġng u
Ġng ad
Ġng isi
Ġpeng en
Ġpeng rim
ock s
Ġconf etti
uk ak
uk nya
Ġem boss
bu at
Ġwal o
bb ing
sm pe
Ġtrim med
Ġunder t
Ġimp oss
Ġrest ri
ug s
Ġka eo
Ġ7 9
Ġcomm only
dddd d
Ġpen ju
uh a
Ġ8 00
Ġna ideliver
Ġinter ior
wr na
Ġsim ult
Ġsol utions
Ġcre ases
Ġ12 8
Ġthr illed
Ġpas mina
Ġtem an
Ġrap iiii
tq vm
Ġlow bat
Ġsl ice
Ġmakasi hhhh
Ġlang sung
Ġlag iiii
Ġber et
Ġglass ware
Ġmantul lll
Ġak an
Ġscr ubs
Ġlng sng
Ġass oci
val vular
Ġgun a
Ġpake in
baik in
dk dkd
hope ully
uuuuuuuu uu
Ġdep th
Ġdep ressed
Ġmag enta
Ġnar r
Ġscratch ing
kg kg
unt ested
ana an
Ġsw ing
Ġsw atch
tttttttt ttttt
Ġdet ached
Ġdist in
Ġhuh uhuh
ky uu
Ġpol ka
Ġtell s
Ġ202 3
Ġer r
Ġrelat ives
Ġbh anya
sa ve
Ġju jur
Ġheal ing
Ġkh ay
Ġsch eme
Ġdit oko
Ġdit rima
Ġenjo ying
Ġmed jo
Ġbul let
Ġta jem
direct ly
Ġtl ng
hhhhhhhhhhhhhhhh hhhhhhhh
ui op
rep urchase
Ġ99 0
Ġmateial s
thankyou u
Ġseg el
Ġkas iih
Ġmeng e
Ġdib ibir
cul ation
Ġ60 8
lum aya
Ġdistance s
Ġgirl friend
Ġdic as
Ġwall s
Ġ09 550
Ġappear ances
Ġdisin iii
anj ut
alhamdul lilah
Ġmi ke
Ġey eli
alhm dllh
Ġhehehehe he
Ġalhamdul illaah
Ġterus ss
Ġnga juin
Ġheheh ee
Ġken e
Ġoper ation
Ġrat io
mur mer
Ġkirim nya
Ġvel cro
Ġrecord ed
Ġmount ain
Ġterimakas iii
Ġbaj uny
Ġglo bal
Ġtang led
Ġsudah h
Ġked ua
Ġkec wa
Ġmab ilis
nfnf nfnf
run s
Ġtut up
Ġfly ing
Ġngeb ass
Ġbaguuus ss
Ġirr itation
Ġsoo thing
Ġukur anya
Ġukur annya
Ġdico ba
Ġshift s
ffff ffff
xxxxxxxx xxxxxxxx
Ġras anya
Ġthnk you
Ġts ka
Ġpuzz led
mnt ap
Ġcosm etics
Ġeli minate
smell s
Ġhighlight er
Ġrese arched
Ġsooooo oo
Ġrelax ing
Ġameric an
Ġembarrass ing
Ġamb ilis
Ġmsk ipun
Ġberkual iti
3333 3333
Ġkhair an
teng kyu
Ġcra ft
return ed
condition s
Ġgust o
Ġbran ch
disc repant
dur able
alag ay
mod el
Ġmov ie
Ġindent ation
Ġconce aler
Ġpunct ual
Ġiv ory
wonder ful
Ġelement ary
Ġholo gram
Ġchine ck
Ġsurg ery
Ġstun ning
caw akan
Ġbroc ade
Ġdimens ions
Ġtus pin
Ġditing kat
Ġdikembali in
perf ume
Ġchann els
Ġteleph one
Ġacquis ition
Ġdishar monious
Ġcohab ited
Ġoutdo ors
Ġ09550 76
5 6
c x
c ers
c ra
d v
d ong
f ers
f raud
h ill
h aha
h ib
h aving
j ne
j ik
j ama
k urang
l as
m ine
m ba
n v
p ant
p ng
r ot
r ack
s ai
t b
t om
t ail
t ested
w ag
w eek
x oy
y ong
z k
z ens
Ġs uture
Ġt anya
Ġt ali
Ġt inted
er rr
Ġp aa
Ġp pa
Ġp ores
in ations
in correct
el ets
Ġg aling
al ers
Ġb ast
Ġb able
Ġb ib
Ġb aka
Ġb ungkusan
Ġo uch
Ġd aa
Ġd up
Ġd coba
an ak
Ġgood very
Ġgood delivery
Ġgood ness
Ġpr ng
Ġm ort
Ġm ig
Ġm sa
en th
Ġn aa
Ġn antap
Ġn ational
or k
Ġh b
Ġh in
Ġh okey
Ġl ak
Ġl ashes
om ons
Ġre all
th ree
ar ind
Ġan o
Ġdeli ght
us ai
le aking
Ġi kh
Ġi kl
Ġk aaaa
Ġk edi
Ġk ond
Ġk iriman
Ġk ulit
Ġsm penya
ch arger
ul illah
am nya
xc vbn
Ġv id
Ġv ine
Ġv otes
sp end
Ġj r
Ġj us
Ġj bl
ill h
ak t
ain nya
Ġyou uuuuuuuuuuuuuuuu
im annya
ah am
Ġne k
Ġne ither
st urdy
Ġr s
Ġr ash
Ġr az
Ġr aces
Ġr oof
Ġr adi
ir o
Ġser ial
Ġlo hh
pr on
pr ly
bs j
bs us
all alal
Ġheart ed
Ġse auai
ic a
Ġex it
Ġtr l
Ġbl ast
Ġsa bah
pt ical
Ġno i
app le
Ġbr ittle
Ġlong gar
per ti
Ġcan cer
Ġmu g
Ġmu dh
ii vity
Ġco ach
sh od
Ġmuch thank
Ġbg ian
Ġhere in
Ġga bak
Ġga jelas
ig ious
Ġpl g
ih an
dh s
Ġthan you
Ġny sel
Ġfe ather
Ġquick er
Ġ5 3
ine xp
ous y
Ġrep a
Ġbit s
Ġcont rived
Ġkak i
Ġgr ace
Ġgr inding
Ġpur su
Ġri pened
Ġsp an
let ingnya
any an
Ġph u
Ġab dom
Ġkn apa
Ġmant u
ud i
si pp
si hh
Ġdr ama
Ġdr inks
Ġfl ush
Ġcare ully
Ġke baca
ink le
Ġdam aging
ert i
ja z
Ġtran port
Ġgo at
av ings
Ġstr ob
Ġmo ss
Ġjo ke
ie f
Ġsc al
Ġevery body
nd ing
nd nnd
Ġoff ense
Ġsal omons
Ġpe jual
Ġneed les
Ġbar an
Ġbar anh
Ġput s
js jd
Ġres ent
Ġ6 1
but ton
mant uul
Ġinc ome
uk ur
co ok
Ġtransport ing
sm s
Ġcover age
Ġsub tract
Ġmk as
Ġsur plus
Ġpu aa
Ġpu aaaas
gr ams
pro per
Ġcloth s
Ġstock ed
Ġform ula
Ġdress nya
Ġdapet in
Ġber p
Ġmantul llll
Ġsmp a
jj x
Ġass ure
shi eld
Ġnge cil
bh n
col our
Ġsqu ashed
ye ye
Ġinform ing
Ġleak s
jo jo
Ġplay er
Ġcomfort abl
Ġca uses
Ġmag reply
Ġsli pper
Ġbrother s
pict ures
Ġba ek
Ġdri p
Ġenthusiastic ally
spe cial
Ġlam aaaaa
Ġlam aaaaaa
Ġair pay
Ġfood s
brg nya
tim ely
Ġcur ly
Ġdec ide
Ġterimakasih terimakasih
Ġcant iik
Ġkal im
dy o
Ġdraw string
Ġpress ing
sk d
Ġcommunic ates
real pic
Ġtau ght
Ġremo ving
Ġnak abubble
Ġjug aaa
ko in
deliver ies
Ġbed room
Ġinv ite
Ġforget fulness
Ġord ee
Ġket er
terim akas
Ġbul bs
Ġtouch ing
Ġchar m
cr ition
Ġcal f
Ġfeed er
Ġfeed ing
Ġenter ing
can not
Ġwl upun
Ġrose gold
wear ing
Ġpag i
Ġkem ek
pppppppppppppppp pppppppp
Ġperf umed
Ġcent im
Ġwkwkw kwk
okokokokokokokok o
Ġcollection s
Ġmeasure s
Ġsuks ess
Ġterbai kk
Ġhy per
Ġmantaa ap
nyampe k
shsh shsh
Ġtrou bles
bc bc
Ġwel ding
Ġtipis ss
Ġdeng ann
Ġken apa
Ġtail or
Ġoper ator
Ġbbr pa
Ġpengh nt
Ġseamless ly
Ġmam i
does n
Ġtos ka
Ġsket chers
Ġreward ed
Ġintention ally
Ġkel uar
wal itas
Ġbangeeet tt
gress ive
Ġextr act
Ġpatch es
Ġtok onya
Ġgrand mother
Ġpend ek
lumayan lah
Ġemplo yee
sim ilar
Ġbint ng
Ġdrag on
Ġdevelop ed
hal t
Ġjel ek
Ġharap an
Ġprest igious
Ġham mer
Ġrele ased
Ġkhim ar
Ġkeych ains
Ġinvoice s
Ġmajor ity
Ġment ang
Ġwil ted
hmhm hmhm
Ġsblum nya
Ġgant o
Ġaccomp an
Ġsag gy
Ġrelax ed
Ġkre na
Ġdiin fokan
Ġdelet e
Ġafford ed
Ġsoph ee
Ġbangeeee eet
Ġveh icles
Ġexagger ated
Ġencour age
gir l
month s
mil k
Ġdiv ision
Ġaddict ed
Ġswi pe
Ġreserv ation
sii p
ffect ive
Ġdocum ent
Ġcontn ue
Ġsod ara
Ġreass uring
Ġpam pers
Ġdibl s
Ġantic ip
Ġcip ut
Ġrout ine
Ġshuttle cock
glow ing
Ġbigg est
Ġnurs ing
giv ing
Ġasp halt
Ġthro at
Ġenclo sed
Ġexcell ence
Ġdissappoint ed
Ġgala xy
Ġcing krang
Ġlarg est
Ġpadd ling
Ġchalleng e
Ġvill age
Ġreclaim ed
Ġaston ished
Ġspeci fy
Ġsimult aneously
inexp ensive
Ġstrob es
6 6
b ent
b int
c ih
e ks
e ber
f al
g nya
g ud
h arg
h dhd
i ke
i kk
i ation
j as
j kk
k on
l aah
n ce
o es
o ften
p od
p its
p air
q h
s lo
u ish
v iv
w i
w et
w all
w ord
w eeks
x nya
x pect
Ġs ok
Ġs sh
Ġs ci
Ġs js
Ġs lu
Ġs orts
Ġt od
od or
Ġa u
Ġa ce
Ġp ile
Ġth a
Ġth un
it in
it ary
Ġg ang
Ġg ather
Ġg ata
Ġb q
Ġb ust
re ce
Ġo c
Ġo bras
Ġf f
Ġf m
Ġd ile
Ġc aa
Ġc em
Ġc ere
Ġc age
Ġc ai
Ġw is
Ġw ing
Ġw ort
Ġw ound
Ġw kw
ct ory
Ġm x
Ġm ing
Ġm ol
en ough
es ive
es pecially
on al
Ġn p
Ġn ab
Ġn aw
Ġn la
Ġn unggu
Ġn ipis
Ġh un
ar ap
ar ma
il nya
Ġan get
Ġsh am
le ft
ri g
Ġit ch
Ġit ung
Ġi ket
Ġk ha
Ġsell e
Ġsell u
Ġy y
Ġy ee
Ġy oga
ag et
Ġin com
Ġin inform
Ġst if
Ġst ones
Ġnot ch
Ġbe c
Ġbe ars
Ġal kal
Ġal arm
Ġfa u
ul nya
Ġspe cs
se ct
Ġpack ged
Ġthank sssss
Ġsho pper
ke c
ke m
ke mas
Ġfast ing
Ġfast respon
Ġv n
Ġj t
Ġj angan
Ġli at
ill es
and s
ear rings
ak it
ain is
Ġyou th
Ġok y
ok kkkk
ur u
un favorable
Ġr n
Ġr ac
Ġr mo
Ġr ushed
Ġr opes
ss uai
Ġser ge
Ġbu ff
Ġbu kan
Ġbu ffer
bs k
yes al
Ġas pect
Ġha bis
Ġun cle
Ġun har
Ġse har
ic o
Ġmy stery
Ġtr baik
Ġtr llu
Ġdo ck
Ġdo ble
Ġmoney fast
Ġdis g
Ġdis gu
ld l
Ġmat er
Ġcolor ing
Ġbl ud
Ġbl own
Ġsa bar
Ġbr pa
est r
Ġdi kecil
Ġdi verse
comm unic
ii e
Ġar ab
Ġpre m
ca ve
Ġco pot
Ġpro prly
op i
ig ig
uu ka
Ġad aa
ab ay
ab led
Ġbag i
Ġbag uuuuuu
Ġce pee
Ġout skirts
Ġam ple
Ġsk ull
Ġny aaaa
Ġstar ts
Ġstuff ing
Ġpict re
Ġgr avel
Ġen k
Ġri ps
Ġwhen ever
Ġter ba
Ġpa ced
be ing
Ġexp los
Ġdiff e
su le
Ġab c
Ġx i
Ġx iu
our ite
Ġkn ot
Ġkn ob
Ġafter wards
Ġmant a
Ġmant epp
Ġfl ask
Ġbubble warp
Ġdam a
av ior
Ġcomplet ion
Ġjo bs
ne g
Ġcr own
Ġint ensive
Ġint imately
Ġpesen ya
Ġpe o
Ġpe kinese
bo hong
ik nya
aaa at
js bd
Ġng an
Ġng ant
Ġres olution
Ġcou pl
Ġpeng uriman
Ġ6 9
mant af
ence s
Ġem ina
Ġem erg
co y
co cok
Ġtrim kasih
Ġcepat tttt
Ġ7 00
Ġsur round
Ġman ners
Ġinter chnge
Ġwater y
zz iness
Ġsim pen
Ġbah anya
Ġtem ple
Ġbal ot
Ġamount s
Ġlang g
cm a
Ġmantul llllllllllll
Ġsir a
Ġrol ler
val id
Ġconsider ate
Ġins isted
Ġtap os
Ġker asa
Ġker udung
jo j
Ġmem bers
Ġky nya
Ġnote book
Ġnag us
Ġdet rim
Ġdist ant
Ġhuh uhuhu
Ġver ified
Ġpol es
Ġpol itely
Ġcap sule
Ġdry er
uus s
satisf ying
mer ic
Ġaj ja
cu ous
Ġuk urn
Ġkm arin
Ġkal er
Ġkal inyaa
thin ks
Ġball ot
Ġsangat baik
Ġflow y
Ġbt l
Ġps n
Ġps nan
Ġfil thy
Ġgar nier
Ġbottom s
Ġpast ed
Ġpal ette
ser ious
Ġfur ry
Ġ25 63
Ġpot o
Ġhur ried
Ġnear by
Ġmakas h
Ġstay ing
rrrr rr
Ġjack ets
Ġtable ware
sel ect
Ġcook ie
Ġinv is
Ġket uker
Ġterbaik lah
kd nd
Ġbeh avior
Ġdrop shi
Ġwind s
clo thing
Ġqual ified
dg es
every one
Ġdoubt s
ustri an
Ġtl ga
Ġhundred s
hhe hehehe
barang ny
Ġslee ved
Ġarm pits
Ġlh at
head set
keren n
df ghjk
Ġcup s
Ġkat anya
jw jw
asm ine
Ġcepe tttt
Ġmir rors
angg ung
sc am
Ġbing its
Ġtag s
Ġtd nya
Ġbw ah
Ġdil ap
Ġdoll ar
Ġtreat s
Ġwholes alers
Ġcocok k
Ġbrac elets
Ġade em
however the
Ġwel ded
Ġhs d
akak akak
Ġtur meric
Ġintrodu cing
Ġpla que
Ġconsult ant
Ġsed ih
Ġtin h
Ġchr ome
Ġweigh ed
Ġscam mer
Ġterimakas iih
alal alala
amaz on
Ġshall ow
Ġcomplim ent
Ġtrima asih
Ġbangettttt tt
Ġhood s
Ġalhm dllh
Ġwalau pon
Ġpengemas annya
Ġkul ay
Ġbum per
Ġther es
Ġsof a
Ġpor ridge
pot ong
Ġburn t
Ġrecomm eded
Ġblur ry
Ġsnd ri
Ġbers ihin
Ġakh irnya
Ġwindow s
Ġhan cur
Ġsiii p
Ġbasket ball
rib ly
Ġneighb ors
Ġsong s
gw gw
mf mf
Ġpuzz le
Ġtub es
inc red
Ġmkasi hh
Ġbj unya
Ġwlw pun
cal culated
Ġil ove
Ġalham dlillah
Ġinj ury
kee per
Ġhasil nya
makas ii
Ġstrugg le
Ġcabin et
Ġoccasion ally
Ġaddict ive
pill ow
Ġsach ets
Ġpoly ester
Ġmengecew ak
purch asing
Ġdisadv antage
Ġdiret ur
Ġpst i
Ġbom b
Ġsme ared
Ġfoc used
Ġlad ies
Ġski pper
Ġbubl le
Ġkembali in
Ġstation ery
Ġpngr mn
det ailed
Ġimmed ately
Ġmeatball s
Ġchop sticks
Ġaccompany ing
mel on
cush ion
Ġdise ase
Ġsurviv or
Ġcateg ory
Ġdiak alin
erty uiop
Ġkepak ai
Ġrelation ship
Ġnr awang
vouch er
Ġkgede an
Ġimposs ible
Ġstif ling
Ġalkal ine
Ġserge ant
Ġunhar med
Ġdikecil in
Ġexplos ion
Ġinterchnge able
2 1
3 4
a qua
b aa
c ak
c pet
c ling
c ntik
c antikk
d ating
d ented
e ither
f ame
g il
g art
g row
g lasses
h uhu
i ors
j ack
k v
k el
k rn
l t
l ak
l ab
l agi
m ng
m cm
m eter
s in
s ory
u ge
w ok
w ish
y w
y ay
y ata
Ġs orted
Ġt ers
Ġt our
Ġa id
Ġa aaaa
Ġp orts
in an
Ġth ik
it er
Ġg ue
al th
Ġb wh
Ġb ac
Ġb icy
re inya
Ġf s
Ġf us
Ġf ir
Ġf ung
is is
Ġd ual
Ġd item
Ġd jual
Ġc ult
Ġc ater
Ġw aving
Ġm ka
Ġm ari
Ġm suk
Ġm endar
es y
Ġn ive
Ġn apak
at um
Ġh hh
Ġl v
Ġl ok
Ġl ush
Ġl ousy
Ġqu ilt
Ġre ve
Ġre ng
Ġre cy
ar o
ar ar
eli ght
il ater
Ġan w
Ġan im
Ġe u
Ġe yed
Ġsh apes
ot er
ot os
ri ck
ri dges
Ġi ke
Ġi di
Ġk ri
Ġsell r
Ġsell ee
Ġy ay
Ġy aaaaaaaaa
Ġy estr
ag k
ay s
Ġst em
Ġst elah
Ġst alk
Ġbe e
Ġbe ud
Ġbe ber
Ġbe times
Ġal am
Ġu v
Ġu jan
ul ul
aa pp
aa kk
Ġthank ssssssss
Ġsho cks
ol ished
Ġsu uu
Ġv a
Ġj m
Ġj x
Ġj ag
Ġj asmine
et an
et as
ah s
Ġok ke
st ep
Ġso ale
un opened
Ġr r
Ġr t
ss j
Ġbu ah
Ġha ist
Ġcon ve
Ġag gressive
Ġthanks giving
Ġun r
Ġse qu
Ġdo zens
ld ld
Ġde vi
Ġbl unt
ee et
Ġdi em
Ġdi vid
Ġall owing
Ġall size
per son
Ġbo iling
Ġbo iled
ii in
Ġim ple
Ġtp is
Ġco pper
ase h
sh eet
uu ul
ab e
oo s
oo ves
Ġce aaaaaa
are ceive
Ġsk ip
Ġstu dy
Ġbgt au
Ġcomp ressed
Ġny em
Ġny atu
Ġfe ast
Ġfri dge
Ġred e
Ġnew er
ass ih
Ġcont nts
Ġper vas
Ġgr oc
Ġclo ver
Ġsubs cibed
iss apoint
Ġen ake
Ġri ver
Ġri ck
Ġri dd
ge on
Ġgi e
Ġter min
gg ish
be b
Ġexp anded
Ġexp esive
Ġcust ku
su da
Ġph il
Ġsy e
Ġab t
Ġab iss
os aur
Ġapp ar
Ġapp les
Ġsupp li
wh w
Ġke g
Ġhi ks
Ġhi ja
ert o
nn f
Ġbanget tttttttttttttttt
bag os
Ġtq sm
Ġjo a
Ġsupport ing
own ess
Ġcr ap
great ness
Ġoff ic
Ġfold able
Ġdah hh
Ġlu ong
ik i
Ġcl one
Ġcl adding
if unction
Ġres end
Ġres inya
Ġres eler
Ġsuk aaaaaaaa
Ġsuk aaaaaaaaa
Ġret ain
Ġret ro
Ġcle ver
Ġcle ms
Ġem ph
ro be
Ġdirect ion
tr mksh
Ġsem alem
Ġpost pon
Ġpost card
Ġsub ordin
Ġ7 50
Ġson y
Ġmak ai
Ġpen h
Ġgan un
Ġpu ppy
Ġdt oko
cept ive
wr ote
poor ly
Ġsol ar
Ġsol omon
Ġcost ly
Ġbri ck
Ġfair ness
Ġrap iih
Ġfoot ed
Ġsin cer
ba agus
Ġlag ih
Ġber go
jj r
Ġdh d
Ġdh il
Ġnum b
Ġtu juan
Ġimpro per
kkkkkkkk kkkkkk
Ġpengiriman nyaa
Ġho st
Ġdik rim
Ġaw ait
Ġprev iew
ph otos
Ġent r
Ġsn ee
uuuuuuuu u
Ġnar o
Ġleng k
Ġpng n
Ġver a
Ġver ification
Ġpk o
Ġpol o
Ġbalance s
Ġhusband s
Ġabs ence
Ġpush ed
Ġsukak kkk
Ġku yang
exp ired
Ġpick y
Ġfil ing
Ġju ar
ls ls
Ġ19 9
Ġnak ap
Ġcart ridges
Ġmantapp pppppppp
Ġmantapp ppp
Ġvers atile
Ġcolle agues
Ġord r
Ġwaist line
Ġol ive
Ġpesanan n
trim s
Ġcamer as
Ġimag ination
Ġcu be
sever al
Ġadjust ment
cr azy
by k
uf uf
barang nyaa
Ġseason ing
jh d
Ġtrny t
Ġwallet s
Ġmarkot o
Ġscar ves
dhdh dhd
Ġslip shod
Ġmax i
Ġmemuas kann
hehehehe hehehehe
Ġcent ury
Ġpel angg
Ġsyg nya
Ġfish y
Ġlumayan lah
Ġbir u
Ġadem mm
trimakasih trimakasih
fl ly
Ġrot ation
Ġenjoy able
nsns nsns
Ġtough ened
makasih makasih
Ġzip lock
Ġdil igent
Ġamin n
Ġhy gi
Ġhy dr
Ġbales nya
alam in
Ġaccount ability
uw uw
Ġsak anya
ksks ks
Ġbak alan
Ġcooper ate
ider atum
Ġoper ate
Ġting gal
Ġjaz aak
Ġsed uai
Ġrecord s
Ġtech no
Ġpriv acy
nnd nd
gener ally
Ġcond uct
jr jr
Ġnap icturan
Ġconstr ained
Ġdevel oper
bot ol
Ġpnjual nya
cons um
kks ks
Ġcepa att
Ġkul ang
Ġtick ets
reg ret
Ġsebel ah
llllllllllllllll llllllllllllllll
Ġtam arind
Ġburn ed
Ġbutter fly
Ġbers ahabat
Ġbanan as
Ġcha os
Ġdece ption
Ġmoisturi zer
Ġgoo ood
Ġsablon annya
dll ah
norm ally
Ġbd n
Ġdom in
Ġdom estic
Ġreco very
Ġstall s
accept ed
Ġincorrect ly
Ġexception ally
jaja j
Ġkill er
Ġkej ait
Ġdir ap
Ġteach ing
44 44
sell ing
Ġfaith ful
tot al
Ġconcl uded
Ġeli min
transport ation
Ġnom inal
Ġbutt ocks
Ġselal uu
Ġalloc ation
Ġtingkat in
Ġtat too
Ġpainting s
Ġmong ers
Ġfrees hip
Ġsignificant ly
Ġsukk a
Ġdecre ase
Ġincon venient
luv luv
nyamnyam nyamnyam
Ġlaunch ed
Ġswi ft
Ġkho iron
Ġchil ren
Ġsoak ed
Ġsubscri ber
Ġresid ue
Ġsten cil
Ġpier ced
terimakasi hh
Ġtote bag
Ġadvis able
Ġdefic it
pto pto
Ġclut ch
Ġpnt g
Ġcondit on
Ġbord irannya
conf used
Ġartif icial
Ġkinder gart
Ġfren ch
Ġtgg l
Ġyog urt
Ġmicroph one
Ġkereee en
Ġcritic ism
natur al
xcvbn m
Ġvine gar
Ġngecil in
Ġaccompan ied
Ġslu ggish
Ġgata unya
Ġfau cet
Ġblud geon
Ġsurround ing
Ġdetrim ental
Ġyestr day
Ġpervas ive
Ġgroc ery
Ġridd ance
Ġclems on
2 7
2 00
4 3
5 8
a ft
a ders
b reat
b nt
c our
d ab
d ental
e br
e ye
f ive
f ire
f ix
g ue
h or
h ear
h em
h dh
h nd
i ved
i ka
j ol
j ok
k re
k dkd
l at
l bs
l enya
m ad
m ks
m ind
m au
n ha
o ok
r ali
r aph
s ending
s neak
t x
t dk
u he
u ks
v n
v sh
w b
x b
y h
y n
y r
y t
y uk
Ġ edi
Ġs v
Ġs ah
Ġs jsjs
Ġt c
Ġt ed
Ġt ggu
Ġt gian
er en
od od
Ġa o
Ġa ust
Ġp unya
Ġp unch
Ġp aired
Ġp isan
in side
in ence
in ued
Ġth ou
Ġth ai
it ively
Ġg bs
Ġg oooooooo
al as
Ġb f
Ġb il
Ġb day
Ġb ile
Ġb da
Ġb ella
Ġb inding
Ġo er
Ġo wl
Ġf is
Ġd bd
Ġd ump
Ġd yed
Ġd asternya
Ġc ak
Ġc auti
Ġc ough
Ġc ree
Ġc ured
Ġw es
an os
an annya
ed om
Ġpr id
Ġm ast
Ġm ens
Ġm inggu
en cing
en omen
es pon
on i
Ġn j
at iin
or ong
Ġh id
Ġh gt
Ġh mp
as inya
Ġl t
Ġl ame
Ġl oun
Ġl any
Ġl awa
om pl
Ġre imb
ar ks
Ġto ge
Ġto ppp
Ġto ken
Ġan ch
pe et
Ġe ee
Ġe cer
Ġe cho
ut ter
Ġit ching
Ġk pd
Ġk abarin
Ġy ap
ag s
ay as
ack s
Ġin ex
Ġin sufficient
Ġst ere
Ġst age
Ġst ems
Ġbe b
Ġbe er
Ġbe ach
Ġsm tp
ul lo
am el
am am
am ura
se kali
aa ann
ad ar
Ġthank u
ol a
Ġsu m
Ġj em
Ġli ed
Ġli es
Ġli ves
ak ang
Ġrespon t
em bang
Ġok kkkkkkkkkkkkkkkkkkkkkkkkkkkkkkkk
Ġch un
Ġch ass
Ġch airs
ok ia
end ala
ere p
ust ry
ust uhan
um a
um an
un responsive
Ġr w
Ġr ok
Ġr acing
Ġr umpled
Ġr lly
bs ns
ang n
ang o
so on
Ġas a
Ġha o
Ġun se
Ġun safe
Ġse bl
Ġac ry
Ġmy be
Ġcol umn
Ġtr act
Ġdo i
Ġdo ain
Ġdo ctor
Ġdis pens
Ġde b
Ġde fe
Ġfr ost
Ġsa ja
Ġbr as
Ġbr ass
Ġbr ings
Ġdi bubble
Ġdi zziness
Ġall hamdulilah
Ġme i
Ġar ise
Ġpre di
Ġ3 50
Ġcheap ness
Ġmuch h
Ġat i
op y
uu hh
Ġce aaaaaaaa
Ġce kout
Ġpl ing
Ġpl ates
Ġpi x
Ġnext ime
Ġworth less
he at
ks bs
Ġcont our
Ġper nh
Ġmer i
Ġmer on
Ġkak kkk
Ġsome hat
Ġgr ape
Ġen qu
Ġsp inning
Ġsp lay
ric an
out fit
Ġbang ttt
Ġter ribly
Ġsend iri
Ġph enomen
Ġab undant
Ġtw ins
Ġeven though
Ġmess ges
Ġsuit case
Ġmant eb
Ġmant abs
ment ed
si f
Ġsoft lens
Ġdr ained
Ġke ci
Ġke potong
Ġpes etas
we g
ac cur
ac quired
av ent
ung nya
Ġcor al
ish ing
Ġsc ored
wn s
Ġfeel ings
Ġdifferent ly
Ġcar ried
Ġsens iivity
Ġcertain ty
aw an
aw ak
Ġbar r
Ġbar rel
Ġpass es
Ġpass ion
item ent
Ġsee ped
Ġcl asp
Ġng on
Ġng asih
Ġsuk aaaaaaaaaaaaaaaaaaaaaaaaaaaaaaaa
Ġko h
Ġinc rust
Ġsamp eny
az z
ener in
Ġbot ched
Ġ9 6
Ġ9 8
Ġpink y
Ġpart ial
Ġbrg ny
Ġcm co
irm an
Ġterim ksih
Ġdirect ed
tr ust
tr action
Ġtransport s
oke id
ug i
Ġmk ch
po bud
Ġdisc unt
Ġpay s
Ġcomm it
Ġbng eet
Ġman ila
Ġpok on
Ġsol der
Ġthx x
asi in
ner nya
Ġtem p
Ġbal ik
Ġrem pel
Ġq a
Ġq w
to ys
Ġlang angan
Ġtest im
Ġber lang
hhhhhhhh hhh
hhhhhhhh hhhhh
Ġak alin
Ġscr ape
jj w
jj z
Ġma am
Ġflash y
ek an
Ġhead ing
Ġnh i
Ġnh iu
Ġnh ieu
do g
for get
Ġtap es
Ġrestaur ants
Ġkk b
Ġpake e
baik i
Ġdou bled
ssssssss sssss
Ġsubsid izing
Ġpers ist
Ġplay ers
Ġsek li
ju ga
Ġperson nel
Ġexc itement
Ġind ustry
Ġ15 6
Ġ15 8
mat ure
Ġmem or
Ġpuas sssss
tttttttt ttt
Ġed ited
con sider
Ġresponsi veness
Ġair port
iiiiiiii iiiiii
Ġes c
Ġnat o
Ġlip cream
Ġcur ve
Ġstretch ing
mantap lah
Ġdu rian
mmmm mm
Ġsukak kk
Ġcant ek
Ġsales man
Ġsukaa k
ib ay
Ġmal a
Ġcharg ers
Ġproduk x
some times
Ġspill ing
Ġgm ana
pa id
Ġsam aa
Ġpaket anya
Ġben ef
Ġfil a
Ġru bs
Ġste pped
ma x
Ġdk d
Ġ16 4
Ġpatient s
Ġaam in
Ġbes tt
Ġkey pad
Ġmarket place
Ġsubmit ting
Ġaddress ed
overall i
Ġharg aaa
Ġharg anyaa
Ġmult ifunction
Ġqual itas
cepat cepat
Ġresp in
zzzz zz
Ġcount y
Ġkeren nn
nnnnnnnn n
Ġhesit ated
Ġbur g
Ġboard ing
Ġjum per
Ġvol umes
Ġaut umn
Ġcell phone
mas ks
Ġscent s
Ġmall s
Ġterimakasi hhhh
Ġmng kn
Ġmng gu
Ġdum at
ahahahah ahahahah
Ġmir ing
Ġkt anya
Ġbaguus ss
Ġminim ize
eg ara
Ġrot ating
kat kan
sc rew
Ġadhes ion
Ġger min
Ġax is
bdbd bd
Ġsus pic
ki u
har ap
oe oe
Ġkes ek
Ġdisin fect
Ġmantaa pp
Ġself ie
Ġprior ity
Ġir regular
Ġpc x
Ġcand les
Ġtrou bled
dr aw
Ġorgan ize
Ġtur f
Ġtoler ate
Ġactiv ate
Ġped est
Ġcompar ing
Ġbun ny
sukak k
Ġattract ed
Ġcy cles
Ġmul a
Ġcontribut ions
bes ides
Ġpokokny aaaa
md md
Ġqui eter
Ġflav our
Ġterimakas ii
turn ed
Ġib ng
Ġeconom y
Ġpark ed
Ġbos qu
Ġnam ed
Ġkece e
Ġhood ie
Ġkin v
exc use
Ġdeser ved
cons ign
Ġcer ah
Ġstud ent
Ġstud ying
Ġlat te
sl im
Ġkul itas
Ġcharacter istics
mg anda
Ġvent ure
hal f
Ġpagkak atahi
Ġpagkak apack
Ġclamp s
Ġsquee zed
nnnnnnnnnnnnnnnn nnnnnnnnnnnnnnnn
Ġdish onest
Ġach illes
urang in
Ġdisappe ared
Ġreser ved
uuuuuuuuuuuuuuuuuuuuuuuuuuuuuuuu uuuuuuuuuuuuuuuuuuuuuuuuuuuuuuuu
gat au
frag rance
Ġhade hh
39 39
Ġbatre i
Ġoccas ions
Ġtub ers
Ġbiscu it
Ġopt im
Ġkun ing
Ġasl ii
Ġsupermarket s
Ġclar ify
Ġray on
irr ah
Ġrag u
Ġros ak
Ġregrett able
Ġapproach ing
Ġtingkat kan
syuk ak
medi um
Ġbangeeee et
Ġcorru pt
akh irnya
Ġwak tu
doy doy
zi pper
Ġrecogn ized
Ġcabin ets
Ġswell ing
Ġreserv ations
Ġdocum ents
Ġobt ained
Ġcoy ne
Ġspat ula
Ġstabil ize
hur ry
Ġlebar an
Ġpkk nya
Ġcompress ion
mor bidly
muk en
Ġwoo zy
Ġdipl astik
Ġsouvenir s
Ġhorizont ally
tem pered
leng th
Ġlos ers
Ġtriang le
cot ton
Ġexplod e
Ġketek uk
Ġsyant iik
Ġemboss ed
Ġnarr owness
Ġgabak al
Ġcentim eters
okokokokokokokoko okokokokokokokoko
Ġdisgu ised
Ġcepee et
Ġcoupl ed
Ġbicy cle
Ġdeveloper s
Ġkindergart en
Ġted dy
Ġcauti ous
Ġtoge her
Ġchass is
Ġacry lic
Ġincrust ation
Ġbenef icial
0 2
a e
a ann
a allah
b gg
b dd
b ath
c od
c ch
c ss
c oo
c ult
c elled
c ution
c akes
d ist
e u
e ve
f um
f elt
f ault
g v
g re
g ri
g am
g ard
h ood
h ous
h avent
i hh
j m
j adi
k ed
k ins
l is
l un
l itas
m ust
m aap
n al
o ard
p ap
p ock
q y
q lo
r f
r x
r ol
r um
r bu
s us
s bd
s cr
t et
u v
u hhh
v r
v shs
w ore
x jd
Ġ xc
Ġs ought
Ġs elipin
Ġt ib
Ġt gu
Ġp im
Ġp ny
in ii
in cl
Ġth n
Ġth ui
el astic
Ġg oooo
Ġg ene
Ġb anh
Ġo i
Ġo mb
is cuous
Ġd f
Ġd od
Ġd ite
Ġd ance
Ġd art
Ġd lam
Ġc ue
Ġc low
Ġw ake
an gh
an cing
Ġgood luck
Ġpr eli
Ġpr ick
Ġpr uduk
ce k
Ġn nya
Ġn asi
Ġn apa
Ġn cl
Ġn asa
Ġn kaka
Ġn okia
at ip
Ġh en
Ġh sh
Ġh dd
Ġh ilt
as li
as sem
Ġl om
Ġl ice
Ġl ur
Ġl ane
qu est
Ġre pet
ar ing
eli very
Ġan j
pe ed
Ġe hhh
Ġe je
Ġsh ab
ut s
le aders
Ġi os
Ġi dk
Ġk ent
Ġk uu
Ġk ta
Ġk antong
ag anda
Ġseller rr
Ġst ok
Ġst ories
Ġst airs
Ġst iap
Ġbe ast
Ġfa ding
Ġfa cing
Ġu let
ch ch
se wing
aa att
ad le
ad idas
ol ong
Ġsu pr
Ġsu nn
Ġv ai
Ġv ape
Ġv agus
Ġj ut
Ġj aa
Ġj ah
Ġli m
et ly
Ġon time
and ar
Ġshi mm
ap ro
im ent
im ag
Ġok oko
ok ie
ur unin
Ġwh isk
un gg
un expected
Ġr ely
Ġr outer
ir am
id bd
Ġbu g
Ġbu rem
Ġbu ku
Ġbu ds
Ġbu gs
Ġserv icing
Ġcom el
Ġcom ent
bs b
bs g
Ġas ic
Ġcon ver
Ġcon si
Ġcon cave
Ġun pack
Ġun read
Ġun professional
Ġun balanced
Ġse j
Ġex fol
Ġtr li
Ġdo bel
Ġdis elipin
Ġmat agal
Ġde gan
ter baek
ter rific
lo y
lo ose
Ġdi h
Ġdi ab
Ġdi packing
Ġcan celled
Ġtoo p
Ġship awesome
Ġtp ii
Ġpre order
Ġco ordin
sh ock
Ġpro ve
pet an
Ġat w
Ġat ion
Ġcomfortable and
Ġgreat and
Ġad m
Ġbag o
oo ze
Ġpi pel
dh e
Ġhas n
Ġsk n
Ġya e
Ġny h
Ġny al
Ġny an
Ġfri ction
he y
Ġstandard ized
ks j
ks n
Ġper sp
Ġper ip
Ġclo gs
Ġsuper fast
Ġdes c
Ġdes crption
Ġdes crition
Ġdes ideratum
Ġher b
Ġri ding
Ġsp a
Ġcut ee
Ġbang ey
Ġbang eeeeee
Ġter i
Ġter r
Ġter ang
be h
Ġph om
Ġsy udah
Ġsy nc
Ġx u
Ġx x
Ġkn ives
ich eck
os ition
Ġapp liance
Ġwrap ing
Ġsoft case
wh oles
Ġke cewain
ink an
light ning
Ġbanget s
art ments
bag gus
Ġstr ain
Ġte al
Ġsc oop
Ġcr ank
Ġcr ashed
Ġcr avings
iv el
nd bd
Ġint est
Ġgift nya
Ġinst ep
bagus d
Ġreal nya
Ġreal istic
Ġchat s
Ġchat t
Ġhigh way
pen cet
Ġfun dam
iiii h
jd id
Ġlu chu
Ġgl are
Ġgl itch
Ġcl ana
Ġng irim
Ġng rereply
Ġng asal
ep it
Ġsuk aaaaaaaaaaaaaa
mant aps
mant epp
Ġgu i
Ġmod ified
Ġsamp ainya
Ġswe ating
Ġem er
Ġact ully
Ġsel ernya
Ġbrg x
Ġcard i
Ġsem inggu
bel nya
Ġunder grow
Ġcorrespond s
Ġdown s
ari z
Ġrest ored
Ġrest rict
Ġmodel ny
pl s
Ġset up
Ġrev alu
Ġka ca
Ġpay ments
Ġprom iscuous
Ġcomm unity
Ġmak in
Ġcreat ive
Ġ8 7
Ġpu cet
Ġdt rima
pro v
Ġbarang ya
Ġhome made
Ġstock nya
wr iting
ns j
Ġtrans fers
Ġthx u
Ġbah ann
bl n
Ġcre w
Ġmar gin
Ġtem pted
ama an
ama at
Ġbal as
Ġthankyou uuu
lu ed
Ġsin end
Ġsin ii
ex cept
Ġsl alu
Ġtest s
Ġber hati
Ġcour rier
Ġak ak
Ġmil itary
Ġnum erous
Ġro i
Ġalhamdulillah h
Ġpengiriman nnya
Ġses e
bh s
Ġsiz able
ph in
Ġadmin ist
Ġsn ooze
Ġsil h
Ġend e
Ġend less
Ġsang gat
kom sel
Ġmurah hhh
Ġunderstand ably
Ġprin cess
Ġpng en
Ġkay anos
Ġdet ox
Ġhuh uu
Ġver t
Ġpol ar
ru pt
Ġrelie f
Ġdu oc
Ġgam ba
Ġbat tle
comp ared
Ġuk h
aha ja
Ġsukaa ak
Ġequ ation
Ġku ya
cheap est
jf j
Ġfragrance s
exp ress
Ġstand art
Ġgm bar
ada an
Ġkual it
Ġste al
Ġev ident
Ġimprove ments
color ful
Ġnak ed
Ġdit ambahin
Ġjug aaaa
Ġkey cap
Ġhonest y
Ġdin osaur
Ġanak q
ship ment
sel alu
Ġinv itation
Ġperh atiin
cl ass
Ġwind shield
Ġmen y
Ġband ana
Ġgre w
Ġseed lings
Ġshock ing
fr m
Ġchar ity
Ġrecomend et
can cel
arri val
Ġsekal iiiii
wa ist
Ġcir cles
Ġ22 0
Ġbahan e
barang g
barang nya
with in
with out
Ġ36 0
Ġmb aknya
Ġsauc er
Ġfem in
Ġble ber
Ġmsg s
hr s
jsj kskd
Ġmix er
Ġkem arin
Ġsepar ating
Ġlabel ing
Ġ23 0
Ġprompt ed
Ġtransm itted
Ġmus lim
hat an
Ġbeli in
Ġview ing
Ġcepe ttt
Ġtas nya
Ġdib enerin
Ġkur ng
lum ay
Ġmultip l
Ġoffer ing
Ġpkok ny
Ġkepake k
Ġpenjual ny
favor ite
Ġuni qlo
20 20
Ġolshop nya
bi ji
Ġmantaa app
Ġsust ainable
alhm dlh
12 3
ext ra
kap ok
Ġbent uk
Ġstop s
Ġgand oss
Ġbak ed
Ġck it
Ġmurce e
Ġcy cl
Ġdecor ative
Ġsore x
Ġconform ity
Ġcapt ain
Ġsed ap
Ġded icate
Ġmash ip
Ġnam n
Ġwip ing
Ġnex s
Ġkin ancel
Ġtee imakasih
Ġsesua iii
ism aya
Ġlm ayan
Ġprepar ations
Ġwang ii
Ġgrand son
jeje jeje
Ġens ures
Ġther mal
Ġpadah l
eer ing
Ġpokony aaa
say s
cut ting
Ġdiper hatiin
Ġengin eering
Ġpres ence
Ġpum as
Ġtend on
Ġcel ebr
Ġsiii ip
rif ied
Ġtrain ers
nznz nznz
pekt as
Ġvibr ation
Ġfav ourite
okk okeid
Ġrubb ed
Ġpreser ve
Ġorth otic
Ġpropos ed
okeoke okeoke
bbbbbbbb bbbbbbbb
inst all
inst ead
Ġshar ing
Ġcert ification
Ġply wood
Ġward robe
Ġexpend able
Ġsyn thetic
Ġcorru pted
Ġsar awak
Ġbor ne
Ġdecre ased
Ġbkl n
Ġsmud ged
Ġcheer leaders
Ġmechan ical
pow er
Ġsach et
Ġfingerprint s
purch ases
Ġwt f
Ġlady fame
Ġflor al
Ġflor als
jjdhd jsjkskd
Ġnal ang
Ġpmb eli
Ġresil ient
eas ily
mach ine
Ġeur ope
Ġexpens iveness
Ġmushroom s
Ġkonsumen ku
pie ce
scent ed
Ġillust ration
Ġternyat aa
Ġokkkk okkkkk
Ġexe cution
Ġdro pping
nar row
Ġterjangka uu
Ġdikard usin
Ġexerc ising
fig ure
Ġuphol stery
Ġjsjsjs jjdhdjsjkskd
Ġperman ent
Ġassoci ated
Ġikh las
Ġresent ful
Ġkalim antan
Ġanticip ated
rece ved
Ġdilap isin
Ġike a
Ġenake un
Ġsuppli ers
Ġpostpon ed
Ġhmp ir
accur ate
Ġpedest al
Ġpipel ine
Ġundergrow th
Ġrevalu ation
4 2
a ass
b ff
b ny
b urn
b uk
b ye
b rid
c in
c orn
c ounter
d iss
d anger
d oll
e ved
f ind
f ans
g m
g gh
g jk
g eez
h ai
h dd
h ahahahah
j en
j ck
k r
k ck
k ripsi
l q
n on
o ar
o il
o am
o sp
p ri
p ile
p aint
p ua
p dhl
q o
r up
s ens
s oles
t ent
t am
t ight
t ory
t annya
t umben
u ble
u ation
v ation
w ad
w id
w aste
w arn
z ard
z hs
Ġ ere
Ġ ending
Ġs ess
Ġt nya
Ġt ile
Ġt angan
Ġt anyain
Ġa er
Ġa aaa
Ġa aaaaaaaaaaaaaaaa
Ġp ai
Ġp iss
Ġp ains
Ġth ab
el oved
Ġg us
Ġg ig
Ġg uu
Ġg egara
al ty
Ġb p
Ġb wes
Ġb ump
Ġb ungkus
re h
Ġo tw
Ġo engiriman
Ġf ed
Ġf et
Ġf ib
Ġd ing
Ġd he
Ġd ude
Ġd buka
Ġc one
Ġc ee
Ġc ig
Ġc ass
Ġc nt
Ġc ions
Ġw ww
Ġw aves
an der
ed isi
Ġpr eloved
Ġm mm
Ġm una
on line
Ġn ch
Ġn im
Ġn iii
Ġn itip
at en
or ily
Ġh q
Ġh ing
Ġh ill
Ġh all
Ġh ind
Ġh ilang
Ġl on
Ġl ou
Ġl uu
Ġl ac
Ġl isting
Ġl mp
ell e
Ġis nt
Ġre ck
Ġre nt
Ġre cover
ar ga
eli able
il in
Ġan ter
pe c
pe king
pe mb
Ġe j
Ġe p
Ġe ie
ut u
ot y
le ather
ent ity
Ġi c
Ġk ong
Ġk oo
Ġy ard
ag ag
ag ang
pp a
Ġin o
Ġin ih
Ġin sider
Ġin di
Ġin imah
Ġin sect
Ġst orm
Ġst lah
Ġbe ut
Ġbe am
Ġbe auti
Ġal a
Ġfa c
Ġsm aa
Ġsm apai
ch ief
ul u
am ab
Ġspe ck
Ġor nam
ad dition
ad ismaya
ol o
Ġsu ff
Ġsu me
sp ark
Ġorder ly
Ġj j
Ġj z
Ġj ls
Ġj iw
Ġj empol
Ġli ability
et ion
et ime
Ġon t
and um
Ġyou uuuu
im i
im age
im ana
Ġok o
Ġok kk
end ment
ur h
ur nya
st art
ere commend
un suitable
Ġr ah
Ġr ere
Ġr ame
id ak
pr it
bs i
bs bd
Ġup s
all u
Ġas ham
ff f
Ġha ul
Ġag ency
Ġun be
Ġun healthy
Ġsi pppp
Ġsi plah
Ġse pert
Ġdis aya
Ġdis may
Ġmat ure
Ġmat ured
Ġde ceptive
Ġfr yer
Ġbl ink
Ġsa cri
Ġche kout
Ġche esy
app ly
Ġbr ut
Ġbr fungsi
Ġbr untusan
Ġhis tory
Ġall ergy
per caya
int ely
aaaa k
Ġim pe
li est
li quid
Ġco als
atisf ied
sh ell
sh arp
kk f
kk ww
Ġpro ced
Ġpro fits
Ġbg ni
op s
Ġhere after
ig o
ig ree
Ġad uh
ab it
ab isan
ab cdefghijklmnopqrstuvwxyz
Ġbag t
Ġbag is
Ġsmall est
Ġce aa
Ġpl ans
Ġout board
dh f
act iv
Ġsk ills
Ġhand ic
Ġhand written
Ġya uda
Ġya ampun
Ġcomp liance
Ġcomp artments
Ġny er
Ġny erep
Ġrecommend s
Ġ5 1
Ġ5 2
ks a
Ġrep ellent
rim akasih
Ġgr an
Ġgr aph
Ġen aak
Ġcondition ing
ny o
ny ah
Ġsp f
Ġcut eee
Ġle h
Ġshoe box
Ġter k
any ya
Ġpa w
Ġfree ong
Ġfree zer
Ġsec on
Ġph arma
Ġab and
ich at
dd s
nt ly
ud es
si k
Ġdr unk
Ġfl as
Ġsupp er
Ġcare flly
Ġke je
Ġpes n
Ġhi kes
we we
nn c
Ġbanget z
Ġgo yang
Ġ10 5
Ġte eny
Ġcr umbs
Ġcr ane
au pun
Ġcar riage
Ġsal ad
Ġsens ation
Ġpe c
Ġreal me
pen ghantaran
Ġpass ably
Ġput us
Ġdefin ite
Ġng l
Ġng om
Ġng em
Ġhu awe
Ġres leting
Ġpeng giriman
Ġpeng ennya
up up
Ġconf iration
packing annya
Ġsamp aai
az ard
Ġswe ets
Ġz inc
Ġreg ion
Ġterim am
Ġda wn
Ġda iry
Ġung u
Ġatt end
bu ang
bb ly
Ġdat ng
Ġdown hill
Ġrest arant
Ġmedi a
pl ug
Ġmk in
Ġnever mind
Ġhel m
Ġel ev
Ġdisc red
Ġfin eness
Ġprom ote
dddd ddd
min ary
Ġpen alty
Ġ8 6
Ġman ually
Ġinter mit
Ġmur aahh
Ġla ff
Ġcons ul
Ġcons ume
ali zed
Ġsever ing
bl ic
Ġwar r
Ġmar ke
Ġmar sh
Ġform ation
Ġsatisfact orily
lu x
Ġboss s
bd ly
Ġmor bdly
Ġsl mat
wor st
Ġber at
Ġber ry
ys y
cm n
Ġsmp k
Ġsmp aii
Ġdg ambar
Ġlng gann
Ġtu pper
Ġro ots
Ġnh ah
Ġnh ug
kkkkkkkk kk
Ġho ax
col l
rem ember
Ġfind s
cepet an
Ġbreak able
Ġbreak age
Ġbreak outs
Ġent ah
Ġsn ail
uc ino
Ġstat ements
Ġyah hhhh
Ġdep ok
Ġsli ps
Ġbrown ish
Ġincre ases
Ġdri es
Ġdri ving
Ġdri vers
Ġterm urah
Ġmand atory
Ġ15 9
Ġ15 00
mat es
Ġgt uu
Ġgak papa
spe aker
Ġsw allow
Ġsw ivel
Ġed uc
con y
Ġnag message
Ġpad et
Ġkay u
Ġpol ice
iny aaa
Ġdu itnya
Ġbat man
Ġdec line
kwkw k
ib i
Ġnight s
Ġye u
je ans
Ġgini an
Ġphotograph y
Ġsolid s
Ġdem olished
will ing
Ġben ch
Ġfil ms
ls l
Ġpal er
Ġpal embang
Ġwid ely
Ġmantab b
Ġdk o
Ġdk irim
Ġ16 2
Ġ16 3
oh an
Ġdit uker
Ġfle w
Ġbas reng
Ġpan o
uuu ul
Ġdin ing
Ġclass ification
Ġvis c
Ġinf ants
Ġdisting uish
Ġpak cing
Ġmaint aining
Ġcook er
Ġbangeet ttt
Ġbed ain
Ġcli pper
kd j
Ġcho c
Ġcho ppy
Ġstre ets
Ġmes k
Ġmes ki
dg d
cepat t
Ġring an
yyyy yy
Ġkan cing
shs hh
Ġroom y
oll er
Ġcal cul
Ġbro th
Ġappro val
Ġmb ilis
head phones
Ġware hous
Ġbreat hes
amb ot
Ġlain kali
Ġdef intely
ssssssssssssssss ssssssss
Ġgambar r
Ġmus ical
Ġview ed
jg z
Ġdum ting
Ġkom en
Ġsitu ations
Ġlap aknya
Ġnut upin
Ġkur angg
Ġvict im
Ġcross ed
Ġhrs nya
Ġlol lip
sub st
Ġwarp nya
who le
oc ado
Ġframe work
Ġmeasure ments
Ġdic ob
Ġsus ah
Ġslim e
Ġmad ame
Ġapply ing
Ġdisin iiii
Ġspray ed
bi as
bi jik
Ġhy brid
Ġdig ambar
Ġluc uk
Ġmalem nya
uw u
uw ai
Ġwarna x
Ġwel coming
akak ak
Ġmap le
Ġterus sss
pel in
ho ok
mar ks
mar oon
Ġregard ed
Ġheadset s
Ġudah lah
Ġbingit z
Ġrej ek
Ġconform s
Ġcapt ured
Ġske ptical
Ġded eliver
Ġnympe k
Ġbaj unyaa
oooooooooooooooo oooooooo
Ġur ng
Ġchan el
Ġbuck et
Ġpigment ation
Ġphys ically
repe ated
Ġlm but
Ġwalau pn
Ġther mos
mg mg
Ġthigh s
Ġjual annya
Ġmill ions
Ġattach ment
Ġrecomm ed
Ġfu zzy
Ġrab b
Ġcg aaa
Ġbin igay
Ġek ped
Ġkemas anya
Ġspl ints
Ġdish washing
Ġshin ing
Ġgojek nya
Ġkill ing
Ġuns ure
Ġdistribut ed
Ġtg al
Ġprim er
yi ap
Ġstru cture
Ġteach er
Ġpuzz ling
mmmmmmmmmmmmmmmm mmmmmmmmmmmmmmmm
Ġokokokokokokokokok okokokokokok
Ġtum bl
Ġmagn itude
Ġjud ge
Ġaz a
Ġrin se
Ġhn ay
Ġeks petasi
Ġmarath ons
Ġgad get
Ġshar pen
Ġacceler ate
hel p
Ġarrang ed
Ġsupple ments
ben ar
Ġpil ih
Ġberkual itas
vis it
Ġprop ortion
Ġsyn ch
Ġintern al
Ġren der
akh ir
mem uaskan
Ġrob ust
Ġtengki u
Ġtengki yu
Ġsmud ge
Ġsex ual
Ġemot ion
Ġnant ab
Ġdisapoint ed
Ġbulk head
Ġji wa
Ġinvest ment
Ġful fill
Ġcop ied
Ġtemen ku
Ġtempl ates
Ġbrow se
Ġdiret ly
Ġsucceed ed
Ġbaw ak
Ġselet ingnya
Ġkedep anya
fold ed
Ġisol ated
drop ship
mate ial
Ġsucces fully
Ġorde ed
Ġrang ing
Ġkering et
sty lish
Ġsofl ens
Ġjazakallah u
Ġsmoo ther
Ġtrimak sh
pur ple
Ġdepos it
Ġokokokokok okkokeid
Ġdepend able
Ġachie ve
Ġsce ne
Ġdens ity
Ġoutward ly
Ġelder ly
Ġberman faat
Ġencaps ulated
Ġjord an
Ġmakass ar
Ġceram ic
gasket s
Ġfert il
Ġwlo pun
Ġsegel an
Ġmenge cawakan
Ġvid io
Ġraz or
Ġpursu ance
Ġabdom en
Ġprem ises
Ġdiffe ence
Ġfus sy
Ġmendar at
Ġreng on
ilater al
Ġdevi ation
Ġdivid ed
Ġsnee zing
Ġhygi ene
sneak ers
Ġloun ge
Ġlany ard
Ġreimb urse
Ġmemor andum
consign ee
Ġpreli minary
imag ine
Ġperip her
Ġadminist rat
Ġreck less
Ġasham ed
Ġsacri f
Ġhuawe i
Ġintermit tent
Ġtupper ware
Ġlollip op
0 6
2 6
6 9
7 13
b ur
b are
b ound
c ci
d in
d ly
e w
e ffective
f w
f re
f sg
f kh
g on
g ang
g ter
g loves
h g
h ns
h oh
h indi
i ated
i ans
j dd
j aga
k ay
k ud
l ity
l us
l aces
m nya
n avy
o a
o an
o cc
p ol
q wr
r od
r ah
s ign
s umpah
t k
t is
t able
t est
t nx
t empor
u ght
v in
v ative
x o
y f
z ip
z nz
Ġs q
Ġs ul
Ġs ant
Ġs aking
Ġt ally
Ġt rem
Ġt ier
Ġt amb
Ġt ension
Ġt sampai
Ġt abar
Ġt ester
er an
er able
Ġa we
Ġa hhh
Ġp ck
Ġp us
Ġp ham
Ġp ede
Ġp cking
Ġp vc
Ġth ok
Ġth aks
it z
el ing
Ġg aps
Ġg ained
Ġg oooood
al uu
Ġb th
Ġb cs
Ġb orrow
Ġb coz
Ġo o
Ġo en
Ġo oh
Ġf en
Ġf ut
Ġd ach
Ġd na
Ġd uk
Ġd ari
Ġd dddddddddddddddd
Ġd arn
Ġd foto
Ġc st
Ġc ny
Ġc asi
Ġc ities
Ġc uss
Ġw it
Ġw ad
Ġthe best
ing g
Ġm ggu
Ġm dyo
on usin
Ġn l
Ġn ir
Ġn mr
at aran
Ġh j
Ġh ampe
Ġh ond
Ġh orn
Ġh aph
Ġh eee
as per
as sss
as dga
as dfghjk
Ġl w
Ġl as
Ġl ion
Ġl est
Ġl ake
Ġl alalalala
Ġis o
Ġqu es
Ġqu asi
Ġqu aaaaaaaaa
om antap
Ġre bel
th ink
th nk
ar ming
Ġto ss
il h
pe er
Ġe he
Ġsh y
Ġsh ay
Ġsh ark
Ġsh ru
ot nya
Ġdelivery the
us ss
us eless
le ction
ri k
ent ially
Ġk ast
Ġk um
Ġk bs
Ġk ite
Ġk ash
Ġk de
Ġk irm
Ġk ren
Ġk aga
Ġk ats
Ġy am
Ġy aaaaaaaaaa
ag ana
ag ht
Ġin valid
Ġst il
Ġst im
Ġst ik
Ġst eep
Ġbe ats
ome ters
Ġwith drawn
Ġu ju
ch ure
ch air
ul um
se pat
aa hhh
ad ih
Ġthank k
Ġfast ness
Ġsu w
Ġv h
Ġv om
Ġorder anku
Ġj ee
Ġli bby
et ed
ak at
ak itas
ap y
Ġch ua
Ġch ains
ok er
ur r
Ġso be
ust ing
um ing
un ities
Ġr d
Ġr ul
Ġr da
Ġr ains
Ġr ats
ant ial
id k
Ġlo ver
Ġlo vel
Ġbu kak
so ap
so brang
ong nya
all aah
Ġtim er
Ġas d
Ġas y
Ġas us
Ġas dga
Ġcon cess
Ġun settled
ess entially
Ġori ii
Ġsi k
Ġac cent
Ġtr k
Ġtr makasih
Ġdis ney
Ġdis covered
Ġmat s
Ġde ffect
Ġde odor
Ġshop keeper
Ġsa bi
pt ing
Ġche eks
lo ss
Ġbr ain
Ġlong ev
Ġdi foto
Ġdi pasang
ii kk
Ġhe ated
Ġhe hhe
Ġhe hhehe
Ġpre mature
li e
thank ss
Ġkg a
Ġbg itu
pet nya
Ġga be
ig ma
ab is
Ġce aaaaaaaaaaaaaaaaaaaaaaaaaaaaaaaa
Ġday light
ng at
ng ak
Ġout s
Ġover l
Ġover pron
Ġam endment
act ical
Ġsk id
Ġya w
Ġcomp lied
Ġcomp osition
Ġny m
Ġny u
he el
Ġred dish
ks ms
Ġrep urh
Ġper ch
Ġkak good
Ġkak maka
Ġsome time
Ġgr umble
Ġgr apes
Ġgr ooves
Ġsuper iors
Ġen light
Ġri b
Ġsp arse
out side
Ġle ading
Ġter yata
Ġthem e
Ġpa jama
Ġab l
Ġx p
Ġx in
Ġeven ly
amp ir
Ġmant e
Ġmant uuul
Ġsoft ened
Ġsoft ball
Ġdr astic
Ġlg ii
Ġlah iran
Ġke en
Ġke foto
Ġke ingin
Ġke abisan
Ġhi x
Ġdid lm
Ġhad iah
ach ute
ac le
Ġtq tqtqtq
ll er
av s
Ġstr okes
Ġstr aght
Ġjo ined
Ġjo sssssss
ish ment
own s
Ġhapp ily
Ġsc oring
ne ck
alhamdulillah h
Ġcr ust
Ġcr ab
Ġcr adle
Ġdeliver s
au an
nd jd
Ġpoor er
Ġint ends
Ġpe ak
aw aited
Ġreal y
uuuu ul
Ġbar amg
Ġpass word
Ġdah la
Ġmatch a
Ġsee king
Ġlu cr
Ġwrong ly
Ġgl it
Ġgl uing
Ġdefin ately
ik n
ik asih
Ġcl na
Ġng es
Ġng aret
Ġng ilangin
Ġhu f
Ġpeng ep
na o
ade quate
Ġmin ion
rt i
Ġadd i
mant ao
Ġgu ava
Ġgu cci
Ġret reat
Ġmod ify
Ġsamp nya
Ġni q
Ġni re
Ġni hhh
Ġmas king
Ġoke eeeee
Ġoke eeeeee
Ġem blem
Ġem pek
Ġem inence
Ġsel a
Ġz o
Ġz eng
Ġz zzzz
Ġprov ded
de c
Ġcard oard
Ġwal nut
sm a
sm g
Ġunder shirt
Ġbook ings
Ġdisc ard
Ġdisc olor
ahah a
Ġrefund ing
min istry
Ġbng tttt
Ġgan yesel
pre par
Ġna o
Ġna use
gr unt
Ġmot ors
Ġmur aaah
Ġwater melon
ten ance
Ġhar med
Ġthx s
ton er
Ġpas sss
Ġform al
Ġbal er
Ġty sm
Ġq q
Ġq ng
Ġ11 5
ba ag
Ġsl id
Ġmakasi hhhhh
Ġje w
Ġrepl acing
Ġmask ernya
Ġlag gard
Ġav ocado
Ġber l
Ġclear ance
hhhhhhhh hhhhhh
Ġscr am
Ġbel om
Ġlng kap
Ġass yiap
Ġma f
Ġma ayos
bar an
ger cep
ek nya
ek ung
Ġaccept ance
Ġimpro ving
aaaaaaaaaaaaaaaa aaaaaaa
Ġgun ting
kkkkkkkk kkkk
Ġpar ahhh
Ġpar achute
Ġins ol
Ġnge chat
Ġnge press
Ġses ek
Ġses usai
Ġrel uct
Ġdik sh
Ġmark ing
Ġmark ers
Ġstat ue
sg sg
Ġsil a
Ġmag h
Ġmag nda
Ġsli pping
Ġsang ay
Ġkok k
Ġprot est
Ġbus es
Ġky aknya
Ġmis cast
Ġum pteen
Ġod ds
Ġlam bt
tttttttt tt
tttttttt tttttt
vv s
Ġpng rimn
Ġdet ach
iiiiiiii iiii
iiiiiiii iiiii
Ġpower ing
Ġpol os
Ġes cape
Ġhol ster
Ġcur ry
Ġleft over
jsjs jsjsj
Ġdu it
Ġaj ha
Ġah irnya
Ġpush pin
Ġkm na
Ġbener in
Ġtom ato
Ġcas an
Ġsampe eee
Ġmal u
Ġmal ady
Ġmal obat
Ġproduk baik
jf nf
Ġdraw er
Ġwish ing
Ġsun ny
Ġstand by
Ġkual ita
Ġfil ed
Ġfil ters
Ġnk alagay
Ġpast ing
Ġpn jang
Ġpn ghnt
Ġ19 0
Ġnak akas
Ġ16 9
Ġhur ting
Ġmantapp pppp
Ġ201 4
Ġauth or
box nya
Ġpan els
ko q
Ġbai kkkkk
Ġill umin
Ġclass es
Ġfore st
Ġvis ited
ony m
Ġpound ing
Ġexpir ing
Ġket ipu
Ġket arik
Ġpul aaa
Ġpul ses
Ġdrop lets
bx b
bx jx
Ġperh antaran
Ġra ft
trim akasi
Ġstre ch
Ġmom s
lam bat
Ġcontr action
Ġkan ak
Ġcal ar
of of
Ġsaw tell
Ġbro chure
Ġwonder ed
fab ulous
according ly
Ġ22 5
Ġspecial s
Ġarm our
Ġhrg nya
Ġdoor step
Ġfem ales
Ġstri de
Ġstri king
Ġstri ps
Ġpag k
hr ga
Ġport ability
Ġprofit able
ndnd nnd
bih in
Ġmain stay
Ġmain tenance
Ġevalu ated
Ġmel on
Ġtow er
ces ories
Ġkas iihh
Ġsection s
bsbs h
Ġtas x
Ġdib onusin
Ġwed ge
Ġnut ri
Ġkar n
Ġkar ma
sub mission
Ġmail s
Ġsampa iiiii
Ġapart ment
Ġroad s
nsns nsnns
Ġpenjual x
Ġdownload ed
Ġchest nut
Ġprof ession
Ġfat ig
Ġsii pp
Ġec pat
Ġmi xture
Ġflower ing
ob ic
Ġbales an
Ġreseller nya
Ġdestro y
expect ation
mu at
Ġmnt app
Ġsemu aaaa
Ġbn aget
Ġgrab e
Ġpun cture
Ġrig orous
kual iti
kual iatas
Ġtur unin
Ġpop sock
Ġaffect ing
Ġgand aaaa
Ġped igree
Ġdeng am
Ġjoss h
uy en
Ġtt up
asuk asuka
Ġjs j
Ġbaguu uss
Ġmesen nya
Ġperfor ation
Ġabras ive
prom o
Ġcond ens
iik um
Ġsbl m
wal let
Ġtie p
Ġchi pping
Ġexceed ing
Ġgrim o
Ġbuck ling
Ġrobe k
Ġkuri rnya
Ġprofessional ism
kkw kwkw
Ġtyp ing
asukasuk asuka
Ġcer uti
Ġtar ik
Ġmud der
Ġgrand ma
Ġpw ede
Ġbeat en
Ġsemog aaa
Ġdike terangan
Ġnakak adisappoint
Ġcred ibility
Ġneglig ence
Ġkd ep
Ġdrag ged
Ġgil aa
Ġhtt p
Ġsha ft
Ġham ster
Ġbaguuus ssss
Ġseneng nya
Ġspl end
Ġhan oi
Ġcel ananya
Ġsepat u
Ġadmit tedly
Ġkeli pet
mint aan
Ġsearch ing
Ġknock ed
jxjx jx
Ġlaw s
Ġhade uh
39 713
Ġsto pping
Ġshr ill
Ġpropos es
Ġkerdus nya
Ġbangettttttttt t
57 39713
Ġprt ama
Ġfacil ities
Ġray s
Ġrag ged
Ġdiscuss ion
bahan ny
Ġnotif ications
Ġdeskripsi produk
Ġsoph ist
Ġbird s
Ġkim chi
Ġbelanj aa
Ġakhir nyaa
mem ory
Ġokel ahh
Ġvietnam ese
Ġcompon ent
Ġrecogn ize
Ġusah anya
Ġmaka ci
Ġkwalitas nya
Ġmechan ism
Ġsyekal ii
Ġpket an
Ġdeliv ry
kar na
Ġgc q
Ġoce an
Ġupload ed
Ġmov ies
support ive
Ġhih ihi
lim ited
Ġore der
Ġgear box
Ġpenet rate
qwqw qwqw
dip ake
Ġbio aqua
1111 1111
Ġnutr ition
bagussbagussbagussbaguss bagussbagussbagussbaguss
Ġapal gi
Ġditer im
Ġdipeng emasan
Ġpoke mon
Ġlumaya an
Ġdetermin ed
Ġdecl ined
Ġexclus ive
barg ains
lmy an
Ġgores nya
Ġngej reng
Ġpelayan annya
Ġcoinc idence
Ġhospit able
Ġsym pat
enjo yed
Ġcockroach es
Ġkhay ran
hib ited
Ġkedi ri
jaz ak
Ġberp ungsi
Ġtroubles ome
Ġincom pat
Ġsehar us
Ġanim als
Ġrede em
Ġtermin al
Ġawait ing
consum ables
cour se
rali a
Ġenqu iries
Ġphenomen on
muken anya
pock et
Ġomb re
Ġclow n
Ġnasi b
apro x
wholes ale
Ġfemin ine
Ġmultipl ication
123 4567890
Ġlmp u
Ġont ario
Ġmarke ting
Ġadministrat or
Ġcasi o
Ġhaph azard
asdga weg
Ġconcess ions
Ġlongev ity
Ġlucr ative
Ġdiscolor ation
grunt led
1 50
3 50
8 2
a ayan
b id
b ass
b ased
c able
c nt
d one
d ss
d ng
d ud
d nd
d ents
d ict
f at
f ar
f am
f one
f ic
g og
g iao
h w
h anger
h unting
i able
i ude
i iman
j ut
j us
j ected
k ain
k ang
k cewa
l mb
m ain
m art
m iz
m lm
m oder
n r
n od
n in
n gin
n akak
o z
p ul
p ah
p rid
p rime
q jq
r arely
s id
s ist
t f
u q
u ality
u pp
w ireless
x its
y j
y on
y un
z f
z ic
Ġ eller
Ġs or
Ġs its
Ġs ory
Ġt ass
Ġt az
Ġt aper
Ġt ones
Ġt ambah
Ġa us
Ġa wes
Ġa kk
Ġa pl
Ġa ha
Ġp ell
Ġp ate
Ġp oduk
Ġp tg
in ent
in ous
Ġth i
Ġth om
it ious
el o
Ġg f
Ġg ga
Ġg any
Ġg br
Ġg nda
Ġg ht
al ot
Ġb im
Ġb ong
Ġb ree
Ġb by
Ġb gini
re com
Ġo ven
Ġo val
Ġo cr
Ġf er
Ġf ears
Ġf ence
is it
is ins
Ġd ion
Ġd ub
Ġd res
Ġd jdj
Ġd vd
Ġd ddd
Ġc t
Ġc ct
Ġc rim
Ġc iv
Ġc ali
Ġc wok
Ġw la
Ġw att
an cur
Ġgood goodgood
ing an
Ġm it
Ġm re
Ġm ack
Ġm are
Ġm aaa
Ġm az
Ġm aah
en in
es ss
es anan
Ġn ai
Ġn au
Ġn ama
Ġn ets
Ġn ma
or al
or nya
or ange
Ġh om
Ġh il
Ġh ue
Ġh bs
Ġh ord
Ġh dhd
Ġh ampir
as ssssss
Ġl is
Ġl ing
Ġl bs
Ġl ord
Ġl ee
Ġl aaaa
Ġl age
Ġl unt
Ġl oka
ell l
ell ar
Ġis ang
om an
Ġre b
Ġre act
ice s
ar ting
ou zi
il alamin
Ġan a
pe h
pe cah
Ġe ve
Ġe aster
Ġe hehehe
Ġsh p
Ġsh aa
Ġsh ari
Ġsh ared
Ġsh aken
ut as
ut ive
ri ve
Ġand a
Ġi j
Ġk le
Ġk ee
Ġk wn
Ġk ucing
Ġy upi
ag nya
Ġseller ny
ay ar
Ġprice goods
Ġbe et
Ġal k
Ġal le
Ġal be
Ġal igned
Ġwith stand
Ġwith ered
Ġwith draw
Ġu y
Ġu hh
ve il
Ġsm al
Ġsm inggu
Ġsm akin
ch l
ch ina
am m
se mo
aa ii
aa ahhh
ke w
Ġface s
ue ue
Ġv aries
Ġv ague
Ġj b
Ġj f
Ġj et
Ġj ung
Ġli mp
Ġon kir
ap t
Ġyou uuuuuuuuuuuu
im ut
ah hhh
Ġrespon n
Ġrespon ny
Ġne got
Ġch ac
Ġch urch
Ġch aff
ok y
ok ke
ok kk
ur al
ur ur
st ru
Ġso y
ere fund
un n
Ġr ant
Ġr amp
Ġr gb
Ġr ods
ir ob
Ġlo i
Ġlo o
Ġlo ans
Ġnice e
pr ising
bs is
ong rass
Ġare n
ff y
Ġha b
Ġcon cept
Ġcon sec
Ġag in
use ful
Ġun willing
Ġun limited
Ġse hat
Ġac ak
Ġex sp
Ġtr apped
Ġdo ank
Ġdis i
Ġdis satisf
Ġfr og
Ġfr ames
Ġbl j
Ġbl o
cei ved
Ġsa udi
hh dhd
pt enth
Ġwr y
app arent
Ġbr oss
Ġdi re
Ġdi ed
Ġdi jual
Ġdi pesan
aaaa at
Ġme h
ope k
Ġship out
Ġbo z
Ġbo gus
Ġmu gs
Ġmu atnya
Ġim pr
li x
ca but
Ġco al
Ġco ats
fe eding
Ġpo o
Ġpo sh
Ġpo pped
kk a
Ġmuch i
Ġsatisf ctory
ft o
Ġus h
Ġbag os
Ġneat er
Ġce par
Ġpl ot
Ġpl um
Ġpl anggan
Ġlight en
ng gk
Ġout ernya
cri pt
dh ood
dh and
Ġsk en
Ġsk arang
Ġhand ker
Ġcomp ose
Ġ5 55555555
ks l
Ġrep u
Ġrep ent
Ġrep ay
Ġbit es
Ġbit ch
Ġbit ten
Ġmer ry
Ġgr oom
Ġgr asp
Ġless ons
edi ent
pect ive
Ġri bet
Ġcondition ed
Ġsp am
Ġsp ike
Ġskin s
ge cewakan
Ġter l
Ġter li
Ġsaf i
Ġwe alth
let e
Ġpa o
gg anan
be at
Ġexp os
Ġdiff cult
Ġcust amer
su ede
Ġph ili
Ġsy antikk
Ġab cdefghijklmnopqrstuvwxyz
Ġab ayas
Ġget away
Ġpurch sing
Ġkn a
ci y
Ġjg an
Ġjg ak
Ġsteady steady
si zes
Ġdr umah
wh u
Ġple asing
Ġke adaan
we h
Ġhad uh
Ġbad ge
bag ian
ac in
Ġmo cca
Ġhands free
Ġte k
Ġhow l
Ġmake over
Ġcor n
own er
Ġsc o
Ġsc anned
Ġcr oc
Ġcar r
ip od
not ch
Ġsal able
bagus a
aw o
ber ries
br ary
bo le
Ġfun c
Ġfun d
jd f
jd bd
mm s
Ġperfect ion
Ġthink ers
Ġdefin ition
Ġdefin itive
Ġcl ot
Ġng o
Ġng r
Ġng order
Ġng deliver
Ġres ulting
Ġcou zic
ep as
ep end
Ġsuk i
Ġtop ic
Ġrecom ent
Ġrecom ded
Ġlet oy
but i
Ġko le
Ġko yak
Ġinc ons
packing ny
Ġcle ft
uk aaa
uk uran
uk atnya
reen ya
az a
Ġphoto book
Ġmas yaallah
Ġem ak
Ġz a
Ġz one
Ġpart ly
de al
Ġcard io
Ġda an
Ġung lued
Ġatt iude
Ġwal ker
Ġhard ness
Ġsub standard
Ġsub sequ
Ġbook mark
Ġmk apal
Ġtight ness
ahah ah
Ġpay ed
Ġ7 2
Ġsur vey
Ġmak sim
Ġpen ipu
Ġmust y
kw ard
Ġman ic
Ġna iship
Ġinter face
gr abe
Ġmot iv
Ġcush ining
cept ible
Ġcons ent
Ġap aa
Ġap ric
Ġstock ing
Ġstock pile
wr ite
wr apping
Ġhar am
Ġmar aming
Ġpas o
Ġpas ss
Ġpas min
Ġbal ing
Ġrem arks
Ġreview ers
anan a
ex quisite
tq q
Ġlow ered
bd n
Ġq o
Ġrepl en
Ġlang anan
Ġtest y
Ġav ai
Ġber ubah
Ġglass nya
Ġbel ts
Ġbel ittle
Ġbel oved
Ġsmp ainya
ni at
Ġma o
Ġma id
Ġweight s
Ġsound ed
Ġconsider ably
Ġtext ile
kkkkkkkk kkk
Ġpar ag
Ġrel oad
Ġcorrect ion
Ġdong ker
Ġfol der
Ġmark er
Ġker os
Ġker opi
jo y
Ġsn ake
Ġsn ails
band ing
Ġbott led
uuuuuuuu uuuuuu
Ġincl ined
Ġmag order
Ġend ure
che ese
Ġprot r
Ġba ca
Ġind is
Ġind ustri
Ġind epend
mb al
Ġmah h
Ġmem o
Ġmem br
Ġimport s
Ġleng thy
spe cif
Ġmis cell
Ġum ptenth
Ġsw oll
Ġlam in
ty pe
vv v
Ġdet erg
xx x
Ġver mic
Ġharga x
Ġgam as
Ġgam br
nx kd
Ġbat a
Ġdec ade
Ġkm n
par ah
Ġer aser
Ġgap ing
Ġsukaa kk
Ġwatch ed
Ġcas hew
Ġbh gian
some one
Ġadvert ise
Ġbrush ed
Ġsun light
Ġsun set
Ġspill age
pa at
Ġlin ens
Ġpaket ny
Ġaman nnn
Ġru le
Ġnyamp ainya
Ġlid s
Ġinde finitely
Ġ13 5
Ġgar ments
Ġbany k
Ġbany aaak
gggg gg
Ġsign ed
Ġner ima
Ġconsum ed
cc c
Ġdk asi
Ġopport unities
Ġwin ner
Ġkayak ing
bat r
bat re
Ġ14 4
Ġbes ttt
Ġdin ner
Ġfore head
Ġtong s
Ġbrng ny
Ġbed aa
Ġfigure d
Ġket ch
Ġaddress es
Ġbanyak kkk
eee er
trim ksih
Ġbul ging
Ġta o
Ġlem ongrass
zzzz z
Ġkualitas ny
sem ua
Ġwonder fully
cle an
me jo
hhe h
hhe hee
Ġmini ature
Ġbahan nyaa
Ġkek irim
Ġappro ve
hari an
peng irman
Ġloc ally
Ġsll er
dhdh dhdhd
Ġ17 5
Ġpet nya
Ġpouch nya
Ġcup board
amb il
ett el
Ġpull ing
Ġkem bal
Ġliquid nya
Ġdef end
ssssssssssssssss ss
ndnd nd
Ġglad den
Ġmain land
Ġcomb ine
Ġtel komsel
Ġmus cle
Ġmus lin
Ġterimakasi hhhhhhhhhh
hat ikan
Ġjait anya
Ġmel ar
Ġappreci ation
Ġti ada
Ġton ic
Ġpel astik
uri ous
Ġkom p
Ġbol ster
bbbb b
Ġhor ror
Ġhor rified
Ġcontrol led
Ġfirm er
Ġms alah
Ġkain nya
Ġtough ness
Ġpant esan
xh xh
Ġvi ettel
ige on
Ġ09 2
Ġbubblewrap nya
bdbd bdbd
Ġdil apak
Ġsii hh
alhamdul il
Ġpkp b
Ġmantaa bb
Ġsust ain
olog ical
however they
Ġaccount s
Ġmoder ation
Ġsemu any
Ġsemu anya
Ġsemu anyaa
Ġpump ing
kual it
jz jz
Ġtur tle
pd ate
Ġpop ulation
Ġtoler ated
Ġdissapoint ing
tw ice
Ġbak all
Ġdisapp inting
Ġbene ath
hd bd
jc jc
Ġoper ating
Ġcy lin
Ġawet tt
Ġbagusssss sss
Ġenak kk
Ġcapt ions
Ġkere eeee
jam in
Ġocc urs
Ġbagusbagus bagusbagus
Ġuh uy
Ġdecei ve
Ġsbl h
Ġden ied
Ġbother ed
Ġintegr ated
Ġbangeeet ttt
Ġelectric al
Ġbangettttt ttt
Ġtang ent
Ġbner an
Ġadap tor
Ġkecew aaaa
Ġalhm dulilah
Ġwarn anyaa
Ġtn ks
Ġbias anya
Ġprepar ing
Ġdun no
Ġloos ened
Ġgrand children
Ġsting ing
Ġflu ores
Ġpw ngiriman
zh z
Ġremind ed
ihih ihih
Ġdrag ging
Ġtam bh
Ġnan o
Ġgil er
Ġgil ak
Ġrecomm anded
Ġsurv ved
Ġtut u
Ġbay i
Ġsha ver
Ġprest o
Ġbin der
40 5739713
Ġpres ident
Ġsuck ed
Ġcel ana
Ġbd an
Ġwhit eness
Ġflour ish
Ġinflu x
Ġmim i
hehehe h
ksk ss
Ġdistribut or
cont act
Ġdir um
Ġcoun ting
ayy ayayayay
Ġpron ate
Ġvo al
Ġchew ing
Ġspo ilt
Ġcoup les
Ġmeticulous ly
xg dh
xg mx
Ġpap aya
Ġjad ii
Ġtrick y
Ġbreast feeding
Ġnewsp apers
Ġmut ually
Ġreflect s
Ġconcl ude
Ġpom pom
Ġkilo gram
Ġgri pe
Ġgri ppy
Ġmksi hh
Ġblow er
inst ant
Ġnom ernya
Ġasl inya
Ġupgr aded
Ġveget able
Ġcert if
Ġkre se
Ġhehehehehehe hehehehe
Ġbolong nya
Ġmik ir
Ġsmok ing
Ġorch id
Ġpret entious
jjf jfjf
syuk aa
bas ic
Ġdaw et
Ġcorru ption
Ġbrack ets
ooooo ood
Ġakhir ny
ckck ck
Ġdispat ched
Ġjog ja
Ġfrees ize
Ġrug i
Ġoriginall l
Ġstrugg led
Ġcardig annya
Ġ123 4567890
Ġgard ening
cccc cccc
Ġinvest ig
Ġful f
Ġheadach es
29 29
dur ation
Ġsid oar
Ġster il
Ġchil dhood
rofo am
Ġdisconn ect
tqtqtqtqtqtqtqtq tqtqtqtqtqtqtqtq
Ġht m
Ġlif etime
roph obic
5555555555555555 5555555555555555
Ġari rang
Ġmun af
Ġhih ii
Ġjl n
Ġjim at
Ġjoo s
Ġcob aa
Ġspat unya
gaa da
Ġyi eld
impro ve
impro ved
Ġpngr man
jahit anya
Ġdap t
pem giriman
whe ther
Ġresil ience
Ġdiscont inued
Ġjatoh nya
Ġhorizont al
Ġgall on
acc oding
Ġexclus ively
Ġpup pet
Ġchap ter
Ġscatter ings
Ġsidewal k
Ġsidewal ks
Ġmisunder standing
Ġsempurn a
Ġbout ique
Ġdash ing
Ġalo ever
Ġconvers ation
Ġpharm acy
Ġforecast s
Ġinfl atable
Ġstith ing
Ġcomplex ion
Ġsque ak
conn ect
Ġoren s
Ġris ky
Ġngad ain
Ġeyeli d
Ġtuspin nya
Ġditingkat in
cra ft
Ġdelight ed
Ġyouuuuuuuuuuuuuuuuu uuu
Ġrepa id
Ġphu ket
Ġdisg usting
communic ate
incred ibly
ertyuiop asdfghjk
Ġidi ot
Ġrick ety
Ġappar el
Ġhija u
Ġaust ralia
Ġcree k
Ġanch or
Ġstere o
Ġbarr els
Ġtestim ony
Ġsuspic ious
Ġkinv ara
quest ion
Ġshab by
Ġjut ek
Ġokoko okok
Ġconsi ered
Ġfundam ental
Ġende avor
addition al
Ġunbe atable
Ġmesk ipun
Ġdicob aa
Ġtabar akallah
Ġdeodor ant
Ġrepurh ase
Ġdrastic ally
Ġaddi ction
Ġsophist icated
prid uk
xits kg
Ġght k
Ġalbe it
irob ilalamin
apparent ly
Ġhandker chief
Ġphili pp
Ġcouzic ouzi
Ġsubsequ ent
Ġswoll en
1 20
8 9
a us
a et
a ci
b m
b q
b ss
b ong
b hh
b ac
c ay
c am
c art
c ub
c aps
c ats
d an
d ust
f ur
f ter
f ord
f urn
f our
f ier
g j
g ab
g si
g ible
g ila
h l
h ay
h eld
h eart
j al
j bs
j ja
j jdjd
k id
k ny
l ots
l ines
l icate
l xgmx
m and
m um
m sh
m ouse
n ity
n ame
n dh
n sive
p g
p q
p ast
p nya
p ig
p ond
p annya
q t
r w
r ay
s j
s ab
s aw
s abl
s bnrnya
t n
t in
t ape
u ot
u ately
u be
v il
v dh
w ind
w ahh
w ala
x m
y uh
z g
z jx
z oy
Ġs ush
Ġs jd
Ġs gini
Ġs letingnya
Ġt bel
Ġt ask
Ġt ahun
er el
er et
er ia
Ġa ck
Ġa pt
Ġp ent
Ġp ist
Ġp amp
Ġp pl
Ġp igeon
in ue
Ġth ic
Ġth reat
el ines
Ġg ion
Ġg nt
Ġg mb
Ġg iman
al h
al ny
al thugh
Ġb x
Ġb ok
Ġb ca
Ġb ake
re pre
Ġo g
Ġo at
Ġo int
Ġo me
Ġf t
is ss
Ġd v
Ġd or
Ġd ks
Ġd ksih
Ġd aah
Ġd mn
Ġd andy
Ġd azz
Ġc ay
Ġc ga
Ġc aaa
Ġc ire
Ġw w
Ġw ol
Ġw ahh
an nt
ed s
Ġgood fast
Ġthe ses
Ġpr n
ce nd
ct ive
ct ors
ing redient
Ġm ice
Ġm ya
Ġm ase
Ġm ny
Ġm ie
Ġm dah
Ġm aps
Ġm ump
en ne
es en
Ġn th
Ġn gh
Ġn gin
Ġn nn
Ġn ash
Ġn to
at ang
at ry
at ially
Ġh l
Ġh us
Ġh cm
Ġh hhh
Ġh ors
Ġh ti
Ġl c
Ġl od
Ġl al
Ġl asih
Ġl sau
Ġis h
Ġis i
Ġqu an
Ġproduct nya
Ġquality very
Ġquality the
Ġquality well
Ġre ct
Ġre new
Ġre submitted
Ġre wad
Ġto ast
Ġto tt
Ġdeli ious
Ġe ta
Ġe eh
Ġe pis
ck up
Ġsh u
Ġsh ri
Ġsh ush
Ġsh amb
Ġdelivery good
le ak
Ġi z
Ġi hh
Ġk ag
Ġk ue
Ġk rim
Ġk ont
Ġk ua
Ġk ute
Ġk aret
Ġk cepatan
Ġy ar
Ġy ab
Ġy ayay
ag ers
ag uin
ag amit
ag onal
Ġseller x
ast ikin
Ġin ver
Ġin fect
Ġin ev
Ġin pods
Ġbe te
Ġal um
Ġal esan
ank ly
Ġfa i
Ġfa re
Ġfa des
Ġu rban
ch h
ul i
ul s
ul in
ul is
ul an
am d
am sung
se al
aa b
aa akk
ad just
ad vert
Ġsho ppers
ol shop
Ġsu ma
Ġv int
Ġv ials
Ġv xgdh
Ġj ing
Ġj ur
Ġj eng
Ġj aga
ak itnya
ain in
Ġok kkkkkkkkkkkkkkkk
Ġvalue product
Ġch on
Ġch af
ur d
st ed
st ic
st retch
st aff
Ġso aking
Ġwh ip
Ġwh iff
ust omed
um bo
un od
un nya
Ġr ank
ir it
ant umin
id uous
Ġlo p
Ġlo cks
Ġbu let
Ġbu cks
ort ing
tt ier
Ġcom for
bs bz
ang in
ang anya
all ure
Ġwell and
Ġas eli
ff ron
Ġha iz
Ġha bit
Ġcon vert
Ġheart beat
Ġag ile
Ġun satisfied
Ġun subscribe
Ġun improved
ess age
Ġsi ep
Ġsi pppppppp
Ġsi iii
Ġse ka
ic ut
ic ious
com b
com pet
Ġtr z
Ġdo ong
Ġdo orm
Ġdis p
Ġdis res
Ġdis pose
Ġdis cover
Ġdis impen
Ġmat ibay
Ġde w
Ġde eeh
Ġfr u
Ġfr ing
Ġbl ah
ter y
Ġsa pe
Ġsa ffron
hh x
hh dhdhd
app ucino
lo ving
Ġbr s
Ġbr av
est y
Ġdi f
Ġdi i
Ġdi ing
Ġdi pack
ure t
per i
per form
Ġme pet
ope fully
Ġar ini
Ġpre cious
Ġacc ustomed
ite ks
sh are
sh ine
Ġat as
op us
ig ence
uu pdate
Ġgreat est
Ġad ver
Ġad her
Ġbag nya
Ġbag ian
ai in
Ġce aaaaaaaaaaaaaaa
Ġce oat
Ġpl k
are p
Ġover wh
Ġam d
Ġam at
act ive
Ġsk rang
eng kap
eng ecewakan
Ġya allah
Ġny s
Ġny x
Ġny ep
Ġstar ch
he ck
Ġred em
ks es
ks js
Ġrep orts
Ġpict nya
Ġcont amin
Ġsome body
Ġgr ill
Ġgr ind
Ġgr acious
Ġgr inder
Ġclo ak
Ġsuper glue
Ġsubs d
pect ed
Ġen abled
Ġher o
Ġri z
Ġ4 6
Ġbang eeeeeeee
Ġle bay
pack ets
pack ignya
urn uhun
Ġter b
Ġter jang
Ġter niat
Ġmay outfit
be y
Ġexp res
su dh
Ġaf rican
Ġsec inta
Ġph oned
Ġsy ari
Ġpurch aser
Ġx mas
Ġx pel
Ġtw el
ist a
Ġbub bled
Ġmant aff
Ġmant aaaaaaaaaaaa
Ġcustom s
si w
Ġdr p
Ġdr one
Ġfl utter
ind o
Ġimmediately will
Ġdam it
we k
ja uh
Ġtran fer
Ġhad eh
Ġstr ang
Ġ10 80
Ġmo h
ung an
Ġhapp ening
Ġsc otch
wn w
Ġcr pat
Ġcr ates
Ġcr umble
Ġcontin uing
Ġback ing
Ġpair ing
Ġcar i
Ġcar ving
Ġcar amel
Ġsal icy
Ġneed ing
aw at
ber kali
Ġsay ah
Ġsay ng
Ġreal ict
br iliant
Ġchat ty
Ġbar uu
Ġbar cod
Ġdah al
Ġdah il
Ġdah hhh
Ġlu p
Ġlu bang
Ġgl ide
und a
js nns
Ġcl im
Ġcl otes
Ġng ga
Ġng asi
if ier
ash ati
Ġres on
Ġres igned
Ġ6 6
Ġ6 90
Ġsuk aaaaaaaaaa
Ġtop up
Ġtop ical
Ġtop notch
Ġmin ato
Ġmin eral
Ġgu ddd
Ġcle at
uk uret
Ġfitting s
Ġni acin
Ġmas alah
super fast
Ġact ively
Ġsel mat
Ġsel anjut
Ġreg ulate
de gan
Ġterim aa
Ġdirect ions
Ġbon es
00 00
Ġtransport ed
Ġyaa k
Ġdat en
sm art
sm ua
bel in
Ġimp re
Ġrecomended d
Ġel mo
Ġka ung
Ġ7 3
Ġsad istic
Ġmak ny
Ġmak aksih
Ġpen gin
uh in
Ġgan ito
Ġpu bg
Ġwhere ver
Ġman i
Ġman if
Ġinter im
Ġmur aaaa
Ġpok ed
Ġsim p
ns ks
Ġhar aga
Ġhar usnya
bl h
bl ank
Ġcre pe
asi ble
Ġcost mer
Ġcost ume
Ġcost emer
ner awang
Ġcushion y
fit ted
Ġthankyou uuuu
Ġadv antages
Ġsin iteks
Ġbs oknya
bd bxbx
Ġtak de
Ġq wr
Ġq ty
Ġsl ender
Ġsl anted
Ġmakasi hhhhhhh
Ġrepl ica
wor se
Ġber b
Ġber untusan
Ġmantul llllllllllllllll
hhhhhhhh hhhhhhh
Ġak in
Ġscr unch
elf on
Ġleg o
Ġyellow ed
Ġass ign
Ġass umed
Ġass uming
Ġma ci
Ġgener ic
Ġsound ly
Ġtu y
ger i
Ġconsider ation
kkkkkkkk k
Ġpar is
Ġnge bl
Ġses uwai
Ġdik iri
iz ers
rem ote
Ġsqu at
ye ayy
Ġfol ks
Ġcompl ains
cew aa
Ġaw ry
Ġaw kward
Ġprodu l
Ġsubst atially
kn it
Ġplay anan
sg sh
comfortable and
Ġsang a
Ġsang ad
Ġfort unate
Ġhalf way
Ġdri pping
Ġind om
Ġind ented
unt uk
Ġcrack ing
Ġmurah hhhh
Ġflo ps
Ġky o
Ġdifficult ies
Ġsw ab
Ġlam m
Ġlam aaaaaaa
Ġpic nic
Ġprin ce
dis app
Ġang el
Ġnag reply
Ġbuild ing
Ġkay anya
Ġdet ected
xx hdd
Ġpower ed
Ġtet ap
Ġhol ders
Ġsat uu
speed y
Ġgam uat
nx nnx
Ġdec ry
Ġdec iduous
cu co
Ġcontact ing
Ġlum p
Ġgap ake
Ġkal u
Ġkal ok
Ġsweet ness
Ġmal es
Ġsangat tt
je ie
Ġbrush nya
Ġdem i
Ġcommunic ated
Ġspr ings
Ġsign ature
Ġpn h
Ġhahah aa
Ġkh ong
top s
aaaaaa for
Ġtoe box
Ġconsum able
ser um
Ġbi y
Ġbi bs
Ġ25 62
stick er
stick ers
Ġfle ece
Ġmakas iiiii
rrrr rrr
bang us
dhd bd
Ġpengirim aan
box ed
Ġdecent ly
Ġfresh ly
Ġket auan
oooooooo oo
Ġmed ication
Ġaccur ately
eee h
gu ard
cl xitskg
Ġra isins
Ġjnt nya
Ġbul u
look ed
ses u
Ġband s
Ġband age
Ġbrang x
fr ame
Ġcontr oller
Ġadjust ing
nf xkh
Ġcount ries
Ġroom s
recommend ations
Ġpke k
can vas
cer ies
Ġcake pp
hhhhhhhhhhhhhhhh hhhh
Ġbur den
ede h
Ġkek ur
Ġsteam ed
Ġteng ah
Ġrock et
jh gf
Ġfam ous
Ġlh oo
Ġsave ty
Ġiron ing
Ġstri pping
Ġstri pped
Ġpem g
jsj jsjsj
Ġearr ngs
Ġhop es
Ġlain nya
Ġama ann
Ġkat any
Ġtemper ament
Ġrece ption
Ġmus cles
Ġterimakasi hhhhh
Ġsystem s
Ġmaa ksih
Ġprefer ential
Ġlamp u
jg f
Ġton ed
Ġpel an
Ġkas oh
Ġorg asm
Ġconsist ency
Ġveil s
Ġdib eli
bbbb bb
res ult
Ġfire works
bf j
Ġissu ed
kh xj
fl at
Ġdim ension
Ġdim ainin
Ġmail ed
Ġbangee ett
Ġlips ick
jdj dd
Ġhg aaaaaaaaaaaaaaaa
fh f
Ġchance s
Ġbring ing
also the
Ġuni verse
Ġanti que
Ġsii ppp
Ġcocok lah
Ġchick ens
fo am
Ġtk ut
alhm dul
uw ag
kl w
Ġmanual s
kx j
Ġpop corn
Ġterus ssss
Ġactiv ation
Ġdeng ab
Ġbun ga
key board
Ġjs jsj
Ġcy cling
Ġbbr apa
requ ested
Ġeyel in
ji w
Ġgem ess
Ġvac ant
Ġworld wide
Ġplan et
Ġconsult ation
Ġstraw s
Ġsket ches
Ġks ong
Ġbank note
Ġnex tt
Ġping gir
Ġlembut t
Ġtang ible
Ġgentle men
Ġmuken ah
car pet
Ġtn p
Ġcep aaatt
jdjdjdjd jdj
Ġdun k
Ġmoment arily
Ġtick et
Ġpend ulum
Ġbum ps
Ġjun ior
Ġfract ured
okee okee
Ġens uring
Ġsport ing
Ġmass ive
Ġtit an
sim ply
Ġremind s
Ġtam pered
Ġnan em
Ġjel ekk
Ġwan der
Ġplast ikin
wl w
Ġfu el
Ġsha ved
Ġngeb antu
want ed
Ġoct opus
Ġek petasi
Ġreorder ing
Ġpercent age
Ġkurang in
du illah
Ġlaah kre
Ġrack et
Ġclamp ing
blue tooth
feel ing
Ġtan pa
alk hamdulillah
Ġtruck ing
Ġcaps ules
Ġshin ip
Ġdot ted
frag ile
Ġprosp er
bagusbagus bagusbagus
Ġgit uuu
Ġvo ichat
Ġjad iin
sek ian
Ġrg aaaa
Ġrg aaaaaa
post age
sau cony
Ġbarakallah u
Ġjat im
Ġgri pping
fi ber
yah hhhh
Ġopt ical
Ġopt imal
Ġcrop s
Ġeks pektasi
Ġeks pektas
Ġbagusssssssss s
Ġintell igence
need less
62 35
bol ong
hel m
Ġdul uu
Ġsupple ment
dik irain
Ġxd ak
Ġged he
Ġdnd jd
Ġhic cup
gggggggggggggggg gggggggg
sd ikit
Ġrim med
Ġtarg ets
bas ically
Ġprop eller
wang i
Ġexagger ation
Ġmakasiiii h
Ġventil ated
makas iih
assalam u
Ġpenger imannya
Ġbatr ainya
Ġencour aged
dit khxj
Ġsab unya
Ġgum agana
Ġchu bby
Ġinsyaa allah
Ġtun ed
Ġdab est
Ġkut ukuret
Ġmantaaaa p
pill ows
pow der
Ġann ual
Ġceaaaaaaaaaaaaaaaa aaaaaafor
Ġluvv v
Ġpour ing
Ġdau gter
Ġcop ies
Ġcoco a
Ġkebes aran
Ġkho ir
Ġkus em
Ġster of
arom a
Ġfaint ly
Ġbaguuuuus ss
Ġsubscri pt
Ġpaking an
sli gtly
Ġreass ess
Ġteen agers
Ġfoc allure
hhehehehehe he
Ġtables po
Ġisol ation
apr il
Ġimmed itely
Ġchemical s
fol low
Ġnod a
Ġdipl astikin
Ġdianter in
Ġexpens es
Ġze bra
Ġstrict ly
Ġgando sssss
Ġdetermin es
Ġbosk uh
Ġclimb ing
Ġzen fone
Ġdrift ed
Ġcint aa
Ġnick ed
Ġkor an
Ġsukab arang
Ġ0997129 15
Ġpine apple
Ġthu ong
Ġyuh uu
Ġconvers ion
Ġkrudung nya
Ġmaklum in
Ġhahh aha
Ġmines amsung
Ġsampain y
pengemas anya
jait an
Ġeth ics
Ġgro ceries
Ġsyukk a
Ġundert and
Ġdistin uished
lumaya an
Ġbast a
Ġdup licate
Ġmantu ull
proper ly
bint ang
Ġbq sm
Ġbaguuuuuu us
Ġmanta omantap
Ġdama ed
serious ly
Ġinvis ible
anggung jawab
Ġnive a
Ġunr avel
Ġphil ips
Ġemph asi
Ġsubordin ates
Ġdomin ant
dab est
jok erto
Ġprid uk
ompl en
Ġcommit ment
incl uding
assem bled
Ġkent el
Ġtrli hat
Ġrestrict ive
Ġcycl one
wid th
Ġsess ions
Ġfib ers
Ġlou der
Ġfac ility
Ġspeck le
spark les
Ġsecon dhand
Ġngl upas
Ġterimam akasih
Ġbench mark
Ġekped isinya
Ġokokokokokokokokokokokokokokok ok
Ġsynch ron
tempor ary
Ġhampe h
Ġhond a
Ġquaaaaaaaaa asssssss
Ġshru gging
Ġkbs aran
Ġstik er
sepat u
Ġsuw un
Ġabl ution
Ġnges elin
Ġpengep akan
Ġnutri ents
Ġfatig ue
Ġincompat ible
Ġmack erel
chl xxhdd
Ġconsec utive
Ġrepu blic
whu if
Ġmiscell aneous
Ġdeterg ent
Ġvermic elli
Ġ092 6235
Ġcylin der
Ġbagusbagusbagusbagus bagus
Ġfluores cent
Ġfulf illed
Ġsidoar jo
Ġmunaf ie
ertyuiopasdfghjk lz
bac co
sabl on
Ġdazz ling
ingredient s
Ġmump ung
Ġrewad ee
Ġepis ode
Ġshamb les
Ġinev it
Ġoverwh el
clxitskg xn
nfxkh chlxxhdd
ditkhxj clxitskgxn
Ġquaaaaaaaaaasssssss aaaaaaaaaaaaaaaaaaaaaaa
nfxkhchlxxhdd lxgmx
0 1
4 9
5 3
7 9
8 1
9 10
a js
a ign
a unya
b jd
b ungkusan
c b
c f
c is
c ck
c ure
c pat
c row
c jf
c ision
c lip
c andy
d pt
d os
d ata
d aughter
d alem
e i
e ous
g ay
g ung
h one
i est
j id
j ee
k b
k il
k un
k ard
k anya
l oud
l arger
l bh
m om
m ap
m ir
m ong
m ab
m ight
m dulillah
n w
n ss
n kak
n dhd
n asty
o ing
o ise
o ek
p end
p ure
p ha
p aking
q is
q whuif
r ase
r ga
r man
r eliable
s ke
s llu
t ng
u el
u dd
v t
v ol
v av
v jv
w m
w hh
w ife
x a
x e
x ia
y ear
y nya
y ahh
z v
z ero
Ġs ine
Ġs orrow
Ġs vs
Ġs bi
Ġs rm
Ġs pert
Ġs perti
Ġt ss
Ġt amp
Ġt ung
Ġt aint
Ġt bt
Ġt ko
Ġt sel
Ġt ahan
Ġt ayo
er k
od k
Ġa im
Ġa ah
Ġa ven
Ġa che
Ġa ux
Ġa ften
Ġa ustrian
Ġp q
Ġp ir
Ġp uu
in v
in for
Ġth q
Ġth s
Ġth ak
it ated
it ty
it izer
el it
Ġg ay
Ġg ah
Ġg eng
Ġg our
Ġg rid
Ġg eez
Ġg oooooooooooooooooooooooooooooooo
al m
al ain
al ang
al inya
Ġb aaaa
Ġb owing
Ġb ie
Ġb ond
re ck
re comm
re jection
Ġo eng
Ġo mm
Ġo ught
Ġf d
Ġf ath
Ġf jf
Ġf reenya
Ġf urious
is er
Ġd and
Ġd bl
Ġd ys
Ġd ana
Ġd ede
Ġd dddddddddddddddddddddddddddddddd
Ġc ang
Ġc ung
Ġc rimp
Ġc ongrat
Ġw b
Ġw oi
Ġw reck
an z
an ing
an ess
an nnn
an cies
Ġgood ly
Ġgood goodgoodgoodgood
Ġpr i
ce a
Ġm elet
Ġm eeeee
es end
Ġn age
Ġn our
Ġn we
Ġn ac
Ġn av
Ġn ons
Ġn ito
Ġn urse
at ives
or r
or se
or iman
Ġh x
Ġh int
Ġh atch
as ya
as sssss
as eline
Ġl b
Ġl r
Ġl ore
Ġl ately
Ġl ach
Ġl atch
Ġl ari
Ġl aced
Ġl nc
Ġl wt
Ġl td
ell igent
qu oise
Ġis iny
Ġqu ad
Ġqu ic
Ġproduct good
om ic
Ġre e
Ġre k
Ġre nd
Ġre no
Ġre vers
Ġre ader
Ġre infor
th j
th aste
th anx
ar anya
ou ette
Ġto x
Ġto ward
il es
Ġan h
pe ace
Ġe b
Ġe o
Ġe go
Ġsh aker
ot as
ot ive
ot ine
us er
us ive
le tt
ri h
ri r
ent uk
ent ea
Ġof course
Ġit tt
Ġi gt
Ġi bang
Ġi yaa
Ġk end
Ġk ate
Ġk art
Ġk ale
Ġk cl
Ġk iy
Ġy t
Ġy on
Ġy ess
Ġy abg
Ġy ards
Ġy ork
ag an
ag le
Ġin fin
Ġin order
Ġin cent
Ġin ject
Ġin nis
Ġin elastic
Ġin adequate
Ġst d
Ġst ood
Ġst ack
Ġst ir
Ġst ink
Ġst igma
Ġst urd
Ġbe ep
Ġal h
Ġal way
ome ter
ank an
Ġu u
Ġu pro
ch in
ch us
ch ick
ul ah
ul ang
am n
am ide
am ik
Ġspeed ing
se kal
gh s
gh ly
ad ong
ad ine
ad mit
ad eliver
ke cepatan
Ġfast ener
good ly
ol s
ol ored
Ġsu e
Ġv anget
Ġv aseline
sp ace
Ġorder rr
Ġj en
Ġj il
Ġj amb
Ġj reng
Ġli brary
Ġon ti
Ġon coming
ow o
ow sy
ak x
ak ers
ap o
ap in
ap apa
im ents
im press
im medi
ah ed
Ġrespon nya
em a
em an
Ġch im
ok annya
ur able
ur ities
ther n
st an
Ġso s
Ġso aps
Ġso iled
um ph
un it
un os
un known
un satisfactory
un believably
Ġr h
Ġr x
Ġr ly
Ġr ins
ant ly
id ious
Ġlo an
Ġlo oo
Ġlo gged
Ġcom ic
bs jsjs
ang al
ang ga
ang annya
ang anku
Ġup coming
Ġwas s
all hamdulilah
Ġwell packaged
Ġas kew
ff h
Ġha e
Ġcon es
Ġag ing
Ġag gri
Ġun friendly
Ġun lock
Ġsi y
Ġsi bl
Ġse ized
Ġse bener
Ġse ben
ic ara
Ġac cesories
Ġmy im
Ġex pr
Ġtr g
Ġtr ol
Ġtr ang
Ġtr ns
Ġde o
Ġde bes
Ġbl and
Ġbl akang
ter baikk
Ġsa c
Ġsa fty
hh r
hh sh
Ġno bility
ee ppp
app pp
Ġdi ch
Ġdi order
Ġdi ction
Ġdi vers
Ġdi aku
Ġrecei ves
ate board
Ġship ed
Ġbo il
Ġhe bat
Ġpre ttier
li it
li ft
ca wa
fe w
Ġpo oh
kk dk
kk sk
Ġshipping good
Ġpro suk
Ġpro port
Ġpro hibited
Ġmuch hh
Ġmuch hhh
Ġbg o
Ġbg ss
Ġbg eet
Ġshoes i
Ġlove e
Ġga b
Ġby ak
Ġce k
Ġce o
Ġpl oduk
Ġpl stik
Ġlight est
ng et
ng ny
Ġpi xy
Ġpi kir
Ġout sole
ih ihi
ven ience
Ġam using
Ġstu bb
Ġhand phone
Ġhand made
Ġbgt bgt
eng ah
Ġya ud
Ġcomp ound
Ġny ed
Ġny impen
Ġfe asible
he ight
ous ly
ks m
Ġrep re
Ġfriend liness
rim annya
Ġper kir
Ġper mintaan
Ġmer ries
Ġkak aa
Ġgr am
Ġgr ants
Ġclo the
Ġclo gged
Ġsuper rr
iss a
Ġen a
Ġsp elled
Ġcut ter
Ġbang o
Ġle is
Ġter in
Ġter uk
Ġter mantul
Ġwe imar
any akin
Ġpa free
be el
be gin
Ġexp nya
su w
su bhan
Ġab iz
Ġwould n
Ġx pa
Ġx nk
Ġx ixix
Ġx muat
dd f
Ġprices good
Ġslow respon
os is
Ġimm idi
Ġmant aaaaaa
Ġmant uuuuul
ud y
si an
Ġdr ove
Ġdr mh
Ġdr owsy
Ġfl aming
Ġfl aky
Ġbubble wrapped
Ġke ged
Ġke banget
Ġke pan
Ġke pencet
Ġke buang
Ġke cepetan
light er
ka os
Ġbanget tttttttttttttttttttttttttttttttt
art i
bag is
ac cess
ll q
ll ah
Ġstr aining
Ġmo g
Ġmo jokerto
Ġte ope
Ġlot us
Ġblack ened
Ġhapp iness
Ġsc or
Ġcr um
Ġcr ate
Ġcr appy
nd ise
nd kd
ip al
ount ain
irim anya
Ġint ol
Ġpe as
Ġpe gas
br ous
Ġbar rier
Ġbar abg
iiii ih
Ġsee p
Ġgl am
Ġtri umph
Ġtast ier
und y
js g
js kk
js jx
Ġcl erk
Ġng n
Ġng aaaa
Ġpeng e
Ġopen er
Ġopen ings
Ġ6 7
Ġsuk se
Ġsuk aaaaaaaaaaa
Ġconf usion
Ġrecom eded
mant abs
Ġret ained
uk u
Ġfo il
Ġsamp ling
Ġoke hh
Ġoke eeee
super r
Ġsel ali
Ġshort fall
Ġ9 2
Ġprov is
get ting
Ġkr ang
Ġrepe ating
irm asi
Ġda isy
tr nyata
Ġatt ack
Ġatt ahed
bu agus
bb c
sm ga
bel t
bel ah
Ġbonus nyaa
Ġtrim ss
Ġunder arm
Ġbab el
Ġbab get
Ġpost ers
pl ic
Ġbook marks
Ġcepat ttttt
Ġel ected
Ġdisc reet
Ġbaby ku
Ġ7 4
Ġprom ising
Ġcomm end
Ġmak s
Ġmak sh
Ġrefund able
dddd dd
min s
Ġbng at
Ġpen ang
Ġtrust ees
Ġgan n
Ġgan jel
Ġpu ck
pre mium
Ġman iss
Ġman nt
Ġman ik
Ġinter f
Ġinter ference
gr an
gr ade
ket nya
Ġwater ing
ori a
ori zed
Ġap es
Ġfunction ality
Ġstock ings
ns angat
Ġbah n
Ġbah us
bl nja
bl anja
Ġcre me
Ġbri dge
Ġ12 9
Ġmar ble
ton ya
Ġtem pel
Ġrem ax
Ġfoot ball
cious ly
lu am
Ġbs knya
bd kd
Ġtak nak
Ġpat ent
to e
Ġsl ots
Ġmakasi hhhhhh
Ġlag iiiii
Ġlag iiiiii
Ġber puas
Ġmantul llllllll
Ġak ala
Ġak hr
Ġscr ap
Ġbel ak
jj k
Ġpoint ed
Ġma ju
Ġflash ing
buy ers
bar akallah
bar amg
Ġwash i
Ġwash es
Ġhead lights
Ġnh o
kkkkkkkk kkkkkkk
do ang
for got
Ġins a
Ġtap iiiii
Ġnge cw
Ġses au
Ġmiss es
vel ess
Ġrel ay
Ġsty rofoam
Ġdik o
Ġdik uri
Ġdik abarin
iz iz
Ġdong gg
ye aay
Ġker opp
Ġaw l
Ġaw ake
ssssssss s
Ġfre ak
Ġfre edom
Ġbreak er
kak s
kn ow
Ġsek arang
Ġhair cut
Ġdep art
Ġdep ict
Ġkok onya
mb cch
af i
Ġleng an
Ġleng ket
Ġmis lead
Ġpuas ssssss
Ġsw ak
Ġlam g
Ġlam aaa
Ġprin ipal
dis posable
Ġair pod
Ġnag k
Ġhell ok
Ġpk ony
Ġnat ured
Ġlip bal
Ġlip stik
Ġcap able
Ġdry ness
Ġcur l
Ġcur led
aph il
Ġuseful ness
Ġug reen
Ġbet cha
Ġrelie ve
uus ss
Ġpokok na
Ġhat urnuhun
Ġaj aaa
ayan in
set s
Ġuk r
Ġuk ran
aaaaa at
Ġcontact s
Ġlum ps
Ġrekom en
Ġscreen ing
Ġku walitas
Ġsampe i
Ġmal am
Ġmal ambot
emas annya
Ġlay out
Ġnight g
Ġye ayy
jf g
bg tt
bg uss
je ck
je ke
some how
Ġsand isk
Ġexped ited
sk al
Ġbt re
Ġsam api
aah ahh
Ġkual itass
Ġkual ias
Ġaman ahh
eeeeeeee eee
Ġcommunic ations
Ġnyamp enyaa
ahh ahahahah
cust mers
Ġgar is
Ġpast ry
Ġpn p
Ġhahah ha
Ġ19 99
Ġsing let
Ġremo val
cc er
Ġbi anget
Ġnak amura
Ġpos thaste
Ġwilling ly
Ġgas ampe
Ġmeet ings
Ġfle a
Ġbas in
ker ry
jx bx
Ġcolle cted
Ġpengirim na
Ġrough ly
Ġtable cloth
Ġwalk in
wrap nya
Ġdin aikin
Ġdin iliver
Ġanak ku
Ġmarket s
sel er
ds d
Ġket tle
Ġket utup
Ġsyuk aaaaa
Ġredu ces
Ġprotect s
Ġmed j
kd ksksks
Ġappe aling
Ġappe aled
pass ble
Ġbul uk
Ġwind y
Ġlem b
Ġ18 5
Ġmen gh
Ġmen urut
put ed
Ġten kyu
ses ua
Ġgre ase
Ġrm ah
Ġchar ming
Ġrecomend eed
cr acked
Ġpin a
Ġpin aship
Ġkeren nnnn
cle ans
wa jah
nnnnnnnn nn
nnnnnnnn nnn
Ġcir culation
Ġkek urang
jh g
jh j
jh s
Ġslee veless
Ġarm rest
Ġmb aa
Ġlh o
mas an
Ġstiff er
df s
Ġpouch es
Ġinsh aa
jsj ss
jsj sh
bz vz
Ġexist ed
ett es
Ġdef ets
Ġwrn any
Ġscrew ed
ndnd n
Ġconnect ing
jang an
Ġseg ar
Ġwood y
Ġpromot ed
Ġtel at
Ġtel ekung
Ġmel ting
Ġprefer ence
Ġlamp unya
jg x
vid ing
Ġkas ii
jw b
Ġ29 9
Ġclick s
Ġbol sters
Ġdib ungkus
Ġremain der
bf bf
kh im
Ġabsorb ency
fl on
lum yan
Ġfirm ware
Ġrot ary
sc ales
Ġnet ting
Ġspong es
Ġvi u
Ġguy ss
Ġbw at
Ġfal tered
Ġdil uted
vvvv v
Ġmh al
Ġnare cieved
Ġsour ces
anj ing
anj ur
Ġhum or
samp aii
bn b
bn r
alam ualaikum
Ġmold ed
Ġtid al
Ġhd ear
mu ant
mu antap
Ġautom ated
shsh sh
Ġpencil s
Ġmks iih
str ap
kual itass
Ġsak en
Ġhs l
Ġalhamdul ill
Ġalhamdul illh
Ġtur quoise
Ġskali an
Ġspot ty
Ġdeng n
Ġtt ap
Ġcommon place
Ġoper ated
Ġudah h
Ġcounter fe
Ġpert ama
Ġpert ma
Ġpengemasan ny
Ġmid sole
Ġcapt ious
Ġtin ry
Ġflav ored
Ġded ek
Ġspir al
Ġretri eve
Ġpark ing
Ġbos que
Ġlead s
Ġnam es
Ġant em
Ġant agal
Ġkel uarin
lik es
Ġnap kins
sangat t
Ġadap t
kz kz
ungkus nya
bot tom
Ġfurn ished
Ġbeg un
Ġwarn any
Ġproject or
Ġsesu ay
Ġspring y
Ġtok ong
Ġgaes ss
Ġcer uty
Ġkul iatas
Ġpend rive
Ġbum mer
reg ard
Ġbarangny aaa
Ġsb nernya
Ġpra ised
Ġkon firmasi
Ġjun k
amazing ly
Ġjual anya
Ġpelapak nya
ado in
Ġcompens ated
Ġkd ang
Ġngel uarin
Ġburn s
Ġnan am
Ġstamp ed
Ġxs ama
Ġngeb as
Ġpres ents
Ġkeb aya
du per
Ġsr ing
Ġgoo g
Ġmiz unos
Ġreci ved
Ġking dom
Ġach es
Ġcanti kkkkkkkk
chang ing
produ ck
Ġharm ful
hhhhhhhhhhhhhhhhhhhhhhhhhhhhhhhh hhhhhhhhhhhhhhhhhhhhhhhhhhhhhhhh
Ġviv a
Ġtru z
Ġswim wear
Ġneighb oring
Ġfav o
pu un
ahi ya
Ġras p
Ġhade hhh
Ġdistribut e
kes etnya
Ġdir aguin
bbd bd
bbd bdbd
luck ily
Ġts aka
Ġgit uh
Ġnxt ym
Ġpap alah
Ġjad inya
Ġrus akk
iner ation
Ġsump ahh
Ġblg nya
Ġdeduct ing
Ġpengirm annya
Ġdikit t
Ġhem m
Ġdikirm nya
Ġconv in
Ġappoint ed
Ġtm pat
jdjdjd kdksksks
Ġcub a
Ġwat ts
Ġcx a
Ġwag ner
Ġpregn ancy
Ġhighlight s
Ġdeter mine
Ġki el
Ġprt ahank
hel ai
success fully
Ġapproach able
Ġtingkat kn
Ġbatch es
Ġcamp ing
Ġramad han
Ġsatis ying
Ġfuck ing
Ġmonit ored
Ġcrit ical
medi ocre
Ġdang o
km rn
Ġoutlet s
Ġhasil ny
Ġxt au
Ġxt ra
reason ably
Ġnem u
avi ation
sil ver
Ġbeng et
Ġbange ut
Ġgn aw
Ġemot ions
kul aitas
Ġpon akan
Ġprovin cial
Ġbuang ett
Ġrespos ible
amer a
owow owow
Ġbran ches
Ġallerg ies
Ġmengecew akn
wy wy
Ġder ived
Ġhahahahah a
Ġrecipient s
Ġwig gle
Ġlov in
perh antaran
Ġspin ner
cca bly
Ġari gat
Ġhous es
Ġkick s
Ġjoo b
Ġselet ing
Ġpembeli ku
Ġenvironment ally
Ġore o
Ġmnd arat
Ġhap enya
engg ol
Ġminn ie
watch es
Ġsiss y
Ġpod ium
Ġpier cing
muk ena
yuu i
Ġamp li
Ġadvis ory
Ġassist ance
Ġdefic iency
Ġwkwkwkwkw k
match ed
tip iss
Ġtor ch
Ġgall ery
recent ly
Ġmart in
Ġvirt ually
Ġdistur bed
Ġdistur bing
Ġpotato es
vdvd v
Ġox id
Ġnamp ol
Ġspeech less
lmy n
Ġblaz er
Ġnganter in
hahah a
Ġheh eee
Ġmono cle
previous ly
ogog oh
Ġmacar oni
Ġdikemas nya
Ġstith es
Ġjake t
Ġjake tnya
Ġrc vd
Ġtrav elling
Ġfray ed
Ġdescri bes
Ġflood ing
Ġcray on
Ġaccomod ate
Ġdigun ain
pokok nya
tow el
resp nse
Ġreze ky
Ġspect ac
Ġjn ji
Ġund ies
Ġampun nn
Ġxper lu
Ġpengrim annya
Ġrestri cted
Ġjujur r
Ġkiriman nya
Ġgrace fully
slo bbery
viv ogogoh
Ġsci ence
Ġau ction
Ġace h
Ġcere al
Ġsham rock
rig id
kec ill
Ġaspect s
Ġmater nity
Ġdropshi per
Ġmengecewak ann
Ġmari a
Ġrecy cled
Ġimple mentation
Ġsincer ity
Ġentr usted
Ġelimin ated
breat h
Ġedi ble
Ġecho es
ullo h
Ġdispens er
Ġesc orts
Ġburg undy
Ġdumat ng
Ġgermin ation
fault y
Ġgene ally
Ġsunn is
Ġshimm er
Ġintest ine
lumay ann
Ġikhlas in
counter feit
Ġcig are
Ġimpe ccably
activ ate
Ġaband oned
lux ury
Ġdkirim nya
Ġsharpen er
Ġfen ders
Ġques ion
Ġrul er
Ġkeingin an
Ġscram ble
Ġmagh rib
Ġpopsock et
miz uno
Ġdissatisf action
Ġsco oter
Ġfunc ion
Ġincons istent
Ġpaso brang
Ġavai able
405739713 405739713
Ġcertif icate
Ġaloever a
Ġphilipp ines
Ġoint ment
Ġhors es
Ġvint age
Ġcomfor able
Ġdoorm at
Ġdisres pect
Ġadver ised
Ġtwel ve
Ġniacin amide
bdbxbx hd
disapp inted
result s
Ġeyelin ernya
Ġtitan ium
ertyuiopasdfghjklz xcvbnm
nfxkhchlxxhddlxgmx mbcch
Ġtbt b
Ġaften oon
Ġcrimp ed
Ġlnc ar
Ġquic ly
Ġrevers ed
Ġinnis free
Ġupro oted
admit tedly
Ġjamb i
Ġsibl ings
Ġproport ional
Ġstubb orn
Ġpegas us
Ġkeropp i
jdjdjdkdksksks bdbxbxhd
nfxkhchlxxhddlxgmxmbcch ditkhxjclxitskgxn
4 8
6 4
7 3
8 3
8 6
9 3
a el
a ver
b in
b li
b ric
b js
c n
c ity
c ya
c ate
c ope
c uu
c ond
c ug
c repe
c amera
d ak
d um
d ug
e an
e bel
f n
f on
f il
f ah
f uck
g im
g mn
h k
h oney
h ide
i very
i jab
j ing
j ar
j un
j kn
j ump
j ilbab
j empol
j umbo
k is
k ut
k ur
k oo
k aaa
k lu
k ira
k arena
l p
l x
l ai
l astic
l ater
m ol
m dd
m aint
m ksi
n u
n as
n js
n baik
o bs
p f
p ag
p op
p ai
q a
q v
r ad
r ose
r ude
r oof
r andom
s v
s nya
s ich
s ama
t el
t al
t ol
t old
t idy
t itude
t ui
u is
u ah
v f
v oi
w s
w ich
w inder
x ual
x ie
x js
x ix
y dy
z u
z el
z bs
Ġ ust
Ġ ert
Ġs ain
Ġs br
Ġs da
Ġs okay
Ġs gn
Ġs bh
Ġs sip
Ġs care
Ġt sp
Ġt tt
Ġt ies
Ġt aw
Ġt bh
Ġt men
Ġt ngan
er er
er iman
Ġa in
Ġa ya
Ġa irt
Ġa ward
Ġa ided
Ġa yan
Ġa yo
Ġp ah
Ġp ess
Ġp are
Ġp gi
in ct
Ġth ay
Ġth under
it or
el ver
el amat
Ġg v
Ġg y
Ġg th
Ġg tt
Ġg hn
al allalal
Ġb orders
Ġb nk
Ġb anned
re seller
Ġo p
Ġo ok
Ġo oo
Ġf on
Ġf iikum
Ġf ountain
Ġf tonya
is l
is ters
Ġd th
Ġd ut
Ġd ting
Ġd orm
Ġd ying
Ġd pa
Ġd ndnd
Ġd aster
Ġd dddddddddddddddddddddddddddddddddddddddddddddddddddddddddddddddd
Ġd cek
ver u
Ġc f
Ġc il
Ġc ik
Ġc ement
Ġc aves
Ġc pett
Ġc rick
Ġw aged
Ġw adi
an itizer
ed isinya
Ġgood product
very very
Ġpr duk
ce ng
ce peet
Ġm odu
Ġm ary
Ġm ls
Ġm mmm
en akk
en cies
es kripsi
on o
on ing
on et
Ġn el
Ġn ation
Ġn up
at ap
Ġh uu
Ġh ers
Ġh eeee
Ġh ana
Ġh shs
Ġh uuh
as is
as ic
as ik
Ġl p
Ġl ith
Ġl int
qu alitas
om a
Ġquality good
Ġquality product
Ġre aaa
th nx
th ailand
ar ate
eli p
eli ke
ou ble
Ġto pppp
il ai
il of
Ġan gin
pe es
pe oduk
Ġdeli vey
Ġe ga
Ġe mm
Ġe eee
Ġe books
Ġe agle
ck c
Ġsh ld
Ġsh atter
Ġsh uff
Ġsh akes
ut ny
ot in
ot ing
ot on
ot op
us astic
le ep
le bih
le men
ri al
ent ually
Ġit o
Ġit am
Ġit uu
Ġi jo
Ġk ol
Ġk amp
Ġk edu
Ġk ami
Ġk fc
Ġk sekian
Ġsell rnya
Ġy oo
Ġy ampe
Ġy ub
ag ree
ast es
Ġin a
Ġin ert
Ġin love
Ġin secure
Ġst unk
Ġbe gini
Ġbe coming
Ġal r
Ġal lo
Ġal ign
Ġal titude
Ġu a
Ġu i
Ġu og
Ġu cu
Ġsm pee
ch s
ch et
ch sia
ul ist
am x
am aa
am age
se em
aa ih
aa ha
Ġpack e
gh ant
Ġsu uka
Ġsu kkk
Ġsu pin
Ġv v
Ġv ivid
sp ent
Ġj ck
Ġj ane
Ġj rs
Ġli g
Ġli ck
Ġli ved
Ġli zard
ill l
et in
et ely
Ġon ge
and i
ak kk
ak enya
ak kkk
ak ban
Ġval u
em g
em br
Ġne z
Ġne ci
Ġch ut
Ġch uc
Ġch uan
Ġch ronic
ok ing
ok elah
ur uh
st ain
st iff
Ġso bra
Ġso gog
Ġso ccer
ust rophobic
um i
um nya
um ma
un ik
un satisfied
un akan
Ġr ising
ss o
ir u
id jd
Ġbu kaa
tt ps
pr actical
bs js
bs bbs
ang kat
Ġup reg
so sos
ong an
Ġwas her
all ic
Ġas ian
ff t
Ġha wa
Ġag d
Ġun ch
Ġun fair
ess ential
ess uks
Ġsi iiiiii
Ġse cepet
Ġse bab
Ġse gede
Ġse bulan
Ġse bijik
Ġmy b
Ġex asper
Ġtr og
Ġtr mkasih
Ġdo ve
Ġdo ctors
Ġmat a
Ġde ee
Ġde pre
ick s
Ġfr m
Ġbl z
Ġbl us
ter a
ter ol
ter nya
ord ination
Ġsa ii
Ġsa ves
hh shsh
Ġno is
Ġche ek
Ġbr os
est im
Ġlong ish
Ġdi pe
Ġdi ap
Ġdi po
Ġdi harap
int elligent
Ġcan on
Ġtoo o
Ġtoo oo
ii riman
Ġim per
Ġhe x
Ġhe ating
Ġhe hhee
Ġpre form
thank fully
fe et
Ġpo ok
Ġpo ooo
sh er
sh it
sh own
sh oul
kk j
kk l
kk dkdk
kk oj
kk dkdkd
Ġpro ph
Ġpro pose
Ġpro bbly
Ġbg tttttt
Ġshoes very
op ed
Ġlove joy
Ġga an
Ġga uge
Ġany how
ig ing
Ġcomfortable but
Ġgreat i
Ġus ps
Ġad verse
ab ah
ab ras
Ġbag uuuuuuuu
oun ce
Ġce pt
Ġpl anned
Ġlight ness
Ġunt u
Ġday time
ng ah
Ġout fits
Ġover he
Ġover view
dh x
Ġam g
Ġam aaaaan
Ġam puun
Ġsk g
Ġsk al
Ġsk sk
Ġhand body
Ġnext nya
Ġcomp ass
Ġny adar
ks b
ks nd
Ġrep urch
Ġcont ro
Ġcont orting
Ġper a
Ġper baikin
Ġmer ely
Ġsome hing
Ġpur p
Ġmerch ndise
Ġdes ig
Ġdes ires
Ġri jek
Ġri view
ny ta
Ġsp elling
Ġsp reinya
Ġcut ie
Ġcut eeeee
Ġ4 20
Ġ4 000
out ed
ge h
Ġgi ant
urn a
Ġter t
Ġtry ta
Ġsend ri
Ġpackaged item
any un
Ġfree ze
su ggest
Ġsy angnya
Ġsy ring
Ġx n
Ġx ah
Ġx ada
our ing
Ġtw e
ci vivogogoh
nt y
Ġeven tho
os a
os es
os ir
amp ai
Ġapp li
Ġimm ense
Ġmant aaaaaaaa
si e
si u
Ġdr amat
Ġple k
Ġlah hhh
Ġke u
Ġpes o
Ġhi j
Ġhi kss
Ġdid eskripsi
ja bs
bag g
bag ua
ail ang
ll h
ll s
Ġgo als
av an
Ġstr ands
Ġmo ves
Ġte ens
Ġte flon
Ġjo ger
Ġjo hns
Ġcor on
Ġcor rep
Ġblack list
Ġsc out
Ġsc ouring
Ġcr ave
Ġcr umb
Ġwork er
ange ett
Ġback ed
Ġcar riers
nd i
nd id
Ġoff ing
Ġsal h
Ġsuccess or
Ġint im
Ġint ens
Ġpesen anku
Ġpe ac
Ġpe ps
Ġpe ppa
okok ok
okok kkoj
Ġsay ank
Ġhigh est
pen yok
Ġbar ber
Ġbar bar
Ġpass ing
Ġfun ct
pat tern
Ġlu a
Ġsis st
Ġgl as
Ġtri ps
ik h
js nd
js ksk
Ġcl in
Ġcl imate
Ġng eli
Ġng emas
Ġng atur
Ġng itung
Ġng irit
Ġhehe hhehe
Ġres in
Ġres ell
Ġres our
Ġpeng iman
Ġsuk as
Ġmin s
Ġdent ing
Ġadd it
Ġko sher
mant aapp
Ġret i
Ġret ak
Ġret ired
Ġret ract
Ġinc ineration
uk i
uk up
Ġsamp enyaa
Ġref orm
Ġni y
Ġni hhhh
Ġni yo
mo on
Ġphoto cop
Ġmas y
Ġmas cul
Ġcould nt
Ġem eral
Ġact s
Ġsel mt
Ġsel amaat
Ġ9 7
ro h
Ġshe en
de cor
Ġterim aaa
Ġterim aka
co ff
Ġda un
tr ay
Ġsem po
Ġatt ribut
bu ild
bb h
Ġdat enya
Ġhard case
bel ance
Ġbonus an
Ġbonus ny
Ġtrim z
ari an
Ġrest art
Ġear ings
pl ish
Ġmk ash
po in
po le
Ġdisc s
Ġfin s
Ġka ft
Ġbaby nya
Ġbaby doll
Ġprom inent
Ġcomm encing
Ġmak an
Ġcreat ing
form er
Ġbng ttt
Ġfrag ant
Ġpu ol
Ġpu aass
Ġpu ashati
kw alitas
cs cs
Ġman e
Ġna pe
Ġinter val
Ġeff etive
Ġnorm lly
pro cess
pro cated
Ġmot o
Ġmur h
Ġbarang y
Ġbarang anya
Ġpok ona
Ġap lik
ns k
Ġsol asi
Ġsol idly
Ġsol atip
Ġcre st
Ġcre scent
Ġcost um
Ġcost omer
Ġwar nya
Ġwar ming
Ġwar ned
Ġmar riage
Ġtem pting
king nya
Ġrap iiiii
Ġsin s
Ġsin esend
Ġproper ty
ex cess
Ġbre ed
aman ah
Ġje an
Ġber cak
Ġmantul lllll
Ġscr oll
Ġcream er
jj cjc
Ġpoint y
shi pper
bar ag
bar anh
Ġmil ky
Ġtu en
Ġtu ong
Ġdeal t
Ġgun ung
Ġenth usastic
Ġnh aaa
kkkkkkkk kkkkk
Ġpengiriman nn
Ġpar as
Ġpar aaah
Ġho op
Ġho arse
Ġho bby
Ġins an
Ġins ist
Ġins ane
Ġins ulation
Ġtap s
Ġtap iiii
Ġenthusi ast
Ġses ue
Ġses usi
bh dh
vel ed
Ġrel ish
Ġdik urangin
iz ernya
rem ind
ye yy
Ġcompl aining
Ġmark ings
ssssssss ssss
ath ome
Ġtrimakasih trimakasih
ph om
ph ys
Ġlack ed
kak k
Ġext ent
Ġext ends
Ġbright en
Ġsn are
Ġsn eng
uc uc
Ġxl nya
Ġsubst antial
Ġsle bih
Ġsek rang
te a
Ġdep anya
Ġincl usion
Ġsil ly
pppppppp ppppp
Ġplace ment
iii hhh
Ġmudah an
Ġba im
Ġba uny
Ġind ia
unt a
has il
Ġmah hs
cil an
Ġmem e
Ġmis car
Ġpuas sssssss
Ġum i
Ġsw eep
Ġsw apped
Ġair line
Ġnag chat
Ġpad u
vv h
Ġhuh uh
ky k
Ġread s
Ġread able
ru ff
Ġnat angg
pal ing
sy udah
iin n
iin ya
Ġstretch es
jsjs n
aff airs
Ġdu ly
Ġgam ble
Ġgam itin
Ġopp osed
Ġaj alah
Ġdec ades
over night
Ġah ihi
mmmm m
Ġsen ders
Ġfavor ably
Ġsmpe k
Ġkm u
Ġbener r
Ġlum inous
Ġscreen shot
gk ir
gk usan
Ġkal oka
Ġcas ually
Ġku ching
Ġku akitas
Ġcot on
Ġmal functioning
Ġob edient
Ġfix ing
Ġye ast
Ġbh sa
Ġrubber y
Ġdest inations
jf d
jf kf
graph ed
cy on
Ġsangat bagus
Ġsangat te
Ġsand wich
man irrah
exp iry
Ġflow s
go sh
Ġpick les
Ġhehehe hee
eb ak
Ġaman h
Ġcam ni
amat anya
Ġgar n
ump ahh
Ġpn as
Ġhahah ahahahahahah
Ġkh t
Ġkh og
Ġheel ed
fy fy
Ġsing ing
Ġsing les
Ġ16 7
Ġ16 8
Ġzi pped
Ġeng r
Ġeng gk
long er
Ġexpedition ary
Ġwin ce
Ġspeak s
complet ed
Ġpot onya
Ġbas ag
sent ation
Ġkayak s
Ġ201 3
ti fin
Ġinexp nsive
jx h
Ġpengirim in
Ġpan cakes
Ġbes tttt
Ġdin a
Ġwaste ful
Ġinf onya
Ġbed ding
Ġbed sheet
Ġsyuk aaaaaa
Ġpill s
Ġpill ing
Ġbanyak kkkkk
kd ks
Ġlab elled
bx h
cl h
cl cl
Ġdan i
oles terol
Ġfear ful
Ġwind ing
Ġcho pped
Ġmom my
Ġlem bu
Ġmen yesal
Ġtouch screen
ask in
Ġselect ive
Ġgre aness
Ġgre entea
lam m
yyyy y
Ġadjust s
cr ushed
Ġpin ag
Ġbro om
by mi
wa x
did nt
Ġhijab nya
jh f
vious ly
Ġmaroon nya
Ġarm or
Ġcell op
Ġlh t
Ġiron man
Ġstiff ness
Ġsatur ated
df h
Ġble pot
Ġpag kad
rep air
Ġcup nya
hr hr
Ġserious ness
jsj js
Ġmix ing
Ġlain n
Ġconnect ions
Ġconnect icut
Ġbis aa
Ġled nya
book ing
Ġwood s
Ġcomb ining
Ġgambar nya
Ġmus im
Ġbb w
Ġcent ered
Ġwkwkw kwkwkwkw
Ġberk h
wow w
Ġti pping
Ġcuc oo
Ġkas ar
Ġkas ut
Ġkas ya
jw iw
Ġmng ecew
Ġide as
Ġcutting an
Ġclick ed
Ġart isan
Ġart icles
Ġcepe ett
Ġcepe ttttt
ahahahah ahahahahahah
Ġfi brous
Ġlap is
Ġlap isin
Ġtas nyaa
Ġet ong
Ġdib ers
Ġdib anyakin
Ġwed ges
aaaaaaaaaaaaaaaaaaaaaaaaaaaaaaaa aaaaaaaaaaaaaaaa
Ġcoff e
bf h
cul ate
Ġcord s
Ġtil t
Ġrot a
Ġrot ated
sle ep
Ġdim in
Ġms lah
Ġtag al
Ġcla ustrophobic
Ġswitch es
vs vs
Ġger ce
Ġexpl ore
Ġexpl ains
ev entually
Ġzig activate
xh x
Ġdic ancel
Ġkaa ih
Ġ09 16
Ġtengky uuu
Ġsus u
Ġsus ceptible
Ġslim y
Ġdil akban
Ġmad ura
Ġtread s
Ġanti ques
Ġkit ten
Ġhy pe
Ġmantaa appp
ob viously
samp i
Ġdig it
Ġdig its
Ġdig amab
Ġsust ained
kal o
Ġprior it
however i
Ġpig gy
Ġbow ed
Ġbole ella
Ġmnt p
Ġmakasii hhh
Ġjar ang
pn jual
Ġorgan izer
dl ers
Ġfant asy
Ġpop ulist
Ġom ni
Ġspot ting
Ġgand aaa
Ġbun ions
Ġbun yi
Ġign oring
Ġign ati
kus an
Ġbath ing
Ġken k
Ġkli hatan
Ġjs jdjdjdkdksksksbdbxbxhd
Ġmul berry
Ġdecor um
terimakasih terimakasih
Ġbhan ny
Ġting gi
Ġ300 00
Ġgem s
Ġmam ak
Ġbetul in
bes aran
mur ce
comfort ably
comfort abl
Ġsket ch
Ġks l
Ġkil os
Ġ08 38
tqtqtqtq tq
Ġscam mers
Ġabras ion
Ġeconom ically
prom ise
Ġsix th
Ġsg uro
qq q
Ġlift ed
Ġforeign ers
Ġglo be
Ġnap o
Ġbuck led
Ġtraff icking
Ġelectric ally
exc ited
Ġdesk ri
bah ann
Ġfond ly
Ġnie ces
Ġsipp lah
Ġmaxim al
Ġhay y
jjjj j
nam on
bw t
dat ang
Ġkec ii
dus nya
Ġstor ks
Ġskit ar
brng nya
Ġrequire ment
Ġnakak ad
aj an
wait ing
Ġpor ous
Ġcred ible
Ġtooth pick
Ġsear ched
Ġcloud y
sequ ential
Ġfu chsia
Ġcg uro
Ġnyes ek
Ġham pered
Ġvirus es
Ġdiper t
Ġrefle ction
Ġdece it
Ġkeb ayar
Ġmoisturi ze
Ġsr moga
Ġspl ash
Ġspl attered
Ġmick y
Ġurg ently
Ġsmu aa
Ġtan am
Ġmr ah
Ġreci procated
Ġreco end
Ġbasket s
Ġsciss or
certain ly
Ġtoko x
mak er
Ġdad dy
cont ents
Ġprim arily
Ġukuran ny
loc al
Ġpreser vation
Ġsump ahhh
pppppppppppppppppppppppppppppppp pppppppppppppppppppppppppppppppp
Ġinsp ire
Ġinsp ired
Ġjump ing
Ġheav ily
Ġeli gible
Ġgant ung
Ġjat uh
Ġjud ging
ssssssssssssssssssssssssssssssss ssssssss
Ġpotent ial
fi eld
Ġbangettttttttt tt
Ġpolish ing
Ġdol phin
Ġkard usin
Ġsooooo o
Ġbagusssssssss ss
Ġbagusssssssss sss
Ġtrimakasi hh
Ġwlw pn
flex ible
off ers
ribu an
Ġcontempor ary
Ġcamp us
Ġuniform ity
Ġmelt s
Ġtebell l
Ġafford ably
Ġdb ungkus
Ġren spon
Ġloop s
Ġexagger ating
Ġbelanj an
Ġnem uin
Ġalert s
Ġsettle ment
water proof
Ġbeng kok
Ġshoel ace
Ġsab un
Ġ55555 55
Ġguid elines
Ġparticip ated
Ġstrugg ling
stitch ing
eez ers
Ġpket nya
Ġann ounced
Ġaes th
Ġbod o
tqtqtq q
Ġ099 57
asukasukasukasuk asukasukasukasuk
Ġsebelum nya
Ġcounsel or
oop s
Ġbaw ah
Ġfest ive
Ġsett ling
Ġremark able
Ġhumid ifier
Ġmotorcy cles
dish onest
inter est
Ġjour n
Ġsyuu uk
Ġresid ual
Ġstabil ization
Ġenvironment al
Ġtny ta
Ġnil ai
Ġrum ayan
Ġbant uin
Ġcet ar
Ġcip utnya
tract ive
Ġpenj ul
Ġbaguuuus sss
sang t
Ġhon or
pem bohong
oooooo ood
zzzzzzzzzzzzzzzz zzzzzzzz
mzmz mzmz
hmm hmhmhmhm
Ġpli able
Ġnurs ery
ieie ie
Ġditunggu in
Ġtrend y
cun cun
match ing
Ġxr ugi
Ġjazakillah u
Ġbam get
Ġinno cent
Ġvirt ual
okoko jojo
jsjsjsj jsjsjsj
qqqq qqqq
Ġox ford
Ġnamp ak
Ġbosk uu
Ġlegging nya
nnz nz
Ġtriang ular
bear ing
kind a
Ġamby ar
Ġcin namon
Ġpharm ac
Ġjazakumullah u
Ġobser ved
Ġbater y
Ġkup u
Ġcray ons
ttqtq ttq
lol oko
tow els
Ġgom awo
Ġdice k
Ġress eller
Ġokokokokokokok oko
Ġdismant led
Ġfeat ured
Ġundert one
Ġrestri ctions
Ġpenju all
Ġdepth s
Ġeyeli ds
33333333 33333333
fraud sters
Ġmort ar
terimakas iih
Ġtod dlers
Ġemerg ency
joj okokkkoj
joj okokojojo
Ġdropshi pper
scam mer
Ġcult iv
person ally
Ġbangettttttttttttttttt ttttttttttt
Ġlengk appp
Ġnakap lastic
Ġdirap ihin
bnt u
uhe uhe
Ġoer nah
Ġfis her
Ġmast ers
Ġpredi ctions
Ġgrape fruit
scr atch
Ġpim ple
Ġprick ly
Ġhen na
Ġsupr ise
Ġbangeeeeee eet
Ġglitch es
Ġalhamdulillahh irobilalamin
Ġsese uai
Ġukh ti
Ġborne o
pua as
rup iah
Ġpiss ed
Ġthab k
Ġguu d
Ġnim ble
Ġpharma cies
Ġdiscred ited
Ġwarr nty
Ġmarsh m
subst antially
Ġrejek inya
Ġrender ed
Ġperipher y
Ġsacrif ice
kud os
Ġcst mr
Ġsobe kk
Ġdifoto in
Ġnause ated
nsnsnsnns nsnsnsnns
Ġprofession ally
Ġcondens ation
nin ja
Ġapl g
Ġdion gkir
Ġcct v
Ġciv il
Ġreb ates
Ġalle vi
prising ly
Ġdisi ini
Ġgroom ed
Ġcroc od
Ġmaksim al
Ġapric ot
Ġparag raph
cheese cloth
Ġprotr uding
Ġmembr ane
Ġgamas alah
batr ai
Ġdirum ahaja
cub ic
gab isa
Ġack now
Ġshush ing
Ġdisp ute
Ġcontamin ated
Ġbarcod es
Ġqwr qwr
Ġsanga att
Ġkekur angan
yahhhhh yahhhhh
Ġhiccup s
mir ror
Ġlore al
Ġsturd iness
chick en
immedi ately
Ġaggri eved
Ġnyed ot
Ġperkir aan
Ġkebanget an
Ġprovis ional
Ġinterf ere
luam ayan
Ġlipbal m
Ġcounterfe iting
Ġampli fier
breath able
Ġdisrespect ful
Ġdorm ant
Ġucu civivogogoh
Ġupreg ulated
abras ive
Ġsyring e
Ġcorrep ond
Ġbarbar ic
Ġretract able
Ġemeral d
Ġmahhs uuka
Ġmiscar ry
manirrah im
Ġblepot an
Ġmngecew akn
Ġdigamab r
Ġignati us
asukasukasukasukasukasukasukasuk asukasukasuka
jojokokkkoj kkkk
jojokokojojo jojokokkkojkkkk
1 39
2 50
3 1
4 6
4 50
6 50
9 1
9 4
9 6
a er
a annya
a ustrian
b il
b ill
b un
b ord
b be
b ling
b ns
b ner
b ib
b kl
b inh
b anyak
c q
c all
c int
c ii
c arri
d m
d le
d lm
d elay
d bf
d apat
d asternya
e he
e ating
e fficient
f z
f ee
f av
f ung
f ade
f ict
f aded
f ailed
g it
g ag
g ul
g ah
g ee
g oo
g ous
g da
g itu
g emas
g entle
h j
h z
h ats
i ar
i ee
i ft
i ai
j b
j at
j et
j ud
j bb
j bd
j aya
j kd
j shs
k am
k im
k um
k iss
k jd
k uh
k ns
k di
l n
l ant
l id
l up
l sk
l anja
m w
m ou
m ff
m kk
m bar
m sg
m af
m sgs
m engecewakan
n or
n ii
n sm
n areceive
o in
o ating
o onya
p ain
p one
p rim
p ical
p airs
q c
q k
r p
r ope
r ough
r kk
s z
s ak
s ust
s aving
s ister
s atur
s umpahh
t it
t us
t ag
t ank
t ee
t os
t ik
t ouch
t ables
t akes
t lg
t alk
t astes
u ity
u aa
u ations
v ff
v dhd
w ere
w oo
w kw
x v
y el
y ayayayay
z m
z mz
z xcvbnm
Ġ ell
Ġs edu
Ġt th
Ġt ay
Ġt ue
Ġt ik
Ġt aller
Ġt mp
Ġt anj
Ġt ummy
Ġt ahi
Ġt nao
od i
Ġa aaaaa
Ġa sem
Ġp sg
Ġp sy
Ġp ods
in ny
Ġth t
Ġth irst
it ic
it ting
el ed
el es
el em
el ves
el iti
Ġg ord
Ġg app
Ġg he
Ġg amp
Ġg ater
Ġg ret
Ġg ps
Ġg oof
Ġg adi
Ġg yuui
al on
al ase
al ight
al mond
Ġb aut
Ġb ka
Ġb ery
Ġb ann
Ġb ana
Ġb dg
Ġb kt
Ġb awa
Ġb puas
re v
re go
re ams
Ġo w
Ġo z
Ġo ot
Ġo acking
Ġo pis
Ġo jol
Ġf c
Ġf ret
is n
is u
Ġd le
Ġd li
Ġd js
Ġd irm
Ġd ps
Ġd read
Ġd iny
Ġd bal
Ġd jjd
Ġd jdjdjd
Ġd uduk
Ġd jdjjd
ver ry
Ġc j
Ġc end
Ġc ried
Ġc cu
Ġc wo
Ġw s
Ġw us
Ġw ert
Ġw ished
Ġw ins
Ġw icking
Ġw eren
Ġw kkww
an c
an f
an i
an at
an cial
Ġgood d
Ġgood i
Ġgood will
Ġpr u
Ġpr ud
Ġpr olong
ce nce
Ġm pe
Ġm gh
Ġm our
Ġm aw
Ġm ener
Ġm gt
Ġm sy
Ġm iri
Ġm mmmmmmmm
Ġm rs
Ġm fg
en o
en ice
en gin
en ers
en ary
es el
Ġn it
Ġn ain
Ġn ik
Ġn ahan
Ġn ggu
Ġn uw
Ġn ambah
Ġn urunin
Ġn elfon
at ers
at anya
at tractive
or ay
or ow
or ign
or aph
Ġh f
Ġh z
Ġh ut
Ġh ir
Ġh ig
Ġh hehe
Ġh iih
Ġh qua
Ġh antar
as ak
as ain
as ui
as gas
Ġl er
Ġl us
Ġl act
Ġl ll
Ġl br
Ġl pas
Ġl ym
Ġl anj
Ġl anter
ell o
ell as
qu ee
qu een
Ġis end
Ġis time
Ġproduct very
om y
Ġre a
Ġre ven
Ġre size
Ġre att
ar na
ou fl
Ġto pping
il s
il ih
il ies
il aian
Ġan l
Ġan ab
Ġan kku
Ġe book
Ġsh d
Ġsh g
Ġsh angh
ot t
ot or
ot ant
Ġdelivery thank
Ġdelivery man
us j
le gging
le ys
le ging
ri ka
Ġit t
Ġit uuu
Ġit cubic
Ġi ps
Ġi con
Ġi yah
Ġk x
Ġk dk
Ġk uc
Ġk mb
Ġk pa
Ġk dg
Ġk sao
Ġk mbali
Ġsell le
Ġsell wr
Ġy k
Ġy n
Ġy s
Ġy ing
Ġy dh
Ġy ha
Ġy aaaaaaaaaaaaaaaaaaaaaaaaaaaaaaaa
Ġy akk
ag h
ag t
Ġseller so
Ġseller rrr
Ġin u
Ġin hal
Ġst ating
Ġst ump
Ġst ellar
Ġbe verage
Ġbe ki
Ġbe kas
Ġbe coz
Ġal arming
Ġal pha
Ġfa kes
Ġsm ape
Ġsm oked
ch un
ul ates
ul ator
am ong
am aaaa
am bo
am ins
Ġfor cing
Ġspe cks
Ġspe cies
se ger
se xual
aa ble
aa ap
aa annn
Ġpack in
Ġpack ges
gh g
ad ating
Ġthank ed
Ġthank kk
Ġsho re
Ġsho ots
ke o
ke cik
ol i
ol ics
Ġsu a
Ġsu pe
Ġsu ze
Ġv y
Ġv in
Ġv en
Ġv ow
Ġv ase
Ġv ga
Ġv ua
Ġv ents
Ġv ows
Ġv oro
sp at
sp ill
sp oon
sp reinya
Ġorder rrr
Ġj ay
Ġj ac
Ġj ep
Ġj ade
Ġj lek
Ġj angn
Ġli pet
Ġli ma
ill i
et ik
Ġon l
Ġon s
and ahan
ak is
ak ah
ak ab
ak ai
ap ik
ap ia
ain i
Ġyou uuuuu
Ġyou smile
Ġyou uuuuuuu
im g
ah u
ah at
em pet
em pat
em ony
Ġne o
Ġne west
Ġne geri
ght ran
Ġch ing
Ġch es
Ġch or
Ġch ess
Ġch unk
Ġch olesterol
ur ely
st als
Ġso an
Ġwh is
ust er
um ably
um ib
um ination
Ġr ape
Ġr sa
Ġr awang
Ġr usted
Ġr ails
ss ion
ir in
ya i
ya ampun
ant ic
ant akan
Ġbu av
Ġbu kn
tt er
Ġthat they
Ġserv ants
pr inting
ang ge
ang kan
Ġup ward
Ġup wards
so i
so p
all i
Ġlike e
Ġlike able
Ġlike wise
yes ell
Ġas i
Ġas se
Ġas ks
Ġas leep
ff le
Ġha jj
Ġcon do
Ġcon vey
Ġcon current
Ġag gl
Ġthanks thanks
Ġun k
Ġun le
Ġun com
Ġun ise
Ġun ik
Ġun packing
Ġun dis
Ġun ified
Ġun checked
Ġun covered
Ġun comfortably
Ġsi gh
Ġsi hhhh
Ġsi pppppppppppppppppppppppp
Ġse es
Ġse th
Ġse gin
Ġse ge
Ġse blm
Ġse perti
product ion
ic i
ic one
ic ular
Ġac rid
Ġmy vi
Ġmy ster
Ġex ert
Ġcol okin
Ġtr op
Ġtr unk
Ġdo ff
Ġdo gged
Ġdis et
Ġdis charge
ld ls
Ġmat eng
Ġde er
Ġde hhhhhhhh
Ġde af
Ġde comp
Ġde bt
Ġde bay
Ġ2 10
Ġfr ankly
Ġbl ng
Ġbl anj
Ġbl ends
Ġsa at
hh dh
hh shs
pt ic
Ġwor rying
Ġwr ape
ee eet
app roriate
app pppppp
lo p
lo st
Ġbr az
Ġbr unch
Ġbr uno
Ġbr kah
est imate
Ġdi o
Ġdi ver
Ġdi pes
Ġdi vi
Ġdi va
Ġdi anak
Ġall i
Ġall aah
int o
int imate
Ġme j
comm and
Ġbo at
Ġbo hong
Ġmu ah
Ġmu baj
ii ik
ii kkk
Ġim o
Ġim perfect
Ġpacking g
Ġpacking anya
Ġtp y
Ġtp os
Ġpre dict
li fe
ca o
ca keep
Ġco bak
Ġco ordination
Ġacc ident
fe c
Ġpo oo
sh a
sh ilof
Ġcheap o
kk n
Ġpro g
Ġpro grams
Ġbg aus
Ġat y
Ġat uh
op ic
Ġga x
Ġga bo
Ġany ting
Ġany body
ig at
ig raph
uu i
uu us
uu hhh
Ġcomfortable they
ft een
Ġad ik
Ġad uhh
ab c
ab d
ab as
Ġuse able
Ġbag a
Ġbag g
Ġbag ett
Ġbag uuuuuus
Ġpl angg
Ġlight ens
Ġunt ied
ng am
ng gu
Ġpi ping
ih ed
Ġover ly
Ġover due
Ġover eas
Ġover bearing
ven ya
Ġam aaan
Ġarri ing
Ġthan s
Ġsk r
Ġsk sjs
Ġsk ateboard
eng nya
ning s
Ġcomp reh
Ġny aaaaa
Ġny amb
Ġfe ver
Ġstar ter
Ġfri es
Ġfri ght
he a
Ġstuff y
ous es
ks g
ks an
ks jd
Ġrep ot
Ġrep airs
Ġnew belance
ass y
Ġper ception
Ġmer r
Ġmer it
Ġkak kkkk
Ġkak akk
Ġkak akak
Ġsome bymi
Ġgr ant
Ġgr ama
Ġgr aff
Ġgr illed
Ġgr osir
Ġclo g
Ġsuper s
Ġpur ely
Ġri pe
ny ari
ny aaaaa
Ġsp ice
Ġsp un
Ġsp ai
ric ane
Ġcut est
Ġbang tttt
Ġbox er
Ġshoe very
pack an
Ġter u
Ġter bar
Ġter percaya
Ġthem they
Ġwe bbing
any aaaa
gg le
Ġexp lo
Ġdiff ers
su z
su gar
Ġbig size
Ġph uc
Ġph ony
Ġsy uuuu
Ġab ang
Ġab use
Ġx ai
Ġx xx
Ġx inh
Ġx leh
Ġx xxxxxxxxxxxxxxxx
Ġx blh
Ġtw il
Ġtw eed
dd a
os y
Ġrun sepatu
Ġapp lies
Ġapp lique
Ġdur ale
Ġcute its
Ġmant p
ud ud
ud ahh
Ġcustom ized
Ġfl akes
Ġcare free
Ġlg y
Ġlg kp
Ġke h
Ġke ke
Ġke pal
Ġke cep
Ġke cawa
ink ling
Ġbest seller
Ġdam ing
Ġhi k
Ġhi ked
ert as
nn v
ka js
Ġbad an
ach at
ach eck
ac o
ll a
Ġstr o
Ġmo zz
Ġmo lek
Ġhands anitizer
Ġte x
Ġte at
Ġlot ions
ung k
ampe k
Ġcomplet o
Ġjo gger
Ġcor r
Ġsupport er
ie ce
Ġsc ul
ne ither
Ġcr am
Ġcr inkle
Ġcr oton
Ġright s
Ġright eous
Ġcontin uation
Ġback s
respon si
Ġphot oraph
Ġsuc cul
au k
Ġcar ger
ark an
ip in
not ify
Ġsal ut
irim n
Ġpesen anya
kkkk kok
Ġgift ed
order ing
ber baloi
ber fungsi
rop hy
Ġsay e
Ġsay anya
br it
bo y
Ġbetter delivery
pen nya
Ġbar ange
Ġbar riers
Ġfun ky
Ġfun eral
Ġyour s
Ġyour selves
jd kf
jd kdk
Ġput ative
mm d
Ġlu ke
Ġlu pa
Ġlu ffy
Ġsis a
Ġsis i
Ġtri es
Ġtri als
Ġdefin ed
ik ir
Ġng ere
Ġng ta
Ġng urangin
Ġng yon
Ġng arep
if a
if ah
Ġres ort
Ġcou ch
ep in
Ġpeng ok
Ġpeng rimn
Ġwrapp ers
Ġsuk asukasuka
up n
Ġmin it
Ġpassable passable
Ġadd idas
but in
Ġ20 000
Ġgu ality
Ġgu ede
Ġgu koo
Ġret ire
Ġinc ld
Ġinc ident
Ġmon a
Ġref rain
Ġref uge
ple k
Ġmas ak
Ġoke okeoke
Ġem an
Ġem pt
Ġem uls
Ġact ing
Ġsel es
Ġsel emp
Ġsel allu
Ġz in
Ġz ag
Ġz est
Ġz uri
Ġz hang
eeee eet
Ġpart ners
Ġpart nered
get ic
de an
Ġkr d
Ġkr g
Ġcard y
co arse
tr c
tr ade
bu bb
Ġyaa hh
Ġyaa hhh
bb f
bb z
bb al
bb ed
bel it
Ġimp otant
Ġrest r
Ġear bud
pl ain
pl ant
pl ings
Ġbook store
Ġset ebel
Ġrev ise
Ġrev ised
Ġrev oked
Ġcepat cepat
Ġcepat cepatcepat
Ġel ements
Ġdisc our
Ġdisc rep
Ġfin est
Ġfin ancial
Ġpay etnya
Ġ7 20
Ġson s
Ġfar ming
Ġcomm un
Ġcomm ended
Ġcomm ute
Ġcreat ion
form ing
Ġhr ap
Ġhal u
Ġ8 3
Ġ8 88
Ġpu dd
ever s
pre pare
Ġdt angnya
Ġdt unggu
pro viding
cept an
Ġla am
ward ah
Ġcons er
ali an
ali ke
Ġlate x
Ġap iece
Ġsim pel
ns b
ns js
ns bd
ns ls
Ġtrans l
Ġtrans ition
Ġhar bol
Ġbah any
Ġcre ma
asi a
asi hh
Ġwar ant
ont a
ub ungin
oooo ood
Ġsweat ers
Ġkind led
Ġty ta
Ġty aka
bd bs
bd nx
ba o
ba ar
Ġpat i
aman si
Ġpow ers
Ġsl a
Ġsl anting
Ġlang sng
Ġlang gganan
Ġlag eee
Ġav iation
wor ld
Ġber ik
Ġber beda
cm x
hhhhhhhh hhhh
Ġak uh
Ġbel inya
Ġheavy weight
llll lll
Ġthought s
jj ss
Ġma uu
Ġma antap
Ġplus s
Ġplus nya
Ġro ot
Ġro le
aur ant
aaaaaaaaaaaaaaaa a
aaaaaaaaaaaaaaaa aaaaaaaaaaaaaaa
pes enya
Ġpengiriman pun
Ġpar in
Ġpar all
Ġpar aah
Ġpar rot
Ġpar fum
Ġho hoh
Ġtap u
Ġnge pack
Ġses end
di o
Ġrel ev
col le
Ġdik omplen
pake tt
Ġinform s
Ġker as
Ġdou b
ssssssss sss
ph on
Ġbright ly
Ġbright ened
Ġjob great
Ġent ities
Ġent rego
band o
Ġstat ic
kn pa
Ġplay s
Ġplay pen
Ġsek oga
uuuuuuuu uuu
uuuuuuuu uuuuu
Ġsold out
Ġboun cy
Ġvari o
Ġyah hhh
send alnya
pppppppp p
Ġmag ag
Ġmag az
che at
Ġfort uately
Ġexc iting
jdjd bd
jdjd kd
jdjd jjdhd
kg s
mb ps
Ġmah alan
Ġbounced bounced
Ġmis repre
Ġdon kk
Ġdon ation
Ġdon uts
Ġsneak s
Ġum r
Ġod ors
Ġsw ap
Ġsw ord
Ġsw ind
tttttttt ttttttt
dis gruntled
Ġpad an
Ġkay any
Ġver b
Ġtal ent
Ġtal ag
Ġtal ii
Ġpol ished
Ġread ily
Ġnat al
Ġnat upi
Ġcap o
Ġcur se
sy g
sy w
Ġnt in
Ġbet uul
Ġbet adine
jsjs jd
dddddddd dd
Ġpokok knya
ku at
ku walitas
Ġhat ii
Ġgam at
Ġgam ers
nx m
nx n
Ġaj ip
Ġdec iding
Ġah aha
Ġuk rn
bal ance
Ġkm asan
Ġer a
Ġer ase
Ġer ima
Ġcant umin
Ġlum yn
Ġlum aayan
Ġlum anyun
Ġrekom nded
Ġrekom mended
Ġtom orow
Ġkl s
Ġprinci ple
Ġkal in
Ġsweet ener
sho el
sho ot
Ġrelat vely
Ġku y
Ġmal ah
Ġmal chus
Ġob at
Ġlay anan
xl h
je he
Ġexped tion
Ġprob em
Ġpick s
Ġpick led
Ġhehehe hhe
Ġdem anded
Ġstand r
Ġps nn
Ġgm pang
Ġsam ain
Ġsam yang
Ġram but
load ed
Ġkual i
Ġkual itan
Ġfil ament
Ġru pees
Ġspr int
Ġspr inkle
Ġnk uha
ahh ah
ahh aha
Ġpast a
Ġsign als
Ġround ed
Ġhahah ahahahah
Ġkh ach
Ġkh oy
Ġner aang
bad ly
Ġmantab lah
Ġpleasant ly
Ġbi arin
oh oh
Ġrealpict ure
Ġgold nya
Ġdit aro
Ġexper t
uas kn
Ġdemand ing
Ġpot ong
Ġpot ted
Ġhur ricane
Ġsimilar ity
Ġini bagus
Ġkayak nya
Ġdust bag
Ġ201 1
bang t
bang at
bang ets
Ġmet allic
Ġpengirim am
Ġpengirim nnya
Ġpan ass
Ġposs ess
Ġdin ote
Ġill umination
Ġclass mates
Ġvis or
Ġvis ion
Ġvis its
Ġvis ually
Ġinf r
Ġinf lamm
sel amat
Ġforget ting
Ġcli ppers
where ver
Ġconvenient ly
Ġlist ened
Ġaccom oating
Ġprotect ing
Ġmed al
Ġmed yu
Ġneck laces
Ġgel ap
Ġblis ers
Ġsecur ing
trim aksih
Ġbul leted
Ġta oi
Ġlock ing
Ġslipp age
Ġten kyuu
Ġtouch es
Ġgir aff
Ġring ing
Ġhelpful l
Ġband rol
Ġcu ank
Ġcu ci
lam aa
Ġseed ling
Ġtalk ed
fr ust
Ġchar red
Ġchar lot
Ġrecomend asi
nf nd
nf nnf
Ġpin ang
Ġclock wise
Ġkeren nnn
Ġthor ns
Ġthor baek
Ġtl aga
Ġcal am
Ġscre ens
Ġconst it
Ġmist y
Ġpeel er
sem ble
sem uanya
Ġcompet ed
Ġcompet itively
Ġsekal iiiiii
Ġinterest s
me i
me at
perfect ly
suit ble
Ġallah umma
nnnnnnnn nnnn
Ġkc pt
Ġkc patan
Ġhesit ation
Ġbur kat
Ġbur uan
Ġsteam er
Ġvol atile
peng en
peng ir
peng emasan
Ġbru ised
Ġbru ises
Ġmarkot opp
mas uk
Ġscar let
Ġid in
Ġid ol
Ġperform s
Ġsatur ation
Ġshope eeee
Ġ17 9
Ġble ached
Ġpet als
Ġreli g
Ġpag ka
Ġpag kap
amb ling
bz jz
Ġkem akan
Ġdef etive
Ġkat un
Ġ99 9
ssssssssssssssss ssssss
Ġkw litas
orted ly
Ġperf umes
Ġcomb i
Ġgambar ny
Ġschool s
hat ur
Ġbb q
Ġjait nya
Ġmel e
Ġmel ody
Ġdisplay s
Ġview s
Ġwkwkw kw
Ġlamp ung
hs j
jw j
Ġfish ing
Ġdum plings
Ġart ic
Ġart ist
han e
Ġfi fteen
bsbs bs
Ġet ude
Ġdib ilang
Ġdl wa
Ġkt ny
Ġwow w
Ġ27 0
Ġkar awang
Ġblock ade
mantab b
Ġmouse pad
Ġoffice s
Ġtil apia
Ġmint anya
Ġrec itation
lit er
sub tle
Ġwarp ed
fl ake
Ġbing i
Ġdim ari
Ġswitch ing
Ġsuperb ly
Ġoffer ings
Ġkain ny
Ġsukaaaa k
nsns nns
jdj dh
Ġger minate
wwww ww
Ġhg aaaaa
Ġspong y
Ġsayang nya
Ġodor less
Ġshovel s
Ġseler r
Ġdil ayanin
Ġrust ing
Ġdikirim m
Ġdalem annya
hand ulillah
Ġkes enggol
Ġguide books
Ġamin nn
Ġgrow s
Ġgrow th
bi ar
anj utnya
cep wt
Ġip aship
Ġyoung est
iiiiiiiiiiiiiiii iiiiiiiiii
Ġmantaa ab
ob ile
Ġdig anti
bn ant
Ġtid a
Ġtid akk
Ġbow ls
Ġoverload ed
Ġvideo in
Ġbn rn
Ġbn igay
Ġpun yaa
Ġpump ed
Ġbls an
kx k
ksks ksks
Ġtur ban
Ġlun ar
pd uk
Ġaffect s
Ġaffect ions
Ġavoid ing
Ġland s
Ġck ckck
Ġfrust ration
umb ers
Ġped al
Ġtt m
Ġ500 0
Ġexcess ively
Ġdecor ate
Ġapr on
Ġpengh antar
inch es
Ġmam aku
Ġbetul s
rap i
Ġbingit ss
mur a
mur ahh
Ġrear view
Ġplan ner
Ġamanah nya
Ġamanah hh
Ġsed iment
Ġske et
Ġstraw berries
Ġhealth ier
Ġtank top
Ġkil ometers
Ġconcent rate
Ġtech nic
Ġemp uk
Ġkompl in
Ġkompl ain
Ġded uted
Ġreward s
Ġeconom ic
alal alal
Ġdeg degan
Ġbos ku
ultra fast
ox o
Ġkel ain
Ġident ified
wal k
wal king
Ġchi u
rrrrrrrr rrrrr
Ġexceed ingly
Ġnap kin
Ġping g
Ġping iriman
Ġdm x
sangat baik
Ġtang le
Ġtang sel
Ġadap ted
Ġkecew aaaaa
Ġcollect ing
Ġdesk top
Ġfocus ing
jfjf jf
Ġalhm dlh
Ġsyek ale
Ġhay st
cons ulting
Ġpatch work
Ġcep ay
Ġsesu ia
Ġsesu aai
Ġbias aaa
Ġgag anda
Ġpengemas n
jdjdjdjd j
big ger
war m
war ning
Ġcer emony
Ġmab ango
Ġloos er
Ġquiet ly
sng t
Ġjahit annya
Ġkul aitas
Ġsufficient ly
Ġns x
Ġkon frm
Ġspread s
Ġther m
Ġthrow s
Ġmile age
Ġnakak ah
pay ah
Ġrekomend asi
Ġheels nya
bon us
hal us
pan as
Ġrecomm nded
Ġxs abar
Ġdteng nya
16 0
wl q
Ġcore tannya
Ġbay ar
Ġbay ik
Ġpesan anya
Ġbers ih
Ġunbox ed
Ġdiper baikin
Ġretail ers
sn ap
Ġmang kanya
Ġrush ing
Ġpres umably
Ġbublewrap nya
pad an
pad ala
vw vw
Ġnyam enya
Ġlambat t
Ġmalay sian
Ġmattress es
Ġcel an
Ġsepat uny
Ġdom pet
Ġreci pe
Ġreci pes
hair pin
Ġach ing
Ġmali it
Ġkeli atan
Ġcanti kkk
Ġexception s
Ġshift ed
Ġmantuul ll
Ġmim innya
nxnx nx
lang ganan
pak sa
Ġjazak um
Ġay os
kkkkkkkkkkkkkkkkkkkkkkkkkkkkkkkk kkkkkkkkkkkkkkkkkkkkkkkkkkkkkkkk
cont ain
Ġcab bage
jel ek
Ġpemb ungkusan
Ġbaa ag
Ġcok lat
Ġunus ually
Ġtrick ster
Ġbreast s
mnt a
ram ah
Ġokokokokokokokokok ok
Ġokokokokokokokokok okokokokokokokokokokokokokokokok
pengiriman nya
Ġshadow s
Ġexam ination
pens able
Ġlar iss
Ġfro thy
vk v
Ġtum agal
Ġly cra
Ġscrub nya
bxbx bx
ssssssssssssssssssssssssssssssss ssssssssssssssssssssssssssssssss
mash a
Ġge ese
Ġgri ps
Ġcub es
adv antages
Ġpngirim nnya
pengirim n
dt ng
Ġdeter ior
Ġsekaliiii iii
bali in
bali an
Ġdol ly
Ġasl iii
Ġselal uuuu
Ġsanit izernya
Ġsag ging
Ġnger us
Ġil leg
Ġgad ik
Ġbkal an
Ġque ued
Ġveget arian
bdb dh
Ġbakal n
bol t
Ġros es
Ġamb il
Ġluam aaaa
dik irim
Ġpil ot
Ġcamp aign
Ġeyeshadow nya
Ġsnow flake
Ġexcl uding
Ġjwb nya
Ġged eeee
Ġpengir uman
Ġpengir oman
Ġsubstit uted
gggggggggggggggg gggggggggggggggg
60 8
sand al
Ġtebell ll
mmet ric
Ġtuck ed
Ġisland s
Ġ58 00
uuuuuuu ul
Ġgen ius
baj unya
makas iihh
rest aurant
Ġnem pel
Ġokel ahhh
Ġencour agement
umullah u
Ġaccommod ated
gant ung
Ġbkl an
Ġsmud ges
Ġcheer ful
Ġmaka ish
Ġinsyaa allaah
Ġexperi encing
Ġkecill l
kul itas
Ġbik ing
Ġbik ini
Ġmakasiii hhh
Ġbleach ing
cant ek
Ġann ounce
Ġdeliv red
Ġdeliv ary
Ġlaunch ing
Ġkebes aren
disc ount
Ġobt aining
Ġdisadv antages
Ġscan ner
Ġlancar r
sal omon
Ġsom uch
Ġgde x
Ġkad ih
Ġlif esty
Ġcontn ued
Ġmodest ly
Ġremark ably
Ġsod a
Ġtis ue
Ġjim in
Ġdev il
Ġsyuu ka
Ġteen age
Ġpembeli an
Ġnil ag
Ġrecon sider
Ġrecon firm
Ġcomple ments
Ġbubl enya
Ġantic rack
point ed
Ġthri ve
Ġthri ft
Ġthri ves
Ġcet aphil
Ġrout e
Ġsucces ful
Ġdsn ii
Ġnostalg ia
Ġkep end
bsbsbsbs bsbsbsbs
Ġpli ant
Ġibu kku
Ġnutr itional
mach ines
sty le
brand s
wrn anya
Ġbert ele
sam pee
Ġpt oduk
Ġoy sters
Ġcit rus
Ġhihih ihi
sampe k
Ġkaw an
Ġpros pective
Ġultr alight
vvvvvvvvvvvvvvvv vvvvvvvvvvvvvvvv
Ġsaa kin
Ġbau k
Ġfh oto
Ġdow dy
ante cedent
Ġmatur ity
Ġakut uh
Ġbreakfast s
Ġentertain ing
Ġtes co
Ġoun ce
Ġoun ces
enjo y
Ġjord ans
Ġblk ng
Ġnymp k
Ġsekale h
clock wise
Ġdigun akan
sat ified
Ġsup aya
Ġrer espon
Ġbuzz ing
Ġund one
Ġfeat uring
Ġxper nah
Ġslice s
Ġkhay r
Ġcraft ed
tom orrow
Ġikl an
Ġtrl anjur
Ġscal p
button s
terimakas h
Ġpenghnt ran
Ġgang erti
Ġgather ed
Ġdile bihin
Ġcere als
Ġhun ted
Ġskull caps
neg lig
Ġinvis ibility
Ġrt uuu
Ġoffic er
Ġsincer ely
trimakasihtrimakasih trimakasihtrimakasih
makasihmakasih makasihmakasih
Ġjazaak illah
regret s
4444 4444
eye brow
Ġhgt yu
Ġhgt thj
Ġunse aled
Ġsebl ak
Ġdeb ate
Ġpredi ction
Ġnhi et
Ġpersist ence
Ġmultifunction al
Ġkesek ian
irrah manirrahim
okokokokokokokokookokokokokokokoko okokokokokokokokookokokokokokokoko
Ġgoooo ood
Ġgoooo oooood
Ġbanh et
Ġanj ir
unexpected ly
loy ment
Ġcoordin ated
shock ed
prov ide
Ġsilh ouette
bny k
Ġaaaaaaaaaaaaaaaaa aaa
Ġbwes it
Ġfet ish
Ġhing e
Ġlon ely
Ġanter in
oty pe
Ġindi an
Ġbeauti fy
start ed
bsi bs
Ġhandic ap
Ġngem baliin
Ġswallow ed
Ġeduc ation
Ġvisc ous
Ġwarehous ing
Ġfertil izer
Ġreimburse ment
Ġfut ile
Ġstim ulus
Ġvom iting
Ġoverl apping
Ġnym penya
Ġniq ab
Ġzo ya
Ġsplend idly
Ġsympat h
Ġhaphazard ly
Ġtass el
Ġawes om
Ġpell ets
Ġbree ze
Ġgoodgoodgood good
Ġeaster n
Ġblo ated
Ġmakeover s
Ġkeros ene
Ġindis pensable
mbal ikan
batre nya
mand ailing
eret urn
Ġgion g
Ġchaf ed
Ġfru its
Ġbrs ahabat
Ġadher ents
Ġredem ption
Ġsubsd ies
Ġdecry ption
Ġinevit ably
Ġspert inya
elit ian
Ġdbl s
Ġgoodgoodgoodgoodgood goodgoodgoodgood
Ġtox ic
Ġincent ives
Ġhae ga
Ġtrol ley
Ġdiction ary
Ġrepre sent
Ġintol erable
Ġglam or
plic ably
Ġcommend able
Ġngecw ain
Ġsesau i
sesua ii
Ġaya w
Ġhawa ii
Ġexasper ated
Ġproph et
Ġpurp ortedly
Ġdramat ic
Ġjohns on
Ġmascul ine
Ġcostum ers
excess ive
phys ical
Ġengr aving
Ġpagkad eliver
Ġallevi ate
carri age
mou th
satur day
Ġpsy ch
Ġgater lalu
Ġdirm h
Ġdiny alain
Ġwert f
orign al
Ġlym ph
Ġshangh ai
Ġvoro shilof
Ġaggl omer
Ġunise x
Ġmubaj ir
igraph y
Ġgraff iti
Ġcepatcepatcepat cepat
Ġharbol nas
Ġmisrepre sentation
Ġinflamm ation
Ġcharlot te
Ġlifesty le
1 80
2 10
3 99
5 00
7 8
8 4
8 40
8 38
a ant
a ways
b p
b th
b nn
b ia
b ju
b uss
b dhdh
b vd
b kz
b erty
b antu
b angeett
c it
c ue
c ass
c ular
c anti
c jv
d ity
d ang
d ff
d ld
d nya
d bx
d ala
d ngn
d ico
e am
e hh
f im
f ried
f jh
f kf
f ashion
f ixed
f lix
g th
g ad
g ame
g os
g aper
g aph
g sk
g dl
g gege
h v
h en
h ck
h um
h ic
h ass
h ade
h oi
h oles
h undred
i im
i id
i anya
j or
j ul
j ad
j ap
j ai
j gg
j si
j nd
j anya
j ug
j ix
j ars
j dhdh
j inal
k hh
k irim
k uk
k ren
k onya
k ainya
l v
l or
l aa
l nya
l ive
l illah
l arg
l awa
l cd
l iner
m q
m end
m ately
m av
m ult
m ace
m asi
m ua
m ix
m bh
m aya
m dkd
n ay
n ong
n ail
n ie
n ants
n ets
n han
n antap
n bnb
o v
o er
o le
o ong
o ever
o akes
p us
p ound
p ush
p ull
p itch
p uff
p nnya
q i
q p
q ng
r j
r ou
r all
r age
r ist
r owing
r ations
r action
r mn
r ilateral
s b
s as
s ar
s hh
s ll
s dk
s inya
s can
s iih
s bz
s lh
t at
t ill
t ear
t ely
t ic
t ab
t ai
t les
t api
t rees
t anks
u ly
u ut
u gh
u ate
u hhhh
u ull
u juan
v ai
v ry
v dd
v ated
v ention
v ita
w in
w is
w orm
w ants
x ok
x nx
x ux
y k
y z
y ot
y ng
y uka
z o
z in
z on
z ih
z js
z bx
z kz
Ġ elli
Ġs ut
Ġs ow
Ġs ere
Ġs ash
Ġs no
Ġs apa
Ġs apat
Ġt j
Ġt gh
Ġt ain
Ġt art
Ġt aik
Ġt ia
Ġt lah
Ġt ins
Ġt apping
Ġt umb
Ġt una
er x
er us
er ence
er ahan
od h
od ed
od ol
Ġa js
Ġa chy
Ġa juin
Ġp ome
Ġp tt
Ġp ope
Ġp gr
Ġp king
Ġp ans
Ġp gk
Ġp using
Ġp iled
in ance
Ġth am
Ġth um
Ġth ieu
Ġth irty
it anya
it ute
el ow
el ong
el ect
el ding
el upas
Ġg end
Ġg st
Ġg ore
Ġg pr
Ġg ee
Ġg ild
Ġg eh
Ġg bagu
Ġg ayo
Ġg anyan
Ġg owns
Ġg oooooood
al p
al ik
al ahh
Ġb v
Ġb hh
Ġb kk
Ġb act
Ġb ind
Ġb ark
Ġb wa
Ġb nding
re po
re charge
Ġo os
Ġo ats
Ġo pted
Ġo akes
ood uk
Ġf ou
Ġf ash
Ġf hm
Ġf andom
Ġf lies
Ġf jfjf
Ġf lights
Ġf umble
is ance
is ana
Ġd se
Ġd ore
Ġd bs
Ġd hh
Ġd per
Ġd ac
Ġd ll
Ġd ba
Ġd jx
Ġd aught
Ġd war
Ġc v
Ġc en
Ġc es
Ġc aaaa
Ġc ib
Ġc kt
Ġc elet
Ġc inc
Ġc cat
Ġw d
Ġw th
Ġw aa
Ġw ong
Ġw ud
Ġw ink
Ġw ll
Ġw inning
Ġw eld
Ġw ilt
Ġw uz
an no
an ha
an ua
an jang
ed o
ed er
ed it
ed ar
ed ited
ed islike
Ġpr ic
Ġpr ist
Ġpr ote
Ġpr ody
Ġpr dk
Ġpr akt
Ġpr pduk
ce cer
ce paat
ct ly
ing a
ing at
ing ga
Ġm le
Ġm ok
Ġm amp
Ġm av
Ġm ne
Ġm ote
Ġm mmmm
Ġm jh
Ġm tg
Ġm ites
Ġm ario
Ġm itt
Ġm liit
en an
en ng
en nnn
es nya
on ys
on firm
Ġn bs
Ġn ig
Ġn eng
Ġn mm
Ġn pict
Ġn mer
Ġn iih
Ġn vm
Ġn mp
Ġn avel
Ġn rin
Ġn ambahin
at at
at as
at ly
at eng
at kan
or g
or ant
or thy
or unity
Ġh ed
Ġh ack
Ġh ank
Ġh aa
Ġh ant
Ġh ii
Ġh ock
Ġh arge
Ġh ha
Ġh ans
Ġh dhs
as l
as r
as ar
as eli
as aa
as nya
as ide
as anya
as ikan
Ġl k
Ġl ent
Ġl orry
Ġl ns
Ġl uuu
Ġl ense
Ġl anh
Ġl ava
Ġl alag
ell ll
qu in
Ġqu ery
om m
om am
om ah
om ile
Ġquality cp
Ġre el
Ġre bu
Ġre sized
Ġre born
th s
th ursday
th nks
ar is
ar ab
ar ine
ar ket
ar ella
eli m
Ġto shi
Ġto ppppp
Ġto fu
Ġan s
Ġan ne
Ġan ger
Ġan onym
pe el
pe ach
Ġdeli every
Ġe q
Ġe op
Ġe uc
Ġe wan
ck x
ck ingnya
Ġsh en
Ġsh ou
Ġsh ins
Ġsh ots
Ġsh aving
ut ing
ut ut
ut ers
ot ation
ot ape
us b
us ap
us able
us bs
us uka
us kan
le e
le able
ent ing
Ġi kan
Ġi gu
Ġi check
Ġk is
Ġk ity
Ġk nya
Ġk ure
Ġk int
Ġk ng
Ġk urn
Ġk kkkk
Ġk az
Ġk unt
Ġk ump
Ġk aaaaaa
Ġk ara
Ġk iw
Ġsell au
Ġy q
Ġy ank
Ġy ol
Ġy up
Ġy yy
Ġy ra
Ġy angg
Ġy eeeee
Ġy aaaaaaaaaaa
Ġy uhh
Ġy yyy
ag u
ag on
ag ara
pp ery
Ġin her
Ġin but
Ġin ju
Ġin sec
Ġin different
Ġin aba
Ġin accurate
Ġst i
Ġst ic
Ġst ich
Ġst ations
Ġst ren
Ġst ages
Ġst ool
Ġst acking
Ġst inks
Ġbe be
Ġbe get
Ġal on
Ġal ay
Ġal ph
Ġal amat
Ġal aikum
Ġal ley
Ġal ittle
Ġal hasil
Ġfa ve
Ġbut as
Ġbut uh
Ġbut cher
Ġsm tt
[...]
