{
    "<s>": 0,
    "<pad>": 1,
    "</s>": 2,
    "<unk>": 3,
    "<mask>": 4,
    "!": 5,
    "\"": 6,
    "#": 7,
    "$": 8,
    "%": 9,
    "&": 10,
    "'": 11,
    "(": 12,
    ")": 13,
    "*": 14,
    "+": 15,
    ",": 16,
    "-": 17,
    ".": 18,
    "/": 19,
    "0": 20,
    "1": 21,
    "2": 22,
    "3": 23,
    "4": 24,
    "5": 25,
    "6": 26,
    "7": 27,
    "8": 28,
    "9": 29,
    ":": 30,
    ";": 31,
    "<": 32,
    "=": 33,
    ">": 34,
    "?": 35,
    "@": 36,
    "A": 37,
    "B": 38,
    "C": 39,
    "D": 40,
    "E": 41,
    "F": 42,
    "G": 43,
    "H": 44,
    "I": 45,
    "J": 46,
    "K": 47,
    "L": 48,
    "M": 49,
    "N": 50,
    "O": 51,
    "P": 52,
    "Q": 53,
    "R": 54,
    "S": 55,
    "T": 56,
    "U": 57,
    "V": 58,
    "W": 59,
    "X": 60,
    "Y": 61,
    "Z": 62,
    "[": 63,
    "\\": 64,
    "]": 65,
    "^": 66,
    "_": 67,
    "`": 68,
    "a": 69,
    "b": 70,
    "c": 71,
    "d": 72,
    "e": 73,
    "f": 74,
    "g": 75,
    "h": 76,
    "i": 77,
    "j": 78,
    "k": 79,
    "l": 80,
    "m": 81,
    "n": 82,
    "o": 83,
    "p": 84,
    "q": 85,
    "r": 86,
    "s": 87,
    "t": 88,
    "u": 89,
    "v": 90,
    "w": 91,
    "x": 92,
    "y": 93,
    "z": 94,
    "{": 95,
    "|": 96,
    "}": 97,
    "~": 98,
    "¡": 99,
    "¢": 100,
    "£": 101,
    "¤": 102,
    "¥": 103,
    "¦": 104,
    "§": 105,
    "¨": 106,
    "©": 107,
    "ª": 108,
    "«": 109,
    "¬": 110,
    "®": 111,
    "¯": 112,
    "°": 113,
    "±": 114,
    "²": 115,
    "³": 116,
    "´": 117,
    "µ": 118,
    "¶": 119,
    "·": 120,
    "¸": 121,
    "¹": 122,
    "º": 123,
    "»": 124,
    "¼": 125,
    "½": 126,
    "¾": 127,
    "¿": 128,
    "À": 129,
    "Á": 130,
    "Â": 131,
    "Ã": 132,
    "Ä": 133,
    "Å": 134,
    "Æ": 135,
    "Ç": 136,
    "È": 137,
    "É": 138,
    "Ê": 139,
    "Ë": 140,
    "Ì": 141,
    "Í": 142,
    "Î": 143,
    "Ï": 144,
    "Ð": 145,
    "Ñ": 146,
    "Ò": 147,
    "Ó": 148,
    "Ô": 149,
    "Õ": 150,
    "Ö": 151,
    "×": 152,
    "Ø": 153,
    "Ù": 154,
    "Ú": 155,
    "Û": 156,
    "Ü": 157,
    "Ý": 158,
    "Þ": 159,
    "ß": 160,
    "à": 161,
    "á": 162,
    "â": 163,
    "ã": 164,
    "ä": 165,
    "å": 166,
    "æ": 167,
    "ç": 168,
    "è": 169,
    "é": 170,
    "ê": 171,
    "ë": 172,
    "ì": 173,
    "í": 174,
    "î": 175,
    "ï": 176,
    "ð": 177,
    "ñ": 178,
    "ò": 179,
    "ó": 180,
    "ô": 181,
    "õ": 182,
    "ö": 183,
    "÷": 184,
    "ø": 185,
    "ù": 186,
    "ú": 187,
    "û": 188,
    "ü": 189,
    "ý": 190,
    "þ": 191,
    "ÿ": 192,
    "Ā": 193,
    "ā": 194,
    "Ă": 195,
    "ă": 196,
    "Ą": 197,
    "ą": 198,
    "Ć": 199,
    "ć": 200,
    "Ĉ": 201,
    "ĉ": 202,
    "Ċ": 203,
    "ċ": 204,
    "Č": 205,
    "č": 206,
    "Ď": 207,
    "ď": 208,
    "Đ": 209,
    "đ": 210,
    "Ē": 211,
    "ē": 212,
    "Ĕ": 213,
    "ĕ": 214,
    "Ė": 215,
    "ė": 216,
    "Ę": 217,
    "ę": 218,
    "Ě": 219,
    "ě": 220,
    "Ĝ": 221,
    "ĝ": 222,
    "Ğ": 223,
    "ğ": 224,
    "Ġ": 225,
    "ġ": 226,
    "Ģ": 227,
    "ģ": 228,
    "Ĥ": 229,
    "ĥ": 230,
    "Ħ": 231,
    "ħ": 232,
    "Ĩ": 233,
    "ĩ": 234,
    "Ī": 235,
    "ī": 236,
    "Ĭ": 237,
    "ĭ": 238,
    "Į": 239,
    "į": 240,
    "İ": 241,
    "ı": 242,
    "Ĳ": 243,
    "ĳ": 244,
    "Ĵ": 245,
    "ĵ": 246,
    "Ķ": 247,
    "ķ": 248,
    "ĸ": 249,
    "Ĺ": 250,
    "ĺ": 251,
    "Ļ": 252,
    "ļ": 253,
    "Ľ": 254,
    "ľ": 255,
    "Ŀ": 256,
    "ŀ": 257,
    "Ł": 258,
    "ł": 259,
    "Ń": 260,
    "Ġs": 261,
    "Ġt": 262,
    "er": 263,
    "od": 264,
    "Ġa": 265,
    "Ġp": 266,
    "in": 267,
    "Ġth": 268,
    "it": 269,
    "el": 270,
    "Ġg": 271,
    "al": 272,
    "Ġb": 273,
    "re": 274,
    "Ġo": 275,
    "ood": 276,
    "Ġf": 277,
    "is": 278,
    "Ġd": 279,
    "ver": 280,
    "Ġc": 281,
    "Ġw": 282,
    "an": 283,
    "ed": 284,
    "Ġgood": 285,
    "Ġthe": 286,
    "very": 287,
    "Ġpr": 288,
    "ce": 289,
    "ct": 290,
    "ing": 291,
    "Ġm": 292,
    "en": 293,
    "es": 294,
    "on": 295,
    "Ġn": 296,
    "at": 297,
    "or": 298,
    "Ġh": 299,
    "as": 300,
    "odu": 301,
    "oduct": 302,
    "Ġl": 303,
    "ell": 304,
    "qu": 305,
    "Ġis": 306,
    "Ġqu": 307,
    "Ġproduct": 308,
    "ity": 309,
    "om": 310,
    "ality": 311,
    "Ġquality": 312,
    "Ġre": 313,
    "ice": 314,
    "th": 315,
    "ar": 316,
    "Ġvery": 317,
    "eli": 318,
    "ou": 319,
    "Ġto": 320,
    "il": 321,
    "Ġan": 322,
    "pe": 323,
    "ly": 324,
    "Ġdeli": 325,
    "Ġe": 326,
    "ck": 327,
    "Ġsh": 328,
    "ut": 329,
    "ot": 330,
    "Ġdelivery": 331,
    "us": 332,
    "le": 333,
    "ri": 334,
    "ent": 335,
    "Ġand": 336,
    "Ġof": 337,
    "Ġit": 338,
    "Ġi": 339,
    "Ġk": 340,
    "Ġsell": 341,
    "Ġy": 342,
    "ag": 343,
    "Ġseller": 344,
    "ast": 345,
    "ay": 346,
    "pp": 347,
    "ack": 348,
    "Ġin": 349,
    "Ġst": 350,
    "Ġprice": 351,
    "Ġnot": 352,
    "Ġbe": 353,
    "Ġal": 354,
    "ome": 355,
    "ank": 356,
    "ith": 357,
    "Ġfa": 358,
    "Ġwith": 359,
    "Ġu": 360,
    "ve": 361,
    "Ġbut": 362,
    "Ġsm": 363,
    "ch": 364,
    "ul": 365,
    "am": 366,
    "Ġfor": 367,
    "xc": 368,
    "Ġspe": 369,
    "der": 370,
    "xcell": 371,
    "xcellent": 372,
    "Ġspeed": 373,
    "se": 374,
    "aa": 375,
    "Ġpack": 376,
    "gh": 377,
    "Ġor": 378,
    "ad": 379,
    "wes": 380,
    "Ġthank": 381,
    "wesome": 382,
    "Ġsho": 383,
    "ke": 384,
    "ble": 385,
    "Ġfast": 386,
    "Ġface": 387,
    "good": 388,
    "ol": 389,
    "Ġsu": 390,
    "Ġgoods": 391,
    "ion": 392,
    "ue": 393,
    "Ġv": 394,
    "sp": 395,
    "Ġorder": 396,
    "Ġj": 397,
    "Ġli": 398,
    "ill": 399,
    "et": 400,
    "Ġon": 401,
    "ow": 402,
    "spon": 403,
    "and": 404,
    "ear": 405,
    "the": 406,
    "Ġshi": 407,
    "ak": 408,
    "ap": 409,
    "ain": 410,
    "Ġyou": 411,
    "im": 412,
    "ah": 413,
    "able": 414,
    "Ġsmil": 415,
    "Ġrespon": 416,
    "Ġval": 417,
    "em": 418,
    "Ġok": 419,
    "Ġne": 420,
    "Ġawesome": 421,
    "ght": 422,
    "Ġvalue": 423,
    "Ġch": 424,
    "ok": 425,
    "end": 426,
    "ur": 427,
    "Ġsmiling": 428,
    "ther": 429,
    "st": 430,
    "Ġso": 431,
    "Ġwh": 432,
    "ful": 433,
    "Ġpackag": 434,
    "Ġresponse": 435,
    "ere": 436,
    "ust": 437,
    "um": 438,
    "un": 439,
    "one": 440,
    "Ġexcellent": 441,
    "Ġr": 442,
    "ss": 443,
    "ally": 444,
    "ir": 445,
    "ya": 446,
    "ant": 447,
    "ore": 448,
    "Ġser": 449,
    "id": 450,
    "Ġlo": 451,
    "Ġbu": 452,
    "ort": 453,
    "tt": 454,
    "Ġthat": 455,
    "Ġserv": 456,
    "Ġcom": 457,
    "Ġnice": 458,
    "pr": 459,
    "bs": 460,
    "ang": 461,
    "Ġup": 462,
    "Ġservice": 463,
    "ved": 464,
    "so": 465,
    "ong": 466,
    "Ġwas": 467,
    "all": 468,
    "Ġlike": 469,
    "yes": 470,
    "ely": 471,
    "Ġwell": 472,
    "excellent": 473,
    "Ġthis": 474,
    "Ġtim": 475,
    "Ġas": 476,
    "Ġare": 477,
    "Ġhear": 478,
    "ff": 479,
    "Ġha": 480,
    "Ġcon": 481,
    "Ġheart": 482,
    "Ġag": 483,
    "use": 484,
    "Ġthanks": 485,
    "Ġother": 486,
    "Ġun": 487,
    "Ġalso": 488,
    "ess": 489,
    "Ġeyes": 490,
    "gin": 491,
    "Ġori": 492,
    "Ġ1": 493,
    "Ġshipp": 494,
    "Ġsi": 495,
    "Ġse": 496,
    "ady": 497,
    "product": 498,
    "Ġbuy": 499,
    "Ġwill": 500,
    "ic": 501,
    "Ġac": 502,
    "Ġagain": 503,
    "Ġmy": 504,
    "com": 505,
    "ginal": 506,
    "Ġex": 507,
    "Ġcol": 508,
    "Ġtr": 509,
    "Ġtime": 510,
    "Ġoriginal": 511,
    "ard": 512,
    "Ġreally": 513,
    "Ġdo": 514,
    "oney": 515,
    "Ġmoney": 516,
    "Ġdis": 517,
    "ld": 518,
    "Ġmat": 519,
    "Ġde": 520,
    "ick": 521,
    "Ġ2": 522,
    "ze": 523,
    "Ġfr": 524,
    "Ġshop": 525,
    "Ġcolor": 526,
    "Ġbl": 527,
    "Ġfit": 528,
    "cei": 529,
    "nya": 530,
    "reat": 531,
    "Ġpackaging": 532,
    "ter": 533,
    "Ġitem": 534,
    "ord": 535,
    "Ġhave": 536,
    "Ġsa": 537,
    "hh": 538,
    "pt": 539,
    "Ġno": 540,
    "Ġjust": 541,
    "ial": 542,
    "Ġwor": 543,
    "Ġche": 544,
    "way": 545,
    "umbs": 546,
    "fort": 547,
    "Ġwr": 548,
    "awesome": 549,
    "ee": 550,
    "Ġthumbs": 551,
    "app": 552,
    "lo": 553,
    "Ġbr": 554,
    "ive": 555,
    "Ġsize": 556,
    "est": 557,
    "Ġhis": 558,
    "Ġlong": 559,
    "Ġdi": 560,
    "ure": 561,
    "Ġall": 562,
    "Ġrecei": 563,
    "per": 564,
    "int": 565,
    "aaaa": 566,
    "ate": 567,
    "Ġme": 568,
    "comm": 569,
    "Ġits": 570,
    "Ġcan": 571,
    "ope": 572,
    "erial": 573,
    "Ġtoo": 574,
    "Ġship": 575,
    "Ġokay": 576,
    "Ġbo": 577,
    "Ġmu": 578,
    "fully": 579,
    "ii": 580,
    "ame": 581,
    "ready": 582,
    "tle": 583,
    "Ġim": 584,
    "Ġfrom": 585,
    "Ġar": 586,
    "Ġpacking": 587,
    "Ġmaterial": 588,
    "ould": 589,
    "Ġhe": 590,
    "Ġtp": 591,
    "aut": 592,
    "Ġpre": 593,
    "li": 594,
    "ca": 595,
    "Ġ3": 596,
    "thank": 597,
    "Ġco": 598,
    "Ġacc": 599,
    "fe": 600,
    "atis": 601,
    "Ġpo": 602,
    "age": 603,
    "ase": 604,
    "Ġcp": 605,
    "atisf": 606,
    "auti": 607,
    "Ġproducts": 608,
    "ite": 609,
    "sh": 610,
    "Ġkg": 611,
    "autiful": 612,
    "Ġreceived": 613,
    "ough": 614,
    "fortable": 615,
    "Ġcheap": 616,
    "kk": 617,
    "Ġshipping": 618,
    "Ġthere": 619,
    "Ġpro": 620,
    "Ġmuch": 621,
    "Ġbg": 622,
    "pet": 623,
    "Ġlit": 624,
    "Ġshoes": 625,
    "Ġalready": 626,
    "Ġhope": 627,
    "Ġsatisf": 628,
    "cause": 629,
    "Ġat": 630,
    "Ġlittle": 631,
    "Ġaccord": 632,
    "op": 633,
    "Ġbecause": 634,
    "Ġhere": 635,
    "Ġlove": 636,
    "Ġga": 637,
    "Ġmore": 638,
    "Ġany": 639,
    "ation": 640,
    "ig": 641,
    "uu": 642,
    "Ġcomfortable": 643,
    "Ġgreat": 644,
    "ft": 645,
    "Ġus": 646,
    "Ġad": 647,
    "ab": 648,
    "fast": 649,
    "tty": 650,
    "ers": 651,
    "Ġuse": 652,
    "Ġbag": 653,
    "xt": 654,
    "Ġneat": 655,
    "ai": 656,
    "oun": 657,
    "ied": 658,
    "oint": 659,
    "Ġby": 660,
    "Ġone": 661,
    "oo": 662,
    "Ġsmall": 663,
    "Ġce": 664,
    "Ġbeautiful": 665,
    "Ġpl": 666,
    "Ġthin": 667,
    "Ġonly": 668,
    "Ġlight": 669,
    "Ġunt": 670,
    "Ġday": 671,
    "ng": 672,
    "Ġstore": 673,
    "ake": 674,
    "Ġpi": 675,
    "ise": 676,
    "appoint": 677,
    "Ġif": 678,
    "Ġout": 679,
    "ih": 680,
    "ry": 681,
    "ance": 682,
    "are": 683,
    "andard": 684,
    "cri": 685,
    "Ġover": 686,
    "dh": 687,
    "ven": 688,
    "Ġam": 689,
    "Ġarri": 690,
    "Ġyes": 691,
    "Ġthan": 692,
    "Ġshipped": 693,
    "Ġuntil": 694,
    "Ġdisappoint": 695,
    "Ġpretty": 696,
    "Ġhas": 697,
    "ways": 698,
    "act": 699,
    "Ġsk": 700,
    "Ġstu": 701,
    "Ġhand": 702,
    "Ġsatisfied": 703,
    "Ġbgt": 704,
    "commend": 705,
    "eng": 706,
    "ning": 707,
    "ately": 708,
    "Ġya": 709,
    "ition": 710,
    "Ġnext": 711,
    "Ġcomp": 712,
    "Ġny": 713,
    "Ġsent": 714,
    "Ġworth": 715,
    "Ġfe": 716,
    "Ġrecommend": 717,
    "Ġstar": 718,
    "Ġhopefully": 719,
    "Ġfri": 720,
    "goods": 721,
    "he": 722,
    "Ġred": 723,
    "low": 724,
    "Ġstuff": 725,
    "Ġquick": 726,
    "ree": 727,
    "her": 728,
    "Ġ5": 729,
    "Ġsame": 730,
    "Ġstandard": 731,
    "ine": 732,
    "ous": 733,
    "Ġfab": 734,
    "Ġalways": 735,
    "ption": 736,
    "ks": 737,
    "Ġrep": 738,
    "Ġnew": 739,
    "ens": 740,
    "Ġfriend": 741,
    "ass": 742,
    "Ġpict": 743,
    "rim": 744,
    "Ġbit": 745,
    "ating": 746,
    "Ġcont": 747,
    "Ġper": 748,
    "dition": 749,
    "Ġmer": 750,
    "Ġkak": 751,
    "Ġstill": 752,
    "Ġsome": 753,
    "Ġgr": 754,
    "Ġlook": 755,
    "ga": 756,
    "Ġclo": 757,
    "Ġsuper": 758,
    "Ġthey": 759,
    "Ġless": 760,
    "irst": 761,
    "Ġbeen": 762,
    "edi": 763,
    "Ġsubs": 764,
    "pect": 765,
    "cription": 766,
    "Ġwear": 767,
    "Ġpur": 768,
    "Ġmerch": 769,
    "iss": 770,
    "Ġen": 771,
    "Ġdes": 772,
    "Ġher": 773,
    "Ġpackage": 774,
    "old": 775,
    "Ġri": 776,
    "Ġcondition": 777,
    "andise": 778,
    "ny": 779,
    "Ġsp": 780,
    "ric": 781,
    "Ġmerchandise": 782,
    "Ġskin": 783,
    "Ġcepet": 784,
    "Ġdisappointed": 785,
    "Ġcut": 786,
    "pping": 787,
    "deli": 788,
    "Ġ4": 789,
    "out": 790,
    "akas": 791,
    "Ġfirst": 792,
    "Ġexpect": 793,
    "ide": 794,
    "ge": 795,
    "Ġfriendly": 796,
    "eady": 797,
    "Ġwhen": 798,
    "Ġbang": 799,
    "Ġbox": 800,
    "Ġle": 801,
    "Ġshoe": 802,
    "ight": 803,
    "Ġgi": 804,
    "Ġaccording": 805,
    "pack": 806,
    "dul": 807,
    "urn": 808,
    "Ġter": 809,
    "Ġtry": 810,
    "ham": 811,
    "Ġsaf": 812,
    "cess": 813,
    "Ġmay": 814,
    "Ġpicture": 815,
    "Ġthem": 816,
    "Ġwe": 817,
    "Ġsend": 818,
    "Ġpackaged": 819,
    "Ġwant": 820,
    "let": 821,
    "any": 822,
    "Ġarrived": 823,
    "nice": 824,
    "Ġwho": 825,
    "other": 826,
    "fect": 827,
    "Ġpa": 828,
    "gg": 829,
    "illah": 830,
    "Ġitems": 831,
    "Ġfabric": 832,
    "delivery": 833,
    "ought": 834,
    "hamdul": 835,
    "be": 836,
    "Ġexp": 837,
    "Ġdoes": 838,
    "Ġdiff": 839,
    "ting": 840,
    "Ġcust": 841,
    "Ġfree": 842,
    "su": 843,
    "Ġsafely": 844,
    "ait": 845,
    "Ġaf": 846,
    "Ġbig": 847,
    "Ġsec": 848,
    "Ġph": 849,
    "Ġthen": 850,
    "odating": 851,
    "Ġsy": 852,
    "Ġab": 853,
    "Ġwould": 854,
    "Ġget": 855,
    "Ġquite": 856,
    "Ġpurch": 857,
    "Ġx": 858,
    "thes": 859,
    "Ġanyway": 860,
    "our": 861,
    "hamdulillah": 862,
    "pee": 863,
    "Ġtw": 864,
    "Ġkn": 865,
    "Ġshopping": 866,
    "ci": 867,
    "ect": 868,
    "Ġordered": 869,
    "ich": 870,
    "dd": 871,
    "Ġprices": 872,
    "Ġthese": 873,
    "nt": 874,
    "Ġtone": 875,
    "Ġaccordance": 876,
    "ist": 877,
    "Ġeven": 878,
    "Ġslow": 879,
    "os": 880,
    "Ġrun": 881,
    "amp": 882,
    "Ġsafe": 883,
    "ound": 884,
    "Ġwhat": 885,
    "Ġdeh": 886,
    "thanks": 887,
    "Ġafter": 888,
    "commodating": 889,
    "Ġapp": 890,
    "Ġquickly": 891,
    "Ġimm": 892,
    "Ġjg": 893,
    "Ġdur": 894,
    "Ġcute": 895,
    "Ġmess": 896,
    "Ġbub": 897,
    "Ġsuit": 898,
    "fore": 899,
    "Ġaccommodating": 900,
    "Ġcome": 901,
    "Ġsteady": 902,
    "Ġmant": 903,
    "Ġshould": 904,
    "ud": 905,
    "astic": 906,
    "ment": 907,
    "Ġorders": 908,
    "Ġwrap": 909,
    "Ġcustom": 910,
    "Ġrecommended": 911,
    "si": 912,
    "Ġsoft": 913,
    "Ġdays": 914,
    "day": 915,
    "Ġdr": 916,
    "Ġfl": 917,
    "ind": 918,
    "thing": 919,
    "Ġimmedi": 920,
    "Ġshopee": 921,
    "Ġbefore": 922,
    "Ġoverall": 923,
    "Ġsupp": 924,
    "Ġcare": 925,
    "Ġlg": 926,
    "wh": 927,
    "Ġple": 928,
    "Ġwhich": 929,
    "Ġimmediately": 930,
    "Ġlah": 931,
    "Ġbubble": 932,
    "Ġke": 933,
    "ress": 934,
    "ink": 935,
    "Ġbest": 936,
    "light": 937,
    "Ġdiffer": 938,
    "Ġdam": 939,
    "Ġused": 940,
    "Ġpes": 941,
    "Ġhi": 942,
    "Ġcool": 943,
    "Ġtwo": 944,
    "ert": 945,
    "we": 946,
    "nn": 947,
    "ka": 948,
    "Ġdid": 949,
    "ja": 950,
    "Ġtran": 951,
    "Ġhad": 952,
    "Ġkiss": 953,
    "Ġbanget": 954,
    "Ġbad": 955,
    "ach": 956,
    "rier": 957,
    "art": 958,
    "Ġwait": 959,
    "Ġbagus": 960,
    "bag": 961,
    "ac": 962,
    "Ġgod": 963,
    "ush": 964,
    "Ġtq": 965,
    "ail": 966,
    "ll": 967,
    "Ġgo": 968,
    "av": 969,
    "aaaaaaaa": 970,
    "Ġstr": 971,
    "hhhh": 972,
    "ual": 973,
    "Ġ10": 974,
    "Ġmo": 975,
    "Ġsubscription": 976,
    "ult": 977,
    "Ġhands": 978,
    "Ġte": 979,
    "Ġlot": 980,
    "ung": 981,
    "Ġhow": 982,
    "Ġmake": 983,
    "Ġaff": 984,
    "owing": 985,
    "ampe": 986,
    "Ġcomplet": 987,
    "ace": 988,
    "Ġjo": 989,
    "Ġcor": 990,
    "orm": 991,
    "Ġsupport": 992,
    "ose": 993,
    "rect": 994,
    "Ġblack": 995,
    "Ġjd": 996,
    "ish": 997,
    "own": 998,
    "ie": 999,
    "like": 1000,
    "Ġhapp": 1001,
    "Ġsc": 1002,
    "ne": 1003,
    "alhamdulillah": 1004,
    "wn": 1005,
    "aik": 1006,
    "Ġwere": 1007,
    "Ġfeel": 1008,
    "Ġold": 1009,
    "Ġcr": 1010,
    "Ġwork": 1011,
    "Ġright": 1012,
    "ssss": 1013,
    "Ġthick": 1014,
    "ange": 1015,
    "inning": 1016,
    "iv": 1017,
    "Ġmessage": 1018,
    "Ġcontin": 1019,
    "Ġdeliver": 1020,
    "Ġyet": 1021,
    "this": 1022,
    "Ġback": 1023,
    "Ġdifferent": 1024,
    "fin": 1025,
    "respon": 1026,
    "Ġbought": 1027,
    "Ġgrinning": 1028,
    "Ġexpected": 1029,
    "Ġhearts": 1030,
    "Ġanother": 1031,
    "Ġreply": 1032,
    "great": 1033,
    "Ġphot": 1034,
    "Ġevery": 1035,
    "Ġtimes": 1036,
    "Ġgk": 1037,
    "Ġsuc": 1038,
    "Ġpair": 1039,
    "ings": 1040,
    "au": 1041,
    "ated": 1042,
    "ild": 1043,
    "Ġcar": 1044,
    "ark": 1045,
    "its": 1046,
    "ater": 1047,
    "Ġenough": 1048,
    "nd": 1049,
    "Ġoff": 1050,
    "Ġpoor": 1051,
    "ip": 1052,
    "not": 1053,
    "ather": 1054,
    "akasih": 1055,
    "ertain": 1056,
    "Ġdurable": 1057,
    "ount": 1058,
    "Ġsal": 1059,
    "Ġsuccess": 1060,
    "Ġblowing": 1061,
    "ies": 1062,
    "irim": 1063,
    "lightly": 1064,
    "Ġmany": 1065,
    "Ġint": 1066,
    "ond": 1067,
    "Ġturn": 1068,
    "Ġpesen": 1069,
    "Ġsens": 1070,
    "Ġpe": 1071,
    "kkkk": 1072,
    "Ġhappy": 1073,
    "Ġgift": 1074,
    "Ġeas": 1075,
    "Ġneed": 1076,
    "Ġinst": 1077,
    "ordable": 1078,
    "Ġcertain": 1079,
    "order": 1080,
    "red": 1081,
    "ction": 1082,
    "Ġknow": 1083,
    "bagus": 1084,
    "aw": 1085,
    "okok": 1086,
    "Ġneatly": 1087,
    "ber": 1088,
    "rop": 1089,
    "Ġsay": 1090,
    "Ġreal": 1091,
    "br": 1092,
    "Ġsensit": 1093,
    "ears": 1094,
    "Ġfold": 1095,
    "Ġchat": 1096,
    "Ġplease": 1097,
    "Ġaffordable": 1098,
    "Ġbett": 1099,
    "Ġhigh": 1100,
    "bo": 1101,
    "uuuu": 1102,
    "Ġpurchase": 1103,
    "Ġbetter": 1104,
    "pen": 1105,
    "Ġbar": 1106,
    "ended": 1107,
    "Ġpass": 1108,
    "Ġfun": 1109,
    "ull": 1110,
    "oken": 1111,
    "pat": 1112,
    "iiii": 1113,
    "Ġyour": 1114,
    "item": 1115,
    "Ġslightly": 1116,
    "Ġcheck": 1117,
    "ropri": 1118,
    "Ġwhite": 1119,
    "unately": 1120,
    "ropriate": 1121,
    "jd": 1122,
    "tttt": 1123,
    "Ġdah": 1124,
    "Ġmatch": 1125,
    "Ġput": 1126,
    "ile": 1127,
    "aged": 1128,
    "Ġsee": 1129,
    "Ġcertainly": 1130,
    "mm": 1131,
    "Ġplastic": 1132,
    "Ġperfect": 1133,
    "Ġlu": 1134,
    "Ġwrong": 1135,
    "Ġsis": 1136,
    "Ġbroken": 1137,
    "Ġthink": 1138,
    "itely": 1139,
    "Ġgl": 1140,
    "Ġtri": 1141,
    "though": 1142,
    "Ġimage": 1143,
    "Ġsuitable": 1144,
    "Ġfolded": 1145,
    "Ġdefin": 1146,
    "Ġcomplete": 1147,
    "Ġnow": 1148,
    "aming": 1149,
    "Ġsure": 1150,
    "Ġve": 1151,
    "Ġtast": 1152,
    "ik": 1153,
    "aaa": 1154,
    "Ġclothes": 1155,
    "und": 1156,
    "js": 1157,
    "Ġnyampe": 1158,
    "Ġcl": 1159,
    "ants": 1160,
    "Ġask": 1161,
    "Ġng": 1162,
    "Ġcarefully": 1163,
    "Ġdefinitely": 1164,
    "if": 1165,
    "Ġhehe": 1166,
    "ash": 1167,
    "Ġhu": 1168,
    "ves": 1169,
    "Ġres": 1170,
    "Ġsmile": 1171,
    "Ġrunning": 1172,
    "Ġdelivered": 1173,
    "Ġcou": 1174,
    "ep": 1175,
    "Ġpeng": 1176,
    "Ġwrapp": 1177,
    "na": 1178,
    "Ġopen": 1179,
    "Ġwee": 1180,
    "Ġbeaming": 1181,
    "Ġ6": 1182,
    "Ġstandards": 1183,
    "Ġappropriate": 1184,
    "Ġsuk": 1185,
    "up": 1186,
    "they": 1187,
    "ock": 1188,
    "ade": 1189,
    "Ġtop": 1190,
    "Ġudh": 1191,
    "Ġabout": 1192,
    "arg": 1193,
    "ooth": 1194,
    "ote": 1195,
    "Ġmin": 1196,
    "orry": 1197,
    "Ġservices": 1198,
    "Ġconf": 1199,
    "ign": 1200,
    "Ġblue": 1201,
    "Ġrecom": 1202,
    "pppp": 1203,
    "Ġpassable": 1204,
    "ually": 1205,
    "rt": 1206,
    "ory": 1207,
    "Ġlet": 1208,
    "blem": 1209,
    "Ġdent": 1210,
    "Ġcolors": 1211,
    "no": 1212,
    "Ġadd": 1213,
    "but": 1214,
    "Ġ20": 1215,
    "Ġcustomer": 1216,
    "Ġcame": 1217,
    "Ġproblem": 1218,
    "Ġko": 1219,
    "anya": 1220,
    "mant": 1221,
    "Ġgot": 1222,
    "Ġrather": 1223,
    "Ġgu": 1224,
    "arge": 1225,
    "Ġret": 1226,
    "Ġinc": 1227,
    "Ġbaik": 1228,
    "Ġdescription": 1229,
    "Ġstars": 1230,
    "packing": 1231,
    "Ġlik": 1232,
    "Ġcle": 1233,
    "ues": 1234,
    "ason": 1235,
    "uk": 1236,
    "Ġfo": 1237,
    "Ġshirt": 1238,
    "les": 1239,
    "Ġsmooth": 1240,
    "Ġmon": 1241,
    "my": 1242,
    "Ġfitting": 1243,
    "Ġmod": 1244,
    "respond": 1245,
    "Ġsamp": 1246,
    "atter": 1247,
    "Ġref": 1248,
    "eep": 1249,
    "Ġni": 1250,
    "reen": 1251,
    "ensive": 1252,
    "mo": 1253,
    "side": 1254,
    "ence": 1255,
    "rying": 1256,
    "az": 1257,
    "Ġphoto": 1258,
    "Ġsecond": 1259,
    "ple": 1260,
    "Ġthough": 1261,
    "Ġmm": 1262,
    "Ġmas": 1263,
    "Ġalthough": 1264,
    "Ġoke": 1265,
    "shop": 1266,
    "Ġswe": 1267,
    "Ġchild": 1268,
    "Ġcould": 1269,
    "ret": 1270,
    "Ġtransp": 1271,
    "Ġeasy": 1272,
    "ener": 1273,
    "Ġdamaged": 1274,
    "Ġbot": 1275,
    "fortunately": 1276,
    "super": 1277,
    "ased": 1278,
    "Ġown": 1279,
    "ving": 1280,
    "Ġsellers": 1281,
    "Ġem": 1282,
    "Ġfull": 1283,
    "Ġact": 1284,
    "Ġsel": 1285,
    "Ġshort": 1286,
    "Ġ9": 1287,
    "Ġwithout": 1288,
    "Ġsoon": 1289,
    "ling": 1290,
    "ro": 1291,
    "Ġmou": 1292,
    "Ġz": 1293,
    "Ġsecure": 1294,
    "Ġshe": 1295,
    "Ġpink": 1296,
    "Ġprov": 1297,
    "eeee": 1298,
    "Ġpart": 1299,
    "ations": 1300,
    "Ġreg": 1301,
    "Ġcrying": 1302,
    "Ġbrg": 1303,
    "irt": 1304,
    "get": 1305,
    "Ġwrapped": 1306,
    "you": 1307,
    "de": 1308,
    "Ġpacked": 1309,
    "atch": 1310,
    "Ġkr": 1311,
    "Ġaja": 1312,
    "Ġstick": 1313,
    "ced": 1314,
    "Ġlonger": 1315,
    "Ġgive": 1316,
    "Ġcase": 1317,
    "Ġrepe": 1318,
    "Ġkeep": 1319,
    "iriman": 1320,
    "Ġcard": 1321,
    "ery": 1322,
    "Ġcm": 1323,
    "irm": 1324,
    "Ġterim": 1325,
    "co": 1326,
    "Ġda": 1327,
    "Ġonce": 1328,
    "Ġdirect": 1329,
    "tr": 1330,
    "Ġtpi": 1331,
    "Ġbon": 1332,
    "Ġsem": 1333,
    "Ġung": 1334,
    "Ġatt": 1335,
    "00": 1336,
    "ulous": 1337,
    "Ġtransport": 1338,
    "bu": 1339,
    "Ġyaa": 1340,
    "Ġcontinue": 1341,
    "recei": 1342,
    "Ġwal": 1343,
    "Ġjoy": 1344,
    "bb": 1345,
    "Ġdat": 1346,
    "Ġcum": 1347,
    "Ġhard": 1348,
    "sm": 1349,
    "Ġlooks": 1350,
    "Ġtears": 1351,
    "quality": 1352,
    "Ġcover": 1353,
    "Ġcourier": 1354,
    "bel": 1355,
    "dah": 1356,
    "Ġbonus": 1357,
    "Ġtrim": 1358,
    "enya": 1359,
    "Ġunder": 1360,
    "Ġdefect": 1361,
    "Ġcorrespond": 1362,
    "Ġsmell": 1363,
    "Ġunfortunately": 1364,
    "Ġimp": 1365,
    "Ġbab": 1366,
    "Ġwrote": 1367,
    "less": 1368,
    "Ġgiven": 1369,
    "Ġusing": 1370,
    "ary": 1371,
    "Ġcarrier": 1372,
    "Ġdown": 1373,
    "Ġfeet": 1374,
    "ari": 1375,
    "Ġpost": 1376,
    "what": 1377,
    "Ġrest": 1378,
    "oke": 1379,
    "Ġear": 1380,
    "these": 1381,
    "Ġreason": 1382,
    "Ġmouth": 1383,
    "Ġmodel": 1384,
    "oud": 1385,
    "akasi": 1386,
    "Ġmedi": 1387,
    "Ġsub": 1388,
    "Ġrepeat": 1389,
    "ug": 1390,
    "pl": 1391,
    "Ġbook": 1392,
    "Ġmk": 1393,
    "Ġtake": 1394,
    "Ġpants": 1395,
    "Ġyg": 1396,
    "Ġnever": 1397,
    "Ġhel": 1398,
    "ily": 1399,
    "Ġfits": 1400,
    "Ġcheaper": 1401,
    "Ġsubscriptions": 1402,
    "ren": 1403,
    "iew": 1404,
    "Ġexact": 1405,
    "Ġrecomended": 1406,
    "Ġset": 1407,
    "Ġmedium": 1408,
    "po": 1409,
    "Ġtight": 1410,
    "Ġstores": 1411,
    "Ġfabulous": 1412,
    "Ġtried": 1413,
    "Ġrev": 1414,
    "Ġwhy": 1415,
    "Ġmost": 1416,
    "Ġcepat": 1417,
    "Ġfine": 1418,
    "Ġbuying": 1419,
    "ece": 1420,
    "Ġreturn": 1421,
    "Ġdesign": 1422,
    "ient": 1423,
    "Ġel": 1424,
    "Ġdisc": 1425,
    "Ġfin": 1426,
    "beautiful": 1427,
    "received": 1428,
    "Ġka": 1429,
    "ahah": 1430,
    "Ġdate": 1431,
    "Ġbaby": 1432,
    "row": 1433,
    "Ġweek": 1434,
    "Ġpay": 1435,
    "Ġlast": 1436,
    "Ġ7": 1437,
    "Ġsad": 1438,
    "Ġsur": 1439,
    "Ġson": 1440,
    "avy": 1441,
    "Ġsdh": 1442,
    "Ġfar": 1443,
    "Ġprom": 1444,
    "Ġrequ": 1445,
    "Ġsale": 1446,
    "Ġcomm": 1447,
    "Ġturns": 1448,
    "Ġmak": 1449,
    "Ġrefund": 1450,
    "dddd": 1451,
    "min": 1452,
    "ious": 1453,
    "rr": 1454,
    "itch": 1455,
    "Ġcreat": 1456,
    "ions": 1457,
    "Ġseem": 1458,
    "form": 1459,
    "Ġbng": 1460,
    "Ġpen": 1461,
    "Ġsensitive": 1462,
    "cent": 1463,
    "Ġtrust": 1464,
    "Ġfrag": 1465,
    "Ġgpp": 1466,
    "Ġthose": 1467,
    "Ġhr": 1468,
    "Ġloud": 1469,
    "Ġmaterials": 1470,
    "annya": 1471,
    "Ġarrive": 1472,
    "oga": 1473,
    "Ġhal": 1474,
    "uh": 1475,
    "Ġgan": 1476,
    "Ġ8": 1477,
    "Ġpu": 1478,
    "Ġmust": 1479,
    "Ġsaid": 1480,
    "ople": 1481,
    "ever": 1482,
    "Ġcomes": 1483,
    "terday": 1484,
    "Ġmade": 1485,
    "eller": 1486,
    "pre": 1487,
    "oday": 1488,
    "Ġprocess": 1489,
    "kw": 1490,
    "ness": 1491,
    "cs": 1492,
    "Ġdt": 1493,
    "bed": 1494,
    "Ġwhere": 1495,
    "Ġman": 1496,
    "Ġna": 1497,
    "Ġinter": 1498,
    "ini": 1499,
    "Ġeff": 1500,
    "ages": 1501,
    "sive": 1502,
    "already": 1503,
    "Ġmonth": 1504,
    "Ġexactly": 1505,
    "gr": 1506,
    "da": 1507,
    "Ġnorm": 1508,
    "Ġworks": 1509,
    "ket": 1510,
    "pro": 1511,
    "Ġtoday": 1512,
    "Ġpeople": 1513,
    "Ġmot": 1514,
    "Ġmur": 1515,
    "Ġbless": 1516,
    "Ġgoing": 1517,
    "Ġcush": 1518,
    "cept": 1519,
    "Ġhour": 1520,
    "Ġbarang": 1521,
    "Ġla": 1522,
    "Ġ0": 1523,
    "ward": 1524,
    "Ġcons": 1525,
    "ali": 1526,
    "Ġwater": 1527,
    "Ġcloth": 1528,
    "ted": 1529,
    "Ġlate": 1530,
    "Ġreceive": 1531,
    "Ġdc": 1532,
    "Ġhome": 1533,
    "Ġcustomers": 1534,
    "ape": 1535,
    "zz": 1536,
    "ori": 1537,
    "Ġcuman": 1538,
    "Ġpok": 1539,
    "Ġap": 1540,
    "Ġfunction": 1541,
    "Ġstock": 1542,
    "Ġloves": 1543,
    "Ġyesterday": 1544,
    "Ġpiece": 1545,
    "Ġhelp": 1546,
    "wr": 1547,
    "Ġdateng": 1548,
    "ead": 1549,
    "Ġsim": 1550,
    "Ġcreate": 1551,
    "Ġsever": 1552,
    "ns": 1553,
    "aging": 1554,
    "ha": 1555,
    "well": 1556,
    "his": 1557,
    "Ġtheir": 1558,
    "Ġtrans": 1559,
    "gging": 1560,
    "Ġprovid": 1561,
    "poor": 1562,
    "ten": 1563,
    "ivity": 1564,
    "Ġhar": 1565,
    "Ġsol": 1566,
    "Ġthx": 1567,
    "Ġbah": 1568,
    "Ġlarge": 1569,
    "sw": 1570,
    "Ġcorresponding": 1571,
    "bl": 1572,
    "Ġcpt": 1573,
    "Ġcre": 1574,
    "asi": 1575,
    "Ġcost": 1576,
    "Ġwar": 1577,
    "products": 1578,
    "Ġbri": 1579,
    "ont": 1580,
    "gt": 1581,
    "Ġ12": 1582,
    "Ġbrand": 1583,
    "Ġmar": 1584,
    "ner": 1585,
    "steady": 1586,
    "ton": 1587,
    "Ġamc": 1588,
    "Ġcushion": 1589,
    "Ġthr": 1590,
    "Ġhim": 1591,
    "aint": 1592,
    "Ġpas": 1593,
    "Ġever": 1594,
    "Ġrich": 1595,
    "Ġform": 1596,
    "Ġtem": 1597,
    "Ġsorry": 1598,
    "board": 1599,
    "Ġloudly": 1600,
    "ub": 1601,
    "fit": 1602,
    "ama": 1603,
    "king": 1604,
    "oooo": 1605,
    "Ġthings": 1606,
    "Ġbal": 1607,
    "Ġsatisfact": 1608,
    "Ġrem": 1609,
    "Ġinstead": 1610,
    "Ġconfirm": 1611,
    "ire": 1612,
    "ially": 1613,
    "Ġfair": 1614,
    "idy": 1615,
    "really": 1616,
    "cribed": 1617,
    "Ġreview": 1618,
    "Ġrap": 1619,
    "Ġsweat": 1620,
    "Ġtebel": 1621,
    "just": 1622,
    "Ġkind": 1623,
    "Ġfoot": 1624,
    "ua": 1625,
    "Ġgreen": 1626,
    "anan": 1627,
    "Ġsomewhat": 1628,
    "Ġklo": 1629,
    "cious": 1630,
    "Ġsensitivity": 1631,
    "Ġdamage": 1632,
    "Ġresult": 1633,
    "ired": 1634,
    "Ġdress": 1635,
    "Ġvalues": 1636,
    "yesel": 1637,
    "okay": 1638,
    "orn": 1639,
    "Ġlater": 1640,
    "Ġline": 1641,
    "Ġansw": 1642,
    "Ġthankyou": 1643,
    "Ġway": 1644,
    "lu": 1645,
    "urch": 1646,
    "pretty": 1647,
    "Ġdeliery": 1648,
    "love": 1649,
    "Ġchildren": 1650,
    "Ġtook": 1651,
    "Ġstrong": 1652,
    "Ġty": 1653,
    "Ġsuka": 1654,
    "most": 1655,
    "Ġadv": 1656,
    "Ġsin": 1657,
    "Ġproper": 1658,
    "Ġrequest": 1659,
    "aper": 1660,
    "Ġboss": 1661,
    "ents": 1662,
    "cel": 1663,
    "ex": 1664,
    "tq": 1665,
    "Ġresponsive": 1666,
    "onya": 1667,
    "Ġlow": 1668,
    "Ġdapet": 1669,
    "Ġboth": 1670,
    "Ġbs": 1671,
    "bd": 1672,
    "Ġyung": 1673,
    "hehe": 1674,
    "Ġreasonable": 1675,
    "Ġtak": 1676,
    "packaging": 1677,
    "Ġq": 1678,
    "55": 1679,
    "anded": 1680,
    "Ġamount": 1681,
    "ably": 1682,
    "Ġbatter": 1683,
    "gn": 1684,
    "seller": 1685,
    "ouse": 1686,
    "ished": 1687,
    "ict": 1688,
    "Ġshops": 1689,
    "Ġmor": 1690,
    "Ġ11": 1691,
    "Ġtaste": 1692,
    "ellow": 1693,
    "used": 1694,
    "asih": 1695,
    "ba": 1696,
    "ix": 1697,
    "Ġpat": 1698,
    "ared": 1699,
    "ize": 1700,
    "to": 1701,
    "Ġwide": 1702,
    "Ġfragr": 1703,
    "Ġnyesel": 1704,
    "Ġlooking": 1705,
    "Ġfew": 1706,
    "Ġhugging": 1707,
    "Ġbre": 1708,
    "Ġinto": 1709,
    "aise": 1710,
    "aman": 1711,
    "Ġpow": 1712,
    "Ġsl": 1713,
    "Ġmakasi": 1714,
    "Ġje": 1715,
    "Ġrepl": 1716,
    "Ġlang": 1717,
    "Ġthrough": 1718,
    "Ġtest": 1719,
    "Ġchange": 1720,
    "Ġmask": 1721,
    "ying": 1722,
    "Ġlag": 1723,
    "Ġeverything": 1724,
    "Ġanswer": 1725,
    "Ġav": 1726,
    "wor": 1727,
    "Ġtasty": 1728,
    "yy": 1729,
    "Ġdislike": 1730,
    "Ġber": 1731,
    "ility": 1732,
    "asing": 1733,
    "Ġpackingnya": 1734,
    "Ġglass": 1735,
    "ys": 1736,
    "Ġwearing": 1737,
    "Ġkrn": 1738,
    "cm": 1739,
    "Ġcour": 1740,
    "Ġexpensive": 1741,
    "Ġdirectly": 1742,
    "ude": 1743,
    "Ġmantul": 1744,
    "Ġclear": 1745,
    "Ġstitch": 1746,
    "aced": 1747,
    "hhhhhhhh": 1748,
    "Ġfaster": 1749,
    "Ġtidy": 1750,
    "Ġak": 1751,
    "Ġscr": 1752,
    "Ġbel": 1753,
    "Ġsmaller": 1754,
    "Ġsir": 1755,
    "Ġforward": 1756,
    "Ġheavy": 1757,
    "Ġrol": 1758,
    "Ġcream": 1759,
    "Ġsmp": 1760,
    "Ġdg": 1761,
    "Ġloved": 1762,
    "llll": 1763,
    "elf": 1764,
    "Ġhot": 1765,
    "Ġprovided": 1766,
    "Ġleg": 1767,
    "Ġsatisfactory": 1768,
    "Ġthought": 1769,
    "jj": 1770,
    "ody": 1771,
    "sider": 1772,
    "Ġcardboard": 1773,
    "Ġyellow": 1774,
    "Ġlng": 1775,
    "ni": 1776,
    "Ġpoint": 1777,
    "line": 1778,
    "Ġass": 1779,
    "Ġdh": 1780,
    "Ġdone": 1781,
    "ics": 1782,
    "shi": 1783,
    "Ġliked": 1784,
    "Ġaround": 1785,
    "ouch": 1786,
    "Ġbeing": 1787,
    "standard": 1788,
    "Ġothers": 1789,
    "Ġma": 1790,
    "there": 1791,
    "Ġflash": 1792,
    "Ġweight": 1793,
    "uture": 1794,
    "Ġdiscount": 1795,
    "Ġthing": 1796,
    "buy": 1797,
    "Ġrespond": 1798,
    "Ġbottle": 1799,
    "bar": 1800,
    "Ġmil": 1801,
    "Ġgener": 1802,
    "Ġinside": 1803,
    "arger": 1804,
    "Ġplus": 1805,
    "Ġnum": 1806,
    "usi": 1807,
    "Ġproperly": 1808,
    "Ġsound": 1809,
    "Ġtu": 1810,
    "ger": 1811,
    "Ġro": 1812,
    "Ġserves": 1813,
    "Ġwash": 1814,
    "Ġasked": 1815,
    "nnnn": 1816,
    "ek": 1817,
    "Ġalhamdulillah": 1818,
    "Ġnormal": 1819,
    "val": 1820,
    "Ġdented": 1821,
    "Ġeach": 1822,
    "Ġfuture": 1823,
    "ised": 1824,
    "Ġaccept": 1825,
    "Ġimpro": 1826,
    "urchase": 1827,
    "Ġconsider": 1828,
    "led": 1829,
    "Ġeat": 1830,
    "change": 1831,
    "Ġexpectations": 1832,
    "aur": 1833,
    "Ġdeal": 1834,
    "Ġhead": 1835,
    "action": 1836,
    "Ġmksh": 1837,
    "aaaaaaaaaaaaaaaa": 1838,
    "Ġnya": 1839,
    "pes": 1840,
    "ets": 1841,
    "Ġcod": 1842,
    "Ġtext": 1843,
    "ia": 1844,
    "Ġtorn": 1845,
    "Ġgun": 1846,
    "Ġhighly": 1847,
    "ical": 1848,
    "Ġshipment": 1849,
    "Ġenth": 1850,
    "Ġphotos": 1851,
    "Ġnh": 1852,
    "hhh": 1853,
    "kkkkkkkk": 1854,
    "do": 1855,
    "Ġpengiriman": 1856,
    "Ġpar": 1857,
    "for": 1858,
    "ible": 1859,
    "ale": 1860,
    "Ġdear": 1861,
    "Ġho": 1862,
    "stand": 1863,
    "Ġalmost": 1864,
    "Ġins": 1865,
    "Ġtap": 1866,
    "Ġdark": 1867,
    "Ġenthusi": 1868,
    "Ġnge": 1869,
    "pper": 1870,
    "Ġses": 1871,
    "elie": 1872,
    "Ġpurchased": 1873,
    "Ġrestaur": 1874,
    "Ġdelicious": 1875,
    "bh": 1876,
    "Ġmiss": 1877,
    "Ġkk": 1878,
    "Ġturned": 1879,
    "tra": 1880,
    "vel": 1881,
    "di": 1882,
    "Ġsuch": 1883,
    "Ġluck": 1884,
    "Ġactually": 1885,
    "Ġrel": 1886,
    "Ġlanded": 1887,
    "Ġsip": 1888,
    "Ġcorrect": 1889,
    "Ġchin": 1890,
    "Ġsiz": 1891,
    "Ġpictures": 1892,
    "Ġ100": 1893,
    "Ġbattery": 1894,
    "col": 1895,
    "Ġsty": 1896,
    "ps": 1897,
    "Ġdik": 1898,
    "ron": 1899,
    "Ġloose": 1900,
    "Ġrestaurant": 1901,
    "iz": 1902,
    "Ġsmoga": 1903,
    "Ġcourse": 1904,
    "Ġdong": 1905,
    "original": 1906,
    "Ġpake": 1907,
    "rem": 1908,
    "Ġwhile": 1909,
    "baik": 1910,
    "sorry": 1911,
    "Ġsqu": 1912,
    "ye": 1913,
    "ached": 1914,
    "Ġseveral": 1915,
    "Ġfind": 1916,
    "cepet": 1917,
    "Ġfol": 1918,
    "ors": 1919,
    "pake": 1920,
    "Ġbuyer": 1921,
    "Ġcompl": 1922,
    "cew": 1923,
    "Ġmark": 1924,
    "Ġdisappointing": 1925,
    "Ġinform": 1926,
    "Ġker": 1927,
    "ular": 1928,
    "Ġselling": 1929,
    "inking": 1930,
    "Ġside": 1931,
    "Ġaw": 1932,
    "Ġprev": 1933,
    "Ġleak": 1934,
    "Ġdou": 1935,
    "ssssssss": 1936,
    "ath": 1937,
    "Ġll": 1938,
    "Ġdirt": 1939,
    "mit": 1940,
    "cp": 1941,
    "Ġtrimakasih": 1942,
    "Ġyears": 1943,
    "Ġdd": 1944,
    "Ġfre": 1945,
    "Ġnaman": 1946,
    "irain": 1947,
    "Ġpokonya": 1948,
    "vor": 1949,
    "Ġsince": 1950,
    "Ġseems": 1951,
    "shipping": 1952,
    "ph": 1953,
    "Ġlack": 1954,
    "Ġsubsid": 1955,
    "Ġregret": 1956,
    "jo": 1957,
    "Ġprodu": 1958,
    "Ġadmin": 1959,
    "Ġbreak": 1960,
    "fer": 1961,
    "Ġrepurchase": 1962,
    "kak": 1963,
    "Ġpdh": 1964,
    "Ġfunny": 1965,
    "Ġeffect": 1966,
    "Ġext": 1967,
    "Ġpurple": 1968,
    "Ġbright": 1969,
    "gether": 1970,
    "Ġbgus": 1971,
    "Ġjob": 1972,
    "Ġent": 1973,
    "Ġsn": 1974,
    "Ġsya": 1975,
    "Ġbaguss": 1976,
    "dk": 1977,
    "uc": 1978,
    "Ġhowever": 1979,
    "ann": 1980,
    "Ġguns": 1981,
    "Ġpers": 1982,
    "ending": 1983,
    "Ġseam": 1984,
    "Ġfollow": 1985,
    "Ġcat": 1986,
    "Ġhouse": 1987,
    "Ġxl": 1988,
    "band": 1989,
    "Ġmantap": 1990,
    "hope": 1991,
    "Ġphone": 1992,
    "Ġsubst": 1993,
    "Ġstat": 1994,
    "oice": 1995,
    "kn": 1996,
    "apa": 1997,
    "Ġbangett": 1998,
    "always": 1999,
    "Ġpraise": 2000,
    "Ġplay": 2001,
    "Ġbott": 2002,
    "Ġsle": 2003,
    "Ġsek": 2004,
    "Ġcareful": 2005,
    "Ġavail": 2006,
    "uuuuuuuu": 2007,
    "Ġdue": 2008,
    "lah": 2009,
    "noon": 2010,
    "Ġclean": 2011,
    "Ġnumber": 2012,
    "Ġmaybe": 2013,
    "por": 2014,
    "Ġafternoon": 2015,
    "Ġhold": 2016,
    "sg": 2017,
    "Ġbody": 2018,
    "Ġcomfort": 2019,
    "pty": 2020,
    "Ġsold": 2021,
    "Ġboun": 2022,
    "Ġvari": 2023,
    "Ġseal": 2024,
    "enu": 2025,
    "Ġhair": 2026,
    "Ġworking": 2027,
    "te": 2028,
    "Ġyah": 2029,
    "Ġdep": 2030,
    "Ġincl": 2031,
    "Ġhours": 2032,
    "send": 2033,
    "Ġsil": 2034,
    "Ġwaiting": 2035,
    "Ġcoming": 2036,
    "Ġnothing": 2037,
    "Ġduring": 2038,
    "Ġcall": 2039,
    "cks": 2040,
    "ju": 2041,
    "Ġca": 2042,
    "Ġcompared": 2043,
    "pppppppp": 2044,
    "Ġmag": 2045,
    "Ġfall": 2046,
    "Ġend": 2047,
    "Ġusual": 2048,
    "Ġwa": 2049,
    "Ġsubscribed": 2050,
    "comfortable": 2051,
    "Ġplace": 2052,
    "Ġperfectly": 2053,
    "vely": 2054,
    "Ġeh": 2055,
    "Ġperson": 2056,
    "Ġtexture": 2057,
    "Ġlikes": 2058,
    "Ġsli": 2059,
    "Ġwinking": 2060,
    "che": 2061,
    "Ġbrown": 2062,
    "Ġbrother": 2063,
    "Ġincre": 2064,
    "Ġdefective": 2065,
    "Ġsang": 2066,
    "Ġpaper": 2067,
    "Ġnar": 2068,
    "thy": 2069,
    "Ġfort": 2070,
    "Ġhalf": 2071,
    "Ġkok": 2072,
    "Ġprot": 2073,
    "Ġtogether": 2074,
    "Ġexc": 2075,
    "okokokok": 2076,
    "inting": 2077,
    "iii": 2078,
    "pict": 2079,
    "Ġmudah": 2080,
    "Ġba": 2081,
    "price": 2082,
    "Ġdri": 2083,
    "Ġoh": 2084,
    "Ġind": 2085,
    "Ġglue": 2086,
    "jdjd": 2087,
    "Ġbaht": 2088,
    "Ġresults": 2089,
    "aps": 2090,
    "Ġterm": 2091,
    "Ġdtg": 2092,
    "Ġscratch": 2093,
    "kg": 2094,
    "icult": 2095,
    "enuine": 2096,
    "Ġbus": 2097,
    "allah": 2098,
    "Ġoutside": 2099,
    "Ġshape": 2100,
    "unt": 2101,
    "Ġtrue": 2102,
    "Ġcrack": 2103,
    "Ġmand": 2104,
    "Ġ15": 2105,
    "Ġbags": 2106,
    "ute": 2107,
    "Ġexpress": 2108,
    "neak": 2109,
    "Ġrolling": 2110,
    "has": 2111,
    "Ġds": 2112,
    "Ġcushioning": 2113,
    "kom": 2114,
    "mat": 2115,
    "Ġthree": 2116,
    "aste": 2117,
    "Ġmurah": 2118,
    "orders": 2119,
    "Ġempty": 2120,
    "Ġtype": 2121,
    "ection": 2122,
    "Ġcode": 2123,
    "mb": 2124,
    "Ġgt": 2125,
    "Ġflo": 2126,
    "Ġmah": 2127,
    "Ġavailable": 2128,
    "Ġbounced": 2129,
    "cil": 2130,
    "Ġgak": 2131,
    "Ġmem": 2132,
    "Ġimport": 2133,
    "Ġenthusiastic": 2134,
    "af": 2135,
    "ana": 2136,
    "Ġleng": 2137,
    "package": 2138,
    "Ġunderstand": 2139,
    "Ġky": 2140,
    "read": 2141,
    "spe": 2142,
    "Ġmis": 2143,
    "Ġdirty": 2144,
    "uck": 2145,
    "Ġdon": 2146,
    "uka": 2147,
    "Ġsneak": 2148,
    "Ġdifficult": 2149,
    "Ġlovely": 2150,
    "Ġpuas": 2151,
    "sss": 2152,
    "Ġsending": 2153,
    "Ġeasily": 2154,
    "Ġinstall": 2155,
    "Ġtempor": 2156,
    "Ġpaid": 2157,
    "remely": 2158,
    "oon": 2159,
    "Ġamaz": 2160,
    "ued": 2161,
    "Ġquest": 2162,
    "best": 2163,
    "Ġweeks": 2164,
    "Ġum": 2165,
    "Ġod": 2166,
    "usband": 2167,
    "Ġnote": 2168,
    "Ġrub": 2169,
    "Ġbroke": 2170,
    "Ġconfirmation": 2171,
    "Ġsw": 2172,
    "Ġlam": 2173,
    "Ġfeels": 2174,
    "free": 2175,
    "Ġpic": 2176,
    "Ġyear": 2177,
    "Ġprin": 2178,
    "tttttttt": 2179,
    "dis": 2180,
    "ty": 2181,
    "Ġspark": 2182,
    "Ġready": 2183,
    "azy": 2184,
    "Ġimpress": 2185,
    "Ġed": 2186,
    "Ġang": 2187,
    "con": 2188,
    "itas": 2189,
    "Ġresponsi": 2190,
    "Ġair": 2191,
    "Ġfood": 2192,
    "Ġnag": 2193,
    "Ġbuild": 2194,
    "brg": 2195,
    "Ġkid": 2196,
    "Ġpad": 2197,
    "mantul": 2198,
    "lm": 2199,
    "vv": 2200,
    "Ġpng": 2201,
    "als": 2202,
    "Ġkay": 2203,
    "ively": 2204,
    "Ġdet": 2205,
    "Ġhell": 2206,
    "tim": 2207,
    "Ġmissing": 2208,
    "xx": 2209,
    "Ġpieces": 2210,
    "ttt": 2211,
    "Ġdist": 2212,
    "Ġhuh": 2213,
    "Ġver": 2214,
    "ky": 2215,
    "ans": 2216,
    "changeable": 2217,
    "Ġtal": 2218,
    "een": 2219,
    "ains": 2220,
    "iiiiiiii": 2221,
    "Ġopened": 2222,
    "Ġpower": 2223,
    "Ġnarrow": 2224,
    "og": 2225,
    "Ġtet": 2226,
    "ried": 2227,
    "Ġusually": 2228,
    "baguss": 2229,
    "Ġsampai": 2230,
    "Ġfinally": 2231,
    "Ġpk": 2232,
    "Ġpol": 2233,
    "Ġgray": 2234,
    "Ġharga": 2235,
    "Ġclos": 2236,
    "Ġinterchangeable": 2237,
    "Ġes": 2238,
    "Ġaq": 2239,
    "Ġread": 2240,
    "ru": 2241,
    "ww": 2242,
    "iny": 2243,
    "uai": 2244,
    "Ġnat": 2245,
    "Ġhol": 2246,
    "Ġwithin": 2247,
    "ement": 2248,
    "Ġlip": 2249,
    "Ġupd": 2250,
    "Ġgenuine": 2251,
    "Ġcap": 2252,
    "Ġchina": 2253,
    "Ġworn": 2254,
    "retch": 2255,
    "Ġbalance": 2256,
    "Ġonline": 2257,
    "Ġfreeb": 2258,
    "Ġsat": 2259,
    "Ġmakasih": 2260,
    "Ġclose": 2261,
    "pal": 2262,
    "ra": 2263,
    "Ġdry": 2264,
    "antially": 2265,
    "Ġ30": 2266,
    "Ġcur": 2267,
    "Ġleft": 2268,
    "new": 2269,
    "sy": 2270,
    "sih": 2271,
    "Ġwalking": 2272,
    "iin": 2273,
    "Ġhusband": 2274,
    "Ġbuyers": 2275,
    "aph": 2276,
    "Ġsomething": 2277,
    "speed": 2278,
    "response": 2279,
    "hopefully": 2280,
    "kan": 2281,
    "nyaa": 2282,
    "Ġwrit": 2283,
    "Ġsubstantially": 2284,
    "Ġbnget": 2285,
    "Ġinclud": 2286,
    "Ġuseful": 2287,
    "Ġfortunately": 2288,
    "Ġsatisfying": 2289,
    "Ġstretch": 2290,
    "Ġkirain": 2291,
    "Ġug": 2292,
    "Ġpcs": 2293,
    "Ġnt": 2294,
    "Ġbet": 2295,
    "ability": 2296,
    "Ġsellernya": 2297,
    "Ġrelie": 2298,
    "jsjs": 2299,
    "dddddddd": 2300,
    "uus": 2301,
    "aff": 2302,
    "Ġtell": 2303,
    "weight": 2304,
    "pcs": 2305,
    "Ġpokok": 2306,
    "Ġboxes": 2307,
    "mantap": 2308,
    "Ġbngt": 2309,
    "satisf": 2310,
    "air": 2311,
    "ku": 2312,
    "Ġfound": 2313,
    "Ġdu": 2314,
    "Ġabs": 2315,
    "Ġaway": 2316,
    "Ġhat": 2317,
    "Ġgam": 2318,
    "Ġcontents": 2319,
    "mer": 2320,
    "Ġopp": 2321,
    "nx": 2322,
    "Ġbat": 2323,
    "Ġaj": 2324,
    "ayan": 2325,
    "Ġdec": 2326,
    "more": 2327,
    "pite": 2328,
    "Ġbutton": 2329,
    "set": 2330,
    "cu": 2331,
    "iness": 2332,
    "comp": 2333,
    "Ġterimakasih": 2334,
    "Ġtransaction": 2335,
    "over": 2336,
    "Ġbigger": 2337,
    "Ġah": 2338,
    "Ġpush": 2339,
    "Ġsuccessfully": 2340,
    "mmmm": 2341,
    "Ġreplace": 2342,
    "Ġimportant": 2343,
    "Ġsen": 2344,
    "Ġfavor": 2345,
    "Ġuk": 2346,
    "Ġsmpe": 2347,
    "anda": 2348,
    "bal": 2349,
    "tp": 2350,
    "Ġsukak": 2351,
    "iced": 2352,
    "oose": 2353,
    "Ġ202": 2354,
    "ention": 2355,
    "Ġkm": 2356,
    "aaaaa": 2357,
    "Ġbener": 2358,
    "par": 2359,
    "Ġer": 2360,
    "itude": 2361,
    "Ġcant": 2362,
    "idly": 2363,
    "Ġbuildup": 2364,
    "Ġcharge": 2365,
    "Ġcontact": 2366,
    "eet": 2367,
    "Ġsales": 2368,
    "Ġlum": 2369,
    "Ġrelieved": 2370,
    "Ġgap": 2371,
    "Ġrekom": 2372,
    "Ġsma": 2373,
    "aha": 2374,
    "kwkw": 2375,
    "Ġextremely": 2376,
    "Ġul": 2377,
    "Ġsocks": 2378,
    "ksih": 2379,
    "cially": 2380,
    "Ġpdhl": 2381,
    "Ġoften": 2382,
    "Ġkissing": 2383,
    "Ġscreen": 2384,
    "gk": 2385,
    "Ġtom": 2386,
    "Ġkl": 2387,
    "rip": 2388,
    "Ġpairs": 2389,
    "Ġsukaa": 2390,
    "Ġmandate": 2391,
    "Ġprinci": 2392,
    "got": 2393,
    "Ġjdi": 2394,
    "Ġpromo": 2395,
    "Ġtot": 2396,
    "itu": 2397,
    "unic": 2398,
    "Ġwatch": 2399,
    "Ġkal": 2400,
    "Ġowner": 2401,
    "Ġstyle": 2402,
    "vert": 2403,
    "Ġequ": 2404,
    "Ġlgi": 2405,
    "Ġsweet": 2406,
    "wrong": 2407,
    "igh": 2408,
    "Ġfront": 2409,
    "sho": 2410,
    "Ġanything": 2411,
    "Ġrelat": 2412,
    "pped": 2413,
    "Ġcas": 2414,
    "Ġku": 2415,
    "cheap": 2416,
    "Ġugly": 2417,
    "ib": 2418,
    "Ġsampe": 2419,
    "Ġcot": 2420,
    "Ġmal": 2421,
    "Ġcontinued": 2422,
    "dy": 2423,
    "Ġmonths": 2424,
    "Ġob": 2425,
    "emas": 2426,
    "Ġsuccessful": 2427,
    "Ġour": 2428,
    "Ġcontinues": 2429,
    "Ġgifts": 2430,
    "pesen": 2431,
    "ience": 2432,
    "Ġlay": 2433,
    "thin": 2434,
    "Ġcharg": 2435,
    "ected": 2436,
    "Ġmorning": 2437,
    "Ġfix": 2438,
    "Ġfloor": 2439,
    "Ġtill": 2440,
    "Ġnight": 2441,
    "Ġye": 2442,
    "Ġchoose": 2443,
    "Ġ40": 2444,
    "Ġproduk": 2445,
    "Ġsgt": 2446,
    "Ġbh": 2447,
    "Ġball": 2448,
    "material": 2449,
    "Ġrubber": 2450,
    "Ġdest": 2451,
    "Ġshow": 2452,
    "Ġdespite": 2453,
    "Ġflame": 2454,
    "jf": 2455,
    "Ġdraw": 2456,
    "Ġsmpai": 2457,
    "Ġdifference": 2458,
    "graph": 2459,
    "Ġmilk": 2460,
    "Ġtetep": 2461,
    "xl": 2462,
    "inya": 2463,
    "Ġfabrics": 2464,
    "Ġlength": 2465,
    "Ġtemporary": 2466,
    "Ġmother": 2467,
    "Ġfragrant": 2468,
    "Ġpress": 2469,
    "Ġlagi": 2470,
    "Ġparcel": 2471,
    "bg": 2472,
    "cy": 2473,
    "Ġlarger": 2474,
    "Ġhrga": 2475,
    "Ġsangat": 2476,
    "je": 2477,
    "some": 2478,
    "Ġsand": 2479,
    "Ġpatter": 2480,
    "size": 2481,
    "Ġextra": 2482,
    "Ġtapi": 2483,
    "pecially": 2484,
    "kkk": 2485,
    "Ġcotton": 2486,
    "Ġrope": 2487,
    "man": 2488,
    "Ġgini": 2489,
    "ither": 2490,
    "loved": 2491,
    "Ġblessing": 2492,
    "Ġfragrance": 2493,
    "ited": 2494,
    "elay": 2495,
    "ety": 2496,
    "Ġexped": 2497,
    "exp": 2498,
    "Ġflow": 2499,
    "Ġwish": 2500,
    "Ġmatches": 2501,
    "Ġadded": 2502,
    "vice": 2503,
    "orrow": 2504,
    "Ġprob": 2505,
    "ply": 2506,
    "sk": 2507,
    "Ġable": 2508,
    "Ġpain": 2509,
    "Ġphotograph": 2510,
    "Ġregular": 2511,
    "ged": 2512,
    "asant": 2513,
    "Ġadvert": 2514,
    "sa": 2515,
    "Ġbt": 2516,
    "ully": 2517,
    "Ġbrush": 2518,
    "Ġ50": 2519,
    "go": 2520,
    "ters": 2521,
    "road": 2522,
    "Ġsolid": 2523,
    "Ġpick": 2524,
    "Ġhehehe": 2525,
    "Ġoil": 2526,
    "Ġnic": 2527,
    "Ġfriends": 2528,
    "Ġsquinting": 2529,
    "gan": 2530,
    "Ġsun": 2531,
    "ird": 2532,
    "Ġdem": 2533,
    "Ġstand": 2534,
    "Ġspill": 2535,
    "Ġadvice": 2536,
    "Ġps": 2537,
    "Ġgm": 2538,
    "eb": 2539,
    "Ġabroad": 2540,
    "pa": 2541,
    "will": 2542,
    "Ġsam": 2543,
    "aah": 2544,
    "Ġram": 2545,
    "load": 2546,
    "Ġlin": 2547,
    "Ġespecially": 2548,
    "uth": 2549,
    "ada": 2550,
    "Ġcolour": 2551,
    "Ġsole": 2552,
    "items": 2553,
    "bidly": 2554,
    "Ġintact": 2555,
    "Ġpaket": 2556,
    "Ġkual": 2557,
    "Ġyaaa": 2558,
    "Ġkaka": 2559,
    "Ġpesenan": 2560,
    "ative": 2561,
    "Ġwrna": 2562,
    "anger": 2563,
    "Ġaman": 2564,
    "Ġloss": 2565,
    "fits": 2566,
    "Ġben": 2567,
    "Ġcam": 2568,
    "eeeeeeee": 2569,
    "Ġfil": 2570,
    "edu": 2571,
    "aya": 2572,
    "ume": 2573,
    "Ġcommunic": 2574,
    "rible": 2575,
    "Ġoverse": 2576,
    "small": 2577,
    "ins": 2578,
    "Ġru": 2579,
    "Ġnyamp": 2580,
    "ror": 2581,
    "too": 2582,
    "Ġspr": 2583,
    "Ġnk": 2584,
    "ahh": 2585,
    "Ġmakes": 2586,
    "Ġju": 2587,
    "Ġclosed": 2588,
    "Ġattitude": 2589,
    "cust": 2590,
    "Ġste": 2591,
    "Ġskirt": 2592,
    "Ġmotif": 2593,
    "come": 2594,
    "Ġwi": 2595,
    "Ġlbh": 2596,
    "Ġlid": 2597,
    "unya": 2598,
    "Ġasics": 2599,
    "Ġheal": 2600,
    "Ġsister": 2601,
    "cool": 2602,
    "Ġprevious": 2603,
    "Ġtomorrow": 2604,
    "lier": 2605,
    "Ġmorbidly": 2606,
    "onest": 2607,
    "amat": 2608,
    "pteen": 2609,
    "Ġgave": 2610,
    "Ġdouble": 2611,
    "Ġinde": 2612,
    "Ġ13": 2613,
    "Ġmodels": 2614,
    "Ġfig": 2615,
    "Ġflaw": 2616,
    "Ġdefects": 2617,
    "Ġrelatively": 2618,
    "Ġfinished": 2619,
    "ls": 2620,
    "Ġgar": 2621,
    "Ġbany": 2622,
    "gggg": 2623,
    "Ġguess": 2624,
    "Ġsmoothly": 2625,
    "Ġbottom": 2626,
    "cord": 2627,
    "Ġpast": 2628,
    "Ġeither": 2629,
    "Ġfact": 2630,
    "Ġsign": 2631,
    "Ġlightweight": 2632,
    "ma": 2633,
    "oi": 2634,
    "Ġev": 2635,
    "ump": 2636,
    "Ġround": 2637,
    "Ġpn": 2638,
    "Ġpal": 2639,
    "Ġmach": 2640,
    "ones": 2641,
    "Ġhahah": 2642,
    "Ġimprove": 2643,
    "ities": 2644,
    "Ġfan": 2645,
    "Ġkh": 2646,
    "Ġ19": 2647,
    "Ġproblems": 2648,
    "Ġbusiness": 2649,
    "Ġsch": 2650,
    "Ġner": 2651,
    "top": 2652,
    "aaaaaa": 2653,
    "Ġarch": 2654,
    "Ġprobably": 2655,
    "Ġtip": 2656,
    "Ġwom": 2657,
    "Ġlau": 2658,
    "Ġactual": 2659,
    "Ġstitching": 2660,
    "ination": 2661,
    "real": 2662,
    "Ġheel": 2663,
    "Ġanymore": 2664,
    "Ġmessages": 2665,
    "bad": 2666,
    "Ġtau": 2667,
    "ese": 2668,
    "idd": 2669,
    "Ġweve": 2670,
    "ggest": 2671,
    "Ġstruck": 2672,
    "awang": 2673,
    "Ġstitches": 2674,
    "Ġsneakers": 2675,
    "pteenth": 2676,
    "cial": 2677,
    "fy": 2678,
    "jual": 2679,
    "Ġsing": 2680,
    "Ġwid": 2681,
    "Ġtoe": 2682,
    "ored": 2683,
    "Ġperi": 2684,
    "Ġconsidered": 2685,
    "color": 2686,
    "Ġelse": 2687,
    "Ġconsum": 2688,
    "ata": 2689,
    "Ġremo": 2690,
    "Ġdents": 2691,
    "cc": 2692,
    "Ġ24": 2693,
    "first": 2694,
    "hm": 2695,
    "how": 2696,
    "ser": 2697,
    "self": 2698,
    "Ġfur": 2699,
    "ilar": 2700,
    "Ġjga": 2701,
    "apping": 2702,
    "Ġmantab": 2703,
    "Ġpleasant": 2704,
    "Ġhalo": 2705,
    "oss": 2706,
    "Ġbi": 2707,
    "Ġnak": 2708,
    "unity": 2709,
    "Ġsempet": 2710,
    "eless": 2711,
    "Ġdk": 2712,
    "Ġ16": 2713,
    "Ġ25": 2714,
    "Ġzi": 2715,
    "Ġuda": 2716,
    "Ġsemoga": 2717,
    "Ġtransportation": 2718,
    "custom": 2719,
    "oh": 2720,
    "Ġrealpict": 2721,
    "Ġtrusted": 2722,
    "back": 2723,
    "Ġeng": 2724,
    "Ġgold": 2725,
    "Ġdit": 2726,
    "Ġopport": 2727,
    "long": 2728,
    "Ġorange": 2729,
    "Ġsuggest": 2730,
    "Ġlife": 2731,
    "Ġtrs": 2732,
    "Ġexpedition": 2733,
    "Ġcart": 2734,
    "Ġwin": 2735,
    "Ġspeak": 2736,
    "Ġpos": 2737,
    "Ġarriving": 2738,
    "Ġsizes": 2739,
    "Ġlaugh": 2740,
    "Ġwilling": 2741,
    "Ġexper": 2742,
    "Ġlegit": 2743,
    "Ġperiod": 2744,
    "Ġtold": 2745,
    "Ġconven": 2746,
    "Ġreached": 2747,
    "Ġshown": 2748,
    "ments": 2749,
    "Ġtakes": 2750,
    "complet": 2751,
    "ms": 2752,
    "ates": 2753,
    "Ġpurchasing": 2754,
    "Ġwhereas": 2755,
    "Ġsesuai": 2756,
    "bt": 2757,
    "ered": 2758,
    "Ġstatement": 2759,
    "ded": 2760,
    "la": 2761,
    "elt": 2762,
    "Ġgas": 2763,
    "Ġprint": 2764,
    "Ġtrying": 2765,
    "Ġterima": 2766,
    "uas": 2767,
    "avor": 2768,
    "Ġpattern": 2769,
    "Ġhp": 2770,
    "Ġmeet": 2771,
    "ained": 2772,
    "Ġheck": 2773,
    "Ġdemand": 2774,
    "cute": 2775,
    "pas": 2776,
    "Ġpot": 2777,
    "Ġhur": 2778,
    "stick": 2779,
    "Ġcrazy": 2780,
    "Ġumpteenth": 2781,
    "Ġfle": 2782,
    "satisfied": 2783,
    "ool": 2784,
    "yed": 2785,
    "Ġpatient": 2786,
    "Ġoverseas": 2787,
    "Ġwon": 2788,
    "Ġlama": 2789,
    "Ġkasi": 2790,
    "Ġjug": 2791,
    "Ġlost": 2792,
    "Ġopportunity": 2793,
    "uished": 2794,
    "Ġsimilar": 2795,
    "mk": 2796,
    "Ġnear": 2797,
    "Ġsleep": 2798,
    "Ġmantapp": 2799,
    "Ġconn": 2800,
    "Ġcoll": 2801,
    "Ġpock": 2802,
    "Ġfunctioning": 2803,
    "Ġnicely": 2804,
    "complete": 2805,
    "Ġdelay": 2806,
    "Ġini": 2807,
    "Ġconfused": 2808,
    "Ġdetail": 2809,
    "Ġbas": 2810,
    "Ġbny": 2811,
    "Ġmotive": 2812,
    "pos": 2813,
    "sent": 2814,
    "Ġsew": 2815,
    "Ġkeeping": 2816,
    "Ġkayak": 2817,
    "Ġlaughing": 2818,
    "Ġaam": 2819,
    "Ġdust": 2820,
    "Ġpriced": 2821,
    "Ġaddition": 2822,
    "Ġsyuka": 2823,
    "Ġ201": 2824,
    "bat": 2825,
    "ker": 2826,
    "ti": 2827,
    "Ġpensive": 2828,
    "Ġmakas": 2829,
    "Ġinexp": 2830,
    "Ġstay": 2831,
    "Ġkrna": 2832,
    "rrrr": 2833,
    "Ġpoints": 2834,
    "arant": 2835,
    "Ġpacks": 2836,
    "Ġreviews": 2837,
    "bang": 2838,
    "jx": 2839,
    "ject": 2840,
    "Ġmet": 2841,
    "Ġjack": 2842,
    "rg": 2843,
    "tqtq": 2844,
    "Ġimproved": 2845,
    "Ġvers": 2846,
    "Ġmight": 2847,
    "Ġcolle": 2848,
    "Ġdoang": 2849,
    "dhd": 2850,
    "Ġexpired": 2851,
    "while": 2852,
    "Ġpengirim": 2853,
    "Ġrekomended": 2854,
    "Ġchoice": 2855,
    "Ġrough": 2856,
    "Ġdescribed": 2857,
    "Ġfoam": 2858,
    "Ġgenerally": 2859,
    "cor": 2860,
    "Ġtable": 2861,
    "Ġcable": 2862,
    "aining": 2863,
    "Ġlights": 2864,
    "Ġauth": 2865,
    "Ġ14": 2866,
    "aight": 2867,
    "box": 2868,
    "Ġwidth": 2869,
    "Ġpan": 2870,
    "inary": 2871,
    "Ġbes": 2872,
    "Ġprod": 2873,
    "Ġposs": 2874,
    "Ġkey": 2875,
    "Ġstraight": 2876,
    "Ġsticky": 2877,
    "ko": 2878,
    "ware": 2879,
    "Ġbai": 2880,
    "Ġeye": 2881,
    "Ġheat": 2882,
    "Ġenjo": 2883,
    "Ġname": 2884,
    "Ġhonest": 2885,
    "Ġtrail": 2886,
    "Ġdecent": 2887,
    "Ġpatron": 2888,
    "Ġreplaced": 2889,
    "Ġprincipal": 2890,
    "Ġinexpensive": 2891,
    "still": 2892,
    "Ġreceipt": 2893,
    "Ġwhe": 2894,
    "Ġcancel": 2895,
    "uuu": 2896,
    "Ġcompletely": 2897,
    "aces": 2898,
    "Ġwalk": 2899,
    "wrap": 2900,
    "Ġzipper": 2901,
    "Ġdin": 2902,
    "Ġdlu": 2903,
    "Ġdipake": 2904,
    "Ġclapping": 2905,
    "Ġrapi": 2906,
    "Ġsubsidies": 2907,
    "Ġkids": 2908,
    "Ġill": 2909,
    "Ġsampenya": 2910,
    "Ġfavorite": 2911,
    "Ġanak": 2912,
    "Ġfresh": 2913,
    "dam": 2914,
    "Ġwaste": 2915,
    "Ġclass": 2916,
    "Ġseams": 2917,
    "Ġsist": 2918,
    "Ġfore": 2919,
    "Ġmcm": 2920,
    "Ġvis": 2921,
    "Ġpackingan": 2922,
    "Ġcompany": 2923,
    "Ġmarket": 2924,
    "Ġgeneral": 2925,
    "Ġinf": 2926,
    "Ġrate": 2927,
    "ship": 2928,
    "Ġmachine": 2929,
    "Ġdisting": 2930,
    "Ġinstant": 2931,
    "Ġmmg": 2932,
    "Ġpak": 2933,
    "ming": 2934,
    "Ġtong": 2935,
    "although": 2936,
    "Ġbrng": 2937,
    "Ġpatronize": 2938,
    "ony": 2939,
    "bgt": 2940,
    "sel": 2941,
    "deliver": 2942,
    "Ġeffective": 2943,
    "Ġmaint": 2944,
    "akan": 2945,
    "Ġcook": 2946,
    "Ġfeeling": 2947,
    "gi": 2948,
    "Ġsmua": 2949,
    "Ġ38": 2950,
    "ds": 2951,
    "Ġinit": 2952,
    "Ġitself": 2953,
    "Ġpowder": 2954,
    "Ġinformation": 2955,
    "Ġaamiin": 2956,
    "Ġdn": 2957,
    "Ġcharger": 2958,
    "ically": 2959,
    "Ġbangeet": 2960,
    "Ġhole": 2961,
    "Ġpound": 2962,
    "Ġbed": 2963,
    "Ġinv": 2964,
    "Ġordering": 2965,
    "Ġaccordingly": 2966,
    "Ġexpir": 2967,
    "Ġflat": 2968,
    "Ġstrap": 2969,
    "Ġparts": 2970,
    "Ġbelow": 2971,
    "Ġincrease": 2972,
    "Ġfigure": 2973,
    "Ġfive": 2974,
    "Ġreeb": 2975,
    "Ġforget": 2976,
    "Ġord": 2977,
    "Ġdip": 2978,
    "Ġtested": 2979,
    "jab": 2980,
    "Ġcli": 2981,
    "Ġket": 2982,
    "Ġresponsible": 2983,
    "Ġreebok": 2984,
    "Ġaga": 2985,
    "Ġsyuk": 2986,
    "where": 2987,
    "Ġsays": 2988,
    "Ġfour": 2989,
    "Ġnavy": 2990,
    "Ġrice": 2991,
    "Ġredu": 2992,
    "Ġtrial": 2993,
    "Ġsubmit": 2994,
    "oooooooo": 2995,
    "Ġdistinguished": 2996,
    "odity": 2997,
    "Ġpill": 2998,
    "Ġorigin": 2999,
    "Ġconvenient": 3000,
    "cribe": 3001,
    "cewa": 3002,
    "entic": 3003,
    "Ġaddress": 3004,
    "Ġsticker": 3005,
    "Ġnormally": 3006,
    "Ġacceptable": 3007,
    "Ġamazing": 3008,
    "Ġsparkling": 3009,
    "Ġlist": 3010,
    "Ġaccom": 3011,
    "Ġarrival": 3012,
    "suka": 3013,
    "Ġupdate": 3014,
    "Ġgapapa": 3015,
    "Ġbanyak": 3016,
    "aran": 3017,
    "Ġterbaik": 3018,
    "Ġabis": 3019,
    "Ġwaist": 3020,
    "Ġprotect": 3021,
    "Ġmed": 3022,
    "Ġkasih": 3023,
    "Ġfault": 3024,
    "Ġsimple": 3025,
    "Ġtransfer": 3026,
    "ior": 3027,
    "ned": 3028,
    "ove": 3029,
    "Ġneck": 3030,
    "oof": 3031,
    "kd": 3032,
    "nja": 3033,
    "Ġtks": 3034,
    "Ġpul": 3035,
    "ising": 3036,
    "Ġlab": 3037,
    "Ġmatter": 3038,
    "Ġaccur": 3039,
    "Ġattached": 3040,
    "Ġearlier": 3041,
    "Ġsurpr": 3042,
    "Ġsealed": 3043,
    "iant": 3044,
    "Ġglow": 3045,
    "Ġnyo": 3046,
    "Ġruns": 3047,
    "Ġearly": 3048,
    "overall": 3049,
    "Ġexperience": 3050,
    "Ġtape": 3051,
    "Ġharg": 3052,
    "Ġbeh": 3053,
    "Ġchang": 3054,
    "usted": 3055,
    "Ġdrop": 3056,
    "worthy": 3057,
    "bx": 3058,
    "Ġess": 3059,
    "ened": 3060,
    "oul": 3061,
    "uss": 3062,
    "eee": 3063,
    "Ġstuck": 3064,
    "Ġperh": 3065,
    "ission": 3066,
    "aught": 3067,
    "Ġnerawang": 3068,
    "gu": 3069,
    "alu": 3070,
    "Ġcontent": 3071,
    "Ġappe": 3072,
    "Ġoder": 3073,
    "udh": 3074,
    "Ġol": 3075,
    "Ġfelt": 3076,
    "Ġsoap": 3077,
    "Ġsafety": 3078,
    "Ġdsni": 3079,
    "god": 3080,
    "Ġtear": 3081,
    "Ġfairly": 3082,
    "Ġquestions": 3083,
    "cl": 3084,
    "Ġgel": 3085,
    "Ġmksih": 3086,
    "Ġra": 3087,
    "Ġpesanan": 3088,
    "Ġsandals": 3089,
    "ball": 3090,
    "iff": 3091,
    "pass": 3092,
    "sdh": 3093,
    "arp": 3094,
    "Ġblis": 3095,
    "Ġnyampenya": 3096,
    "ier": 3097,
    "Ġdan": 3098,
    "oles": 3099,
    "Ġjnt": 3100,
    "Ġterrible": 3101,
    "Ġsecur": 3102,
    "rent": 3103,
    "ars": 3104,
    "terim": 3105,
    "ordered": 3106,
    "Ġchecked": 3107,
    "shoes": 3108,
    "Ġsingle": 3109,
    "Ġvs": 3110,
    "Ġcharging": 3111,
    "trim": 3112,
    "Ġfear": 3113,
    "quick": 3114,
    "aga": 3115,
    "une": 3116,
    "Ġcamer": 3117,
    "rant": 3118,
    "ts": 3119,
    "Ġbul": 3120,
    "Ġwind": 3121,
    "ding": 3122,
    "Ġwet": 3123,
    "Ġword": 3124,
    "Ġjne": 3125,
    "look": 3126,
    "ured": 3127,
    "Ġimag": 3128,
    "Ġtrustworthy": 3129,
    "llllllll": 3130,
    "clo": 3131,
    "Ġbase": 3132,
    "cted": 3133,
    "Ġmsh": 3134,
    "Ġmult": 3135,
    "Ġank": 3136,
    "Ġcho": 3137,
    "Ġultra": 3138,
    "Ġta": 3139,
    "Ġnih": 3140,
    "quite": 3141,
    "Ġstre": 3142,
    "Ġlock": 3143,
    "disappoint": 3144,
    "Ġmom": 3145,
    "Ġlem": 3146,
    "Ġcontain": 3147,
    "Ġleast": 3148,
    "Ġguarant": 3149,
    "Ġindeed": 3150,
    "Ġauthentic": 3151,
    "Ġthread": 3152,
    "els": 3153,
    "ats": 3154,
    "Ġhaha": 3155,
    "Ġ18": 3156,
    "Ġimages": 3157,
    "vi": 3158,
    "Ġmen": 3159,
    "ides": 3160,
    "Ġsmallness": 3161,
    "Ġreturned": 3162,
    "Ġslipp": 3163,
    "put": 3164,
    "Ġten": 3165,
    "Ġtouch": 3166,
    "Ġfill": 3167,
    "Ġfake": 3168,
    "Ġrating": 3169,
    "auty": 3170,
    "Ġsurely": 3171,
    "customers": 3172,
    "Ġpaint": 3173,
    "Ġgir": 3174,
    "Ġmes": 3175,
    "Ġqual": 3176,
    "Ġanyone": 3177,
    "Ġgetting": 3178,
    "Ġbrands": 3179,
    "Ġfreebie": 3180,
    "Ġadvertised": 3181,
    "bought": 3182,
    "dg": 3183,
    "cepat": 3184,
    "ask": 3185,
    "Ġring": 3186,
    "Ġwanted": 3187,
    "Ġbangettt": 3188,
    "Ġhelpful": 3189,
    "Ġsubsidize": 3190,
    "bis": 3191,
    "ses": 3192,
    "Ġband": 3193,
    "Ġdlm": 3194,
    "Ġcu": 3195,
    "ushed": 3196,
    "Ġselect": 3197,
    "Ġpillow": 3198,
    "awn": 3199,
    "Ġ00": 3200,
    "ons": 3201,
    "sever": 3202,
    "Ġada": 3203,
    "Ġflex": 3204,
    "Ġsewing": 3205,
    "Ġgre": 3206,
    "Ġlive": 3207,
    "ication": 3208,
    "lam": 3209,
    "ala": 3210,
    "Ġresp": 3211,
    "Ġksh": 3212,
    "Ġpackages": 3213,
    "Ġrm": 3214,
    "Ġseen": 3215,
    "Ġarom": 3216,
    "direct": 3217,
    "Ġdestination": 3218,
    "damaged": 3219,
    "Ġstain": 3220,
    "Ġseed": 3221,
    "ihi": 3222,
    "Ġgaa": 3223,
    "Ġnin": 3224,
    "arent": 3225,
    "phone": 3226,
    "Ġabsor": 3227,
    "Ġpossible": 3228,
    "ganan": 3229,
    "itive": 3230,
    "Ġcoat": 3231,
    "Ġexpectation": 3232,
    "cie": 3233,
    "Ġscratches": 3234,
    "Ġhuhu": 3235,
    "every": 3236,
    "Ġdanger": 3237,
    "Ġmg": 3238,
    "yyyy": 3239,
    "Ġhang": 3240,
    "Ġshock": 3241,
    "Ġbrang": 3242,
    "Ġspend": 3243,
    "Ġjgn": 3244,
    "Ġdrawn": 3245,
    "zzzz": 3246,
    "Ġtalk": 3247,
    "fr": 3248,
    "rb": 3249,
    "Ġchar": 3250,
    "Ġcontr": 3251,
    "Ġstable": 3252,
    "Ġadjust": 3253,
    "undred": 3254,
    "Ġrecomend": 3255,
    "Ġquestion": 3256,
    "cr": 3257,
    "hes": 3258,
    "nf": 3259,
    "Ġunlike": 3260,
    "Ġpleased": 3261,
    "Ġokee": 3262,
    "Ġdoubt": 3263,
    "until": 3264,
    "cording": 3265,
    "Ġpin": 3266,
    "Ġcount": 3267,
    "Ġpacket": 3268,
    "Ġclock": 3269,
    "Ġperhaps": 3270,
    "Ġthird": 3271,
    "Ġmidd": 3272,
    "Ġkan": 3273,
    "ustri": 3274,
    "shs": 3275,
    "Ġrapid": 3276,
    "Ġroom": 3277,
    "Ġcomplaint": 3278,
    "Ġkeren": 3279,
    "Ġthor": 3280,
    "Ġmn": 3281,
    "oll": 3282,
    "aped": 3283,
    "Ġsilver": 3284,
    "Ġaccomodating": 3285,
    "Ġtl": 3286,
    "Ġttp": 3287,
    "Ġcal": 3288,
    "Ġhit": 3289,
    "Ġscre": 3290,
    "Ġeveryone": 3291,
    "Ġtaken": 3292,
    "Ġcamera": 3293,
    "bud": 3294,
    "ging": 3295,
    "Ġhundred": 3296,
    "Ġalone": 3297,
    "Ġconst": 3298,
    "eed": 3299,
    "proof": 3300,
    "Ġthinks": 3301,
    "Ġdescriptions": 3302,
    "passable": 3303,
    "kt": 3304,
    "mess": 3305,
    "of": 3306,
    "zed": 3307,
    "recommend": 3308,
    "Ġmist": 3309,
    "fty": 3310,
    "finally": 3311,
    "Ġpeel": 3312,
    "Ġsekali": 3313,
    "Ġkualitas": 3314,
    "Ġpocket": 3315,
    "Ġjacket": 3316,
    "sue": 3317,
    "Ġpke": 3318,
    "Ġsaw": 3319,
    "Ġbro": 3320,
    "Ġfeed": 3321,
    "Ġlipstick": 3322,
    "pin": 3323,
    "pun": 3324,
    "sem": 3325,
    "Ġconditions": 3326,
    "Ġenter": 3327,
    "Ġwonder": 3328,
    "can": 3329,
    "que": 3330,
    "Ġclay": 3331,
    "Ġpngiriman": 3332,
    "ruction": 3333,
    "Ġversion": 3334,
    "Ġordinary": 3335,
    "by": 3336,
    "cle": 3337,
    "fab": 3338,
    "Ġsd": 3339,
    "Ġnon": 3340,
    "Ġnyaa": 3341,
    "Ġrequested": 3342,
    "Ġlayer": 3343,
    "disappointed": 3344,
    "uf": 3345,
    "arri": 3346,
    "ots": 3347,
    "Ġcompet": 3348,
    "Ġnike": 3349,
    "Ġprovide": 3350,
    "Ġsekal": 3351,
    "wa": 3352,
    "Ġissue": 3353,
    "Ġvoice": 3354,
    "Ġmeas": 3355,
    "Ġ39": 3356,
    "andom": 3357,
    "unch": 3358,
    "Ġrain": 3359,
    "Ġboy": 3360,
    "ween": 3361,
    "Ġbooks": 3362,
    "cewain": 3363,
    "Ġkyk": 3364,
    "Ġwoman": 3365,
    "cer": 3366,
    "Ġing": 3367,
    "Ġcake": 3368,
    "Ġstaff": 3369,
    "icated": 3370,
    "Ġshoppe": 3371,
    "Ġlevel": 3372,
    "cif": 3373,
    "Ġerror": 3374,
    "fun": 3375,
    "io": 3376,
    "illiant": 3377,
    "Ġcomfy": 3378,
    "ified": 3379,
    "Ġmonday": 3380,
    "Ġinterest": 3381,
    "hhhhhhhhhhhhhhhh": 3382,
    "Ġwritten": 3383,
    "kin": 3384,
    "me": 3385,
    "perfect": 3386,
    "Ġplug": 3387,
    "suit": 3388,
    "times": 3389,
    "Ġninja": 3390,
    "Ġdedu": 3391,
    "Ġmind": 3392,
    "Ġallah": 3393,
    "Ġdidn": 3394,
    "Ġpayment": 3395,
    "nnnnnnnn": 3396,
    "Ġbetween": 3397,
    "cok": 3398,
    "anja": 3399,
    "eliver": 3400,
    "Ġbrilliant": 3401,
    "according": 3402,
    "5555": 3403,
    "Ġbottles": 3404,
    "Ġbehind": 3405,
    "Ġhes": 3406,
    "hhe": 3407,
    "Ġ37": 3408,
    "mi": 3409,
    "Ġdail": 3410,
    "Ġcir": 3411,
    "Ġ22": 3412,
    "Ġmini": 3413,
    "Ġpostage": 3414,
    "Ġcommodity": 3415,
    "Ġtiny": 3416,
    "ined": 3417,
    "Ġkc": 3418,
    "urdy": 3419,
    "Ġwhole": 3420,
    "Ġneeded": 3421,
    "worth": 3422,
    "kkkkkkkkkkkkkkkk": 3423,
    "Ġhesit": 3424,
    "alah": 3425,
    "orts": 3426,
    "Ġblnja": 3427,
    "Ġpero": 3428,
    "Ġglasses": 3429,
    "Ġgaada": 3430,
    "Ġbur": 3431,
    "ede": 3432,
    "Ġdech": 3433,
    "Ġkept": 3434,
    "Ġfragile": 3435,
    "Ġbahan": 3436,
    "Ġglowing": 3437,
    "Ġdaily": 3438,
    "jk": 3439,
    "Ġwl": 3440,
    "ases": 3441,
    "soever": 3442,
    "Ġdead": 3443,
    "appropriate": 3444,
    "Ġkek": 3445,
    "Ġ2020": 3446,
    "Ġbtw": 3447,
    "Ġgasket": 3448,
    "fabric": 3449,
    "lish": 3450,
    "sung": 3451,
    "Ġsng": 3452,
    "Ġago": 3453,
    "Ġdisini": 3454,
    "Ġbgs": 3455,
    "barang": 3456,
    "Ġsteam": 3457,
    "with": 3458,
    "ading": 3459,
    "Ġboard": 3460,
    "Ġappro": 3461,
    "Ġfreebies": 3462,
    "posable": 3463,
    "hari": 3464,
    "Ġvouch": 3465,
    "Ġjum": 3466,
    "Ġrow": 3467,
    "Ġ36": 3468,
    "udah": 3469,
    "Ġtea": 3470,
    "Ġneeds": 3471,
    "emasan": 3472,
    "did": 3473,
    "ta": 3474,
    "uff": 3475,
    "Ġteng": 3476,
    "Ġfully": 3477,
    "Ġmba": 3478,
    "Ġspecial": 3479,
    "Ġvol": 3480,
    "Ġrandom": 3481,
    "Ġseason": 3482,
    "Ġtwice": 3483,
    "Ġhijab": 3484,
    "Ġcompleted": 3485,
    "Ġsevere": 3486,
    "Ġwarrant": 3487,
    "Ġprodct": 3488,
    "Ġthorough": 3489,
    "ilah": 3490,
    "Ġkap": 3491,
    "Ġnotice": 3492,
    "Ġrock": 3493,
    "Ġacne": 3494,
    "Ġmate": 3495,
    "Ġdehh": 3496,
    "Ġplaced": 3497,
    "Ġwrapping": 3498,
    "Ġcmn": 3499,
    "Ġsparkles": 3500,
    "ustria": 3501,
    "rn": 3502,
    "Ġgrip": 3503,
    "Ġsaya": 3504,
    "jh": 3505,
    "lass": 3506,
    "vious": 3507,
    "Ġyo": 3508,
    "Ġmaroon": 3509,
    "Ġslee": 3510,
    "Ġincluded": 3511,
    "Ġcantik": 3512,
    "Ġwarranty": 3513,
    "Ġfam": 3514,
    "Ġrose": 3515,
    "Ġrada": 3516,
    "Ġlahh": 3517,
    "after": 3518,
    "raid": 3519,
    "peng": 3520,
    "ently": 3521,
    "prices": 3522,
    "Ġamazon": 3523,
    "Ġtongue": 3524,
    "Ġaut": 3525,
    "quid": 3526,
    "Ġcold": 3527,
    "iih": 3528,
    "Ġarm": 3529,
    "Ġmiles": 3530,
    "Ġexpression": 3531,
    "Ġcell": 3532,
    "Ġmb": 3533,
    "Ġlh": 3534,
    "ara": 3535,
    "Ġloc": 3536,
    "Ġdisposable": 3537,
    "Ġowned": 3538,
    "Ġhrg": 3539,
    "Ġgtu": 3540,
    "Ġinstalled": 3541,
    "Ġblisters": 3542,
    "lod": 3543,
    "Ġdus": 3544,
    "Ġnd": 3545,
    "imate": 3546,
    "Ġsave": 3547,
    "shirt": 3548,
    "Ġafraid": 3549,
    "placed": 3550,
    "Ġlegs": 3551,
    "icient": 3552,
    "Ġtrny": 3553,
    "Ġsauc": 3554,
    "Ġhefty": 3555,
    "Ġsmells": 3556,
    "ized": 3557,
    "Ġleaking": 3558,
    "Ġsll": 3559,
    "Ġbund": 3560,
    "Ġbeauty": 3561,
    "Ġvia": 3562,
    "Ġdoor": 3563,
    "Ġblm": 3564,
    "Ġbru": 3565,
    "Ġlooked": 3566,
    "Ġwallet": 3567,
    "play": 3568,
    "Ġmarkot": 3569,
    "ges": 3570,
    "ian": 3571,
    "mas": 3572,
    "slow": 3573,
    "Ġest": 3574,
    "Ġscent": 3575,
    "Ġmco": 3576,
    "Ġpobud": 3577,
    "head": 3578,
    "Ġscar": 3579,
    "Ġguys": 3580,
    "Ġinsert": 3581,
    "Ġngecewain": 3582,
    "Ġimpressed": 3583,
    "Ġholes": 3584,
    "Ġexpressionless": 3585,
    "wise": 3586,
    "Ġtuh": 3587,
    "Ġdont": 3588,
    "orge": 3589,
    "Ġshaped": 3590,
    "Ġid": 3591,
    "Ġiron": 3592,
    "Ġsturdy": 3593,
    "Ġplant": 3594,
    "dhdh": 3595,
    "Ġperform": 3596,
    "keren": 3597,
    "aughter": 3598,
    "nse": 3599,
    "ui": 3600,
    "Ġfem": 3601,
    "Ġstri": 3602,
    "Ġstiff": 3603,
    "Ġminus": 3604,
    "Ġsatur": 3605,
    "orgeous": 3606,
    "df": 3607,
    "ilang": 3608,
    "Ġshope": 3609,
    "Ġ17": 3610,
    "Ġfitted": 3611,
    "Ġlacking": 3612,
    "Ġfalling": 3613,
    "mksh": 3614,
    "had": 3615,
    "ml": 3616,
    "elet": 3617,
    "Ġble": 3618,
    "Ġware": 3619,
    "Ġmic": 3620,
    "Ġfail": 3621,
    "aaaaaaa": 3622,
    "Ġapa": 3623,
    "Ġsoles": 3624,
    "Ġshipments": 3625,
    "Ġresponsib": 3626,
    "Ġnatur": 3627,
    "Ġwhether": 3628,
    "gs": 3629,
    "ler": 3630,
    "Ġpem": 3631,
    "atic": 3632,
    "Ġarea": 3633,
    "have": 3634,
    "case": 3635,
    "Ġpet": 3636,
    "Ġpouch": 3637,
    "Ġcasing": 3638,
    "only": 3639,
    "right": 3640,
    "olut": 3641,
    "Ġones": 3642,
    "Ġreli": 3643,
    "she": 3644,
    "Ġskrg": 3645,
    "Ġhandle": 3646,
    "Ġduper": 3647,
    "Ġdrawings": 3648,
    "Ġmaintain": 3649,
    "wear": 3650,
    "Ġtired": 3651,
    "Ġpag": 3652,
    "Ġmall": 3653,
    "ili": 3654,
    "Ġexchange": 3655,
    "Ġbyk": 3656,
    "Ġxxl": 3657,
    "Ġelastic": 3658,
    "Ġwriting": 3659,
    "Ġbreat": 3660,
    "rep": 3661,
    "Ġcup": 3662,
    "Ġmsg": 3663,
    "arily": 3664,
    "Ġinsh": 3665,
    "sec": 3666,
    "Ġgreatness": 3667,
    "Ġsomeone": 3668,
    "Ġsubscribe": 3669,
    "Ġmkasih": 3670,
    "Ġtotal": 3671,
    "Ġramah": 3672,
    "Ġjuga": 3673,
    "Ġengga": 3674,
    "hr": 3675,
    "Ġslo": 3676,
    "Ġport": 3677,
    "alem": 3678,
    "amb": 3679,
    "Ġserious": 3680,
    "istry": 3681,
    "sssss": 3682,
    "jsj": 3683,
    "Ġearr": 3684,
    "Ġfurther": 3685,
    "Ġaccurate": 3686,
    "directed": 3687,
    "rd": 3688,
    "Ġsharp": 3689,
    "Ġash": 3690,
    "Ġ28": 3691,
    "Ġeveryday": 3692,
    "Ġwarm": 3693,
    "Ġfollowing": 3694,
    "bz": 3695,
    "lh": 3696,
    "Ġmix": 3697,
    "Ġexist": 3698,
    "Ġsample": 3699,
    "Ġmaking": 3700,
    "Ġreplacement": 3701,
    "Ġhealthy": 3702,
    "nz": 3703,
    "Ġpp": 3704,
    "Ġdaughter": 3705,
    "Ġlens": 3706,
    "Ġdevice": 3707,
    "Ġnone": 3708,
    "Ġhop": 3709,
    "Ġlain": 3710,
    "ett": 3711,
    "uuuuuuuuuuuuuuuu": 3712,
    "Ġdepending": 3713,
    "Ġessent": 3714,
    "Ġpull": 3715,
    "Ġkem": 3716,
    "ional": 3717,
    "Ġliquid": 3718,
    "eter": 3719,
    "Ġdef": 3720,
    "Ġmeets": 3721,
    "Ġxa": 3722,
    "Ġsnug": 3723,
    "pppppppppppppppp": 3724,
    "Ġslip": 3725,
    "correspond": 3726,
    "med": 3727,
    "Ġhihi": 3728,
    "Ġsepar": 3729,
    "Ġsatisfy": 3730,
    "Ġama": 3731,
    "Ġselamat": 3732,
    "Ġstickers": 3733,
    "reci": 3734,
    "Ġwire": 3735,
    "Ġkat": 3736,
    "Ġ99": 3737,
    "kwk": 3738,
    "Ġmateial": 3739,
    "bai": 3740,
    "Ġoath": 3741,
    "utes": 3742,
    "aking": 3743,
    "stem": 3744,
    "gini": 3745,
    "days": 3746,
    "Ġplasticity": 3747,
    "Ġtemper": 3748,
    "ssssssssssssssss": 3749,
    "Ġadditional": 3750,
    "Ġkw": 3751,
    "Ġnose": 3752,
    "Ġwrn": 3753,
    "Ġprofit": 3754,
    "Ġplain": 3755,
    "dddddddddddddddd": 3756,
    "Ġlabel": 3757,
    "Ġscrew": 3758,
    "ave": 3759,
    "bain": 3760,
    "Ġdng": 3761,
    "aksih": 3762,
    "Ġsometimes": 3763,
    "ndnd": 3764,
    "Ġposted": 3765,
    "Ġmax": 3766,
    "valu": 3767,
    "Ġmemuas": 3768,
    "Ġconnect": 3769,
    "lodged": 3770,
    "cing": 3771,
    "cum": 3772,
    "mn": 3773,
    "isting": 3774,
    "orted": 3775,
    "Ġ23": 3776,
    "thankyou": 3777,
    "ives": 3778,
    "brang": 3779,
    "Ġglad": 3780,
    "Ġprompt": 3781,
    "hehehehe": 3782,
    "Ġlangganan": 3783,
    "recommended": 3784,
    "jang": 3785,
    "Ġbis": 3786,
    "Ġled": 3787,
    "soft": 3788,
    "Ġseg": 3789,
    "Ġdislodged": 3790,
    "Ġperf": 3791,
    "Ġabove": 3792,
    "redient": 3793,
    "book": 3794,
    "Ġmurmer": 3795,
    "Ġbrian": 3796,
    "Ġedge": 3797,
    "corresponding": 3798,
    "bih": 3799,
    "Ġwood": 3800,
    "Ġmain": 3801,
    "Ġnnt": 3802,
    "Ġrece": 3803,
    "Ġbeating": 3804,
    "Ġcomb": 3805,
    "Ġtransm": 3806,
    "packingnya": 3807,
    "Ġpromot": 3808,
    "Ġcurrent": 3809,
    "Ġpokoknya": 3810,
    "Ġgambar": 3811,
    "Ġschool": 3812,
    "Ġtel": 3813,
    "Ġmus": 3814,
    "Ġevalu": 3815,
    "Ġsung": 3816,
    "sip": 3817,
    "Ġterimakasi": 3818,
    "Ġevent": 3819,
    "then": 3820,
    "that": 3821,
    "Ġbear": 3822,
    "Ġspending": 3823,
    "Ġsystem": 3824,
    "Ġthinking": 3825,
    "Ġhati": 3826,
    "bgus": 3827,
    "Ġslippery": 3828,
    "lasses": 3829,
    "hat": 3830,
    "Ġgorgeous": 3831,
    "Ġbb": 3832,
    "Ġbeli": 3833,
    "Ġrecent": 3834,
    "Ġsmg": 3835,
    "olving": 3836,
    "Ġjait": 3837,
    "owning": 3838,
    "ounter": 3839,
    "Ġrecommendation": 3840,
    "Ġgrowing": 3841,
    "Ġmoga": 3842,
    "Ġcracked": 3843,
    "Ġsaturday": 3844,
    "gb": 3845,
    "Ġwore": 3846,
    "Ġmel": 3847,
    "Ġmaa": 3848,
    "Ġkya": 3849,
    "Ġdiss": 3850,
    "Ġdisplay": 3851,
    "Ġfrowning": 3852,
    "Ġministry": 3853,
    "Ġattention": 3854,
    "Ġcuma": 3855,
    "uhu": 3856,
    "Ġcent": 3857,
    "asa": 3858,
    "Ġrecie": 3859,
    "Ġtow": 3860,
    "Ġview": 3861,
    "umer": 3862,
    "Ġsavor": 3863,
    "Ġprefer": 3864,
    "Ġwashing": 3865,
    "Ġobvious": 3866,
    "Ġspilled": 3867,
    "Ġsavoring": 3868,
    "Ġwkwkw": 3869,
    "asy": 3870,
    "Ġlamp": 3871,
    "Ġstate": 3872,
    "Ġspecif": 3873,
    "ember": 3874,
    "Ġexha": 3875,
    "Ġtrade": 3876,
    "Ġuntried": 3877,
    "Ġappreci": 3878,
    "Ġbarg": 3879,
    "Ġminutes": 3880,
    "Ġlower": 3881,
    "Ġberk": 3882,
    "10": 3883,
    "fri": 3884,
    "jg": 3885,
    "pants": 3886,
    "vid": 3887,
    "wow": 3888,
    "Ġti": 3889,
    "Ġton": 3890,
    "Ġpel": 3891,
    "Ġcuc": 3892,
    "aller": 3893,
    "Ġokeh": 3894,
    "Ġconfirmed": 3895,
    "Ġwashed": 3896,
    "Ġpdhal": 3897,
    "Ġfixed": 3898,
    "suitable": 3899,
    "hs": 3900,
    "net": 3901,
    "py": 3902,
    "Ġcomment": 3903,
    "praise": 3904,
    "Ġuncomfortable": 3905,
    "Ġleather": 3906,
    "Ġappl": 3907,
    "service": 3908,
    "Ġsubmitted": 3909,
    "Ġmarkotop": 3910,
    "uri": 3911,
    "vm": 3912,
    "verage": 3913,
    "Ġrevolving": 3914,
    "Ġguaranteed": 3915,
    "Ġmiddle": 3916,
    "Ġingredient": 3917,
    "Ġfemale": 3918,
    "ces": 3919,
    "Ġlaa": 3920,
    "thumbs": 3921,
    "Ġkas": 3922,
    "Ġwrite": 3923,
    "outing": 3924,
    "Ġsyg": 3925,
    "Ġhook": 3926,
    "Ġincreasing": 3927,
    "Ġmisplaced": 3928,
    "Ġphotographed": 3929,
    "Ġhahaha": 3930,
    "Ġjumbo": 3931,
    "friend": 3932,
    "jw": 3933,
    "Ġmng": 3934,
    "asm": 3935,
    "ellers": 3936,
    "Ġlucu": 3937,
    "Ġsimply": 3938,
    "Ġhurt": 3939,
    "rat": 3940,
    "ym": 3941,
    "Ġpity": 3942,
    "Ġoption": 3943,
    "Ġfish": 3944,
    "ature": 3945,
    "ribut": 3946,
    "Ġide": 3947,
    "ahit": 3948,
    "Ġtrack": 3949,
    "Ġ29": 3950,
    "Ġblanja": 3951,
    "lies": 3952,
    "Ġstart": 3953,
    "Ġcutting": 3954,
    "Ġmatching": 3955,
    "Ġclick": 3956,
    "Ġtightly": 3957,
    "Ġanswered": 3958,
    "Ġdsini": 3959,
    "Ġchanged": 3960,
    "vived": 3961,
    "nnya": 3962,
    "Ġdum": 3963,
    "Ġkom": 3964,
    "Ġorg": 3965,
    "ima": 3966,
    "comended": 3967,
    "Ġart": 3968,
    "Ġdrink": 3969,
    "aves": 3970,
    "Ġcouple": 3971,
    "Ġsurvived": 3972,
    "okokokokokokokok": 3973,
    "Ġlumayan": 3974,
    "han": 3975,
    "Ġsitu": 3976,
    "Ġpouting": 3977,
    "Ġbol": 3978,
    "Ġbir": 3979,
    "Ġbelie": 3980,
    "Ġlose": 3981,
    "Ġsection": 3982,
    "Ġcepe": 3983,
    "aited": 3984,
    "acing": 3985,
    "Ġintr": 3986,
    "ahahahah": 3987,
    "Ġconsist": 3988,
    "Ġvoucher": 3989,
    "olutely": 3990,
    "Ġfi": 3991,
    "Ġmeng": 3992,
    "oring": 3993,
    "ident": 3994,
    "care": 3995,
    "Ġcoins": 3996,
    "Ġ555": 3997,
    "Ġpersever": 3998,
    "Ġexclam": 3999,
    "Ġcarton": 4000,
    "Ġcollection": 4001,
    "Ġexclamation": 4002,
    "cur": 4003,
    "Ġfing": 4004,
    "uring": 4005,
    "Ġdoesn": 4006,
    "Ġflavor": 4007,
    "why": 4008,
    "Ġsukaaa": 4009,
    "Ġlasting": 4010,
    "austria": 4011,
    "Ġlap": 4012,
    "aka": 4013,
    "apoint": 4014,
    "bsbs": 4015,
    "Ġadem": 4016,
    "Ġthinner": 4017,
    "Ġinstruction": 4018,
    "Ġveil": 4019,
    "Ġparty": 4020,
    "Ġcause": 4021,
    "Ġexcited": 4022,
    "Ġincluding": 4023,
    "Ġsecurely": 4024,
    "Ġpersevering": 4025,
    "yaa": 4026,
    "Ġtas": 4027,
    "Ġpract": 4028,
    "Ġet": 4029,
    "Ġran": 4030,
    "Ġhaven": 4031,
    "Ġdib": 4032,
    "Ġnyampek": 4033,
    "Ġngak": 4034,
    "bbbb": 4035,
    "Ġdesigns": 4036,
    "Ġdtng": 4037,
    "time": 4038,
    "Ġbuttons": 4039,
    "Ġsunglasses": 4040,
    "high": 4041,
    "Ġgat": 4042,
    "Ġdl": 4043,
    "Ġwed": 4044,
    "Ġmir": 4045,
    "Ġkt": 4046,
    "Ġage": 4047,
    "icy": 4048,
    "coming": 4049,
    "Ġpackagingnya": 4050,
    "autifully": 4051,
    "aaaaaaaaaaaaaaaaaaaaaaaaaaaaaaaa": 4052,
    "Ġbnyk": 4053,
    "Ġbaikk": 4054,
    "nk": 4055,
    "ernya": 4056,
    "ision": 4057,
    "Ġnut": 4058,
    "ders": 4059,
    "store": 4060,
    "Ġkecewa": 4061,
    "Ġoffers": 4062,
    "Ġaccepted": 4063,
    "trimakasih": 4064,
    "Ġearrings": 4065,
    "elent": 4066,
    "res": 4067,
    "angg": 4068,
    "Ġblame": 4069,
    "Ġfriday": 4070,
    "rimp": 4071,
    "which": 4072,
    "Ġwaited": 4073,
    "Ġlagii": 4074,
    "Ġincreasingly": 4075,
    "away": 4076,
    "slightly": 4077,
    "Ġfire": 4078,
    "Ġwow": 4079,
    "Ġ27": 4080,
    "appy": 4081,
    "Ġcoff": 4082,
    "Ġusb": 4083,
    "Ġbaguus": 4084,
    "Ġmantep": 4085,
    "Ġlgsg": 4086,
    "Ġbooking": 4087,
    "mp": 4088,
    "yok": 4089,
    "Ġhor": 4090,
    "Ġkar": 4091,
    "Ġstains": 4092,
    "anti": 4093,
    "Ġblock": 4094,
    "Ġmeat": 4095,
    "Ġtrims": 4096,
    "Ġremain": 4097,
    "Ġfeedback": 4098,
    "bf": 4099,
    "cul": 4100,
    "Ġsaller": 4101,
    "vers": 4102,
    "Ġissu": 4103,
    "ahan": 4104,
    "Ġexisting": 4105,
    "mantab": 4106,
    "Ġmouse": 4107,
    "Ġfamily": 4108,
    "Ġresponsibility": 4109,
    "Ġcord": 4110,
    "Ġkur": 4111,
    "Ġforgot": 4112,
    "Ġvict": 4113,
    "Ġ26": 4114,
    "Ġstarted": 4115,
    "Ġsoftware": 4116,
    "Ġkecil": 4117,
    "avel": 4118,
    "Ġoffice": 4119,
    "Ġ60": 4120,
    "Ġsunday": 4121,
    "Ġcontrol": 4122,
    "Ġnatural": 4123,
    "Ġtil": 4124,
    "Ġmint": 4125,
    "Ġlaces": 4126,
    "Ġrec": 4127,
    "oto": 4128,
    "Ġyong": 4129,
    "Ġcross": 4130,
    "Ġminim": 4131,
    "Ġstatus": 4132,
    "Ġflowers": 4133,
    "Ġjugaa": 4134,
    "Ġqualty": 4135,
    "Ġaroma": 4136,
    "Ġexhausted": 4137,
    "Ġingredients": 4138,
    "11": 4139,
    "lit": 4140,
    "rated": 4141,
    "yu": 4142,
    "Ġwent": 4143,
    "oduk": 4144,
    "Ġproduction": 4145,
    "Ġneg": 4146,
    "Ġload": 4147,
    "Ġuser": 4148,
    "ables": 4149,
    "Ġhrs": 4150,
    "Ġpuass": 4151,
    "Ġako": 4152,
    "Ġpaketan": 4153,
    "Ġpengirimanya": 4154,
    "Ġinitially": 4155,
    "Ġrespnse": 4156,
    "kh": 4157,
    "ense": 4158,
    "Ġlol": 4159,
    "Ġlazy": 4160,
    "ggage": 4161,
    "sub": 4162,
    "igned": 4163,
    "Ġsurf": 4164,
    "Ġwarp": 4165,
    "Ġabsorb": 4166,
    "eg": 4167,
    "fl": 4168,
    "lum": 4169,
    "Ġfirm": 4170,
    "Ġyun": 4171,
    "ppp": 4172,
    "chat": 4173,
    "Ġvan": 4174,
    "Ġjap": 4175,
    "lied": 4176,
    "Ġmove": 4177,
    "please": 4178,
    "Ġdistance": 4179,
    "everything": 4180,
    "Ġtransmission": 4181,
    "Ġrecently": 4182,
    "iri": 4183,
    "elled": 4184,
    "Ġvide": 4185,
    "Ġrot": 4186,
    "Ġbra": 4187,
    "Ġspent": 4188,
    "Ġgirl": 4189,
    "Ġhesitate": 4190,
    "kat": 4191,
    "sc": 4192,
    "sle": 4193,
    "Ġbing": 4194,
    "Ġdim": 4195,
    "Ġms": 4196,
    "Ġnet": 4197,
    "Ġrange": 4198,
    "Ġlog": 4199,
    "Ġdie": 4200,
    "Ġexpecting": 4201,
    "Ġmoist": 4202,
    "Ġthickness": 4203,
    "Ġokey": 4204,
    "Ġfinish": 4205,
    "Ġslight": 4206,
    "Ġtag": 4207,
    "Ġmail": 4208,
    "ening": 4209,
    "Ġquant": 4210,
    "Ġstability": 4211,
    "Ġexce": 4212,
    "Ġcoin": 4213,
    "who": 4214,
    "ttttt": 4215,
    "Ġluv": 4216,
    "Ġcla": 4217,
    "Ġshirts": 4218,
    "Ġsampa": 4219,
    "Ġkerry": 4220,
    "Ġswitch": 4221,
    "Ġbaseball": 4222,
    "Ġmultip": 4223,
    "Ġchocol": 4224,
    "Ġ000": 4225,
    "funny": 4226,
    "Ġreliable": 4227,
    "Ġcoffee": 4228,
    "Ġmace": 4229,
    "sole": 4230,
    "Ġsuperb": 4231,
    "Ġslowly": 4232,
    "Ġoffer": 4233,
    "ikin": 4234,
    "Ġmakasihh": 4235,
    "mmmmmmmm": 4236,
    "hi": 4237,
    "may": 4238,
    "anh": 4239,
    "Ġshrimp": 4240,
    "Ġbecome": 4241,
    "umpl": 4242,
    "Ġsegini": 4243,
    "Ġadhes": 4244,
    "Ġknp": 4245,
    "Ġluggage": 4246,
    "Ġapart": 4247,
    "Ġroad": 4248,
    "Ġenjoy": 4249,
    "kok": 4250,
    "oc": 4251,
    "arin": 4252,
    "Ġkain": 4253,
    "ffer": 4254,
    "Ġhaving": 4255,
    "Ġbli": 4256,
    "loves": 4257,
    "Ġbangee": 4258,
    "Ġkne": 4259,
    "Ġcrushed": 4260,
    "Ġmisdirected": 4261,
    "Ġpkok": 4262,
    "Ġwider": 4263,
    "Ġnearly": 4264,
    "Ġreceved": 4265,
    "Ġbelieve": 4266,
    "vs": 4267,
    "Ġtoys": 4268,
    "Ġlips": 4269,
    "icial": 4270,
    "Ġexcept": 4271,
    "Ġcheapest": 4272,
    "neat": 4273,
    "Ġsukaaaa": 4274,
    "Ġwaterproof": 4275,
    "nsns": 4276,
    "xxxx": 4277,
    "Ġperformance": 4278,
    "Ġbirth": 4279,
    "Ġissues": 4280,
    "Ġchocolate": 4281,
    "urs": 4282,
    "jdj": 4283,
    "eh": 4284,
    "Ġger": 4285,
    "Ġink": 4286,
    "Ġtrus": 4287,
    "Ġworried": 4288,
    "Ġreceiving": 4289,
    "Ġlots": 4290,
    "ecew": 4291,
    "Ġconsidering": 4292,
    "wwww": 4293,
    "Ġbreath": 4294,
    "Ġtd": 4295,
    "Ġtough": 4296,
    "Ġax": 4297,
    "Ġpm": 4298,
    "Ġpant": 4299,
    "Ġyaaaa": 4300,
    "Ġbegin": 4301,
    "Ġsmga": 4302,
    "Ġtimely": 4303,
    "Ġframe": 4304,
    "Ġ32": 4305,
    "Ġexpl": 4306,
    "Ġkepake": 4307,
    "Ġ90": 4308,
    "Ġbooked": 4309,
    "Ġsets": 4310,
    "Ġcepatt": 4311,
    "Ġdatengnya": 4312,
    "Ġprotection": 4313,
    "Ġangry": 4314,
    "Ġ2019": 4315,
    "Ġmeasure": 4316,
    "Ġvolume": 4317,
    "Ġsituation": 4318,
    "ev": 4319,
    "makasih": 4320,
    "ral": 4321,
    "Ġcpet": 4322,
    "Ġwkwk": 4323,
    "Ġhg": 4324,
    "ila": 4325,
    "Ġallow": 4326,
    "Ġcompact": 4327,
    "Ġspong": 4328,
    "Ġzig": 4329,
    "Ġpenjual": 4330,
    "Ġadvance": 4331,
    "Ġsneaker": 4332,
    "Ġessentially": 4333,
    "ao": 4334,
    "fh": 4335,
    "xh": 4336,
    "Ġsana": 4337,
    "Ġtree": 4338,
    "Ġaverage": 4339,
    "eld": 4340,
    "Ġdic": 4341,
    "Ġwall": 4342,
    "Ġkaa": 4343,
    "Ġfade": 4344,
    "ulting": 4345,
    "Ġbuble": 4346,
    "Ġtraction": 4347,
    "Ġwhichsoever": 4348,
    "baguus": 4349,
    "Ġgiveaway": 4350,
    "Ġrefunded": 4351,
    "Ġtube": 4352,
    "Ġfilm": 4353,
    "Ġkapok": 4354,
    "Ġinsha": 4355,
    "even": 4356,
    "fair": 4357,
    "favor": 4358,
    "ners": 4359,
    "oid": 4360,
    "Ġsides": 4361,
    "Ġvi": 4362,
    "Ġchance": 4363,
    "angat": 4364,
    "ige": 4365,
    "ggu": 4366,
    "Ġdownload": 4367,
    "Ġseemed": 4368,
    "Ġ09": 4369,
    "Ġstylish": 4370,
    "Ġhello": 4371,
    "Ġexpiration": 4372,
    "Ġstreng": 4373,
    "Ġbundled": 4374,
    "happy": 4375,
    "Ġtv": 4376,
    "Ġbass": 4377,
    "ooo": 4378,
    "Ġleave": 4379,
    "Ġbubblewrap": 4380,
    "Ġsayang": 4381,
    "Ġlikely": 4382,
    "Ġsemua": 4383,
    "Ġelect": 4384,
    "Ġsatisfaction": 4385,
    "bdbd": 4386,
    "Ġodor": 4387,
    "Ġclip": 4388,
    "Ġdeducted": 4389,
    "Ġprinting": 4390,
    "Ġnail": 4391,
    "Ġreach": 4392,
    "Ġshovel": 4393,
    "angan": 4394,
    "Ġagk": 4395,
    "Ġbring": 4396,
    "Ġdiam": 4397,
    "Ġbgtt": 4398,
    "istics": 4399,
    "Ġbagussss": 4400,
    "Ġguy": 4401,
    "Ġseler": 4402,
    "Ġzip": 4403,
    "Ġresponded": 4404,
    "Ġtengky": 4405,
    "Ġsus": 4406,
    "Ġpaste": 4407,
    "Ġgym": 4408,
    "also": 4409,
    "Ġbw": 4410,
    "Ġfal": 4411,
    "ona": 4412,
    "Ġnad": 4413,
    "Ġotherwise": 4414,
    "Ġuni": 4415,
    "Ġ21": 4416,
    "Ġcovid": 4417,
    "Ġweary": 4418,
    "Ġleaves": 4419,
    "Ġwants": 4420,
    "ailand": 4421,
    "Ġslim": 4422,
    "Ġclearly": 4423,
    "Ġterms": 4424,
    "Ġdetails": 4425,
    "Ġbnyak": 4426,
    "20": 4427,
    "ki": 4428,
    "tg": 4429,
    "Ġdil": 4430,
    "Ġdoll": 4431,
    "Ġmad": 4432,
    "ella": 4433,
    "Ġchest": 4434,
    "Ġwrink": 4435,
    "Ġprof": 4436,
    "osed": 4437,
    "Ġapply": 4438,
    "Ġsupportive": 4439,
    "Ġyourself": 4440,
    "Ġawaited": 4441,
    "Ġsense": 4442,
    "Ġdusty": 4443,
    "har": 4444,
    "oper": 4445,
    "try": 4446,
    "Ġtreat": 4447,
    "Ġtuk": 4448,
    "Ġtread": 4449,
    "Ġfat": 4450,
    "Ġhnd": 4451,
    "Ġwholes": 4452,
    "Ġrust": 4453,
    "Ġaffection": 4454,
    "Ġ200": 4455,
    "Ġdikirim": 4456,
    "Ġedges": 4457,
    "banget": 4458,
    "Ġappear": 4459,
    "ufact": 4460,
    "Ġperfume": 4461,
    "nh": 4462,
    "oe": 4463,
    "Ġbased": 4464,
    "Ġdalem": 4465,
    "antaran": 4466,
    "Ġcomments": 4467,
    "Ġmyself": 4468,
    "Ġdog": 4469,
    "Ġslower": 4470,
    "Ġcarry": 4471,
    "Ġblessings": 4472,
    "Ġinsya": 4473,
    "selves": 4474,
    "Ġolshop": 4475,
    "giriman": 4476,
    "hand": 4477,
    "would": 4478,
    "Ġsama": 4479,
    "Ġkes": 4480,
    "Ġsuks": 4481,
    "ided": 4482,
    "ongrat": 4483,
    "Ġdisin": 4484,
    "Ġresist": 4485,
    "Ġremember": 4486,
    "ires": 4487,
    "exact": 4488,
    "vvvv": 4489,
    "Ġabsolutely": 4490,
    "Ġtotally": 4491,
    "Ġspray": 4492,
    "delivered": 4493,
    "ef": 4494,
    "gar": 4495,
    "Ġgx": 4496,
    "Ġmh": 4497,
    "Ġnare": 4498,
    "ilt": 4499,
    "Ġanti": 4500,
    "Ġpackging": 4501,
    "unfortunately": 4502,
    "irnya": 4503,
    "idas": 4504,
    "Ġsii": 4505,
    "Ġcannot": 4506,
    "when": 4507,
    "hhhhh": 4508,
    "Ġguide": 4509,
    "paket": 4510,
    "Ġawful": 4511,
    "Ġgmn": 4512,
    "50": 4513,
    "bab": 4514,
    "gy": 4515,
    "Ġsour": 4516,
    "Ġgame": 4517,
    "Ġec": 4518,
    "Ġincomplete": 4519,
    "ulations": 4520,
    "Ġserum": 4521,
    "Ġcolorful": 4522,
    "Ġcocok": 4523,
    "Ġamin": 4524,
    "Ġgrow": 4525,
    "Ġselected": 4526,
    "cedent": 4527,
    "Ġmanufact": 4528,
    "Ġformer": 4529,
    "Ġenthusiasm": 4530,
    "Ġequally": 4531,
    "Ġtrnyata": 4532,
    "bi": 4533,
    "des": 4534,
    "Ġganda": 4535,
    "Ġfell": 4536,
    "ane": 4537,
    "anj": 4538,
    "cep": 4539,
    "ution": 4540,
    "Ġip": 4541,
    "Ġkit": 4542,
    "Ġjos": 4543,
    "Ġyoung": 4544,
    "Ġbrac": 4545,
    "ested": 4546,
    "Ġterbai": 4547,
    "known": 4548,
    "iiiiiiiiiiiiiiii": 4549,
    "Ġstretchy": 4550,
    "Ġcharact": 4551,
    "was": 4552,
    "Ġgone": 4553,
    "alhamdul": 4554,
    "Ġmi": 4555,
    "Ġhum": 4556,
    "Ġeid": 4557,
    "Ġsihh": 4558,
    "Ġpurse": 4559,
    "Ġdesired": 4560,
    "Ġoveralls": 4561,
    "Ġmasks": 4562,
    "Ġfollows": 4563,
    "Ġpkp": 4564,
    "Ġequal": 4565,
    "Ġflower": 4566,
    "Ġcucok": 4567,
    "Ġtues": 4568,
    "Ġpage": 4569,
    "Ġthailand": 4570,
    "Ġdpt": 4571,
    "Ġhy": 4572,
    "Ġtoy": 4573,
    "ams": 4574,
    "Ġja": 4575,
    "Ġjak": 4576,
    "Ġchick": 4577,
    "Ġsih": 4578,
    "Ġade": 4579,
    "Ġclothing": 4580,
    "Ġmantaa": 4581,
    "Ġself": 4582,
    "Ġpartic": 4583,
    "Ġvariation": 4584,
    "Ġkalo": 4585,
    "Ġreduce": 4586,
    "Ġadhesive": 4587,
    "house": 4588,
    "kirain": 4589,
    "now": 4590,
    "ob": 4591,
    "samp": 4592,
    "Ġtoes": 4593,
    "Ġey": 4594,
    "Ġbeautifully": 4595,
    "Ġdig": 4596,
    "Ġcoz": 4597,
    "riman": 4598,
    "Ġevening": 4599,
    "Ġbangetttt": 4600,
    "Ġthicker": 4601,
    "Ġintimate": 4602,
    "Ġluc": 4603,
    "Ġnature": 4604,
    "Ġdipak": 4605,
    "Ġwords": 4606,
    "Ġcontainer": 4607,
    "Ġappreciate": 4608,
    "ken": 4609,
    "tu": 4610,
    "Ġsust": 4611,
    "recomended": 4612,
    "Ġnor": 4613,
    "Ġante": 4614,
    "Ġstated": 4615,
    "Ġserve": 4616,
    "pted": 4617,
    "inted": 4618,
    "nnn": 4619,
    "Ġbales": 4620,
    "Ġbelt": 4621,
    "Ġpolite": 4622,
    "Ġexpiry": 4623,
    "message": 4624,
    "Ġscarf": 4625,
    "Ġbargain": 4626,
    "Ġgatau": 4627,
    "bn": 4628,
    "kal": 4629,
    "xy": 4630,
    "Ġsj": 4631,
    "Ġwast": 4632,
    "Ġprior": 4633,
    "ator": 4634,
    "Ġir": 4635,
    "Ġfaded": 4636,
    "akk": 4637,
    "Ġshoppee": 4638,
    "Ġworthwhile": 4639,
    "Ġenvel": 4640,
    "iiiii": 4641,
    "Ġreseller": 4642,
    "value": 4643,
    "Ġchinese": 4644,
    "phones": 4645,
    "Ġmemory": 4646,
    "Ġyeah": 4647,
    "Ġdestro": 4648,
    "somewhat": 4649,
    "Ġcommunication": 4650,
    "Ġremove": 4651,
    "Ġcompetitive": 4652,
    "repant": 4653,
    "Ġnnti": 4654,
    "Ġetc": 4655,
    "Ġsponge": 4656,
    "cpt": 4657,
    "fo": 4658,
    "rs": 4659,
    "vd": 4660,
    "Ġtk": 4661,
    "Ġpc": 4662,
    "alam": 4663,
    "Ġcand": 4664,
    "Ġmold": 4665,
    "att": 4666,
    "Ġlmb": 4667,
    "Ġbey": 4668,
    "olog": 4669,
    "full": 4670,
    "Ġconcer": 4671,
    "Ġworry": 4672,
    "Ġheight": 4673,
    "Ġlighter": 4674,
    "Ġkmrn": 4675,
    "Ġsampek": 4676,
    "Ġmalem": 4677,
    "however": 4678,
    "favorable": 4679,
    "ongratulations": 4680,
    "Ġtuesday": 4681,
    "Ġantecedent": 4682,
    "ran": 4683,
    "Ġngg": 4684,
    "ories": 4685,
    "Ġdisab": 4686,
    "Ġaccount": 4687,
    "ify": 4688,
    "Ġreasonably": 4689,
    "Ġbarangnya": 4690,
    "Ġconsulting": 4691,
    "expect": 4692,
    "Ġsurprised": 4693,
    "Ġhoping": 4694,
    "Ġtid": 4695,
    "Ġpig": 4696,
    "alhm": 4697,
    "Ġbow": 4698,
    "Ġhd": 4699,
    "arely": 4700,
    "entive": 4701,
    "akes": 4702,
    "Ġseries": 4703,
    "Ġbole": 4704,
    "Ġhassle": 4705,
    "nyampe": 4706,
    "Ġstrange": 4707,
    "responsive": 4708,
    "Ġhehehehe": 4709,
    "Ġmoder": 4710,
    "nered": 4711,
    "Ġcomplain": 4712,
    "tttttttttttttttt": 4713,
    "Ġprodcts": 4714,
    "Ġclaim": 4715,
    "mu": 4716,
    "nah": 4717,
    "Ġpd": 4718,
    "Ġmnt": 4719,
    "adi": 4720,
    "Ġaccess": 4721,
    "Ġfried": 4722,
    "Ġenc": 4723,
    "sible": 4724,
    "Ġsnack": 4725,
    "Ġmakasii": 4726,
    "Ġseeds": 4727,
    "Ġautom": 4728,
    "cus": 4729,
    "iful": 4730,
    "nc": 4731,
    "Ġsan": 4732,
    "uran": 4733,
    "iday": 4734,
    "angnya": 4735,
    "Ġtraining": 4736,
    "shsh": 4737,
    "Ġoverload": 4738,
    "Ġngk": 4739,
    "Ġsemu": 4740,
    "Ġpencil": 4741,
    "Ġjeans": 4742,
    "Ġtalaga": 4743,
    "Ġcases": 4744,
    "Ġdelayed": 4745,
    "Ġvideo": 4746,
    "cast": 4747,
    "gl": 4748,
    "ract": 4749,
    "uw": 4750,
    "Ġbn": 4751,
    "Ġmine": 4752,
    "Ġmks": 4753,
    "Ġshare": 4754,
    "Ġinch": 4755,
    "Ġud": 4756,
    "Ġjar": 4757,
    "Ġlogo": 4758,
    "Ġunknown": 4759,
    "Ġtrou": 4760,
    "Ġgrab": 4761,
    "arta": 4762,
    "acy": 4763,
    "Ġsecured": 4764,
    "Ġlucky": 4765,
    "Ġimpressive": 4766,
    "Ġholiday": 4767,
    "safe": 4768,
    "Ġconsistent": 4769,
    "Ġbirthday": 4770,
    "kl": 4771,
    "Ġtre": 4772,
    "Ġpun": 4773,
    "Ġpapa": 4774,
    "Ġpump": 4775,
    "ingnya": 4776,
    "Ġsumm": 4777,
    "Ġlimit": 4778,
    "antik": 4779,
    "Ġorign": 4780,
    "Ġdoing": 4781,
    "Ġbls": 4782,
    "Ġrig": 4783,
    "Ġdental": 4784,
    "Ġcma": 4785,
    "Ġrupt": 4786,
    "Ġlogistics": 4787,
    "12": 4788,
    "dr": 4789,
    "pn": 4790,
    "Ġeating": 4791,
    "ulit": 4792,
    "Ġfacepal": 4793,
    "str": 4794,
    "Ġupon": 4795,
    "Ġtravel": 4796,
    "Ġadult": 4797,
    "Ġtqvm": 4798,
    "Ġemg": 4799,
    "Ġattentive": 4800,
    "Ġmanual": 4801,
    "Ġwarna": 4802,
    "Ġlamaa": 4803,
    "Ġvisit": 4804,
    "Ġevaluation": 4805,
    "Ġorignal": 4806,
    "Ġfacepalming": 4807,
    "bc": 4808,
    "kx": 4809,
    "kual": 4810,
    "same": 4811,
    "Ġsak": 4812,
    "Ġban": 4813,
    "Ġcity": 4814,
    "Ġwel": 4815,
    "Ġhs": 4816,
    "Ġld": 4817,
    "Ġiphone": 4818,
    "Ġksih": 4819,
    "Ġnotes": 4820,
    "Ġalhamdul": 4821,
    "akak": 4822,
    "Ġshiping": 4823,
    "Ġweak": 4824,
    "bery": 4825,
    "Ġtrip": 4826,
    "Ġbrgnya": 4827,
    "buka": 4828,
    "Ġfrequ": 4829,
    "Ġindones": 4830,
    "Ġsleepy": 4831,
    "Ġthoroughly": 4832,
    "bless": 4833,
    "uit": 4834,
    "yet": 4835,
    "Ġshell": 4836,
    "Ġorgan": 4837,
    "ications": 4838,
    "Ġ31": 4839,
    "ksks": 4840,
    "Ġreplies": 4841,
    "gged": 4842,
    "sized": 4843,
    "Ġkecepat": 4844,
    "Ġcommand": 4845,
    "Ġsounds": 4846,
    "gggggggg": 4847,
    "Ġstrength": 4848,
    "Ġbeyond": 4849,
    "33": 4850,
    "bit": 4851,
    "bles": 4852,
    "dl": 4853,
    "jz": 4854,
    "ras": 4855,
    "Ġtur": 4856,
    "Ġtho": 4857,
    "Ġbored": 4858,
    "Ġfant": 4859,
    "Ġcatch": 4860,
    "Ġmap": 4861,
    "Ġlun": 4862,
    "arn": 4863,
    "Ġjam": 4864,
    "Ġcompan": 4865,
    "suk": 4866,
    "Ġguest": 4867,
    "minate": 4868,
    "Ġimpression": 4869,
    "looks": 4870,
    "Ġrecieved": 4871,
    "Ġquantity": 4872,
    "umpled": 4873,
    "came": 4874,
    "ext": 4875,
    "makasi": 4876,
    "opped": 4877,
    "pd": 4878,
    "rang": 4879,
    "rather": 4880,
    "using": 4881,
    "Ġblank": 4882,
    "Ġpop": 4883,
    "actually": 4884,
    "Ġskali": 4885,
    "Ġaffect": 4886,
    "Ġhigher": 4887,
    "Ġactive": 4888,
    "Ġbatteries": 4889,
    "Ġavoid": 4890,
    "Ġtipis": 4891,
    "Ġflexible": 4892,
    "Ġfinger": 4893,
    "Ġwholesale": 4894,
    "Ġrupture": 4895,
    "kf": 4896,
    "kap": 4897,
    "Ġbent": 4898,
    "Ġom": 4899,
    "ency": 4900,
    "Ġlear": 4901,
    "Ġstop": 4902,
    "amused": 4903,
    "keep": 4904,
    "Ġunamused": 4905,
    "Ġgodbless": 4906,
    "Ġmakeup": 4907,
    "Ġassess": 4908,
    "Ġcomplaints": 4909,
    "Ġmemuaskan": 4910,
    "bell": 4911,
    "nes": 4912,
    "rm": 4913,
    "Ġsite": 4914,
    "Ġland": 4915,
    "Ġtoler": 4916,
    "Ġrarely": 4917,
    "Ġblom": 4918,
    "Ġbrought": 4919,
    "ances": 4920,
    "Ġspot": 4921,
    "Ġpakek": 4922,
    "Ġinformed": 4923,
    "Ġholding": 4924,
    "Ġwomen": 4925,
    "Ġdissapoint": 4926,
    "lace": 4927,
    "oy": 4928,
    "pon": 4929,
    "tw": 4930,
    "iti": 4931,
    "Ġgand": 4932,
    "Ġbak": 4933,
    "Ġck": 4934,
    "Ġmention": 4935,
    "Ġlace": 4936,
    "ppy": 4937,
    "Ġstrip": 4938,
    "Ġneut": 4939,
    "Ġdisapp": 4940,
    "Ġfrust": 4941,
    "Ġnoon": 4942,
    "Ġ35": 4943,
    "Ġterus": 4944,
    "Ġexpelled": 4945,
    "never": 4946,
    "Ġpeach": 4947,
    "Ġcards": 4948,
    "Ġbene": 4949,
    "Ġtempered": 4950,
    "Ġdestroyed": 4951,
    "Ġsz": 4952,
    "ream": 4953,
    "Ġnb": 4954,
    "Ġhote": 4955,
    "iling": 4956,
    "Ġstep": 4957,
    "Ġpresent": 4958,
    "Ġcooper": 4959,
    "Ġadidas": 4960,
    "Ġoffline": 4961,
    "Ġcomplicated": 4962,
    "Ġsilic": 4963,
    "Ġbaju": 4964,
    "Ġcracks": 4965,
    "Ġprincip": 4966,
    "Ġbracelet": 4967,
    "Ġjakarta": 4968,
    "hd": 4969,
    "jc": 4970,
    "apak": 4971,
    "umb": 4972,
    "Ġprep": 4973,
    "Ġhopeully": 4974,
    "aired": 4975,
    "Ġbye": 4976,
    "auiful": 4977,
    "Ġactiv": 4978,
    "works": 4979,
    "Ġgarnered": 4980,
    "second": 4981,
    "Ġinstructions": 4982,
    "Ġvictory": 4983,
    "Ġmultiple": 4984,
    "pel": 4985,
    "ero": 4986,
    "Ġawhile": 4987,
    "Ġped": 4988,
    "Ġdeng": 4989,
    "Ġtool": 4990,
    "asty": 4991,
    "ime": 4992,
    "Ġunfavorable": 4993,
    "lip": 4994,
    "Ġcompar": 4995,
    "Ġcompare": 4996,
    "packages": 4997,
    "anyway": 4998,
    "Ġjoss": 4999,
    "Ġcris": 5000,
    "Ġreturns": 5001,
    "Ġtlg": 5002,
    "submit": 5003,
    "Ġaxial": 5004,
    "Ġsukses": 5005,
    "body": 5006,
    "ho": 5007,
    "miss": 5008,
    "many": 5009,
    "pose": 5010,
    "sellers": 5011,
    "yan": 5012,
    "ito": 5013,
    "Ġbun": 5014,
    "Ġcash": 5015,
    "Ġmending": 5016,
    "Ġnga": 5017,
    "Ġshoul": 5018,
    "Ġign": 5019,
    "Ġkud": 5020,
    "chy": 5021,
    "key": 5022,
    "Ġmean": 5023,
    "hew": 5024,
    "Ġspace": 5025,
    "Ġgiving": 5026,
    "sukak": 5027,
    "brow": 5028,
    "Ġlux": 5029,
    "Ġheheh": 5030,
    "ross": 5031,
    "Ġdiscrepant": 5032,
    "Ġtemporarily": 5033,
    "Ġlayers": 5034,
    "laju": 5035,
    "bisa": 5036,
    "mium": 5037,
    "Ġcircum": 5038,
    "Ġtoner": 5039,
    "Ġcompanies": 5040,
    "kus": 5041,
    "mar": 5042,
    "mpe": 5043,
    "uy": 5044,
    "Ġssu": 5045,
    "Ġtt": 5046,
    "ises": 5047,
    "Ġanno": 5048,
    "Ġalong": 5049,
    "ousand": 5050,
    "Ġmerchant": 5051,
    "Ġthemselves": 5052,
    "Ġpurchases": 5053,
    "Ġdidnt": 5054,
    "Ġhappens": 5055,
    "awa": 5056,
    "Ġimpact": 5057,
    "Ġrequired": 5058,
    "Ġefforts": 5059,
    "Ġmaganda": 5060,
    "Ġballoon": 5061,
    "Ġcollap": 5062,
    "Ġmistake": 5063,
    "arrived": 5064,
    "Ġsleeve": 5065,
    "Ġneutral": 5066,
    "Ġmlm": 5067,
    "asuk": 5068,
    "Ġchain": 5069,
    "icing": 5070,
    "Ġcolored": 5071,
    "terbaik": 5072,
    "Ġ500": 5073,
    "Ġbadly": 5074,
    "Ġattract": 5075,
    "Ġcommon": 5076,
    "Ġconsumers": 5077,
    "Ġmirror": 5078,
    "Ġprincipally": 5079,
    "ider": 5080,
    "Ġbath": 5081,
    "Ġken": 5082,
    "Ġkli": 5083,
    "Ġjs": 5084,
    "Ġregard": 5085,
    "Ġmurce": 5086,
    "work": 5087,
    "Ġsizing": 5088,
    "Ġplaying": 5089,
    "dislike": 5090,
    "Ġinfo": 5091,
    "met": 5092,
    "Ġtail": 5093,
    "Ġthousand": 5094,
    "Ġoper": 5095,
    "Ġfather": 5096,
    "Ġcy": 5097,
    "Ġcun": 5098,
    "Ġmw": 5099,
    "Ġmul": 5100,
    "ilities": 5101,
    "ereply": 5102,
    "Ġunit": 5103,
    "Ġexcess": 5104,
    "Ġouter": 5105,
    "Ġcontribut": 5106,
    "because": 5107,
    "subs": 5108,
    "Ġpesos": 5109,
    "Ġoffered": 5110,
    "Ġ80": 5111,
    "bled": 5112,
    "Ġremote": 5113,
    "Ġheadset": 5114,
    "Ġawet": 5115,
    "Ġscratched": 5116,
    "Ġdecor": 5117,
    "Ġflawless": 5118,
    "terimakasih": 5119,
    "ecewakan": 5120,
    "bow": 5121,
    "bbery": 5122,
    "mon": 5123,
    "son": 5124,
    "Ġapr": 5125,
    "Ġbbr": 5126,
    "isk": 5127,
    "Ġdelic": 5128,
    "Ġsheep": 5129,
    "emic": 5130,
    "Ġassem": 5131,
    "Ġpls": 5132,
    "Ġxde": 5133,
    "Ġdamned": 5134,
    "bbon": 5135,
    "Ġpengh": 5136,
    "Ġmotives": 5137,
    "Ġseamless": 5138,
    "Ġcasual": 5139,
    "Ġbhan": 5140,
    "Ġconsumer": 5141,
    "Ġimagine": 5142,
    "Ġlocal": 5143,
    "bers": 5144,
    "ey": 5145,
    "sing": 5146,
    "Ġting": 5147,
    "inch": 5148,
    "requ": 5149,
    "Ġhmm": 5150,
    "Ġincoming": 5151,
    "Ġudah": 5152,
    "kecil": 5153,
    "Ġrat": 5154,
    "Ġ300": 5155,
    "Ġoversized": 5156,
    "Ġbagusssss": 5157,
    "ikit": 5158,
    "Ġeyel": 5159,
    "ax": 5160,
    "ji": 5161,
    "Ġpand": 5162,
    "Ġgem": 5163,
    "Ġmam": 5164,
    "Ġvac": 5165,
    "Ġbaguu": 5166,
    "Ġkakk": 5167,
    "Ġenak": 5168,
    "Ġpesennya": 5169,
    "Ġopening": 5170,
    "Ġrepeated": 5171,
    "standing": 5172,
    "Ġbetul": 5173,
    "Ġposlaju": 5174,
    "Ġeyebrow": 5175,
    "Ġenjoyed": 5176,
    "Ġmesh": 5177,
    "Ġsllu": 5178,
    "Ġestim": 5179,
    "Ġintrodu": 5180,
    "Ġrigid": 5181,
    "rap": 5182,
    "Ġmac": 5183,
    "elly": 5184,
    "Ġinsole": 5185,
    "Ġjer": 5186,
    "Ġjaz": 5187,
    "Ġsore": 5188,
    "Ġfruit": 5189,
    "Ġworld": 5190,
    "Ġspicy": 5191,
    "Ġknee": 5192,
    "Ġofficial": 5193,
    "urchased": 5194,
    "Ġassigned": 5195,
    "Ġdiscounts": 5196,
    "Ġcalled": 5197,
    "Ġinstallation": 5198,
    "Ġbhn": 5199,
    "Ġforever": 5200,
    "Ġbingit": 5201,
    "Ġinsyaallah": 5202,
    "bes": 5203,
    "yo": 5204,
    "Ġpdah": 5205,
    "alin": 5206,
    "Ġcounter": 5207,
    "Ġrej": 5208,
    "Ġkore": 5209,
    "oko": 5210,
    "tern": 5211,
    "Ġpremium": 5212,
    "Ġpleading": 5213,
    "Ġmob": 5214,
    "Ġcrumpled": 5215,
    "Ġpenyok": 5216,
    "Ġmotor": 5217,
    "Ġcushioned": 5218,
    "Ġremains": 5219,
    "Ġfreight": 5220,
    "Ġbusy": 5221,
    "Ġ2021": 5222,
    "Ġcommunicative": 5223,
    "Ġpounds": 5224,
    "Ġreduced": 5225,
    "Ġcontainers": 5226,
    "Ġmesen": 5227,
    "highly": 5228,
    "Ġsurface": 5229,
    "Ġresistant": 5230,
    "Ġecq": 5231,
    "Ġchicken": 5232,
    "aan": 5233,
    "mur": 5234,
    "uan": 5235,
    "oding": 5236,
    "iture": 5237,
    "ora": 5238,
    "Ġrear": 5239,
    "agus": 5240,
    "Ġjune": 5241,
    "aken": 5242,
    "star": 5243,
    "Ġpla": 5244,
    "Ġplan": 5245,
    "Ġpert": 5246,
    "Ġperfor": 5247,
    "ntik": 5248,
    "ampoo": 5249,
    "indi": 5250,
    "Ġpengemasan": 5251,
    "Ġconsult": 5252,
    "Ġaku": 5253,
    "Ġdiscounted": 5254,
    "Ġsender": 5255,
    "Ġlines": 5256,
    "Ġtaunya": 5257,
    "Ġpractical": 5258,
    "Ġssuai": 5259,
    "Ġilang": 5260,
    "Ġsoul": 5261,
    "Ġgon": 5262,
    "aak": 5263,
    "Ġrude": 5264,
    "fficient": 5265,
    "essional": 5266,
    "Ġdibal": 5267,
    "Ġgabisa": 5268,
    "Ġribbon": 5269,
    "Ġ45": 5270,
    "ification": 5271,
    "Ġconform": 5272,
    "Ġmaksih": 5273,
    "Ġtrustful": 5274,
    "Ġefficient": 5275,
    "Ġrapih": 5276,
    "Ġngepas": 5277,
    "Ġpersonal": 5278,
    "Ġpokokny": 5279,
    "Ġgmbr": 5280,
    "Ġamanah": 5281,
    "eeeeeeeeeeeeeeee": 5282,
    "realpict": 5283,
    "Ġremoved": 5284,
    "Ġbasic": 5285,
    "Ġclassy": 5286,
    "Ġpeeling": 5287,
    "jangka": 5288,
    "egr": 5289,
    "Ġsit": 5290,
    "erima": 5291,
    "Ġmid": 5292,
    "ilis": 5293,
    "Ġkirim": 5294,
    "Ġklu": 5295,
    "Ġinner": 5296,
    "Ġblum": 5297,
    "Ġbloss": 5298,
    "uda": 5299,
    "Ġwrapnya": 5300,
    "Ġcovered": 5301,
    "Ġproviding": 5302,
    "does": 5303,
    "Ġcapt": 5304,
    "messages": 5305,
    "Ġdngn": 5306,
    "Ġwednes": 5307,
    "Ġblossom": 5308,
    "iah": 5309,
    "Ġsed": 5310,
    "Ġske": 5311,
    "Ġtos": 5312,
    "Ġkere": 5313,
    "Ġali": 5314,
    "Ġvel": 5315,
    "Ġnep": 5316,
    "anget": 5317,
    "Ġsewn": 5318,
    "comfort": 5319,
    "actory": 5320,
    "acity": 5321,
    "lll": 5322,
    "Ġstraw": 5323,
    "receive": 5324,
    "Ġcovers": 5325,
    "Ġtaking": 5326,
    "Ġstandar": 5327,
    "Ġhealth": 5328,
    "Ġpreviously": 5329,
    "Ġspeaker": 5330,
    "Ġsngat": 5331,
    "Ġwares": 5332,
    "Ġwednesday": 5333,
    "hol": 5334,
    "md": 5335,
    "Ġsou": 5336,
    "Ġsket": 5337,
    "Ġtin": 5338,
    "Ġtank": 5339,
    "ines": 5340,
    "ita": 5341,
    "Ġrecord": 5342,
    "thick": 5343,
    "Ġecon": 5344,
    "Ġks": 5345,
    "Ġkil": 5346,
    "ades": 5347,
    "akallah": 5348,
    "imb": 5349,
    "Ġconcent": 5350,
    "Ġtech": 5351,
    "Ġdata": 5352,
    "Ġheld": 5353,
    "Ġ70": 5354,
    "Ġ08": 5355,
    "dkd": 5356,
    "Ġmagnet": 5357,
    "baloi": 5358,
    "Ġmedical": 5359,
    "Ġankle": 5360,
    "Ġslobbery": 5361,
    "Ġmusic": 5362,
    "friendly": 5363,
    "expected": 5364,
    "Ġnephew": 5365,
    "aat": 5366,
    "jam": 5367,
    "Ġbank": 5368,
    "Ġpriv": 5369,
    "Ġmount": 5370,
    "Ġhoney": 5371,
    "Ġqui": 5372,
    "rid": 5373,
    "Ġalas": 5374,
    "Ġongk": 5375,
    "apat": 5376,
    "Ġchr": 5377,
    "Ġsoal": 5378,
    "Ġbgd": 5379,
    "Ġyaudah": 5380,
    "dulillah": 5381,
    "Ġweigh": 5382,
    "Ġflav": 5383,
    "nnd": 5384,
    "Ġcorona": 5385,
    "Ġasking": 5386,
    "Ġemp": 5387,
    "Ġroll": 5388,
    "Ġvariant": 5389,
    "Ġsuggestions": 5390,
    "tqtqtqtq": 5391,
    "Ġnecklace": 5392,
    "Ġsngt": 5393,
    "Ġidea": 5394,
    "Ġkompl": 5395,
    "Ġpdahal": 5396,
    "cell": 5397,
    "uous": 5398,
    "Ġice": 5399,
    "Ġbkn": 5400,
    "ison": 5401,
    "Ġded": 5402,
    "cet": 5403,
    "Ġmos": 5404,
    "antap": 5405,
    "Ġunused": 5406,
    "Ġarms": 5407,
    "Ġlightning": 5408,
    "Ġnympe": 5409,
    "Ġwears": 5410,
    "Ġspir": 5411,
    "Ġweather": 5412,
    "Ġcorner": 5413,
    "Ġtransparent": 5414,
    "Ġkinda": 5415,
    "Ġdarker": 5416,
    "Ġleaked": 5417,
    "Ġcommunicate": 5418,
    "Ġtowel": 5419,
    "egant": 5420,
    "Ġocc": 5421,
    "Ġwo": 5422,
    "Ġreward": 5423,
    "Ġshampoo": 5424,
    "Ġnoticed": 5425,
    "Ġrecommendations": 5426,
    "Ġscam": 5427,
    "Ġintention": 5428,
    "Ġsamples": 5429,
    "moga": 5430,
    "Ġterimakas": 5431,
    "Ġcosts": 5432,
    "Ġtypes": 5433,
    "Ġregrets": 5434,
    "Ġbaj": 5435,
    "Ġpsbb": 5436,
    "Ġwife": 5437,
    "Ġinitial": 5438,
    "oooooooooooooooo": 5439,
    "Ġwonderful": 5440,
    "Ġdelicate": 5441,
    "aud": 5442,
    "cah": 5443,
    "puas": 5444,
    "turn": 5445,
    "zen": 5446,
    "anced": 5447,
    "Ġml": 5448,
    "Ġib": 5449,
    "Ġur": 5450,
    "Ġtrous": 5451,
    "Ġdichat": 5452,
    "atever": 5453,
    "Ġbget": 5454,
    "Ġterny": 5455,
    "Ġabras": 5456,
    "Ġdurability": 5457,
    "Ġbagusbagus": 5458,
    "Ġretri": 5459,
    "Ġpromised": 5460,
    "prox": 5461,
    "Ġ05": 5462,
    "Ġluckily": 5463,
    "Ġdikasi": 5464,
    "Ġ150": 5465,
    "Ġcapacity": 5466,
    "syuka": 5467,
    "Ġbender": 5468,
    "Ġsteel": 5469,
    "Ġeconom": 5470,
    "gener": 5471,
    "hang": 5472,
    "uul": 5473,
    "Ġsdk": 5474,
    "Ġpark": 5475,
    "alal": 5476,
    "enty": 5477,
    "ayay": 5478,
    "Ġalright": 5479,
    "Ġuh": 5480,
    "Ġforce": 5481,
    "prom": 5482,
    "Ġsix": 5483,
    "Ġdeg": 5484,
    "Ġbos": 5485,
    "Ġrepaired": 5486,
    "Ġlead": 5487,
    "Ġapparent": 5488,
    "ultra": 5489,
    "black": 5490,
    "Ġmarks": 5491,
    "Ġsized": 5492,
    "colors": 5493,
    "satisfactory": 5494,
    "airs": 5495,
    "edule": 5496,
    "Ġjugak": 5497,
    "Ġcanceled": 5498,
    "Ġfilled": 5499,
    "Ġsegitu": 5500,
    "Ġobviously": 5501,
    "ursday": 5502,
    "Ġdipakenya": 5503,
    "Ġmobile": 5504,
    "ife": 5505,
    "pm": 5506,
    "ros": 5507,
    "Ġsg": 5508,
    "Ġtnx": 5509,
    "Ġaprox": 5510,
    "Ġmash": 5511,
    "enance": 5512,
    "Ġnam": 5513,
    "Ġlmy": 5514,
    "entle": 5515,
    "Ġvend": 5516,
    "Ġrace": 5517,
    "irking": 5518,
    "Ġsering": 5519,
    "Ġ34": 5520,
    "Ġletter": 5521,
    "Ġsolution": 5522,
    "Ġcostumer": 5523,
    "Ġassured": 5524,
    "Ġcleaning": 5525,
    "Ġumbr": 5526,
    "Ġsatified": 5527,
    "Ġlining": 5528,
    "Ġcollar": 5529,
    "Ġpulak": 5530,
    "Ġkecepatan": 5531,
    "Ġdissapointed": 5532,
    "ox": 5533,
    "thx": 5534,
    "Ġant": 5535,
    "cking": 5536,
    "Ġsmirking": 5537,
    "amaz": 5538,
    "goodgood": 5539,
    "iman": 5540,
    "Ġchan": 5541,
    "Ġcond": 5542,
    "Ġtra": 5543,
    "Ġdecei": 5544,
    "iik": 5545,
    "Ġcoated": 5546,
    "Ġsizenya": 5547,
    "Ġvariety": 5548,
    "Ġdonk": 5549,
    "Ġcurt": 5550,
    "Ġsecurity": 5551,
    "Ġndak": 5552,
    "Ġsaucy": 5553,
    "Ġnadeliver": 5554,
    "Ġsustenance": 5555,
    "Ġenvelope": 5556,
    "Ġindonesia": 5557,
    "Ġdisappinted": 5558,
    "Ġtrousers": 5559,
    "15": 5560,
    "90": 5561,
    "pic": 5562,
    "qq": 5563,
    "yung": 5564,
    "Ġsbl": 5565,
    "Ġtf": 5566,
    "Ġfee": 5567,
    "Ġden": 5568,
    "Ġshall": 5569,
    "Ġkel": 5570,
    "Ġlift": 5571,
    "Ġloh": 5572,
    "produk": 5573,
    "Ġtrmksh": 5574,
    "Ġsau": 5575,
    "Ġworse": 5576,
    "lik": 5577,
    "Ġbgttt": 5578,
    "ailing": 5579,
    "aaaaaaaaa": 5580,
    "door": 5581,
    "Ġcomplim": 5582,
    "Ġvariations": 5583,
    "Ġpsen": 5584,
    "Ġtablets": 5585,
    "Ġmgkn": 5586,
    "Ġsaucony": 5587,
    "Ġident": 5588,
    "Ġwasted": 5589,
    "cise": 5590,
    "wal": 5591,
    "Ġtie": 5592,
    "Ġbait": 5593,
    "Ġwip": 5594,
    "Ġlbih": 5595,
    "Ġnex": 5596,
    "Ġchi": 5597,
    "Ġcher": 5598,
    "ster": 5599,
    "Ġfraud": 5600,
    "Ġbother": 5601,
    "Ġplate": 5602,
    "Ġsubsidy": 5603,
    "Ġ42": 5604,
    "Ġmayan": 5605,
    "Ġabu": 5606,
    "Ġbubbles": 5607,
    "Ġkece": 5608,
    "Ġkebuka": 5609,
    "next": 5610,
    "Ġintegr": 5611,
    "Ġselalu": 5612,
    "Ġshorts": 5613,
    "room": 5614,
    "Ġtrima": 5615,
    "Ġremaining": 5616,
    "Ġdistorted": 5617,
    "Ġupdates": 5618,
    "Ġdecided": 5619,
    "Ġcharged": 5620,
    "Ġfilter": 5621,
    "Ġschedule": 5622,
    "rrrrrrrr": 5623,
    "Ġforeign": 5624,
    "Ġeventually": 5625,
    "Ġjaitan": 5626,
    "Ġapplication": 5627,
    "Ġexceed": 5628,
    "Ġperforated": 5629,
    "easy": 5630,
    "jr": 5631,
    "kit": 5632,
    "night": 5633,
    "Ġglo": 5634,
    "Ġgrim": 5635,
    "Ġcongratulations": 5636,
    "Ġpricing": 5637,
    "Ġnap": 5638,
    "ury": 5639,
    "Ġbuck": 5640,
    "Ġtraff": 5641,
    "Ġsaving": 5642,
    "Ġamen": 5643,
    "Ġworthy": 5644,
    "Ġpurpose": 5645,
    "Ġworkout": 5646,
    "ashion": 5647,
    "mantapp": 5648,
    "Ġelegant": 5649,
    "Ġpoko": 5650,
    "Ġprovides": 5651,
    "Ġpaketannya": 5652,
    "Ġbangeeet": 5653,
    "Ġelectric": 5654,
    "Ġtrouble": 5655,
    "here": 5656,
    "tooth": 5657,
    "yal": 5658,
    "Ġut": 5659,
    "Ġahead": 5660,
    "Ġping": 5661,
    "ina": 5662,
    "Ġthursday": 5663,
    "Ġopin": 5664,
    "Ġdm": 5665,
    "semb": 5666,
    "imately": 5667,
    "oked": 5668,
    "Ġwhatever": 5669,
    "Ġupside": 5670,
    "Ġknown": 5671,
    "Ġdropped": 5672,
    "Ġbangettttt": 5673,
    "aving": 5674,
    "Ġmoth": 5675,
    "Ġcro": 5676,
    "kkkkk": 5677,
    "Ġsheet": 5678,
    "Ġhelps": 5679,
    "lucu": 5680,
    "materials": 5681,
    "Ġolder": 5682,
    "Ġlembut": 5683,
    "Ġconstr": 5684,
    "Ġscented": 5685,
    "eterminate": 5686,
    "culated": 5687,
    "Ġminimal": 5688,
    "Ġaccessories": 5689,
    "keeping": 5690,
    "Ġkudos": 5691,
    "dc": 5692,
    "gress": 5693,
    "iw": 5694,
    "sangat": 5695,
    "zing": 5696,
    "Ġtang": 5697,
    "Ġbner": 5698,
    "Ġmdh": 5699,
    "Ġmild": 5700,
    "Ġhood": 5701,
    "Ġhindi": 5702,
    "Ġkin": 5703,
    "ched": 5704,
    "Ġshoot": 5705,
    "Ġsudah": 5706,
    "ahhh": 5707,
    "Ġnecess": 5708,
    "unggu": 5709,
    "Ġtimeout": 5710,
    "Ġaccoding": 5711,
    "Ġusers": 5712,
    "Ġadap": 5713,
    "Ġkecew": 5714,
    "neath": 5715,
    "Ġneedle": 5716,
    "ikes": 5717,
    "Ġngam": 5718,
    "smiling": 5719,
    "Ġkindly": 5720,
    "Ġrobe": 5721,
    "differ": 5722,
    "Ġvariants": 5723,
    "Ġcave": 5724,
    "Ġincludes": 5725,
    "Ġadvertising": 5726,
    "Ġsamsung": 5727,
    "Ġcollect": 5728,
    "clothes": 5729,
    "Ġcenter": 5730,
    "Ġlaptop": 5731,
    "Ġbeginning": 5732,
    "Ġsummer": 5733,
    "extremely": 5734,
    "exc": 5735,
    "van": 5736,
    "Ġtee": 5737,
    "Ġgentle": 5738,
    "Ġupper": 5739,
    "ainya": 5740,
    "ends": 5741,
    "Ġbud": 5742,
    "Ġtrm": 5743,
    "Ġdevel": 5744,
    "Ġdesk": 5745,
    "delicious": 5746,
    "anyaa": 5747,
    "Ġintent": 5748,
    "ifi": 5749,
    "Ġfocus": 5750,
    "Ġdowncast": 5751,
    "Ġpokoke": 5752,
    "Ġindeterminate": 5753,
    "Ġ2022": 5754,
    "jfjf": 5755,
    "Ġindex": 5756,
    "Ġgercep": 5757,
    "Ġnggk": 5758,
    "Ġpigment": 5759,
    "bah": 5760,
    "kz": 5761,
    "nis": 5762,
    "ince": 5763,
    "Ġgede": 5764,
    "Ġfond": 5765,
    "Ġnie": 5766,
    "atan": 5767,
    "orable": 5768,
    "Ġegg": 5769,
    "Ġkot": 5770,
    "Ġbeige": 5771,
    "Ġalhm": 5772,
    "vet": 5773,
    "aknya": 5774,
    "Ġsock": 5775,
    "Ġshipper": 5776,
    "Ġsipp": 5777,
    "Ġmuken": 5778,
    "Ġarmy": 5779,
    "Ġhey": 5780,
    "lig": 5781,
    "Ġdeser": 5782,
    "Ġphys": 5783,
    "Ġsupposed": 5784,
    "ava": 5785,
    "aaaaaaaaaa": 5786,
    "ungkus": 5787,
    "cover": 5788,
    "Ġbreaking": 5789,
    "Ġgirls": 5790,
    "Ġgrey": 5791,
    "Ġmaxim": 5792,
    "Ġkarna": 5793,
    "evable": 5794,
    "Ġtengkyu": 5795,
    "Ġtolerable": 5796,
    "Ġattractive": 5797,
    "Ġpandemic": 5798,
    "bot": 5799,
    "car": 5800,
    "millah": 5801,
    "rel": 5802,
    "Ġss": 5803,
    "Ġsna": 5804,
    "Ġfurn": 5805,
    "Ġcntik": 5806,
    "Ġmau": 5807,
    "omon": 5808,
    "Ġbeg": 5809,
    "Ġsmart": 5810,
    "Ġextr": 5811,
    "Ġsav": 5812,
    "opee": 5813,
    "Ġsyek": 5814,
    "Ġabit": 5815,
    "Ġknife": 5816,
    "Ġduration": 5817,
    "iiiiii": 5818,
    "Ġmonkey": 5819,
    "Ġselection": 5820,
    "Ġunderneath": 5821,
    "Ġwarn": 5822,
    "Ġinclude": 5823,
    "Ġincreased": 5824,
    "Ġpnjual": 5825,
    "Ġprotector": 5826,
    "Ġapril": 5827,
    "Ġgonna": 5828,
    "Ġumbrella": 5829,
    "abs": 5830,
    "land": 5831,
    "sale": 5832,
    "Ġtn": 5833,
    "isi": 5834,
    "Ġhay": 5835,
    "west": 5836,
    "Ġchose": 5837,
    "Ġproject": 5838,
    "opened": 5839,
    "Ġreput": 5840,
    "Ġhiking": 5841,
    "Ġlotion": 5842,
    "Ġworked": 5843,
    "Ġpointing": 5844,
    "Ġsesua": 5845,
    "merch": 5846,
    "Ġkuri": 5847,
    "Ġvisible": 5848,
    "Ġfaulty": 5849,
    "Ġcandy": 5850,
    "Ġguests": 5851,
    "Ġretrievable": 5852,
    "Ġopinion": 5853,
    "77": 5854,
    "Ġdora": 5855,
    "Ġlan": 5856,
    "theless": 5857,
    "Ġked": 5858,
    "Ġyng": 5859,
    "etic": 5860,
    "Ġchart": 5861,
    "Ġdeform": 5862,
    "Ġgets": 5863,
    "Ġstraps": 5864,
    "Ġsukaaaaa": 5865,
    "Ġfool": 5866,
    "Ġzero": 5867,
    "Ġkrm": 5868,
    "Ġears": 5869,
    "jjjj": 5870,
    "cons": 5871,
    "Ġevil": 5872,
    "Ġoriginally": 5873,
    "Ġsurprise": 5874,
    "Ġpromotion": 5875,
    "Ġknew": 5876,
    "Ġpkoknya": 5877,
    "Ġnarecei": 5878,
    "Ġsilicone": 5879,
    "different": 5880,
    "99": 5881,
    "mission": 5882,
    "nam": 5883,
    "Ġtdk": 5884,
    "Ġpatch": 5885,
    "Ġgw": 5886,
    "alan": 5887,
    "alham": 5888,
    "repe": 5889,
    "Ġfashion": 5890,
    "ism": 5891,
    "orance": 5892,
    "Ġlm": 5893,
    "uter": 5894,
    "Ġinput": 5895,
    "Ġbeauiful": 5896,
    "Ġforced": 5897,
    "illaah": 5898,
    "apers": 5899,
    "uny": 5900,
    "Ġseger": 5901,
    "Ġcep": 5902,
    "Ġdisappointment": 5903,
    "Ġrunner": 5904,
    "ounded": 5905,
    "Ġcramp": 5906,
    "Ġowners": 5907,
    "trusted": 5908,
    "Ġwalau": 5909,
    "Ġberbaloi": 5910,
    "Ġsesu": 5911,
    "Ġmandailing": 5912,
    "Ġunderstandable": 5913,
    "Ġupdated": 5914,
    "Ġkmren": 5915,
    "Ġpressure": 5916,
    "Ġbias": 5917,
    "Ġprinted": 5918,
    "Ġmetal": 5919,
    "yyyyyyyy": 5920,
    "Ġsekalii": 5921,
    "Ġprofessional": 5922,
    "Ġshoulder": 5923,
    "bw": 5924,
    "bble": 5925,
    "hip": 5926,
    "jek": 5927,
    "kali": 5928,
    "lay": 5929,
    "ration": 5930,
    "Ġsca": 5931,
    "Ġsni": 5932,
    "Ġgag": 5933,
    "Ġnha": 5934,
    "Ġlink": 5935,
    "quito": 5936,
    "ortion": 5937,
    "angka": 5938,
    "Ġassemb": 5939,
    "iculous": 5940,
    "Ġdisni": 5941,
    "Ġprepar": 5942,
    "Ġcopy": 5943,
    "kkw": 5944,
    "Ġ55": 5945,
    "Ġgrad": 5946,
    "uuuuuu": 5947,
    "Ġpengemas": 5948,
    "dapet": 5949,
    "Ġanswers": 5950,
    "Ġfollowed": 5951,
    "jdjdjdjd": 5952,
    "shoe": 5953,
    "ibility": 5954,
    "Ġspring": 5955,
    "Ġlisted": 5956,
    "Ġimagined": 5957,
    "55555555": 5958,
    "Ġapprox": 5959,
    "Ġdusnya": 5960,
    "Ġunique": 5961,
    "Ġdalemnya": 5962,
    "Ġtosca": 5963,
    "Ġtraffic": 5964,
    "bet": 5965,
    "big": 5966,
    "dat": 5967,
    "mis": 5968,
    "Ġsini": 5969,
    "Ġpear": 5970,
    "ital": 5971,
    "Ġbill": 5972,
    "Ġdun": 5973,
    "Ġreject": 5974,
    "arse": 5975,
    "Ġtok": 5976,
    "Ġshade": 5977,
    "Ġinqu": 5978,
    "Ġstory": 5979,
    "unlike": 5980,
    "Ġrated": 5981,
    "ireless": 5982,
    "Ġupset": 5983,
    "apped": 5984,
    "Ġaccorance": 5985,
    "kks": 5986,
    "Ġgaes": 5987,
    "Ġarrives": 5988,
    "Ġrecommenda": 5989,
    "Ġ43": 5990,
    "Ġkec": 5991,
    "Ġmoon": 5992,
    "ipis": 5993,
    "ctions": 5994,
    "Ġsheets": 5995,
    "Ġpromise": 5996,
    "Ġeffort": 5997,
    "Ġeffic": 5998,
    "Ġtyp": 5999,
    "Ġpengirimannya": 6000,
    "Ġentire": 6001,
    "Ġdrive": 6002,
    "Ġdetailed": 6003,
    "Ġcooking": 6004,
    "Ġguarantee": 6005,
    "Ġaromatic": 6006,
    "Ġmixed": 6007,
    "Ġwkwkwk": 6008,
    "Ġbowl": 6009,
    "asukasuk": 6010,
    "Ġbbrp": 6011,
    "jangkau": 6012,
    "Ġapparently": 6013,
    "Ġcherry": 6014,
    "rnya": 6015,
    "war": 6016,
    "ister": 6017,
    "Ġcer": 6018,
    "Ġmab": 6019,
    "Ġjoint": 6020,
    "Ġloos": 6021,
    "Ġunexpected": 6022,
    "Ġagainst": 6023,
    "Ġnoise": 6024,
    "ures": 6025,
    "Ġcancell": 6026,
    "Ġarrow": 6027,
    "Ġplants": 6028,
    "Ġstud": 6029,
    "fective": 6030,
    "berry": 6031,
    "tran": 6032,
    "bby": 6033,
    "Ġdtang": 6034,
    "Ġinstantly": 6035,
    "Ġcells": 6036,
    "Ġfalcon": 6037,
    "Ġassessment": 6038,
    "request": 6039,
    "Ġquiet": 6040,
    "Ġspirit": 6041,
    "Ġdoraem": 6042,
    "45": 6043,
    "flow": 6044,
    "sng": 6045,
    "Ġtar": 6046,
    "Ġpg": 6047,
    "Ġgest": 6048,
    "Ġfile": 6049,
    "Ġdull": 6050,
    "Ġcow": 6051,
    "Ġwang": 6052,
    "Ġlat": 6053,
    "leg": 6054,
    "anku": 6055,
    "Ġjahit": 6056,
    "unting": 6057,
    "Ġbuilt": 6058,
    "Ġunfort": 6059,
    "Ġmud": 6060,
    "Ġpackingannya": 6061,
    "Ġusage": 6062,
    "Ġcepa": 6063,
    "Ġgrand": 6064,
    "Ġenhan": 6065,
    "Ġride": 6066,
    "dden": 6067,
    "Ġ1000": 6068,
    "Ġpoorly": 6069,
    "uuuuu": 6070,
    "Ġembr": 6071,
    "Ġapolog": 6072,
    "Ġprotected": 6073,
    "untried": 6074,
    "jeje": 6075,
    "Ġmantappp": 6076,
    "Ġmoment": 6077,
    "zzzzzzzz": 6078,
    "Ġinserted": 6079,
    "Ġcurrently": 6080,
    "general": 6081,
    "dus": 6082,
    "jv": 6083,
    "sl": 6084,
    "isy": 6085,
    "Ġkul": 6086,
    "Ġsting": 6087,
    "aap": 6088,
    "Ġsugar": 6089,
    "Ġsufficient": 6090,
    "Ġyoutu": 6091,
    "Ġchip": 6092,
    "Ġmeans": 6093,
    "Ġuseless": 6094,
    "Ġreport": 6095,
    "istmas": 6096,
    "ample": 6097,
    "Ġsuited": 6098,
    "Ġflu": 6099,
    "Ġkeith": 6100,
    "Ġcrow": 6101,
    "ashed": 6102,
    "Ġshorter": 6103,
    "eeeee": 6104,
    "Ġnumbers": 6105,
    "Ġbasically": 6106,
    "Ġprotective": 6107,
    "Ġlmbt": 6108,
    "rapid": 6109,
    "Ġmosquito": 6110,
    "Ġgrimacing": 6111,
    "bank": 6112,
    "cantik": 6113,
    "Ġtick": 6114,
    "Ġpw": 6115,
    "Ġpend": 6116,
    "Ġgos": 6117,
    "Ġglove": 6118,
    "Ġbum": 6119,
    "reg": 6120,
    "ene": 6121,
    "Ġnood": 6122,
    "Ġlunch": 6123,
    "Ġshelf": 6124,
    "ota": 6125,
    "Ġstor": 6126,
    "Ġbeat": 6127,
    "Ġsebel": 6128,
    "icle": 6129,
    "Ġ33": 6130,
    "Ġweird": 6131,
    "Ġdrug": 6132,
    "ivid": 6133,
    "Ġcoud": 6134,
    "Ġkoq": 6135,
    "Ġrefer": 6136,
    "defective": 6137,
    "Ġsemog": 6138,
    "Ġbarangny": 6139,
    "Ġcomfortably": 6140,
    "Ġholder": 6141,
    "Ġgmna": 6142,
    "Ġflaws": 6143,
    "Ġpatiently": 6144,
    "Ġpockets": 6145,
    "Ġninjavan": 6146,
    "Ġrocking": 6147,
    "Ġcepett": 6148,
    "lumayan": 6149,
    "Ġwrinkled": 6150,
    "Ġabrasions": 6151,
    "zh": 6152,
    "Ġsb": 6153,
    "Ġtiss": 6154,
    "rekom": 6155,
    "Ġdp": 6156,
    "Ġcs": 6157,
    "Ġpra": 6158,
    "Ġprize": 6159,
    "Ġns": 6160,
    "Ġkon": 6161,
    "Ġjun": 6162,
    "Ġrp": 6163,
    "Ġfract": 6164,
    "Ġlightly": 6165,
    "Ġskit": 6166,
    "Ġspread": 6167,
    "Ġbluetooth": 6168,
    "Ġterimaksih": 6169,
    "okee": 6170,
    "Ġbrief": 6171,
    "Ġadvised": 6172,
    "Ġinsoles": 6173,
    "Ġpuasss": 6174,
    "given": 6175,
    "Ġsdikit": 6176,
    "Ġnegative": 6177,
    "Ġdiamond": 6178,
    "Ġcharacter": 6179,
    "Ġprivate": 6180,
    "Ġemplo": 6181,
    "amazing": 6182,
    "Ġintentions": 6183,
    "Ġdoraemon": 6184,
    "pc": 6185,
    "pid": 6186,
    "Ġens": 6187,
    "Ġath": 6188,
    "Ġther": 6189,
    "Ġthrow": 6190,
    "Ġmile": 6191,
    "ira": 6192,
    "Ġdike": 6193,
    "Ġsomehow": 6194,
    "Ġground": 6195,
    "Ġsport": 6196,
    "Ġapple": 6197,
    "Ġcarpet": 6198,
    "brng": 6199,
    "Ġminor": 6200,
    "Ġpartying": 6201,
    "Ġprocessing": 6202,
    "Ġpadah": 6203,
    "Ġbatam": 6204,
    "nfnf": 6205,
    "Ġbreathable": 6206,
    "Ġterbaikkk": 6207,
    "Ġchristmas": 6208,
    "Ġassembly": 6209,
    "88": 6210,
    "lack": 6211,
    "mg": 6212,
    "nj": 6213,
    "rating": 6214,
    "rereply": 6215,
    "Ġthigh": 6216,
    "Ġgaper": 6217,
    "Ġmass": 6218,
    "ender": 6219,
    "Ġshiny": 6220,
    "ries": 6221,
    "ppers": 6222,
    "Ġjual": 6223,
    "Ġsof": 6224,
    "Ġexer": 6225,
    "Ġmatte": 6226,
    "Ġcheese": 6227,
    "cake": 6228,
    "Ġpool": 6229,
    "Ġkakak": 6230,
    "ggings": 6231,
    "white": 6232,
    "lightweight": 6233,
    "hhhhhh": 6234,
    "Ġscuff": 6235,
    "Ġhelmet": 6236,
    "Ġrequire": 6237,
    "Ġcreated": 6238,
    "Ġcorrectly": 6239,
    "Ġsilky": 6240,
    "Ġklw": 6241,
    "Ġobst": 6242,
    "Ġnakak": 6243,
    "Ġposition": 6244,
    "Ġbesar": 6245,
    "Ġessence": 6246,
    "llllllllllllllll": 6247,
    "Ġpelapak": 6248,
    "Ġdumating": 6249,
    "Ġjapan": 6250,
    "Ġstriped": 6251,
    "market": 6252,
    "Ġintegrity": 6253,
    "Ġenhanced": 6254,
    "aj": 6255,
    "bul": 6256,
    "nks": 6257,
    "pay": 6258,
    "rain": 6259,
    "rng": 6260,
    "rors": 6261,
    "uum": 6262,
    "wait": 6263,
    "Ġsdah": 6264,
    "Ġtit": 6265,
    "Ġpor": 6266,
    "Ġcred": 6267,
    "Ġmill": 6268,
    "Ġlma": 6269,
    "Ġvent": 6270,
    "uno": 6271,
    "irus": 6272,
    "Ġsich": 6273,
    "Ġdisk": 6274,
    "Ġpopper": 6275,
    "Ġsplit": 6276,
    "gger": 6277,
    "nns": 6278,
    "bags": 6279,
    "Ġeasier": 6280,
    "attered": 6281,
    "Ġlaju": 6282,
    "Ġ01": 6283,
    "Ġrapii": 6284,
    "took": 6285,
    "Ġthroughout": 6286,
    "Ġeffects": 6287,
    "check": 6288,
    "Ġedit": 6289,
    "Ġsatu": 6290,
    "Ġrekomend": 6291,
    "Ġheels": 6292,
    "Ġwinder": 6293,
    "Ġwinter": 6294,
    "Ġpositive": 6295,
    "Ġhurry": 6296,
    "Ġnyobain": 6297,
    "Ġcontented": 6298,
    "Ġhanging": 6299,
    "Ġcountry": 6300,
    "Ġcalculated": 6301,
    "Ġconstraint": 6302,
    "Ġmaximum": 6303,
    "100": 6304,
    "bon": 6305,
    "kasih": 6306,
    "lg": 6307,
    "mz": 6308,
    "ost": 6309,
    "pot": 6310,
    "run": 6311,
    "sim": 6312,
    "tasty": 6313,
    "erg": 6314,
    "ales": 6315,
    "Ġbint": 6316,
    "Ġcry": 6317,
    "Ġyan": 6318,
    "ado": 6319,
    "Ġsudden": 6320,
    "Ġlie": 6321,
    "print": 6322,
    "ptop": 6323,
    "Ġhandy": 6324,
    "Ġcompens": 6325,
    "Ġspoon": 6326,
    "Ġ41": 6327,
    "packaged": 6328,
    "Ġxia": 6329,
    "sia": 6330,
    "aaaaaaaaaaaa": 6331,
    "nda": 6332,
    "Ġsaying": 6333,
    "Ġchecking": 6334,
    "mantep": 6335,
    "Ġretur": 6336,
    "Ġincred": 6337,
    "Ġattach": 6338,
    "Ġdatang": 6339,
    "Ġprocessed": 6340,
    "Ġconsign": 6341,
    "Ġremind": 6342,
    "Ġbread": 6343,
    "Ġexcelent": 6344,
    "Ġgames": 6345,
    "Ġownernya": 6346,
    "ibly": 6347,
    "bgs": 6348,
    "oider": 6349,
    "Ġconnection": 6350,
    "Ġmaintained": 6351,
    "Ġfailed": 6352,
    "Ġmengecewakan": 6353,
    "Ġneglig": 6354,
    "paketan": 6355,
    "Ġcollapsible": 6356,
    "Ġvelvet": 6357,
    "turns": 6358,
    "Ġcompliments": 6359,
    "Ġtissue": 6360,
    "eer": 6361,
    "fund": 6362,
    "vc": 6363,
    "itter": 6364,
    "alitas": 6365,
    "reply": 6366,
    "cture": 6367,
    "Ġnanya": 6368,
    "Ġkd": 6369,
    "Ġyh": 6370,
    "Ġjw": 6371,
    "umah": 6372,
    "idence": 6373,
    "Ġmatt": 6374,
    "Ġtooth": 6375,
    "Ġcpat": 6376,
    "Ġprogress": 6377,
    "Ġuntested": 6378,
    "Ġoutstanding": 6379,
    "ihih": 6380,
    "dhdhd": 6381,
    "Ġhandling": 6382,
    "Ġrepair": 6383,
    "Ġbangt": 6384,
    "Ġleaf": 6385,
    "Ġknit": 6386,
    "ddd": 6387,
    "Ġdrag": 6388,
    "Ġtastes": 6389,
    "Ġngel": 6390,
    "Ġokeee": 6391,
    "Ġshortage": 6392,
    "Ġcepattt": 6393,
    "Ġ06": 6394,
    "Ġpokony": 6395,
    "Ġbalikin": 6396,
    "Ġadvent": 6397,
    "Ġbsa": 6398,
    "Ġnhanh": 6399,
    "Ġstates": 6400,
    "Ġdonated": 6401,
    "Ġhuhuhu": 6402,
    "sao": 6403,
    "Ġsuggestion": 6404,
    "Ġmulti": 6405,
    "Ġburst": 6406,
    "Ġplanting": 6407,
    "Ġoptions": 6408,
    "Ġsampaii": 6409,
    "Ġtreatment": 6410,
    "Ġparticular": 6411,
    "dlillah": 6412,
    "Ġfantastic": 6413,
    "two": 6414,
    "Ġpenghantaran": 6415,
    "Ġflavors": 6416,
    "Ġdevelop": 6417,
    "Ġcancellation": 6418,
    "awe": 6419,
    "hal": 6420,
    "hee": 6421,
    "knya": 6422,
    "pan": 6423,
    "Ġsear": 6424,
    "Ġsort": 6425,
    "Ġtam": 6426,
    "Ġaction": 6427,
    "eler": 6428,
    "Ġburn": 6429,
    "Ġwool": 6430,
    "Ġnan": 6431,
    "arang": 6432,
    "Ġancur": 6433,
    "Ġstamp": 6434,
    "Ġorderan": 6435,
    "Ġjel": 6436,
    "aki": 6437,
    "aks": 6438,
    "umin": 6439,
    "yesterday": 6440,
    "Ġaged": 6441,
    "Ġseat": 6442,
    "Ġexample": 6443,
    "abl": 6444,
    "Ġnyangka": 6445,
    "Ġfeature": 6446,
    "Ġgiao": 6447,
    "Ġsends": 6448,
    "Ġmantull": 6449,
    "Ġsupplier": 6450,
    "Ġgoes": 6451,
    "ungsi": 6452,
    "Ġbaru": 6453,
    "Ġbarng": 6454,
    "Ġfunds": 6455,
    "ilever": 6456,
    "Ġcloud": 6457,
    "ashes": 6458,
    "Ġwrapper": 6459,
    "Ġmasi": 6460,
    "Ġharap": 6461,
    "Ġcaused": 6462,
    "Ġpemgiriman": 6463,
    "Ġannoying": 6464,
    "Ġkomplen": 6465,
    "Ġapproximately": 6466,
    "30": 6467,
    "iu": 6468,
    "late": 6469,
    "purchase": 6470,
    "say": 6471,
    "vas": 6472,
    "Ġgil": 6473,
    "Ġwan": 6474,
    "edy": 6475,
    "Ġrecomm": 6476,
    "iled": 6477,
    "Ġbutter": 6478,
    "sequ": 6479,
    "Ġthankss": 6480,
    "Ġyouthank": 6481,
    "Ġserved": 6482,
    "Ġsehari": 6483,
    "Ġceaaa": 6484,
    "Ġplast": 6485,
    "Ġrepurchased": 6486,
    "Ġbangat": 6487,
    "Ġleggings": 6488,
    "Ġxs": 6489,
    "artment": 6490,
    "accommodating": 6491,
    "hhhhhhh": 6492,
    "Ġattem": 6493,
    "bubble": 6494,
    "Ġsurv": 6495,
    "Ġdteng": 6496,
    "Ġtransit": 6497,
    "Ġlacks": 6498,
    "tebel": 6499,
    "Ġpersonally": 6500,
    "Ġmurahh": 6501,
    "jsjsj": 6502,
    "tpi": 6503,
    "Ġnyampai": 6504,
    "Ġelsewhere": 6505,
    "Ġpanel": 6506,
    "Ġbesides": 6507,
    "Ġbeda": 6508,
    "Ġaccuracy": 6509,
    "Ġratings": 6510,
    "Ġinteresting": 6511,
    "Ġsleeves": 6512,
    "Ġwarehouse": 6513,
    "Ġpetite": 6514,
    "identally": 6515,
    "Ġmoderate": 6516,
    "Ġwelcome": 6517,
    "Ġalias": 6518,
    "Ġfurniture": 6519,
    "Ġembroider": 6520,
    "Ġgosend": 6521,
    "Ġobstac": 6522,
    "16": 6523,
    "dear": 6524,
    "hold": 6525,
    "wl": 6526,
    "Ġtut": 6527,
    "Ġgg": 6528,
    "Ġfly": 6529,
    "Ġfto": 6530,
    "verse": 6531,
    "Ġcore": 6532,
    "Ġnude": 6533,
    "atically": 6534,
    "Ġhanger": 6535,
    "Ġyang": 6536,
    "charge": 6537,
    "see": 6538,
    "appe": 6539,
    "Ġlowest": 6540,
    "Ġtrash": 6541,
    "Ġoutdoor": 6542,
    "Ġthanx": 6543,
    "Ġstuffed": 6544,
    "ssssss": 6545,
    "Ġcontinuous": 6546,
    "Ġbackhand": 6547,
    "broken": 6548,
    "Ġhuge": 6549,
    "Ġbarangx": 6550,
    "tedly": 6551,
    "Ġcats": 6552,
    "Ġpadded": 6553,
    "Ġflawed": 6554,
    "Ġraised": 6555,
    "Ġrainbow": 6556,
    "Ġseriously": 6557,
    "Ġbwt": 6558,
    "exactly": 6559,
    "Ġphysical": 6560,
    "cas": 6561,
    "men": 6562,
    "mag": 6563,
    "Ġtune": 6564,
    "ods": 6565,
    "Ġpure": 6566,
    "Ġthus": 6567,
    "itation": 6568,
    "Ġgud": 6569,
    "Ġbay": 6570,
    "Ġfu": 6571,
    "Ġnmn": 6572,
    "Ġhri": 6573,
    "Ġhtt": 6574,
    "Ġdeliber": 6575,
    "Ġsha": 6576,
    "lex": 6577,
    "Ġyrs": 6578,
    "Ġyarn": 6579,
    "amed": 6580,
    "sey": 6581,
    "Ġyouu": 6582,
    "Ġokros": 6583,
    "Ġrab": 6584,
    "Ġagre": 6585,
    "Ġunited": 6586,
    "comes": 6587,
    "Ġblur": 6588,
    "ordinary": 6589,
    "Ġboots": 6590,
    "Ġprest": 6591,
    "Ġanywhere": 6592,
    "Ġdisappoints": 6593,
    "Ġnyari": 6594,
    "Ġrunners": 6595,
    "Ġpesan": 6596,
    "enceng": 6597,
    "Ġsmelled": 6598,
    "Ġbabies": 6599,
    "Ġsetting": 6600,
    "Ġlasted": 6601,
    "Ġdressing": 6602,
    "Ġmaj": 6603,
    "Ġheadphones": 6604,
    "Ġplaces": 6605,
    "Ġdrawing": 6606,
    "Ġpatterns": 6607,
    "Ġwipe": 6608,
    "gift": 6609,
    "Ġslippers": 6610,
    "severe": 6611,
    "Ġrmh": 6612,
    "dddddddddddddddddddddddddddddddd": 6613,
    "Ġappearance": 6614,
    "Ġlimited": 6615,
    "Ġblanket": 6616,
    "Ġconcentrated": 6617,
    "Ġscared": 6618,
    "Ġathlet": 6619,
    "bre": 6620,
    "bener": 6621,
    "cut": 6622,
    "mx": 6623,
    "mber": 6624,
    "wah": 6625,
    "Ġsnd": 6626,
    "Ġbers": 6627,
    "Ġbanan": 6628,
    "Ġdapat": 6629,
    "Ġcg": 6630,
    "Ġwireless": 6631,
    "another": 6632,
    "eness": 6633,
    "Ġnyes": 6634,
    "Ġham": 6635,
    "usin": 6636,
    "Ġalco": 6637,
    "Ġvirus": 6638,
    "ems": 6639,
    "Ġcha": 6640,
    "ummy": 6641,
    "bsh": 6642,
    "Ġheard": 6643,
    "Ġunbox": 6644,
    "Ġdeep": 6645,
    "Ġdiper": 6646,
    "Ġplenty": 6647,
    "ension": 6648,
    "Ġengin": 6649,
    "Ġpac": 6650,
    "Ġsyang": 6651,
    "ikan": 6652,
    "Ġretail": 6653,
    "Ġrefle": 6654,
    "eeeeee": 6655,
    "gram": 6656,
    "wards": 6657,
    "zzy": 6658,
    "Ġngeb": 6659,
    "ference": 6660,
    "Ġcontacted": 6661,
    "Ġshower": 6662,
    "from": 6663,
    "Ġberkali": 6664,
    "Ġautomatically": 6665,
    "sukaa": 6666,
    "missing": 6667,
    "Ġvacuum": 6668,
    "Ġbaguuus": 6669,
    "Ġeconomical": 6670,
    "cd": 6671,
    "dou": 6672,
    "iy": 6673,
    "pric": 6674,
    "sn": 6675,
    "va": 6676,
    "wan": 6677,
    "want": 6678,
    "erous": 6679,
    "Ġpang": 6680,
    "Ġbin": 6681,
    "Ġoct": 6682,
    "Ġcast": 6683,
    "Ġcya": 6684,
    "Ġwise": 6685,
    "Ġpray": 6686,
    "Ġee": 6687,
    "Ġek": 6688,
    "Ġirr": 6689,
    "Ġkemas": 6690,
    "Ġsells": 6691,
    "chers": 6692,
    "olved": 6693,
    "sters": 6694,
    "ids": 6695,
    "icate": 6696,
    "Ġexpet": 6697,
    "Ġdece": 6698,
    "Ġsabl": 6699,
    "Ġnews": 6700,
    "Ġgives": 6701,
    "tttttt": 6702,
    "Ġakh": 6703,
    "Ġflashsale": 6704,
    "Ġfortune": 6705,
    "Ġkyak": 6706,
    "Ġpadding": 6707,
    "Ġseneng": 6708,
    "Ġshows": 6709,
    "gede": 6710,
    "Ġbangeett": 6711,
    "Ġraising": 6712,
    "Ġwindow": 6713,
    "Ġtender": 6714,
    "Ġbandung": 6715,
    "crption": 6716,
    "Ġbolt": 6717,
    "Ġrusty": 6718,
    "Ġdisabilities": 6719,
    "much": 6720,
    "Ġgapernah": 6721,
    "Ġalcohol": 6722,
    "40": 6723,
    "fg": 6724,
    "ht": 6725,
    "nic": 6726,
    "xious": 6727,
    "Ġsedi": 6728,
    "Ġpelay": 6729,
    "Ġmang": 6730,
    "Ġreality": 6731,
    "Ġreorder": 6732,
    "charg": 6733,
    "Ġpackets": 6734,
    "Ġsudh": 6735,
    "Ġchamp": 6736,
    "Ġrush": 6737,
    "Ġacross": 6738,
    "Ġcans": 6739,
    "Ġpres": 6740,
    "Ġcobain": 6741,
    "Ġpercent": 6742,
    "Ġpace": 6743,
    "Ġkeb": 6744,
    "awl": 6745,
    "Ġsmpi": 6746,
    "Ġrele": 6747,
    "Ġprevent": 6748,
    "Ġleaky": 6749,
    "Ġstretched": 6750,
    "Ġntar": 6751,
    "ripsi": 6752,
    "badan": 6753,
    "Ġkeyboard": 6754,
    "Ġmiddling": 6755,
    "Ġinterested": 6756,
    "Ġpagkak": 6757,
    "Ġseparate": 6758,
    "Ġmelted": 6759,
    "Ġkurang": 6760,
    "Ġmoisturi": 6761,
    "Ġbublewrap": 6762,
    "Ġencounter": 6763,
    "Ġdibales": 6764,
    "Ġongkirnya": 6765,
    "Ġcramped": 6766,
    "dateng": 6767,
    "Ġyoutube": 6768,
    "19": 6769,
    "card": 6770,
    "du": 6771,
    "iat": 6772,
    "pad": 6773,
    "pick": 6774,
    "press": 6775,
    "sed": 6776,
    "ux": 6777,
    "vw": 6778,
    "Ġsr": 6779,
    "elah": 6780,
    "Ġgoo": 6781,
    "Ġbju": 6782,
    "Ġdare": 6783,
    "Ġmop": 6784,
    "Ġmiz": 6785,
    "ennya": 6786,
    "Ġndi": 6787,
    "Ġlaah": 6788,
    "Ġkali": 6789,
    "Ġrack": 6790,
    "Ġunresponsive": 6791,
    "Ġunopened": 6792,
    "Ġampe": 6793,
    "Ġnyam": 6794,
    "Ġspl": 6795,
    "Ġteruss": 6796,
    "Ġdrpd": 6797,
    "Ġcargo": 6798,
    "Ġsalamat": 6799,
    "Ġsalomon": 6800,
    "Ġpecah": 6801,
    "Ġbarok": 6802,
    "Ġclamp": 6803,
    "Ġclinch": 6804,
    "ppppp": 6805,
    "Ġdentist": 6806,
    "Ġincor": 6807,
    "Ġfunctions": 6808,
    "blue": 6809,
    "Ġkinds": 6810,
    "Ġsquee": 6811,
    "Ġentry": 6812,
    "Ġwave": 6813,
    "Ġindivid": 6814,
    "Ġlambat": 6815,
    "Ġpushing": 6816,
    "Ġultim": 6817,
    "Ġklau": 6818,
    "Ġkhim": 6819,
    "Ġtennis": 6820,
    "Ġflexed": 6821,
    "Ġshocked": 6822,
    "Ġtela": 6823,
    "Ġideal": 6824,
    "little": 6825,
    "Ġinshaallah": 6826,
    "Ġluxuri": 6827,
    "Ġsuddenly": 6828,
    "priced": 6829,
    "Ġsablon": 6830,
    "acious": 6831,
    "bok": 6832,
    "dj": 6833,
    "dll": 6834,
    "sound": 6835,
    "Ġtul": 6836,
    "Ġpum": 6837,
    "Ġmick": 6838,
    "eny": 6839,
    "enak": 6840,
    "Ġhan": 6841,
    "Ġanxious": 6842,
    "Ġshot": 6843,
    "Ġkenceng": 6844,
    "Ġurg": 6845,
    "Ġsmu": 6846,
    "Ġsuck": 6847,
    "Ġjan": 6848,
    "feel": 6849,
    "Ġexpire": 6850,
    "Ġhandsome": 6851,
    "Ġputting": 6852,
    "Ġsubmission": 6853,
    "Ġdesigned": 6854,
    "Ġhelped": 6855,
    "Ġcreamy": 6856,
    "Ġdistortion": 6857,
    "Ġpowerbank": 6858,
    "Ġntn": 6859,
    "affordable": 6860,
    "Ġduct": 6861,
    "Ġmalay": 6862,
    "Ġballs": 6863,
    "Ġsampee": 6864,
    "Ġprodak": 6865,
    "nnnnnnnnnnnnnnnn": 6866,
    "Ġapplications": 6867,
    "Ġfield": 6868,
    "Ġkitty": 6869,
    "sampai": 6870,
    "Ġdisabled": 6871,
    "Ġcontribute": 6872,
    "Ġmounted": 6873,
    "Ġsdkit": 6874,
    "Ġsauce": 6875,
    "Ġpigmented": 6876,
    "legit": 6877,
    "Ġstorage": 6878,
    "Ġmattress": 6879,
    "Ġclincher": 6880,
    "genuine": 6881,
    "port": 6882,
    "Ġtan": 6883,
    "Ġtend": 6884,
    "Ġgloves": 6885,
    "alk": 6886,
    "Ġbice": 6887,
    "Ġdense": 6888,
    "Ġcel": 6889,
    "Ġmr": 6890,
    "Ġmgk": 6891,
    "enced": 6892,
    "esh": 6893,
    "once": 6894,
    "Ġhh": 6895,
    "oup": 6896,
    "Ġstone": 6897,
    "aahh": 6898,
    "add": 6899,
    "imsy": 6900,
    "Ġsiii": 6901,
    "Ġsepat": 6902,
    "Ġdish": 6903,
    "Ġblouse": 6904,
    "Ġblamed": 6905,
    "Ġadmit": 6906,
    "ngan": 6907,
    "Ġnye": 6908,
    "packed": 6909,
    "been": 6910,
    "Ġdoesnt": 6911,
    "Ġdamages": 6912,
    "Ġknows": 6913,
    "Ġcustomerku": 6914,
    "Ġrolls": 6915,
    "izer": 6916,
    "annel": 6917,
    "mantapmantap": 6918,
    "parcel": 6919,
    "Ġgara": 6920,
    "Ġkeych": 6921,
    "minggu": 6922,
    "Ġdropship": 6923,
    "sesuai": 6924,
    "Ġpillows": 6925,
    "medical": 6926,
    "Ġseparated": 6927,
    "Ġfinishing": 6928,
    "Ġfrustrating": 6929,
    "subscription": 6930,
    "Ġrejected": 6931,
    "Ġconsultants": 6932,
    "Ġsketchy": 6933,
    "prompt": 6934,
    "Ġbiceps": 6935,
    "aing": 6936,
    "firm": 6937,
    "hn": 6938,
    "norm": 6939,
    "rin": 6940,
    "wel": 6941,
    "Ġtall": 6942,
    "ode": 6943,
    "Ġgim": 6944,
    "Ġbd": 6945,
    "Ġdom": 6946,
    "Ġdar": 6947,
    "Ġdjd": 6948,
    "Ġcation": 6949,
    "Ġcac": 6950,
    "Ġisn": 6951,
    "omi": 6952,
    "Ġreci": 6953,
    "Ġreco": 6954,
    "Ġshad": 6955,
    "rif": 6956,
    "rict": 6957,
    "Ġking": 6958,
    "Ġsellerr": 6959,
    "aster": 6960,
    "Ġinii": 6961,
    "Ġstall": 6962,
    "Ġfacial": 6963,
    "amin": 6964,
    "Ġneigh": 6965,
    "ores": 6966,
    "Ġconc": 6967,
    "Ġunload": 6968,
    "Ġtrain": 6969,
    "Ġtruck": 6970,
    "Ġtruth": 6971,
    "short": 6972,
    "Ġado": 6973,
    "ngiriman": 6974,
    "Ġbagussssss": 6975,
    "accept": 6976,
    "kkkkkk": 6977,
    "Ġwala": 6978,
    "arized": 6979,
    "plastic": 6980,
    "Ġ75": 6981,
    "Ġhrus": 6982,
    "Ġmustard": 6983,
    "Ġ03": 6984,
    "Ġ04": 6985,
    "hair": 6986,
    "Ġhimself": 6987,
    "Ġtapii": 6988,
    "Ġmissed": 6989,
    "Ġpowerful": 6990,
    "Ġbasket": 6991,
    "Ġchoices": 6992,
    "Ġsyukak": 6993,
    "Ġbanyakin": 6994,
    "cloth": 6995,
    "Ġshockproof": 6996,
    "Ġmistaken": 6997,
    "nznz": 6998,
    "Ġbisa": 6999,
    "carefully": 7000,
    "Ġdisinii": 7001,
    "Ġtailoring": 7002,
    "repeat": 7003,
    "Ġincorrect": 7004,
    "bng": 7005,
    "mah": 7006,
    "nan": 7007,
    "paper": 7008,
    "saf": 7009,
    "view": 7010,
    "oddy": 7011,
    "Ġach": 7012,
    "init": 7013,
    "Ġbend": 7014,
    "Ġmali": 7015,
    "atively": 7016,
    "Ġquota": 7017,
    "arm": 7018,
    "Ġtown": 7019,
    "pekt": 7020,
    "Ġkeli": 7021,
    "Ġbecame": 7022,
    "Ġalto": 7023,
    "ulate": 7024,
    "endar": 7025,
    "Ġsoo": 7026,
    "Ġwhit": 7027,
    "under": 7028,
    "orem": 7029,
    "Ġunsatisfactory": 7030,
    "Ġunilever": 7031,
    "Ġdiscomfort": 7032,
    "Ġblush": 7033,
    "Ġdiapers": 7034,
    "commodity": 7035,
    "Ġusd": 7036,
    "Ġplis": 7037,
    "isted": 7038,
    "Ġflimsy": 7039,
    "Ġteam": 7040,
    "Ġsciss": 7041,
    "Ġdeliveries": 7042,
    "both": 7043,
    "Ġ62": 7044,
    "Ġ63": 7045,
    "shipped": 7046,
    "Ġsquare": 7047,
    "Ġpolarized": 7048,
    "Ġpokoknyaa": 7049,
    "Ġukur": 7050,
    "Ġcanti": 7051,
    "Ġfactory": 7052,
    "Ġpalm": 7053,
    "Ġinvoice": 7054,
    "Ġmedic": 7055,
    "Ġappears": 7056,
    "terima": 7057,
    "Ġblocked": 7058,
    "Ġexception": 7059,
    "Ġdico": 7060,
    "Ġvibr": 7061,
    "Ġcharacters": 7062,
    "Ġcrispy": 7063,
    "Ġathletic": 7064,
    "bv": 7065,
    "mint": 7066,
    "Ġtai": 7067,
    "Ġfoto": 7068,
    "Ġcaps": 7069,
    "Ġcaught": 7070,
    "ceed": 7071,
    "ilbab": 7072,
    "Ġshin": 7073,
    "cha": 7074,
    "chang": 7075,
    "Ġfastest": 7076,
    "olf": 7077,
    "Ġvoi": 7078,
    "sport": 7079,
    "Ġshift": 7080,
    "okan": 7081,
    "urang": 7082,
    "prod": 7083,
    "produ": 7084,
    "ffff": 7085,
    "Ġdisappe": 7086,
    "terrible": 7087,
    "Ġads": 7088,
    "Ġskrng": 7089,
    "enger": 7090,
    "Ġgroup": 7091,
    "Ġrider": 7092,
    "leted": 7093,
    "istic": 7094,
    "Ġmantuul": 7095,
    "Ġflour": 7096,
    "jaja": 7097,
    "Ġgojek": 7098,
    "Ġsalty": 7099,
    "Ġchecks": 7100,
    "Ġluon": 7101,
    "Ġreser": 7102,
    "Ġresellers": 7103,
    "Ġemang": 7104,
    "Ġemng": 7105,
    "Ġsooner": 7106,
    "Ġregister": 7107,
    "Ġrestock": 7108,
    "rrr": 7109,
    "Ġharm": 7110,
    "Ġmakasihhh": 7111,
    "Ġbelong": 7112,
    "Ġresponding": 7113,
    "Ġindicated": 7114,
    "mbol": 7115,
    "Ġkaya": 7116,
    "Ġclosely": 7117,
    "Ġstretchable": 7118,
    "Ġwatches": 7119,
    "smaller": 7120,
    "Ġimprovement": 7121,
    "Ġhonestly": 7122,
    "Ġinflu": 7123,
    "Ġsurprising": 7124,
    "hhhhhhhhhhhhhhhhhhhhhhhhhhhhhhhh": 7125,
    "iries": 7126,
    "xxxxxxxx": 7127,
    "Ġfrequently": 7128,
    "Ġprepare": 7129,
    "Ġdecoration": 7130,
    "Ġassemble": 7131,
    "Ġrepeatedly": 7132,
    "Ġjersey": 7133,
    "Ġcrooked": 7134,
    "Ġnareceive": 7135,
    "Ġsearch": 7136,
    "aas": 7137,
    "give": 7138,
    "jos": 7139,
    "kasi": 7140,
    "lama": 7141,
    "oom": 7142,
    "alog": 7143,
    "Ġdot": 7144,
    "Ġmim": 7145,
    "asuka": 7146,
    "quis": 7147,
    "Ġreed": 7148,
    "rib": 7149,
    "Ġih": 7150,
    "Ġalus": 7151,
    "Ġaltern": 7152,
    "Ġviv": 7153,
    "ahin": 7154,
    "emp": 7155,
    "empor": 7156,
    "Ġrisk": 7157,
    "anter": 7158,
    "Ġtru": 7159,
    "Ġnoisy": 7160,
    "Ġworst": 7161,
    "ateful": 7162,
    "Ġmejo": 7163,
    "Ġprec": 7164,
    "Ġspots": 7165,
    "Ġ48": 7166,
    "Ġknowing": 7167,
    "Ġapplied": 7168,
    "Ġsweater": 7169,
    "Ġweekend": 7170,
    "Ġpaying": 7171,
    "Ġpubl": 7172,
    "Ġstocks": 7173,
    "blm": 7174,
    "Ġmarch": 7175,
    "Ġremedy": 7176,
    "Ġqc": 7177,
    "baek": 7178,
    "Ġlngsung": 7179,
    "Ġhousehold": 7180,
    "Ġyahh": 7181,
    "Ġswim": 7182,
    "nxnx": 7183,
    "Ġobject": 7184,
    "Ġpalace": 7185,
    "Ġsleeping": 7186,
    "Ġbulky": 7187,
    "Ġgreasy": 7188,
    "Ġsloppy": 7189,
    "uuuuuuuuuuuuuuuuuuuuuuuuuuuuuuuu": 7190,
    "Ġsnugly": 7191,
    "Ġcombination": 7192,
    "Ġrecieve": 7193,
    "Ġtiles": 7194,
    "Ġbnr": 7195,
    "Ġtrees": 7196,
    "Ġactivities": 7197,
    "Ġdeceiving": 7198,
    "Ġpreparation": 7199,
    "Ġnoodles": 7200,
    "Ġscuffed": 7201,
    "Ġconstraints": 7202,
    "Ġneighb": 7203,
    "certain": 7204,
    "gat": 7205,
    "jl": 7206,
    "jjd": 7207,
    "lang": 7208,
    "pak": 7209,
    "uary": 7210,
    "vable": 7211,
    "vular": 7212,
    "yang": 7213,
    "inh": 7214,
    "aling": 7215,
    "Ġosh": 7216,
    "isan": 7217,
    "Ġdream": 7218,
    "Ġtoko": 7219,
    "Ġease": 7220,
    "ental": 7221,
    "ented": 7222,
    "Ġfav": 7223,
    "Ġyouuu": 7224,
    "Ġresponses": 7225,
    "okk": 7226,
    "iry": 7227,
    "Ġloyal": 7228,
    "Ġdeket": 7229,
    "Ġproof": 7230,
    "faster": 7231,
    "Ġovernight": 7232,
    "engiriman": 7233,
    "Ġgrade": 7234,
    "nyaaa": 7235,
    "Ġabal": 7236,
    "Ġknock": 7237,
    "Ġmoved": 7238,
    "Ġtebal": 7239,
    "finitely": 7240,
    "brush": 7241,
    "Ġsukaaaaaa": 7242,
    "upas": 7243,
    "nothing": 7244,
    "Ġpostal": 7245,
    "Ġmostly": 7246,
    "Ġinternet": 7247,
    "hehehe": 7248,
    "packagingnya": 7249,
    "Ġtalking": 7250,
    "Ġequip": 7251,
    "jxjx": 7252,
    "Ġtrails": 7253,
    "Ġhargalah": 7254,
    "Ġstreet": 7255,
    "frag": 7256,
    "front": 7257,
    "arriving": 7258,
    "Ġblem": 7259,
    "Ġspecified": 7260,
    "Ġboleh": 7261,
    "Ġbenefits": 7262,
    "Ġjazak": 7263,
    "excelent": 7264,
    "Ġkurir": 7265,
    "Ġcepaat": 7266,
    "Ġpadahal": 7267,
    "Ġmajor": 7268,
    "hour": 7269,
    "mak": 7270,
    "nyesel": 7271,
    "pu": 7272,
    "rass": 7273,
    "Ġay": 7274,
    "Ġdad": 7275,
    "annn": 7276,
    "Ġmama": 7277,
    "Ġhm": 7278,
    "Ġlaw": 7279,
    "Ġea": 7280,
    "Ġkill": 7281,
    "ula": 7282,
    "apon": 7283,
    "ahi": 7284,
    "urance": 7285,
    "stuff": 7286,
    "unate": 7287,
    "Ġras": 7288,
    "antage": 7289,
    "Ġuns": 7290,
    "Ġsiya": 7291,
    "Ġshoping": 7292,
    "Ġdibadan": 7293,
    "Ġprosp": 7294,
    "Ġoverpriced": 7295,
    "Ġskli": 7296,
    "ksk": 7297,
    "Ġgrat": 7298,
    "Ġexpires": 7299,
    "istles": 7300,
    "Ġmessy": 7301,
    "Ġfluff": 7302,
    "Ġkej": 7303,
    "Ġhade": 7304,
    "aaaaaaaaaaa": 7305,
    "ungent": 7306,
    "bagusbagus": 7307,
    "Ġtrigger": 7308,
    "Ġhub": 7309,
    "grown": 7310,
    "Ġbahannya": 7311,
    "Ġpatience": 7312,
    "Ġdhl": 7313,
    "Ġdried": 7314,
    "Ġdistribut": 7315,
    "Ġgapap": 7316,
    "Ġcasenya": 7317,
    "Ġrubb": 7318,
    "Ġpala": 7319,
    "Ġenglish": 7320,
    "Ġrapet": 7321,
    "kkkkkkkkkkkkkkkkkkkkkkkkkkkkkkkk": 7322,
    "Ġauto": 7323,
    "Ġdevices": 7324,
    "Ġdiameter": 7325,
    "alhamdulillaah": 7326,
    "Ġcooperation": 7327,
    "Ġcurtain": 7328,
    "Ġwipes": 7329,
    "Ġadapter": 7330,
    "Ġhttps": 7331,
    "Ġdeliberately": 7332,
    "Ġchampion": 7333,
    "Ġaltogether": 7334,
    "Ġequipment": 7335,
    "22": 7336,
    "39": 7337,
    "cont": 7338,
    "cara": 7339,
    "dtg": 7340,
    "gus": 7341,
    "kes": 7342,
    "ksh": 7343,
    "ped": 7344,
    "qw": 7345,
    "vz": 7346,
    "Ġsong": 7347,
    "Ġtg": 7348,
    "Ġpale": 7349,
    "Ġthnk": 7350,
    "Ġdir": 7351,
    "Ġdua": 7352,
    "Ġcab": 7353,
    "Ġcoun": 7354,
    "Ġccok": 7355,
    "Ġprim": 7356,
    "Ġhunting": 7357,
    "Ġiship": 7358,
    "aries": 7359,
    "Ġane": 7360,
    "ayy": 7361,
    "sett": 7362,
    "Ġrup": 7363,
    "Ġundamaged": 7364,
    "Ġuneven": 7365,
    "Ġdehhh": 7366,
    "Ġcoarse": 7367,
    "Ġcompat": 7368,
    "Ġsecret": 7369,
    "Ġsymbol": 7370,
    "Ġkekecil": 7371,
    "000": 7372,
    "bbd": 7373,
    "Ġposts": 7374,
    "okey": 7375,
    "ugly": 7376,
    "uhun": 7377,
    "gtly": 7378,
    "Ġ120": 7379,
    "luck": 7380,
    "Ġslh": 7381,
    "Ġpads": 7382,
    "bagussbaguss": 7383,
    "Ġbatre": 7384,
    "Ġajah": 7385,
    "Ġukuran": 7386,
    "Ġsangatt": 7387,
    "Ġmotifs": 7388,
    "umpah": 7389,
    "Ġsyukaa": 7390,
    "Ġlisten": 7391,
    "secure": 7392,
    "Ġ5555": 7393,
    "Ġhorns": 7394,
    "Ġexplan": 7395,
    "Ġallowed": 7396,
    "Ġtidak": 7397,
    "Ġmnta": 7398,
    "Ġcircumference": 7399,
    "Ġoccas": 7400,
    "Ġgradually": 7401,
    "gd": 7402,
    "hard": 7403,
    "jel": 7404,
    "jan": 7405,
    "jsh": 7406,
    "mot": 7407,
    "vh": 7408,
    "vest": 7409,
    "yi": 7410,
    "Ġts": 7411,
    "Ġpics": 7412,
    "innya": 7413,
    "Ġgit": 7414,
    "resh": 7415,
    "Ġpron": 7416,
    "Ġnxt": 7417,
    "Ġnimb": 7418,
    "ati": 7419,
    "Ġsto": 7420,
    "Ġvo": 7421,
    "Ġjaya": 7422,
    "Ġjadi": 7423,
    "Ġrates": 7424,
    "iron": 7425,
    "Ġtrc": 7426,
    "Ġchew": 7427,
    "loc": 7428,
    "lock": 7429,
    "Ġbristles": 7430,
    "pers": 7431,
    "igent": 7432,
    "Ġoutgrown": 7433,
    "ihin": 7434,
    "aret": 7435,
    "Ġgrateful": 7436,
    "Ġspo": 7437,
    "Ġhappen": 7438,
    "mmm": 7439,
    "undry": 7440,
    "Ġcoup": 7441,
    "Ġprovider": 7442,
    "Ġhardly": 7443,
    "smile": 7444,
    "plus": 7445,
    "Ġsadly": 7446,
    "Ġmana": 7447,
    "Ġadminnya": 7448,
    "Ġnagrereply": 7449,
    "Ġerrors": 7450,
    "Ġbenar": 7451,
    "Ġmeticulous": 7452,
    "Ġpengirimn": 7453,
    "Ġrapihh": 7454,
    "quickly": 7455,
    "Ġpemb": 7456,
    "Ġportable": 7457,
    "Ġtracking": 7458,
    "scar": 7459,
    "Ġknees": 7460,
    "Ġconcern": 7461,
    "Ġpedes": 7462,
    "Ġkorea": 7463,
    "Ġgloss": 7464,
    "relatively": 7465,
    "Ġcrowded": 7466,
    "Ġnegligee": 7467,
    "Ġpelayanan": 7468,
    "Ġmizuno": 7469,
    "Ġmickey": 7470,
    "subscriptions": 7471,
    "Ġcacat": 7472,
    "Ġunloading": 7473,
    "Ġoshawa": 7474,
    "aq": 7475,
    "ban": 7476,
    "fot": 7477,
    "gw": 7478,
    "mf": 7479,
    "tion": 7480,
    "warp": 7481,
    "xg": 7482,
    "Ġpap": 7483,
    "inal": 7484,
    "inci": 7485,
    "iting": 7486,
    "Ġbaa": 7487,
    "Ġoily": 7488,
    "Ġcok": 7489,
    "Ġnka": 7490,
    "Ġnikes": 7491,
    "atable": 7492,
    "Ġeight": 7493,
    "Ġshut": 7494,
    "usion": 7495,
    "Ġyas": 7496,
    "Ġyak": 7497,
    "agal": 7498,
    "Ġshoope": 7499,
    "Ġvit": 7500,
    "Ġjad": 7501,
    "Ġrus": 7502,
    "Ġunus": 7503,
    "Ġpreser": 7504,
    "opes": 7505,
    "ational": 7506,
    "Ġbaget": 7507,
    "Ġuntuk": 7508,
    "aren": 7509,
    "Ġoverlay": 7510,
    "Ġlebih": 7511,
    "Ġterjangkau": 7512,
    "Ġsuits": 7513,
    "Ġdrill": 7514,
    "Ġflushed": 7515,
    "Ġstru": 7516,
    "Ġmoving": 7517,
    "Ġteach": 7518,
    "Ġhappened": 7519,
    "sssssss": 7520,
    "Ġtrick": 7521,
    "aship": 7522,
    "true": 7523,
    "smp": 7524,
    "itchen": 7525,
    "Ġpuzz": 7526,
    "Ġlaundry": 7527,
    "Ġthankyouu": 7528,
    "Ġbreast": 7529,
    "Ġplayed": 7530,
    "kyu": 7531,
    "pesennya": 7532,
    "Ġyea": 7533,
    "Ġconnected": 7534,
    "Ġtouched": 7535,
    "Ġconstant": 7536,
    "Ġconstruction": 7537,
    "Ġbroad": 7538,
    "sempet": 7539,
    "clear": 7540,
    "Ġlocation": 7541,
    "Ġtrnyta": 7542,
    "Ġrotten": 7543,
    "mmmmmmmmmmmmmmmm": 7544,
    "wwwwwwww": 7545,
    "Ġmanufactur": 7546,
    "housekeeping": 7547,
    "kualitas": 7548,
    "Ġbanality": 7549,
    "Ġcomparable": 7550,
    "Ġlmyan": 7551,
    "Ġextras": 7552,
    "Ġexercise": 7553,
    "Ġblemish": 7554,
    "44": 7555,
    "date": 7556,
    "fine": 7557,
    "hy": 7558,
    "ipped": 7559,
    "jn": 7560,
    "jjs": 7561,
    "lon": 7562,
    "lalu": 7563,
    "mnt": 7564,
    "ram": 7565,
    "sell": 7566,
    "uin": 7567,
    "oder": 7568,
    "Ġaqu": 7569,
    "Ġpungent": 7570,
    "iner": 7571,
    "Ġthnks": 7572,
    "alnya": 7573,
    "Ġbold": 7574,
    "ato": 7575,
    "Ġhari": 7576,
    "arch": 7577,
    "Ġkcewa": 7578,
    "Ġalot": 7579,
    "Ġfaith": 7580,
    "sek": 7581,
    "Ġsump": 7582,
    "Ġvote": 7583,
    "ahank": 7584,
    "empty": 7585,
    "Ġokokokokokokokokok": 7586,
    "ura": 7587,
    "unused": 7588,
    "Ġrg": 7589,
    "Ġlope": 7590,
    "Ġblg": 7591,
    "shopee": 7592,
    "Ġadek": 7593,
    "Ġstarting": 7594,
    "Ġnewsp": 7595,
    "Ġgrain": 7596,
    "Ġdrinking": 7597,
    "ival": 7598,
    "Ġbackpack": 7599,
    "nded": 7600,
    "Ġglued": 7601,
    "Ġconfident": 7602,
    "Ġkeeps": 7603,
    "Ġeaten": 7604,
    "yees": 7605,
    "kaka": 7606,
    "Ġfallen": 7607,
    "Ġends": 7608,
    "Ġnagdeliver": 7609,
    "Ġdifferences": 7610,
    "Ġbrushes": 7611,
    "Ġ160": 7612,
    "Ġ250": 7613,
    "Ġconvenience": 7614,
    "Ġsista": 7615,
    "Ġblister": 7616,
    "Ġdeduct": 7617,
    "pengiriman": 7618,
    "Ġjaitannya": 7619,
    "Ġbangeeeet": 7620,
    "Ġnails": 7621,
    "Ġfalse": 7622,
    "vvvvvvvv": 7623,
    "Ġalhamdulilah": 7624,
    "Ġprepared": 7625,
    "Ġttep": 7626,
    "jamas": 7627,
    "Ġnecessary": 7628,
    "Ġbudget": 7629,
    "Ġdeserve": 7630,
    "Ġpearl": 7631,
    "Ġlatest": 7632,
    "Ġpaneled": 7633,
    "Ġmalaysia": 7634,
    "Ġshadow": 7635,
    "initially": 7636,
    "Ġscissors": 7637,
    "67": 7638,
    "gf": 7639,
    "tes": 7640,
    "tot": 7641,
    "Ġtub": 7642,
    "Ġtsk": 7643,
    "ites": 7644,
    "Ġganti": 7645,
    "Ġfellow": 7646,
    "islike": 7647,
    "Ġwifi": 7648,
    "Ġmut": 7649,
    "Ġehh": 7650,
    "Ġshr": 7651,
    "lead": 7652,
    "Ġorth": 7653,
    "Ġvalorem": 7654,
    "stal": 7655,
    "Ġraya": 7656,
    "ttq": 7657,
    "Ġseats": 7658,
    "Ġexam": 7659,
    "Ġcheated": 7660,
    "Ġbroo": 7661,
    "Ġsky": 7662,
    "Ġdesire": 7663,
    "Ġjgk": 7664,
    "Ġpeking": 7665,
    "Ġpengirm": 7666,
    "packingan": 7667,
    "Ġlagiii": 7668,
    "Ġcourte": 7669,
    "Ġakuu": 7670,
    "Ġdikit": 7671,
    "izing": 7672,
    "Ġdepleted": 7673,
    "Ġreading": 7674,
    "Ġlumyan": 7675,
    "Ġpainful": 7676,
    "Ġlinings": 7677,
    "Ġprints": 7678,
    "Ġimagin": 7679,
    "close": 7680,
    "Ġlemon": 7681,
    "Ġcircle": 7682,
    "Ġstripes": 7683,
    "pppppppppppppppppppppppppppppppp": 7684,
    "Ġtdak": 7685,
    "Ġconcerned": 7686,
    "Ġlearn": 7687,
    "murah": 7688,
    "Ġteeth": 7689,
    "Ġdeformed": 7690,
    "Ġunboxing": 7691,
    "Ġreflect": 7692,
    "Ġnimbus": 7693,
    "cuc": 7694,
    "ganda": 7695,
    "mayan": 7696,
    "mksih": 7697,
    "pens": 7698,
    "Ġgda": 7699,
    "Ġbell": 7700,
    "eday": 7701,
    "Ġment": 7702,
    "Ġhem": 7703,
    "Ġhdf": 7704,
    "Ġlar": 7705,
    "those": 7706,
    "Ġinsp": 7707,
    "Ġbecomes": 7708,
    "uled": 7709,
    "Ġjump": 7710,
    "api": 7711,
    "Ġwasn": 7712,
    "Ġconcl": 7713,
    "Ġsiip": 7714,
    "Ġdozen": 7715,
    "Ġfro": 7716,
    "Ġimut": 7717,
    "Ġheav": 7718,
    "Ġcosm": 7719,
    "Ġato": 7720,
    "Ġmoreover": 7721,
    "Ġsubscrption": 7722,
    "Ġrid": 7723,
    "deliery": 7724,
    "beauty": 7725,
    "Ġjogging": 7726,
    "Ġpassed": 7727,
    "Ġunderwear": 7728,
    "Ġearphone": 7729,
    "rency": 7730,
    "post": 7731,
    "mina": 7732,
    "Ġbarangnyaa": 7733,
    "Ġfunctional": 7734,
    "sellernya": 7735,
    "Ġ110": 7736,
    "Ġthoughtful": 7737,
    "Ġdikirm": 7738,
    "Ġentered": 7739,
    "Ġcattle": 7740,
    "Ġkidding": 7741,
    "Ġbatik": 7742,
    "going": 7743,
    "Ġrugged": 7744,
    "Ġdkrm": 7745,
    "Ġditerima": 7746,
    "Ġdelays": 7747,
    "Ġ2018": 7748,
    "batory": 7749,
    "Ġpakenya": 7750,
    "Ġgreet": 7751,
    "Ġmicro": 7752,
    "Ġscrews": 7753,
    "Ġpromptly": 7754,
    "Ġtowels": 7755,
    "Ġtuker": 7756,
    "Ġsnacks": 7757,
    "alhamdlillah": 7758,
    "Ġcompatible": 7759,
    "Ġexplanation": 7760,
    "Ġcourteous": 7761,
    "Ġimaginable": 7762,
    "bak": 7763,
    "gas": 7764,
    "large": 7765,
    "ring": 7766,
    "sau": 7767,
    "vk": 7768,
    "Ġtum": 7769,
    "Ġpins": 7770,
    "Ġboring": 7771,
    "Ġfight": 7772,
    "Ġdpet": 7773,
    "Ġdrying": 7774,
    "Ġcus": 7775,
    "Ġwil": 7776,
    "Ġwild": 7777,
    "Ġmlh": 7778,
    "Ġhag": 7779,
    "Ġln": 7780,
    "Ġkitchen": 7781,
    "Ġyaaaaa": 7782,
    "Ġjilbab": 7783,
    "apai": 7784,
    "Ġokk": 7785,
    "Ġconv": 7786,
    "Ġsick": 7787,
    "Ġpole": 7788,
    "Ġpropos": 7789,
    "abal": 7790,
    "Ġstupid": 7791,
    "Ġspand": 7792,
    "Ġsports": 7793,
    "Ġcuts": 7794,
    "Ġbanged": 7795,
    "Ġappoint": 7796,
    "Ġflatter": 7797,
    "aikum": 7798,
    "responsible": 7799,
    "Ġcareless": 7800,
    "Ġintended": 7801,
    "uuuuuus": 7802,
    "Ġbarakallah": 7803,
    "Ġcheckout": 7804,
    "Ġmascara": 7805,
    "rete": 7806,
    "okeoke": 7807,
    "Ġearphones": 7808,
    "Ġblessed": 7809,
    "Ġharvest": 7810,
    "Ġslamat": 7811,
    "Ġtui": 7812,
    "Ġdikasih": 7813,
    "reme": 7814,
    "Ġmagn": 7815,
    "Ġlengkap": 7816,
    "Ġsgtu": 7817,
    "Ġpalms": 7818,
    "hmhm": 7819,
    "Ġbiasa": 7820,
    "Ġdkrim": 7821,
    "Ġspeakers": 7822,
    "Ġmeeting": 7823,
    "Ġwheels": 7824,
    "Ġboyfriend": 7825,
    "Ġportion": 7826,
    "Ġlenses": 7827,
    "Ġnonetheless": 7828,
    "Ġterimakasihh": 7829,
    "Ġmaap": 7830,
    "Ġnetwork": 7831,
    "Ġlanding": 7832,
    "Ġmentioned": 7833,
    "Ġcashback": 7834,
    "Ġvendors": 7835,
    "Ġsblum": 7836,
    "flower": 7837,
    "Ġensure": 7838,
    "Ġurgent": 7839,
    "Ġmedicine": 7840,
    "Ġsurprisingly": 7841,
    "scarf": 7842,
    "cles": 7843,
    "down": 7844,
    "fgh": 7845,
    "fant": 7846,
    "fungsi": 7847,
    "kdk": 7848,
    "sis": 7849,
    "since": 7850,
    "zer": 7851,
    "Ġeli": 7852,
    "Ġtm": 7853,
    "Ġpom": 7854,
    "elalu": 7855,
    "Ġgant": 7856,
    "Ġmush": 7857,
    "Ġnu": 7858,
    "Ġhah": 7859,
    "aser": 7860,
    "Ġly": 7861,
    "Ġquer": 7862,
    "utan": 7863,
    "Ġig": 7864,
    "Ġkah": 7865,
    "Ġpricey": 7866,
    "Ġsuns": 7867,
    "Ġjat": 7868,
    "Ġjud": 7869,
    "Ġjelly": 7870,
    "illed": 7871,
    "Ġsooo": 7872,
    "Ġbuanget": 7873,
    "sos": 7874,
    "Ġhav": 7875,
    "Ġagree": 7876,
    "Ġdisability": 7877,
    "Ġbrp": 7878,
    "Ġdizzy": 7879,
    "Ġgreater": 7880,
    "Ġyach": 7881,
    "rima": 7882,
    "nyamp": 7883,
    "Ġ49": 7884,
    "Ġweb": 7885,
    "supp": 7886,
    "cik": 7887,
    "Ġmessenger": 7888,
    "Ġstring": 7889,
    "Ġbarely": 7890,
    "ullah": 7891,
    "Ġhug": 7892,
    "eph": 7893,
    "Ġ65": 7894,
    "roid": 7895,
    "Ġpeny": 7896,
    "Ġpenny": 7897,
    "zzz": 7898,
    "Ġsolve": 7899,
    "Ġbsk": 7900,
    "Ġslick": 7901,
    "Ġtesting": 7902,
    "Ġscrub": 7903,
    "Ġmilo": 7904,
    "Ġgenerous": 7905,
    "Ġdeals": 7906,
    "jdjdjd": 7907,
    "skirt": 7908,
    "Ġnicer": 7909,
    "Ġcolours": 7910,
    "Ġsched": 7911,
    "Ġmakasiih": 7912,
    "Ġpakai": 7913,
    "Ġnyoba": 7914,
    "Ġharganya": 7915,
    "bxbx": 7916,
    "function": 7917,
    "Ġrocks": 7918,
    "Ġmbk": 7919,
    "Ġinserts": 7920,
    "ssssssssssssssssssssssssssssssss": 7921,
    "books": 7922,
    "bbbbbbbb": 7923,
    "Ġhgaaa": 7924,
    "Ġkesel": 7925,
    "Ġlucuu": 7926,
    "Ġfriedly": 7927,
    "Ġckup": 7928,
    "Ġassembled": 7929,
    "Ġkilo": 7930,
    "Ġrewarding": 7931,
    "Ġsavory": 7932,
    "Ġtitle": 7933,
    "Ġfeatures": 7934,
    "fotable": 7935,
    "bj": 7936,
    "dress": 7937,
    "hell": 7938,
    "kir": 7939,
    "klo": 7940,
    "lic": 7941,
    "landed": 7942,
    "lilah": 7943,
    "mash": 7944,
    "Ġsulit": 7945,
    "Ġaz": 7946,
    "Ġaud": 7947,
    "Ġaustria": 7948,
    "inc": 7949,
    "Ġge": 7950,
    "Ġgri": 7951,
    "isinya": 7952,
    "Ġcub": 7953,
    "Ġwat": 7954,
    "ano": 7955,
    "icepat": 7956,
    "arnya": 7957,
    "uses": 7958,
    "ley": 7959,
    "riers": 7960,
    "Ġuw": 7961,
    "ulated": 7962,
    "adv": 7963,
    "aku": 7964,
    "iration": 7965,
    "Ġareas": 7966,
    "Ġtray": 7967,
    "Ġdishes": 7968,
    "Ġdiaper": 7969,
    "iihh": 7970,
    "Ġanyways": 7971,
    "Ġuses": 7972,
    "Ġimmac": 7973,
    "Ġgoal": 7974,
    "boss": 7975,
    "Ġokeeee": 7976,
    "smell": 7977,
    "Ġbonuses": 7978,
    "Ġmkasi": 7979,
    "uhuh": 7980,
    "Ġ85": 7981,
    "Ġlaen": 7982,
    "Ġbalm": 7983,
    "Ġlangu": 7984,
    "izes": 7985,
    "Ġkerdus": 7986,
    "Ġcatalog": 7987,
    "Ġodd": 7988,
    "Ġpngirim": 7989,
    "Ġulit": 7990,
    "Ġpressed": 7991,
    "Ġoversea": 7992,
    "Ġarches": 7993,
    "Ġcartoon": 7994,
    "Ġpotent": 7995,
    "Ġchanges": 7996,
    "Ġbulb": 7997,
    "Ġlocker": 7998,
    "Ġstainless": 7999,
    "Ġpeeled": 8000,
    "Ġcompete": 8001,
    "Ġsekaliii": 8002,
    "Ġdeadline": 8003,
    "pengirim": 8004,
    "Ġessential": 8005,
    "Ġbiscu": 8006,
    "Ġmaaf": 8007,
    "Ġdisplayed": 8008,
    "Ġmngkin": 8009,
    "Ġlmbat": 8010,
    "Ġmksi": 8011,
    "Ġtraders": 8012,
    "transport": 8013,
    "rekomended": 8014,
    "Ġemployees": 8015,
    "sequently": 8016,
    "Ġengine": 8017,
    "Ġadopted": 8018,
    "Ġplisket": 8019,
    "bbs": 8020,
    "born": 8021,
    "cid": 8022,
    "creen": 8023,
    "dt": 8024,
    "fi": 8025,
    "fs": 8026,
    "gak": 8027,
    "iency": 8028,
    "last": 8029,
    "midd": 8030,
    "sad": 8031,
    "ukk": 8032,
    "yah": 8033,
    "Ġast": 8034,
    "Ġbelly": 8035,
    "rett": 8036,
    "Ġopt": 8037,
    "Ġcx": 8038,
    "Ġwag": 8039,
    "Ġmung": 8040,
    "orous": 8041,
    "quired": 8042,
    "Ġreapon": 8043,
    "usan": 8044,
    "adding": 8045,
    "Ġjkt": 8046,
    "akn": 8047,
    "Ġokokok": 8048,
    "Ġchair": 8049,
    "Ġrin": 8050,
    "Ġrom": 8051,
    "Ġcomfotable": 8052,
    "Ġasli": 8053,
    "Ġunable": 8054,
    "comend": 8055,
    "Ġdogs": 8056,
    "Ġblow": 8057,
    "Ġboys": 8058,
    "Ġpregn": 8059,
    "abaya": 8060,
    "Ġnyaaa": 8061,
    "Ġreplied": 8062,
    "Ġspart": 8063,
    "Ġpajamas": 8064,
    "Ġdiffrent": 8065,
    "Ġbangettttttttt": 8066,
    "Ġjoin": 8067,
    "Ġblackhead": 8068,
    "Ġcrop": 8069,
    "Ġcars": 8070,
    "kkkkkkk": 8071,
    "Ġhighlight": 8072,
    "Ġembar": 8073,
    "Ġharder": 8074,
    "Ġslot": 8075,
    "Ġdealer": 8076,
    "Ġexcuse": 8077,
    "Ġdtgnya": 8078,
    "Ġlamaaaa": 8079,
    "Ġdeter": 8080,
    "Ġpolish": 8081,
    "Ġcurrency": 8082,
    "Ġfoundation": 8083,
    "Ġbhannya": 8084,
    "Ġstands": 8085,
    "Ġkasihh": 8086,
    "Ġbanyakk": 8087,
    "Ġchanging": 8088,
    "Ġsekaliiii": 8089,
    "shirts": 8090,
    "hadow": 8091,
    "Ġseparately": 8092,
    "Ġevaluate": 8093,
    "Ġarticle": 8094,
    "Ġfingers": 8095,
    "Ġabsorbent": 8096,
    "Ġpantas": 8097,
    "foot": 8098,
    "Ġadults": 8099,
    "umben": 8100,
    "Ġcrisp": 8101,
    "Ġintroduce": 8102,
    "Ġkorean": 8103,
    "Ġstrawberry": 8104,
    "Ġbajunya": 8105,
    "misdirected": 8106,
    "Ġchips": 8107,
    "Ġcredit": 8108,
    "iatas": 8109,
    "Ġconcrete": 8110,
    "safely": 8111,
    "Ġbelongings": 8112,
    "Ġqueries": 8113,
    "Ġspartan": 8114,
    "ault": 8115,
    "bali": 8116,
    "cap": 8117,
    "creat": 8118,
    "cream": 8119,
    "part": 8120,
    "zy": 8121,
    "eric": 8122,
    "Ġpere": 8123,
    "inst": 8124,
    "althy": 8125,
    "Ġbj": 8126,
    "Ġdol": 8127,
    "Ġcd": 8128,
    "Ġcuk": 8129,
    "anx": 8130,
    "Ġnom": 8131,
    "Ġnanti": 8132,
    "atnya": 8133,
    "Ġhn": 8134,
    "asure": 8135,
    "asics": 8136,
    "Ġrese": 8137,
    "Ġreaction": 8138,
    "Ġtoil": 8139,
    "Ġeks": 8140,
    "Ġshawl": 8141,
    "entious": 8142,
    "Ġki": 8143,
    "Ġkun": 8144,
    "Ġkard": 8145,
    "Ġnotification": 8146,
    "Ġbeware": 8147,
    "Ġbutt": 8148,
    "chan": 8149,
    "Ġsuction": 8150,
    "Ġjava": 8151,
    "Ġsooooo": 8152,
    "alloh": 8153,
    "Ġasl": 8154,
    "Ġaccomp": 8155,
    "Ġblood": 8156,
    "Ġnobody": 8157,
    "should": 8158,
    "abarin": 8159,
    "Ġamong": 8160,
    "Ġsupermarket": 8161,
    "Ġripped": 8162,
    "Ġbangkok": 8163,
    "before": 8164,
    "Ġimmediate": 8165,
    "Ġbagusssssssss": 8166,
    "aaaaaaaaaaaaa": 8167,
    "Ġintell": 8168,
    "mmg": 8169,
    "Ġclar": 8170,
    "Ġselal": 8171,
    "Ġzany": 8172,
    "Ġsubject": 8173,
    "Ġsurabaya": 8174,
    "Ġcrease": 8175,
    "Ġmarath": 8176,
    "Ġdapetnya": 8177,
    "hhhhhhhhh": 8178,
    "Ġhosp": 8179,
    "Ġstyles": 8180,
    "Ġawett": 8181,
    "Ġproduced": 8182,
    "Ġextreme": 8183,
    "Ġsligtly": 8184,
    "xxl": 8185,
    "ructed": 8186,
    "Ġajaa": 8187,
    "shopping": 8188,
    "Ġpickup": 8189,
    "mkasih": 8190,
    "Ġmeter": 8191,
    "Ġhargaa": 8192,
    "hhehe": 8193,
    "Ġhesitant": 8194,
    "Ġsegit": 8195,
    "Ġpromotional": 8196,
    "alhmdulillah": 8197,
    "Ġsanit": 8198,
    "Ġsemuaa": 8199,
    "Ġtools": 8200,
    "Ġvendor": 8201,
    "Ġidentical": 8202,
    "Ġinquiries": 8203,
    "Ġunfortunate": 8204,
    "Ġfracture": 8205,
    "Ġjapanese": 8206,
    "Ġdiskon": 8207,
    "Ġreturning": 8208,
    "Ġbanana": 8209,
    "dllh": 8210,
    "normal": 8211,
    "Ġprosperous": 8212,
    "Ġflattering": 8213,
    "13": 8214,
    "57": 8215,
    "each": 8216,
    "gx": 8217,
    "lin": 8218,
    "nak": 8219,
    "pink": 8220,
    "rori": 8221,
    "sgt": 8222,
    "uhh": 8223,
    "Ġsag": 8224,
    "reng": 8225,
    "Ġdpat": 8226,
    "Ġprt": 8227,
    "Ġmna": 8228,
    "Ġhose": 8229,
    "otch": 8230,
    "lem": 8231,
    "Ġksi": 8232,
    "agi": 8233,
    "Ġfacil": 8234,
    "Ġspeedy": 8235,
    "emer": 8236,
    "stances": 8237,
    "antong": 8238,
    "Ġupgr": 8239,
    "Ġconsequently": 8240,
    "Ġseh": 8241,
    "Ġblender": 8242,
    "open": 8243,
    "Ġusable": 8244,
    "Ġnyaman": 8245,
    "Ġgrams": 8246,
    "Ġlecet": 8247,
    "Ġterrain": 8248,
    "ggg": 8249,
    "bek": 8250,
    "bebe": 8251,
    "Ġphones": 8252,
    "Ġsuitble": 8253,
    "weet": 8254,
    "Ġbangetttttt": 8255,
    "aaaaaaaaaaaaaa": 8256,
    "Ġsupported": 8257,
    "need": 8258,
    "Ġeverywhere": 8259,
    "Ġpeace": 8260,
    "Ġnger": 8261,
    "ific": 8262,
    "Ġconfounded": 8263,
    "Ġnio": 8264,
    "pleasant": 8265,
    "Ġtrimakasi": 8266,
    "Ġsmelly": 8267,
    "place": 8268,
    "origin": 8269,
    "haven": 8270,
    "Ġbossku": 8271,
    "Ġslah": 8272,
    "yyy": 8273,
    "Ġrelax": 8274,
    "Ġseals": 8275,
    "okokokokokok": 8276,
    "Ġmurahan": 8277,
    "Ġnarrower": 8278,
    "inyaa": 8279,
    "jsjsjs": 8280,
    "Ġoppo": 8281,
    "Ġfavorable": 8282,
    "Ġproduknya": 8283,
    "Ġsameday": 8284,
    "Ġjuice": 8285,
    "Ġsignal": 8286,
    "Ġbesok": 8287,
    "Ġclient": 8288,
    "Ġdancing": 8289,
    "Ġwlw": 8290,
    "Ġwlau": 8291,
    "Ġvouchers": 8292,
    "Ġbundle": 8293,
    "Ġinshallah": 8294,
    "Ġpromotions": 8295,
    "services": 8296,
    "Ġbenefit": 8297,
    "Ġregarding": 8298,
    "Ġexcessive": 8299,
    "Ġtechn": 8300,
    "ridge": 8301,
    "Ġdedicated": 8302,
    "Ġgedean": 8303,
    "Ġgesture": 8304,
    "Ġxiaomi": 8305,
    "Ġembroidery": 8306,
    "changed": 8307,
    "Ġpublic": 8308,
    "fantastic": 8309,
    "24": 8310,
    "62": 8311,
    "aja": 8312,
    "cal": 8313,
    "dom": 8314,
    "flex": 8315,
    "lap": 8316,
    "mh": 8317,
    "mill": 8318,
    "made": 8319,
    "uch": 8320,
    "Ġil": 8321,
    "Ġahh": 8322,
    "Ġparent": 8323,
    "Ġgb": 8324,
    "Ġgad": 8325,
    "Ġgni": 8326,
    "Ġbc": 8327,
    "Ġbite": 8328,
    "Ġbnt": 8329,
    "Ġbkal": 8330,
    "rew": 8331,
    "refund": 8332,
    "Ġmlah": 8333,
    "esan": 8334,
    "Ġnuhun": 8335,
    "Ġhidd": 8336,
    "aso": 8337,
    "Ġque": 8338,
    "Ġeuy": 8339,
    "Ġshar": 8340,
    "Ġkau": 8341,
    "Ġinappropriate": 8342,
    "sections": 8343,
    "una": 8344,
    "unk": 8345,
    "Ġray": 8346,
    "irr": 8347,
    "Ġserving": 8348,
    "Ġacceler": 8349,
    "ignya": 8350,
    "uuh": 8351,
    "abg": 8352,
    "Ġamann": 8353,
    "Ġameric": 8354,
    "nyam": 8355,
    "Ġskincare": 8356,
    "Ġ400": 8357,
    "leting": 8358,
    "Ġfreegift": 8359,
    "osen": 8360,
    "udung": 8361,
    "ressed": 8362,
    "Ġaffairs": 8363,
    "Ġcrunch": 8364,
    "uuuuus": 8365,
    "Ġpassble": 8366,
    "Ġdahh": 8367,
    "Ġveget": 8368,
    "iform": 8369,
    "Ġrespect": 8370,
    "Ġdresses": 8371,
    "Ġadvise": 8372,
    "bdb": 8373,
    "Ġinspect": 8374,
    "Ġtaped": 8375,
    "Ġcrackle": 8376,
    "Ġangle": 8377,
    "Ġntah": 8378,
    "Ġajh": 8379,
    "Ġdrawback": 8380,
    "Ġstanding": 8381,
    "Ġramahh": 8382,
    "Ġlinen": 8383,
    "Ġjuly": 8384,
    "Ġskirts": 8385,
    "Ġtipiss": 8386,
    "Ġhpnya": 8387,
    "Ġbaikkk": 8388,
    "Ġwheel": 8389,
    "Ġclients": 8390,
    "Ġreeboks": 8391,
    "Ġauthenticity": 8392,
    "bismillah": 8393,
    "Ġspecific": 8394,
    "Ġrancid": 8395,
    "Ġminta": 8396,
    "Ġbakal": 8397,
    "Ġcomparison": 8398,
    "Ġestimated": 8399,
    "Ġreputation": 8400,
    "Ġsofter": 8401,
    "Ġirrit": 8402,
    "Ġkeychain": 8403,
    "Ġfluffy": 8404,
    "incible": 8405,
    "Ġsunscreen": 8406,
    "Ġembarrass": 8407,
    "Ġtoilet": 8408,
    "roriate": 8409,
    "bol": 8410,
    "btedly": 8411,
    "ccess": 8412,
    "djd": 8413,
    "gem": 8414,
    "hel": 8415,
    "jdh": 8416,
    "mers": 8417,
    "make": 8418,
    "mudah": 8419,
    "off": 8420,
    "pok": 8421,
    "rate": 8422,
    "vx": 8423,
    "wt": 8424,
    "your": 8425,
    "Ġsicepat": 8426,
    "Ġaa": 8427,
    "aled": 8428,
    "Ġdul": 8429,
    "Ġcert": 8430,
    "Ġprnh": 8431,
    "Ġmga": 8432,
    "Ġmsih": 8433,
    "Ġlps": 8434,
    "Ġanal": 8435,
    "utnya": 8436,
    "otic": 8437,
    "ribu": 8438,
    "Ġandroid": 8439,
    "Ġitu": 8440,
    "Ġkre": 8441,
    "acked": 8442,
    "Ġinbox": 8443,
    "Ġstan": 8444,
    "Ġstab": 8445,
    "Ġnoted": 8446,
    "Ġalham": 8447,
    "Ġalloc": 8448,
    "Ġpackaing": 8449,
    "kecewa": 8450,
    "apun": 8451,
    "Ġvalid": 8452,
    "Ġrag": 8453,
    "Ġros": 8454,
    "Ġrings": 8455,
    "Ġuncertain": 8456,
    "Ġdeeh": 8457,
    "Ġboom": 8458,
    "Ġarrang": 8459,
    "Ġgreatly": 8460,
    "ounced": 8461,
    "Ġcea": 8462,
    "Ġamb": 8463,
    "Ġhanded": 8464,
    "reebok": 8465,
    "Ġcontempor": 8466,
    "Ġleap": 8467,
    "Ġleash": 8468,
    "Ġwanting": 8469,
    "success": 8470,
    "ddy": 8471,
    "Ġsupply": 8472,
    "Ġsupple": 8473,
    "Ġluam": 8474,
    "Ġglitter": 8475,
    "jsbs": 8476,
    "Ġhehehehehehe": 8477,
    "upulous": 8478,
    "Ġrefri": 8479,
    "Ġregrett": 8480,
    "Ġsticks": 8481,
    "coat": 8482,
    "Ġdiscuss": 8483,
    "Ġweekly": 8484,
    "Ġmotion": 8485,
    "haul": 8486,
    "Ġadvanced": 8487,
    "ysis": 8488,
    "Ġgeneration": 8489,
    "Ġparah": 8490,
    "Ġmarked": 8491,
    "Ġlumay": 8492,
    "Ġheheheh": 8493,
    "Ġhahahaha": 8494,
    "Ġbike": 8495,
    "correct": 8496,
    "Ġdipakek": 8497,
    "Ġbrngnya": 8498,
    "Ġtax": 8499,
    "Ġscreaming": 8500,
    "ktu": 8501,
    "Ġplugs": 8502,
    "Ġapproach": 8503,
    "Ġtemperature": 8504,
    "Ġbolong": 8505,
    "stores": 8506,
    "Ġforgotten": 8507,
    "Ġhuman": 8508,
    "Ġautomatic": 8509,
    "strong": 8510,
    "Ġignore": 8511,
    "Ġtingkat": 8512,
    "Ġintroduced": 8513,
    "Ġmashallah": 8514,
    "Ġbuckle": 8515,
    "Ġshooting": 8516,
    "Ġmukena": 8517,
    "Ġsyekali": 8518,
    "Ġdevelopment": 8519,
    "Ġagreed": 8520,
    "break": 8521,
    "charged": 8522,
    "hours": 8523,
    "Ġhavent": 8524,
    "Ġscheduled": 8525,
    "Ġlanguage": 8526,
    "38": 8527,
    "ben": 8528,
    "belie": 8529,
    "bahan": 8530,
    "cere": 8531,
    "dest": 8532,
    "dik": 8533,
    "gel": 8534,
    "mark": 8535,
    "pit": 8536,
    "ties": 8537,
    "Ġsx": 8538,
    "Ġsling": 8539,
    "Ġtat": 8540,
    "Ġpil": 8541,
    "Ġply": 8542,
    "Ġbatch": 8543,
    "Ġbkin": 8544,
    "Ġfans": 8545,
    "Ġduh": 8546,
    "Ġcamp": 8547,
    "Ġward": 8548,
    "Ġprime": 8549,
    "Ġmsk": 8550,
    "Ġnda": 8551,
    "Ġtopp": 8552,
    "Ġkase": 8553,
    "Ġstap": 8554,
    "Ġsms": 8555,
    "ules": 8556,
    "amg": 8557,
    "aaah": 8558,
    "illa": 8559,
    "Ġchosen": 8560,
    "Ġraw": 8561,
    "Ġunhappy": 8562,
    "Ġundou": 8563,
    "Ġuniform": 8564,
    "Ġeyeshadow": 8565,
    "Ġaccomm": 8566,
    "Ġblade": 8567,
    "Ġdij": 8568,
    "Ġdiin": 8569,
    "Ġaccidentally": 8570,
    "iga": 8571,
    "Ġplu": 8572,
    "Ġcomputer": 8573,
    "ksi": 8574,
    "Ġxd": 8575,
    "cies": 8576,
    "Ġdamper": 8577,
    "Ġstray": 8578,
    "Ġmocha": 8579,
    "Ġrealpic": 8580,
    "uker": 8581,
    "definitely": 8582,
    "Ġfinal": 8583,
    "uhan": 8584,
    "Ġtransact": 8585,
    "blum": 8586,
    "Ġstronger": 8587,
    "Ġextended": 8588,
    "Ġbrighter": 8589,
    "Ġsnow": 8590,
    "Ġexcl": 8591,
    "Ġpuassss": 8592,
    "Ġlamb": 8593,
    "Ġpngriman": 8594,
    "Ġimportantly": 8595,
    "Ġsukakk": 8596,
    "Ġequipped": 8597,
    "Ġramad": 8598,
    "Ġsprti": 8599,
    "Ġpastu": 8600,
    "Ġdkit": 8601,
    "Ġcartons": 8602,
    "Ġkasian": 8603,
    "Ġpakingnya": 8604,
    "Ġcooked": 8605,
    "Ġthreads": 8606,
    "Ġadjusted": 8607,
    "Ġadjustable": 8608,
    "Ġburning": 8609,
    "Ġberkual": 8610,
    "Ġademm": 8611,
    "Ġsurfaces": 8612,
    "neatly": 8613,
    "Ġexplain": 8614,
    "Ġwrinkles": 8615,
    "Ġhndi": 8616,
    "Ġdaleman": 8617,
    "Ġipad": 8618,
    "3333": 8619,
    "Ġlearning": 8620,
    "Ġlmyn": 8621,
    "better": 8622,
    "Ġstudents": 8623,
    "bulan": 8624,
    "Ġjwb": 8625,
    "Ġmgkin": 8626,
    "Ġtaiwan": 8627,
    "Ġdisappear": 8628,
    "Ġgapapalah": 8629,
    "Ġspandex": 8630,
    "middling": 8631,
    "Ġrefriger": 8632,
    "bage": 8633,
    "congratulations": 8634,
    "cross": 8635,
    "husband": 8636,
    "kids": 8637,
    "mt": 8638,
    "uct": 8639,
    "vy": 8640,
    "vis": 8641,
    "wood": 8642,
    "wide": 8643,
    "Ġsatis": 8644,
    "Ġpis": 8645,
    "Ġthumb": 8646,
    "itan": 8647,
    "Ġged": 8648,
    "Ġgently": 8649,
    "Ġoak": 8650,
    "Ġfuck": 8651,
    "Ġdnd": 8652,
    "Ġdelet": 8653,
    "Ġcb": 8654,
    "Ġcia": 8655,
    "Ġmik": 8656,
    "Ġmale": 8657,
    "Ġmelt": 8658,
    "onk": 8659,
    "Ġnc": 8660,
    "Ġnman": 8661,
    "Ġhic": 8662,
    "Ġhide": 8663,
    "usah": 8664,
    "Ġkahit": 8665,
    "Ġsmok": 8666,
    "ami": 8667,
    "Ġorch": 8668,
    "Ġsuffer": 8669,
    "Ġvar": 8670,
    "ills": 8671,
    "apor": 8672,
    "imp": 8673,
    "imal": 8674,
    "Ġchg": 8675,
    "oks": 8676,
    "Ġrama": 8677,
    "Ġbuat": 8678,
    "ongru": 8679,
    "Ġmeal": 8680,
    "Ġcanvas": 8681,
    "Ġpret": 8682,
    "Ġcock": 8683,
    "Ġspare": 8684,
    "Ġkegede": 8685,
    "Ġpengir": 8686,
    "Ġminute": 8687,
    "Ġmonit": 8688,
    "Ġsampi": 8689,
    "Ġnihh": 8690,
    "Ġcman": 8691,
    "Ġwalks": 8692,
    "Ġdates": 8693,
    "Ġtrimaksih": 8694,
    "kwkkw": 8695,
    "Ġanswering": 8696,
    "Ġscrupulous": 8697,
    "Ġrelated": 8698,
    "Ġsubstit": 8699,
    "Ġvarious": 8700,
    "Ġwax": 8701,
    "Ġregularly": 8702,
    "Ġ130": 8703,
    "Ġmachines": 8704,
    "Ġremovable": 8705,
    "Ġ165": 8706,
    "Ġmantapppp": 8707,
    "Ġpula": 8708,
    "Ġultrafast": 8709,
    "Ġwlang": 8710,
    "Ġkapan": 8711,
    "Ġhorrible": 8712,
    "Ġminimum": 8713,
    "Ġslightest": 8714,
    "harga": 8715,
    "Ġtripod": 8716,
    "gggggggggggggggg": 8717,
    "Ġcollapse": 8718,
    "Ġkliatan": 8719,
    "Ġmulu": 8720,
    "subscribe": 8721,
    "Ġskechers": 8722,
    "Ġtanks": 8723,
    "Ġcompensation": 8724,
    "Ġconsignee": 8725,
    "Ġobstacles": 8726,
    "Ġrabbit": 8727,
    "Ġrelease": 8728,
    "Ġsmuanya": 8729,
    "pektasi": 8730,
    "settled": 8731,
    "Ġimmaculate": 8732,
    "create": 8733,
    "Ġparents": 8734,
    "60": 8735,
    "equ": 8736,
    "food": 8737,
    "jah": 8738,
    "making": 8739,
    "sd": 8740,
    "sand": 8741,
    "Ġrim": 8742,
    "Ġsss": 8743,
    "Ġtide": 8744,
    "Ġtarg": 8745,
    "Ġpens": 8746,
    "Ġbending": 8747,
    "Ġfas": 8748,
    "Ġfoul": 8749,
    "Ġdili": 8750,
    "Ġcz": 8751,
    "Ġnx": 8752,
    "Ġnen": 8753,
    "Ġnest": 8754,
    "ators": 8755,
    "Ġhnya": 8756,
    "asan": 8757,
    "quate": 8758,
    "thu": 8759,
    "thetic": 8760,
    "Ġshoddy": 8761,
    "leh": 8762,
    "leading": 8763,
    "Ġkhair": 8764,
    "Ġyuan": 8765,
    "ague": 8766,
    "agger": 8767,
    "Ġstom": 8768,
    "Ġnotif": 8769,
    "Ġbegan": 8770,
    "Ġsmoke": 8771,
    "Ġforth": 8772,
    "Ġsuede": 8773,
    "Ġoklah": 8774,
    "oknya": 8775,
    "Ġagan": 8776,
    "Ġagad": 8777,
    "Ġtrace": 8778,
    "Ġdischarged": 8779,
    "Ġdipesen": 8780,
    "Ġboot": 8781,
    "Ġbgtttt": 8782,
    "opard": 8783,
    "abar": 8784,
    "Ġbagu": 8785,
    "Ġceaaaa": 8786,
    "Ġamik": 8787,
    "rime": 8788,
    "Ġleopard": 8789,
    "Ġexpend": 8790,
    "Ġcustumer": 8791,
    "Ġapps": 8792,
    "Ġmantaf": 8793,
    "Ġdrain": 8794,
    "Ġsuppose": 8795,
    "Ġdamn": 8796,
    "ailah": 8797,
    "Ġtebell": 8798,
    "Ġafford": 8799,
    "ney": 8800,
    "Ġcrit": 8801,
    "onding": 8802,
    "Ġsensor": 8803,
    "mmet": 8804,
    "jsks": 8805,
    "Ġrecomen": 8806,
    "Ġgotten": 8807,
    "receipt": 8808,
    "Ġelok": 8809,
    "Ġintersections": 8810,
    "Ġconsci": 8811,
    "nsn": 8812,
    "Ġstrongly": 8813,
    "Ġadvantage": 8814,
    "Ġsincere": 8815,
    "Ġbelum": 8816,
    "jjf": 8817,
    "Ġlngganan": 8818,
    "Ġtuck": 8819,
    "ization": 8820,
    "ucing": 8821,
    "Ġsleek": 8822,
    "Ġdepartment": 8823,
    "Ġnagsend": 8824,
    "syuk": 8825,
    "Ġbngett": 8826,
    "pesenan": 8827,
    "Ġcharges": 8828,
    "Ġremover": 8829,
    "Ġwidths": 8830,
    "Ġsyukaaaa": 8831,
    "Ġsyukron": 8832,
    "Ġlocked": 8833,
    "asked": 8834,
    "arrive": 8835,
    "Ġmeasured": 8836,
    "Ġlevels": 8837,
    "Ġkcwa": 8838,
    "Ġbismillah": 8839,
    "Ġtien": 8840,
    "Ġhooked": 8841,
    "Ġhorse": 8842,
    "Ġpuasselalu": 8843,
    "Ġfirmly": 8844,
    "Ġviet": 8845,
    "Ġnorth": 8846,
    "Ġholidays": 8847,
    "Ġsakin": 8848,
    "Ġfrustrated": 8849,
    "Ġcooperative": 8850,
    "Ġcircumstances": 8851,
    "Ġminimalist": 8852,
    "Ġdeskripsi": 8853,
    "merchant": 8854,
    "Ġparticularly": 8855,
    "maganda": 8856,
    "Ġindividual": 8857,
    "Ġdicobain": 8858,
    "Ġtruly": 8859,
    "Ġnewspaper": 8860,
    "Ġheavier": 8861,
    "nyampenya": 8862,
    "Ġaudio": 8863,
    "Ġhidden": 8864,
    "Ġundoubtedly": 8865,
    "bas": 8866,
    "bum": 8867,
    "ekk": 8868,
    "gal": 8869,
    "gann": 8870,
    "mr": 8871,
    "medi": 8872,
    "mali": 8873,
    "nut": 8874,
    "paste": 8875,
    "pods": 8876,
    "take": 8877,
    "teng": 8878,
    "wo": 8879,
    "yallah": 8880,
    "err": 8881,
    "odities": 8882,
    "Ġgd": 8883,
    "Ġbilang": 8884,
    "Ġdj": 8885,
    "Ġdang": 8886,
    "Ġdaw": 8887,
    "Ġduck": 8888,
    "Ġwats": 8889,
    "Ġwktu": 8890,
    "inggu": 8891,
    "atur": 8892,
    "Ġisland": 8893,
    "Ġkz": 8894,
    "ager": 8895,
    "aguuuuuus": 8896,
    "Ġinj": 8897,
    "Ġspeedcross": 8898,
    "ahun": 8899,
    "Ġvalvular": 8900,
    "Ġchili": 8901,
    "Ġsoph": 8902,
    "Ġrare": 8903,
    "anties": 8904,
    "iding": 8905,
    "Ġcondi": 8906,
    "Ġunits": 8907,
    "Ġunyu": 8908,
    "Ġsikit": 8909,
    "feels": 8910,
    "Ġprop": 8911,
    "Ġadain": 8912,
    "xture": 8913,
    "Ġplat": 8914,
    "Ġuntung": 8915,
    "Ġ58": 8916,
    "Ġnewborn": 8917,
    "Ġgrass": 8918,
    "Ġdesir": 8919,
    "Ġspite": 8920,
    "Ġbangeeee": 8921,
    "Ġlean": 8922,
    "Ġwebs": 8923,
    "Ġsyn": 8924,
    "Ġsyaa": 8925,
    "Ġknpa": 8926,
    "istent": 8927,
    "Ġflesh": 8928,
    "Ġlahat": 8929,
    "Ġhike": 8930,
    "Ġbagusss": 8931,
    "Ġstrings": 8932,
    "Ġcorru": 8933,
    "berapa": 8934,
    "bra": 8935,
    "uuuuuuu": 8936,
    "Ġseeing": 8937,
    "Ġveh": 8938,
    "superb": 8939,
    "Ġshortly": 8940,
    "Ġcommanded": 8941,
    "Ġhalus": 8942,
    "Ġintern": 8943,
    "Ġ02": 8944,
    "blom": 8945,
    "Ġbelnja": 8946,
    "Ġhotel": 8947,
    "Ġheadscarf": 8948,
    "Ġnhung": 8949,
    "yeay": 8950,
    "athers": 8951,
    "Ġmantapkeren": 8952,
    "Ġsubstance": 8953,
    "sgs": 8954,
    "Ġcalls": 8955,
    "Ġbusui": 8956,
    "Ġdistrict": 8957,
    "Ġgamis": 8958,
    "Ġkmrin": 8959,
    "Ġpainting": 8960,
    "Ġsunflower": 8961,
    "Ġkhaki": 8962,
    "bangett": 8963,
    "Ġmeters": 8964,
    "Ġketerima": 8965,
    "Ġpulse": 8966,
    "Ġfilling": 8967,
    "Ġcalendar": 8968,
    "Ġestimate": 8969,
    "Ġshopeee": 8970,
    "Ġfiber": 8971,
    "Ġbaguuss": 8972,
    "Ġmintak": 8973,
    "Ġkainya": 8974,
    "Ġmantaap": 8975,
    "Ġinches": 8976,
    "Ġfrequent": 8977,
    "Ġfanta": 8978,
    "Ġluxury": 8979,
    "merchandise": 8980,
    "Ġsemogaa": 8981,
    "Ġdecember": 8982,
    "Ġsqueeze": 8983,
    "Ġultimate": 8984,
    "Ġdreamy": 8985,
    "Ġglossy": 8986,
    "Ġfrozen": 8987,
    "Ġblackheads": 8988,
    "Ġanalysis": 8989,
    "cj": 8990,
    "cat": 8991,
    "foto": 8992,
    "hance": 8993,
    "km": 8994,
    "lng": 8995,
    "nag": 8996,
    "ping": 8997,
    "rance": 8998,
    "sen": 8999,
    "sbs": 9000,
    "wed": 9001,
    "wing": 9002,
    "wang": 9003,
    "wash": 9004,
    "zbz": 9005,
    "Ġended": 9006,
    "Ġsar": 9007,
    "Ġtumpah": 9008,
    "Ġape": 9009,
    "ining": 9010,
    "Ġthnx": 9011,
    "itis": 9012,
    "Ġgen": 9013,
    "Ġbird": 9014,
    "Ġbunch": 9015,
    "Ġbilis": 9016,
    "Ġdb": 9017,
    "Ġdy": 9018,
    "Ġprang": 9019,
    "Ġmong": 9020,
    "onn": 9021,
    "Ġnung": 9022,
    "Ġnua": 9023,
    "Ġlite": 9024,
    "Ġren": 9025,
    "thr": 9026,
    "Ġtolong": 9027,
    "Ġdeliered": 9028,
    "Ġshel": 9029,
    "Ġshades": 9030,
    "Ġkim": 9031,
    "agement": 9032,
    "Ġbuti": 9033,
    "ulus": 9034,
    "kee": 9035,
    "Ġliving": 9036,
    "eart": 9037,
    "akh": 9038,
    "apal": 9039,
    "Ġoki": 9040,
    "stars": 9041,
    "umed": 9042,
    "Ġrad": 9043,
    "Ġrise": 9044,
    "Ġloop": 9045,
    "Ġexagger": 9046,
    "Ġdeath": 9047,
    "Ġsaved": 9048,
    "Ġbrack": 9049,
    "Ġdiy": 9050,
    "Ġliter": 9051,
    "Ġoutlet": 9052,
    "veness": 9053,
    "Ġhasil": 9054,
    "Ġnylon": 9055,
    "rical": 9056,
    "Ġ44": 9057,
    "Ġhip": 9058,
    "avail": 9059,
    "Ġcra": 9060,
    "Ġcarbon": 9061,
    "Ġcleats": 9062,
    "Ġmode": 9063,
    "Ġactivity": 9064,
    "Ġ95": 9065,
    "Ġdownside": 9066,
    "Ġposting": 9067,
    "Ġearn": 9068,
    "Ġreasons": 9069,
    "pres": 9070,
    "Ġmanaged": 9071,
    "ooooo": 9072,
    "luc": 9073,
    "baj": 9074,
    "Ġmantulmantul": 9075,
    "Ġbelanj": 9076,
    "Ġcreamnya": 9077,
    "yey": 9078,
    "Ġsubsidized": 9079,
    "Ġbreaks": 9080,
    "Ġextension": 9081,
    "Ġmantaplah": 9082,
    "Ġindic": 9083,
    "Ġpkonya": 9084,
    "Ġphotographs": 9085,
    "Ġpastel": 9086,
    "Ġsignific": 9087,
    "Ġsuggested": 9088,
    "Ġ2017": 9089,
    "Ġmakasiiii": 9090,
    "Ġinvincible": 9091,
    "Ġsyukaaa": 9092,
    "Ġqualities": 9093,
    "Ġresponsibilities": 9094,
    "Ġpractice": 9095,
    "resonding": 9096,
    "whichsoever": 9097,
    "Ġmslh": 9098,
    "ocre": 9099,
    "baby": 9100,
    "glue": 9101,
    "Ġdengan": 9102,
    "Ġannoyed": 9103,
    "Ġhmmm": 9104,
    "Ġeyelashes": 9105,
    "Ġchipped": 9106,
    "Ġsocket": 9107,
    "Ġreputable": 9108,
    "Ġsesuaii": 9109,
    "Ġstingy": 9110,
    "Ġventil": 9111,
    "Ġattempted": 9112,
    "Ġakhir": 9113,
    "nicely": 9114,
    "Ġmoisturizing": 9115,
    "Ġvivo": 9116,
    "Ġgratitude": 9117,
    "Ġkekecilan": 9118,
    "Ġcoupons": 9119,
    "hello": 9120,
    "Ġpregnant": 9121,
    "Ġinspection": 9122,
    "Ġstomach": 9123,
    "35": 9124,
    "80": 9125,
    "cv": 9126,
    "epp": 9127,
    "fake": 9128,
    "iya": 9129,
    "jur": 9130,
    "mes": 9131,
    "mem": 9132,
    "makas": 9133,
    "mask": 9134,
    "smoga": 9135,
    "yee": 9136,
    "Ġxt": 9137,
    "almost": 9138,
    "Ġbone": 9139,
    "rest": 9140,
    "reason": 9141,
    "Ġcul": 9142,
    "Ġcakes": 9143,
    "Ġwak": 9144,
    "Ġwah": 9145,
    "Ġwoke": 9146,
    "Ġmai": 9147,
    "Ġned": 9148,
    "Ġnem": 9149,
    "Ġhung": 9150,
    "Ġhence": 9151,
    "Ġquarant": 9152,
    "ckck": 9153,
    "ential": 9154,
    "Ġalert": 9155,
    "amah": 9156,
    "aded": 9157,
    "olve": 9158,
    "Ġsucks": 9159,
    "Ġokel": 9160,
    "Ġchannel": 9161,
    "Ġloving": 9162,
    "Ġthats": 9163,
    "Ġconfortable": 9164,
    "Ġunlik": 9165,
    "Ġsie": 9166,
    "Ġsept": 9167,
    "Ġseven": 9168,
    "Ġtraces": 9169,
    "Ġdispat": 9170,
    "Ġcheat": 9171,
    "Ġmuddy": 9172,
    "Ġcoating": 9173,
    "feit": 9174,
    "Ġanytime": 9175,
    "aih": 9176,
    "Ġfebr": 9177,
    "assalam": 9178,
    "Ġcontains": 9179,
    "Ġcontained": 9180,
    "Ġmerah": 9181,
    "Ġenhance": 9182,
    "Ġdescribe": 9183,
    "Ġlepas": 9184,
    "dulilah": 9185,
    "Ġapproriate": 9186,
    "Ġdrool": 9187,
    "Ġsupplied": 9188,
    "avi": 9189,
    "Ġjog": 9190,
    "Ġchatnya": 9191,
    "Ġmatched": 9192,
    "undant": 9193,
    "Ġhubby": 9194,
    "Ġpenger": 9195,
    "Ġletters": 9196,
    "Ġincongru": 9197,
    "deh": 9198,
    "smooth": 9199,
    "Ġsettle": 9200,
    "Ġtighten": 9201,
    "Ġcommodities": 9202,
    "Ġmanis": 9203,
    "wrapped": 9204,
    "Ġrapidly": 9205,
    "lucent": 9206,
    "lllll": 9207,
    "doy": 9208,
    "Ġleakage": 9209,
    "Ġfrees": 9210,
    "Ġavailability": 9211,
    "Ġsilk": 9212,
    "Ġbaaguuuuuus": 9213,
    "Ġwritings": 9214,
    "Ġoppos": 9215,
    "Ġbatr": 9216,
    "kwkwkwkw": 9217,
    "Ġwatching": 9218,
    "Ġkalau": 9219,
    "Ġconsumables": 9220,
    "Ġbiar": 9221,
    "Ġnaka": 9222,
    "customer": 9223,
    "Ġgolden": 9224,
    "Ġcollision": 9225,
    "Ġdineliver": 9226,
    "Ġabsorbs": 9227,
    "Ġapproved": 9228,
    "Ġwires": 9229,
    "Ġbargains": 9230,
    "careful": 9231,
    "Ġcordial": 9232,
    "Ġloads": 9233,
    "Ġtreadmill": 9234,
    "Ġencour": 9235,
    "glad": 9236,
    "Ġorganized": 9237,
    "Ġpopular": 9238,
    "bells": 9239,
    "Ġignored": 9240,
    "Ġestimates": 9241,
    "Ġternyata": 9242,
    "Ġfraudsters": 9243,
    "Ġpingin": 9244,
    "Ġprojects": 9245,
    "Ġfooled": 9246,
    "Ġapologize": 9247,
    "Ġincredibly": 9248,
    "uminum": 9249,
    "Ġprestige": 9250,
    "Ġnyesell": 9251,
    "Ġsedikit": 9252,
    "quisite": 9253,
    "Ġrusak": 9254,
    "Ġbrooch": 9255,
    "abalot": 9256,
    "Ġdikasihnya": 9257,
    "Ġcrunchy": 9258,
    "Ġvietnam": 9259,
    "Ġsignificant": 9260,
    "Ġincongruous": 9261,
    "cou": 9262,
    "dit": 9263,
    "den": 9264,
    "dri": 9265,
    "dedu": 9266,
    "gle": 9267,
    "gir": 9268,
    "hb": 9269,
    "hx": 9270,
    "lated": 9271,
    "mya": 9272,
    "mond": 9273,
    "mile": 9274,
    "purchased": 9275,
    "sil": 9276,
    "water": 9277,
    "zi": 9278,
    "Ġtb": 9279,
    "Ġtgk": 9280,
    "Ġtires": 9281,
    "Ġae": 9282,
    "Ġthks": 9283,
    "itate": 9284,
    "ittle": 9285,
    "Ġbor": 9286,
    "Ġbou": 9287,
    "Ġbeng": 9288,
    "Ġos": 9289,
    "Ġfate": 9290,
    "isin": 9291,
    "Ġdess": 9292,
    "ester": 9293,
    "Ġnah": 9294,
    "Ġlsg": 9295,
    "quet": 9296,
    "Ġrecharge": 9297,
    "Ġshanties": 9298,
    "enta": 9299,
    "Ġkcil": 9300,
    "Ġalive": 9301,
    "cho": 9302,
    "ching": 9303,
    "Ġshoel": 9304,
    "Ġsukk": 9305,
    "Ġvio": 9306,
    "ette": 9307,
    "early": 9308,
    "akin": 9309,
    "imakasih": 9310,
    "oka": 9311,
    "umullah": 9312,
    "Ġrug": 9313,
    "Ġcombo": 9314,
    "Ġasal": 9315,
    "Ġunequ": 9316,
    "Ġsiap": 9317,
    "comings": 9318,
    "Ġsab": 9319,
    "hhee": 9320,
    "Ġnov": 9321,
    "pert": 9322,
    "shshs": 9323,
    "Ġtherefore": 9324,
    "Ġate": 9325,
    "Ġadorable": 9326,
    "Ġpipe": 9327,
    "Ġcompon": 9328,
    "Ġ55555": 9329,
    "Ġmeriah": 9330,
    "Ġrip": 9331,
    "Ġbange": 9332,
    "nti": 9333,
    "Ġwhatsoever": 9334,
    "Ġmessaging": 9335,
    "Ġshopeehaul": 9336,
    "aaaaaaaaaaaaaaa": 9337,
    "Ġafforable": 9338,
    "Ġcork": 9339,
    "Ġbackup": 9340,
    "ipun": 9341,
    "Ġfolding": 9342,
    "jdg": 9343,
    "jdnd": 9344,
    "Ġproblematic": 9345,
    "Ġkoin": 9346,
    "Ġguid": 9347,
    "return": 9348,
    "Ġshortcomings": 9349,
    "Ġunderst": 9350,
    "Ġbarangg": 9351,
    "Ġtranslucent": 9352,
    "bdj": 9353,
    "Ġrob": 9354,
    "Ġsquish": 9355,
    "Ġsnap": 9356,
    "Ġcleaner": 9357,
    "Ġmurahhh": 9358,
    "condition": 9359,
    "Ġpngemasan": 9360,
    "Ġdecre": 9361,
    "Ġrelative": 9362,
    "Ġsandal": 9363,
    "Ġpsanan": 9364,
    "Ġconsumption": 9365,
    "Ġpanas": 9366,
    "Ġoriginall": 9367,
    "cieved": 9368,
    "Ġkerenn": 9369,
    "Ġkyknya": 9370,
    "Ġtengki": 9371,
    "Ġhrganya": 9372,
    "Ġbleak": 9373,
    "Ġbreathe": 9374,
    "Ġwrnanya": 9375,
    "maybe": 9376,
    "Ġzigs": 9377,
    "Ġsource": 9378,
    "Ġhyd": 9379,
    "Ġparticip": 9380,
    "Ġirresponsible": 9381,
    "Ġenvelopes": 9382,
    "Ġthousands": 9383,
    "month": 9384,
    "Ġpertahank": 9385,
    "Ġsgitu": 9386,
    "Ġidentify": 9387,
    "Ġexceeded": 9388,
    "Ġpengemasanya": 9389,
    "Ġmosquitoes": 9390,
    "Ġmillion": 9391,
    "Ġincredible": 9392,
    "Ġdarling": 9393,
    "Ġrecogn": 9394,
    "acceptable": 9395,
    "Ġrubbing": 9396,
    "Ġstrugg": 9397,
    "Ġappointment": 9398,
    "Ġperegr": 9399,
    "Ġaccommod": 9400,
    "Ġwebsite": 9401,
    "Ġquarantine": 9402,
    "Ġunlikely": 9403,
    "Ġfebruary": 9404,
    "Ġdessert": 9405,
    "Ġviolet": 9406,
    "code": 9407,
    "gant": 9408,
    "hon": 9409,
    "hab": 9410,
    "honest": 9411,
    "mal": 9412,
    "mil": 9413,
    "pi": 9414,
    "pom": 9415,
    "vl": 9416,
    "Ġtlong": 9417,
    "ergy": 9418,
    "ino": 9419,
    "Ġgn": 9420,
    "Ġgum": 9421,
    "alo": 9422,
    "Ġbkl": 9423,
    "Ġcape": 9424,
    "anny": 9425,
    "ception": 9426,
    "cts": 9427,
    "enyaa": 9428,
    "esa": 9429,
    "Ġnila": 9430,
    "orious": 9431,
    "Ġhk": 9432,
    "Ġhhe": 9433,
    "Ġhmmmm": 9434,
    "Ġlha": 9435,
    "than": 9436,
    "Ġants": 9437,
    "people": 9438,
    "Ġshs": 9439,
    "uty": 9440,
    "Ġkac": 9441,
    "Ġyuhu": 9442,
    "Ġsmud": 9443,
    "Ġsmashed": 9444,
    "aaan": 9445,
    "ads": 9446,
    "Ġlime": 9447,
    "Ġchu": 9448,
    "stone": 9449,
    "stitch": 9450,
    "Ġrumah": 9451,
    "Ġsig": 9452,
    "Ġsex": 9453,
    "Ġexchanged": 9454,
    "Ġdee": 9455,
    "Ġblind": 9456,
    "Ġcheer": 9457,
    "Ġwrist": 9458,
    "eek": 9459,
    "Ġdiv": 9460,
    "pered": 9461,
    "Ġargu": 9462,
    "shd": 9463,
    "kkd": 9464,
    "Ġusah": 9465,
    "ngn": 9466,
    "arena": 9467,
    "vender": 9468,
    "Ġbitter": 9469,
    "Ġwearable": 9470,
    "Ġ47": 9471,
    "Ġboxed": 9472,
    "Ġthemes": 9473,
    "otherwise": 9474,
    "beautifully": 9475,
    "Ġsyng": 9476,
    "Ġkeys": 9477,
    "nnx": 9478,
    "jaj": 9479,
    "Ġscary": 9480,
    "Ġdelivering": 9481,
    "Ġcarrying": 9482,
    "Ġpecking": 9483,
    "Ġfolds": 9484,
    "iiiiiii": 9485,
    "Ġglut": 9486,
    "Ġhehehhe": 9487,
    "Ġsukaaaaaaa": 9488,
    "Ġemot": 9489,
    "Ġshortages": 9490,
    "Ġpartner": 9491,
    "Ġcardig": 9492,
    "Ġsubtle": 9493,
    "Ġmaka": 9494,
    "Ġrefunds": 9495,
    "ground": 9496,
    "Ġseverance": 9497,
    "Ġ123": 9498,
    "Ġinsyaa": 9499,
    "Ġaware": 9500,
    "dkdk": 9501,
    "lahh": 9502,
    "Ġcleanser": 9503,
    "Ġsilent": 9504,
    "Ġmisleading": 9505,
    "Ġsenang": 9506,
    "Ġkualiti": 9507,
    "Ġexperi": 9508,
    "Ġbasis": 9509,
    "whereas": 9510,
    "Ġreduction": 9511,
    "Ġtearing": 9512,
    "Ġcuff": 9513,
    "Ġhangers": 9514,
    "Ġmeasuring": 9515,
    "Ġrainy": 9516,
    "Ġestate": 9517,
    "dhdhdhdh": 9518,
    "Ġkwalitas": 9519,
    "Ġwooden": 9520,
    "hati": 9521,
    "Ġtiba": 9522,
    "despite": 9523,
    "ology": 9524,
    "submitted": 9525,
    "missions": 9526,
    "Ġbathroom": 9527,
    "Ġkereeen": 9528,
    "Ġsoalny": 9529,
    "Ġworkouts": 9530,
    "ungkusan": 9531,
    "Ġsesuailah": 9532,
    "Ġkecill": 9533,
    "Ġefficiency": 9534,
    "Ġtypically": 9535,
    "Ġjoints": 9536,
    "Ġgesturing": 9537,
    "Ġbarokah": 9538,
    "Ġluxuriant": 9539,
    "Ġpuma": 9540,
    "rific": 9541,
    "Ġcabin": 9542,
    "Ġoccasion": 9543,
    "Ġstopper": 9544,
    "mashallah": 9545,
    "originally": 9546,
    "Ġcontemporaries": 9547,
    "Ġtransactions": 9548,
    "Ġconscientious": 9549,
    "Ġwatson": 9550,
    "Ġdesirable": 9551,
    "Ġopposite": 9552,
    "courier": 9553,
    "Ġperegrine": 9554,
    "bdh": 9555,
    "face": 9556,
    "hing": 9557,
    "kul": 9558,
    "kaa": 9559,
    "maa": 9560,
    "Ġswell": 9561,
    "Ġtun": 9562,
    "Ġtshirt": 9563,
    "Ġtumben": 9564,
    "Ġpb": 9565,
    "Ġpon": 9566,
    "Ġpash": 9567,
    "itnya": 9568,
    "Ġgust": 9569,
    "Ġgard": 9570,
    "Ġbail": 9571,
    "Ġbik": 9572,
    "rees": 9573,
    "Ġdag": 9574,
    "Ġdial": 9575,
    "Ġdab": 9576,
    "Ġdung": 9577,
    "Ġcous": 9578,
    "Ġwolf": 9579,
    "ingin": 9580,
    "Ġnant": 9581,
    "Ġncc": 9582,
    "Ġhate": 9583,
    "iliant": 9584,
    "Ġkut": 9585,
    "Ġyr": 9586,
    "Ġaluminum": 9587,
    "ulation": 9588,
    "aaat": 9589,
    "adala": 9590,
    "kek": 9591,
    "Ġjau": 9592,
    "etnya": 9593,
    "Ġsoil": 9594,
    "Ġrod": 9595,
    "Ġbuagus": 9596,
    "Ġservis": 9597,
    "Ġages": 9598,
    "Ġ155": 9599,
    "Ġdisapoint": 9600,
    "eez": 9601,
    "lovely": 9602,
    "Ġmechan": 9603,
    "Ġbocor": 9604,
    "Ġpoh": 9605,
    "Ġstuds": 9606,
    "Ġfeathers": 9607,
    "Ġredmi": 9608,
    "Ġmerchants": 9609,
    "Ġenv": 9610,
    "Ġspider": 9611,
    "outs": 9612,
    "Ġxxxl": 9613,
    "Ġbubbl": 9614,
    "Ġmantaaaa": 9615,
    "inding": 9616,
    "lights": 9617,
    "Ġcorresonding": 9618,
    "Ġsupporters": 9619,
    "ieu": 9620,
    "Ġputih": 9621,
    "pppppp": 9622,
    "Ġaddict": 9623,
    "Ġguard": 9624,
    "Ġincon": 9625,
    "Ġprovin": 9626,
    "Ġdirective": 9627,
    "Ġeldest": 9628,
    "Ġkaos": 9629,
    "Ġmakenya": 9630,
    "Ġpuaas": 9631,
    "Ġdto": 9632,
    "Ġappet": 9633,
    "fitting": 9634,
    "Ġways": 9635,
    "luv": 9636,
    "Ġbattered": 9637,
    "ixed": 9638,
    "ronic": 9639,
    "Ġsquid": 9640,
    "Ġbounce": 9641,
    "Ġcausing": 9642,
    "Ġdriver": 9643,
    "mbali": 9644,
    "lmn": 9645,
    "Ġkayano": 9646,
    "Ġpushes": 9647,
    "Ġbhnnya": 9648,
    "Ġshowing": 9649,
    "Ġpicked": 9650,
    "Ġpicking": 9651,
    "Ġliner": 9652,
    "Ġgarbage": 9653,
    "Ġmakasiii": 9654,
    "gian": 9655,
    "Ġbulk": 9656,
    "Ġcuri": 9657,
    "Ġabsorbed": 9658,
    "Ġcalm": 9659,
    "Ġplanted": 9660,
    "dfg": 9661,
    "Ġbleach": 9662,
    "Ġpulled": 9663,
    "Ġspecifications": 9664,
    "Ġnuts": 9665,
    "Ġmovement": 9666,
    "Ġmeasurement": 9667,
    "Ġmanufacturing": 9668,
    "aneous": 9669,
    "Ġgandos": 9670,
    "Ġpresented": 9671,
    "Ġsyekal": 9672,
    "absolutely": 9673,
    "Ġwalaupun": 9674,
    "Ġunexpectedly": 9675,
    "Ġreference": 9676,
    "Ġencountered": 9677,
    "sounds": 9678,
    "Ġprecision": 9679,
    "Ġrupiah": 9680,
    "Ġcoksu": 9681,
    "Ġyasudah": 9682,
    "smpai": 9683,
    "nyamnyam": 9684,
    "Ġstanard": 9685,
    "Ġrefrigerator": 9686,
    "Ġcondiion": 9687,
    "Ġunequal": 9688,
    "63": 9689,
    "cant": 9690,
    "cases": 9691,
    "fir": 9692,
    "gun": 9693,
    "kc": 9694,
    "nm": 9695,
    "pill": 9696,
    "pow": 9697,
    "qr": 9698,
    "tnya": 9699,
    "xj": 9700,
    "yg": 9701,
    "yak": 9702,
    "Ġspt": 9703,
    "Ġtire": 9704,
    "Ġaug": 9705,
    "Ġaunt": 9706,
    "Ġpages": 9707,
    "Ġpket": 9708,
    "Ġdav": 9709,
    "enn": 9710,
    "Ġhee": 9711,
    "oduction": 9712,
    "omer": 9713,
    "Ġremin": 9714,
    "arr": 9715,
    "Ġann": 9716,
    "Ġdeliv": 9717,
    "Ġshame": 9718,
    "Ġyu": 9719,
    "Ġbeaut": 9720,
    "Ġbeef": 9721,
    "Ġalter": 9722,
    "child": 9723,
    "Ġforum": 9724,
    "Ġforgive": 9725,
    "Ġorang": 9726,
    "admin": 9727,
    "Ġji": 9728,
    "ows": 9729,
    "Ġchiff": 9730,
    "stery": 9731,
    "umn": 9732,
    "umble": 9733,
    "Ġbuang": 9734,
    "anggan": 9735,
    "Ġupfront": 9736,
    "Ġunclear": 9737,
    "ession": 9738,
    "Ġexelent": 9739,
    "Ġmoneygood": 9740,
    "Ġshopie": 9741,
    "Ġsach": 9742,
    "Ġdiet": 9743,
    "Ġmua": 9744,
    "Ġcoba": 9745,
    "Ġpoly": 9746,
    "Ġceaaaaaaaaaaaaaaaa": 9747,
    "Ġoutbreak": 9748,
    "Ġovercome": 9749,
    "Ġhandsh": 9750,
    "itional": 9751,
    "heavy": 9752,
    "Ġreported": 9753,
    "Ġbangus": 9754,
    "beauiful": 9755,
    "Ġphp": 9756,
    "things": 9757,
    "bagu": 9758,
    "ualaikum": 9759,
    "Ġsalt": 9760,
    "Ġrealpick": 9761,
    "Ġluvv": 9762,
    "Ġ2000": 9763,
    "mantaap": 9764,
    "Ġrefill": 9765,
    "Ġrefused": 9766,
    "coal": 9767,
    "Ġcovering": 9768,
    "belum": 9769,
    "Ġnevertheless": 9770,
    "Ġlaunch": 9771,
    "Ġrapiii": 9772,
    "Ġpengirimanx": 9773,
    "Ġfinding": 9774,
    "anned": 9775,
    "Ġhousekeeping": 9776,
    "jdjdj": 9777,
    "Ġswi": 9778,
    "Ġswear": 9779,
    "Ġpkai": 9780,
    "Ġlayered": 9781,
    "Ġmothers": 9782,
    "Ġadvertis": 9783,
    "cccc": 9784,
    "Ġdkt": 9785,
    "Ġversus": 9786,
    "Ġinvest": 9787,
    "Ġappeared": 9788,
    "Ġrespos": 9789,
    "cieve": 9790,
    "Ġraincoat": 9791,
    "Ġboards": 9792,
    "Ġstrike": 9793,
    "iliar": 9794,
    "Ġhoped": 9795,
    "Ġconnector": 9796,
    "Ġappreciated": 9797,
    "Ġtiptop": 9798,
    "Ġreccomended": 9799,
    "umplit": 9800,
    "Ġunivers": 9801,
    "Ġdikirimin": 9802,
    "xyz": 9803,
    "Ġtrader": 9804,
    "Ġcurtains": 9805,
    "Ġcharts": 9806,
    "Ġcowbells": 9807,
    "Ġjahitanya": 9808,
    "regular": 9809,
    "Ġsurvive": 9810,
    "Ġexpeted": 9811,
    "Ġnyampee": 9812,
    "Ġvibrant": 9813,
    "Ġreserv": 9814,
    "Ġsecretly": 9815,
    "678": 9816,
    "cucok": 9817,
    "Ġbiscuits": 9818,
    "Ġmarathon": 9819,
    "pokonya": 9820,
    "Ġplugged": 9821,
    "Ġramadan": 9822,
    "Ġdrooling": 9823,
    "Ġarguably": 9824,
    "Ġchiffon": 9825,
    "14": 9826,
    "17": 9827,
    "25": 9828,
    "54": 9829,
    "cw": 9830,
    "due": 9831,
    "fd": 9832,
    "gor": 9833,
    "kar": 9834,
    "lz": 9835,
    "money": 9836,
    "nately": 9837,
    "pac": 9838,
    "pient": 9839,
    "san": 9840,
    "sii": 9841,
    "vg": 9842,
    "won": 9843,
    "waw": 9844,
    "Ġtint": 9845,
    "Ġaes": 9846,
    "Ġpour": 9847,
    "Ġgc": 9848,
    "aler": 9849,
    "Ġbod": 9850,
    "redd": 9851,
    "Ġful": 9852,
    "Ġdau": 9853,
    "eded": 9854,
    "ena": 9855,
    "Ġlil": 9856,
    "Ġlcd": 9857,
    "Ġtowards": 9858,
    "pek": 9859,
    "otes": 9860,
    "usnya": 9861,
    "usually": 9862,
    "Ġitchy": 9863,
    "Ġii": 9864,
    "Ġkb": 9865,
    "Ġkso": 9866,
    "Ġkka": 9867,
    "agak": 9868,
    "Ġuj": 9869,
    "vement": 9870,
    "amer": 9871,
    "ambar": 9872,
    "seems": 9873,
    "Ġvapor": 9874,
    "Ġonion": 9875,
    "owow": 9876,
    "aky": 9877,
    "apes": 9878,
    "emed": 9879,
    "urut": 9880,
    "unyaa": 9881,
    "Ġrereply": 9882,
    "anted": 9883,
    "Ġlosing": 9884,
    "ffect": 9885,
    "Ġsiih": 9886,
    "Ġsihhh": 9887,
    "Ġacquired": 9888,
    "Ġdocum": 9889,
    "Ġdissatisfied": 9890,
    "ordin": 9891,
    "Ġbran": 9892,
    "Ġallerg": 9893,
    "Ġmeth": 9894,
    "Ġboong": 9895,
    "Ġcop": 9896,
    "Ġcoco": 9897,
    "Ġrecommending": 9898,
    "nyaaaa": 9899,
    "Ġskinny": 9900,
    "Ġexposed": 9901,
    "Ġwraps": 9902,
    "Ġkebes": 9903,
    "ails": 9904,
    "Ġsupports": 9905,
    "Ġscars": 9906,
    "aikin": 9907,
    "Ġworkman": 9908,
    "finished": 9909,
    "auth": 9910,
    "Ġpeyok": 9911,
    "aaaas": 9912,
    "Ġcouriers": 9913,
    "Ġpengriman": 9914,
    "Ġconfidence": 9915,
    "ukan": 9916,
    "Ġnia": 9917,
    "Ġseconds": 9918,
    "Ġems": 9919,
    "Ġseleb": 9920,
    "Ġparties": 9921,
    "Ġrequires": 9922,
    "Ġlavender": 9923,
    "Ġ07": 9924,
    "Ġtemen": 9925,
    "Ġtempl": 9926,
    "Ġbalanced": 9927,
    "Ġdressed": 9928,
    "nnnnn": 9929,
    "Ġheadach": 9930,
    "Ġinsyallah": 9931,
    "Ġdongg": 9932,
    "Ġbrightness": 9933,
    "tech": 9934,
    "Ġsangaat": 9935,
    "Ġmemang": 9936,
    "disc": 9937,
    "Ġverry": 9938,
    "Ġcurved": 9939,
    "Ġbatalin": 9940,
    "Ġobt": 9941,
    "Ġyeay": 9942,
    "Ġpsan": 9943,
    "Ġfiles": 9944,
    "Ġruined": 9945,
    "Ġkho": 9946,
    "Ġspeaking": 9947,
    "tqtqtq": 9948,
    "Ġlabels": 9949,
    "trima": 9950,
    "Ġhitam": 9951,
    "Ġfailure": 9952,
    "Ġelasticity": 9953,
    "ambah": 9954,
    "amboo": 9955,
    "Ġkemana": 9956,
    "Ġcombined": 9957,
    "Ġkaso": 9958,
    "Ġmengecew": 9959,
    "bfounded": 9960,
    "ahanin": 9961,
    "Ġloaded": 9962,
    "Ġ099": 9963,
    "iiiiiiiiiiiiiiiiiiiiiiiiiiiiiiii": 9964,
    "bnrnya": 9965,
    "Ġirre": 9966,
    "Ġfingerprint": 9967,
    "Ġsilicon": 9968,
    "Ġeyeliner": 9969,
    "Ġmagnetic": 9970,
    "Ġweighs": 9971,
    "Ġnecessarily": 9972,
    "Ġeggs": 9973,
    "asukasukasukasuk": 9974,
    "Ġsebelum": 9975,
    "Ġattempt": 9976,
    "Ġtulip": 9977,
    "Ġsymbols": 9978,
    "believ": 9979,
    "Ġstaple": 9980,
    "Ġsubstitute": 9981,
    "Ġneda": 9982,
    "29": 9983,
    "bably": 9984,
    "dur": 9985,
    "hong": 9986,
    "ijk": 9987,
    "nb": 9988,
    "oq": 9989,
    "purch": 9990,
    "sjs": 9991,
    "taste": 9992,
    "uar": 9993,
    "wy": 9994,
    "Ġsid": 9995,
    "Ġsbs": 9996,
    "Ġsink": 9997,
    "Ġpgn": 9998,
    "Ġgin": 9999,
    "Ġgitu": 10000,
    "alag": 10001,
    "Ġbamboo": 10002,
    "Ġopa": 10003,
    "Ġotg": 10004,
    "Ġder": 10005,
    "Ġcain": 10006,
    "Ġcact": 10007,
    "Ġcents": 10008,
    "Ġwt": 10009,
    "Ġmuter": 10010,
    "Ġlying": 10011,
    "thought": 10012,
    "Ġanni": 10013,
    "Ġkus": 10014,
    "Ġkos": 10015,
    "Ġkons": 10016,
    "Ġselleer": 10017,
    "Ġyuk": 10018,
    "acking": 10019,
    "Ġinfer": 10020,
    "Ġster": 10021,
    "Ġstead": 10022,
    "Ġbeans": 10023,
    "Ġalbum": 10024,
    "adem": 10025,
    "Ġshoopee": 10026,
    "Ġvc": 10027,
    "Ġoks": 10028,
    "Ġchil": 10029,
    "Ġsob": 10030,
    "Ġsoak": 10031,
    "iran": 10032,
    "Ġagak": 10033,
    "Ġunpleasant": 10034,
    "Ġtrf": 10035,
    "Ġdisadv": 10036,
    "Ġsaiz": 10037,
    "hhd": 10038,
    "appp": 10039,
    "Ġbrow": 10040,
    "Ġdiret": 10041,
    "inta": 10042,
    "Ġships": 10043,
    "Ġarbit": 10044,
    "Ġprecise": 10045,
    "Ġcocon": 10046,
    "Ġlighting": 10047,
    "Ġfeb": 10048,
    "Ġpavement": 10049,
    "sudah": 10050,
    "Ġabx": 10051,
    "uduk": 10052,
    "Ġpesann": 10053,
    "Ġhibis": 10054,
    "llu": 10055,
    "Ġscan": 10056,
    "Ġscale": 10057,
    "Ġcrash": 10058,
    "Ġsucceed": 10059,
    "ipu": 10060,
    "Ġsaler": 10061,
    "patient": 10062,
    "jdkd": 10063,
    "jsns": 10064,
    "Ġ64": 10065,
    "Ġtops": 10066,
    "Ġmasangnya": 10067,
    "rofo": 10068,
    "Ġsubmissions": 10069,
    "plah": 10070,
    "Ġdisconn": 10071,
    "minus": 10072,
    "probably": 10073,
    "Ġbranded": 10074,
    "Ġrequests": 10075,
    "Ġlanggan": 10076,
    "jje": 10077,
    "job": 10078,
    "Ġproduce": 10079,
    "Ġsubstances": 10080,
    "Ġcalling": 10081,
    "picture": 10082,
    "Ġduo": 10083,
    "Ġwishes": 10084,
    "Ġpnting": 10085,
    "Ġhahahahah": 10086,
    "Ġclassic": 10087,
    "Ġflatten": 10088,
    "Ġmedyo": 10089,
    "Ġraises": 10090,
    "Ġcuco": 10091,
    "Ġflexibility": 10092,
    "Ġmistakes": 10093,
    "Ġmica": 10094,
    "Ġdeflated": 10095,
    "Ġpreferred": 10096,
    "Ġintroduction": 10097,
    "versary": 10098,
    "Ġipod": 10099,
    "Ġtraveling": 10100,
    "Ġballoons": 10101,
    "ternal": 10102,
    "Ġsoalnya": 10103,
    "Ġweighing": 10104,
    "tqtqtqtqtqtqtqtq": 10105,
    "Ġkotak": 10106,
    "Ġlancar": 10107,
    "Ġwangi": 10108,
    "Ġmassage": 10109,
    "cakep": 10110,
    "Ġrequirements": 10111,
    "Ġngelupas": 10112,
    "Ġwanna": 10113,
    "Ġcontinuously": 10114,
    "Ġsablonan": 10115,
    "welry": 10116,
    "Ġrecipient": 10117,
    "Ġobjects": 10118,
    "fragrant": 10119,
    "Ġcounsel": 10120,
    "Ġpenyot": 10121,
    "Ġmungkin": 10122,
    "Ġbooming": 10123,
    "mmetrical": 10124,
    "Ġbouquet": 10125,
    "believably": 10126,
    "Ġopaque": 10127,
    "Ġanniversary": 10128,
    "Ġsteadily": 10129,
    "Ġarbitr": 10130,
    "70": 10131,
    "95": 10132,
    "aii": 10133,
    "dn": 10134,
    "fill": 10135,
    "fall": 10136,
    "gold": 10137,
    "gment": 10138,
    "kah": 10139,
    "mod": 10140,
    "mother": 10141,
    "oop": 10142,
    "sal": 10143,
    "tried": 10144,
    "ubs": 10145,
    "xjx": 10146,
    "Ġsom": 10147,
    "Ġtad": 10148,
    "Ġtunic": 10149,
    "Ġpitch": 10150,
    "Ġpda": 10151,
    "ele": 10152,
    "Ġgde": 10153,
    "Ġbaw": 10154,
    "Ġbali": 10155,
    "Ġoce": 10156,
    "Ġfest": 10157,
    "Ġfist": 10158,
    "Ġdgn": 10159,
    "Ġdalam": 10160,
    "Ġcc": 10161,
    "Ġcables": 10162,
    "Ġwig": 10163,
    "Ġwine": 10164,
    "Ġprizes": 10165,
    "Ġmumer": 10166,
    "Ġnich": 10167,
    "Ġht": 10168,
    "asp": 10169,
    "Ġlady": 10170,
    "Ġquran": 10171,
    "thn": 10172,
    "arom": 10173,
    "elipin": 10174,
    "uted": 10175,
    "Ġiu": 10176,
    "Ġiba": 10177,
    "Ġkad": 10178,
    "Ġkab": 10179,
    "again": 10180,
    "astip": 10181,
    "Ġstained": 10182,
    "Ġnotify": 10183,
    "Ġbean": 10184,
    "Ġfaint": 10185,
    "Ġuang": 10186,
    "Ġsmw": 10187,
    "Ġspec": 10188,
    "Ġthankfully": 10189,
    "Ġjaw": 10190,
    "Ġlif": 10191,
    "owbat": 10192,
    "ahnya": 10193,
    "ements": 10194,
    "Ġchem": 10195,
    "stu": 10196,
    "stock": 10197,
    "Ġlov": 10198,
    "Ġupload": 10199,
    "Ġaside": 10200,
    "Ġunless": 10201,
    "Ġorig": 10202,
    "Ġsexy": 10203,
    "icles": 10204,
    "Ġtrlalu": 10205,
    "Ġdibat": 10206,
    "perh": 10207,
    "Ġarr": 10208,
    "Ġhea": 10209,
    "Ġcos": 10210,
    "Ġcoy": 10211,
    "abat": 10212,
    "Ġbaguuuuus": 10213,
    "ounting": 10214,
    "Ġstored": 10215,
    "Ġrepo": 10216,
    "Ġcontn": 10217,
    "Ġsubscri": 10218,
    "Ġspin": 10219,
    "Ġterbaek": 10220,
    "Ġsafer": 10221,
    "Ġcustmer": 10222,
    "istration": 10223,
    "ampun": 10224,
    "Ġbeforehand": 10225,
    "Ġlgs": 10226,
    "Ġlgsung": 10227,
    "Ġkecik": 10228,
    "Ġmoi": 10229,
    "Ġmov": 10230,
    "Ġcompleteness": 10231,
    "Ġscales": 10232,
    "Ġbackground": 10233,
    "Ġintend": 10234,
    "Ġpeg": 10235,
    "roph": 10236,
    "Ġrealflex": 10237,
    "jdb": 10238,
    "Ġresale": 10239,
    "update": 10240,
    "Ġrecomnded": 10241,
    "mantull": 10242,
    "Ġmodest": 10243,
    "Ġzonk": 10244,
    "Ġprovince": 10245,
    "bbb": 10246,
    "Ġsett": 10247,
    "Ġmanner": 10248,
[...]
