<pad>	0
<s>	0
</s>	0
<unk>	0
▁the	-3.39783
▁good	-3.45249
▁product	-3.87874
▁is	-3.89512
▁quality	-4.00209
▁very	-4.06155
▁delivery	-4.29929
s	-4.3024
▁to	-4.42254
ing	-4.43405
▁and	-4.45606
▁of	-4.52794
▁a	-4.53726
▁seller	-4.65402
▁i	-4.67828
▁not	-4.71014
▁price	-4.79434
▁but	-4.8571
▁with	-4.86843
▁it	-4.89086
▁fast	-4.89157
y	-4.92499
▁speed	-4.94391
▁excellent	-4.95176
ed	-4.97664
▁for	-4.99401
▁in	-5.02859
▁goods	-5.0416
▁awesome	-5.04319
▁face	-5.06508
▁s	-5.37258
▁order	-5.38219
▁value	-5.41293
▁nice	-5.42519
▁be	-5.45319
▁you	-5.45539
▁smil	-5.45554
▁thank	-5.47972
▁response	-5.48566
ly	-5.57246
d	-5.59372
▁that	-5.6007
▁thanks	-5.62308
▁this	-5.62785
▁like	-5.64638
▁well	-5.70064
▁up	-5.71039
▁was	-5.75807
▁service	-5.76448
▁are	-5.79845
▁ok	-5.79887
▁so	-5.8075
▁	-5.8078
▁also	-5.82129
▁my	-5.83742
▁eyes	-5.84908
▁other	-5.86544
▁will	-5.8924
▁again	-5.91321
▁original	-5.92511
▁really	-5.92968
▁time	-5.93408
▁heart	-5.96121
▁as	-6.00479
▁buy	-6.02538
▁money	-6.03199
▁packaging	-6.0368
▁shop	-6.06481
▁have	-6.09322
▁just	-6.09655
▁his	-6.13616
▁size	-6.14504
e	-6.15991
▁thumbs	-6.17609
▁no	-6.19632
▁its	-6.19798
▁on	-6.1997
▁okay	-6.20578
▁color	-6.20749
▁all	-6.23198
▁too	-6.27682
▁great	-6.29557
▁received	-6.29842
▁can	-6.30988
▁fit	-6.31174
▁item	-6.31348
▁cp	-6.32726
▁alread	-6.34119
▁from	-6.35006
t	-6.3512
▁packing	-6.36238
▁there	-6.36886
▁love	-6.37579
▁shipping	-6.37717
▁long	-6.37886
▁ship	-6.38719
▁2	-6.40188
▁me	-6.41802
▁ga	-6.42394
▁beautiful	-6.44183
▁kg	-6.44609
▁do	-6.44732
▁shoes	-6.44832
▁material	-6.44914
▁much	-6.46407
2	-6.46657
▁products	-6.46857
▁little	-6.48064
cause	-6.48225
▁at	-6.49134
▁comfortable	-6.49147
▁here	-6.5051
▁more	-6.5085
▁her	-6.53054
▁tp	-6.53987
▁one	-6.55487
▁prett	-6.57537
▁1	-6.57557
▁cheap	-6.60051
▁use	-6.60774
nya	-6.60817
▁if	-6.61553
▁only	-6.61643
▁has	-6.64831
▁by	-6.66135
▁3	-6.67014
▁until	-6.67995
▁satisfied	-6.70072
▁bgt	-6.70819
▁shipped	-6.71463
▁hopefully	-6.7316
▁than	-6.73641
▁super	-6.73858
▁always	-6.74517
▁small	-6.75016
▁worth	-6.76796
▁sent	-6.77267
▁next	-6.77456
r	-6.7808
▁ya	-6.78148
▁light	-6.78395
▁new	-6.80475
▁same	-6.81452
▁m	-6.82149
▁stuff	-6.82721
▁d	-6.83087
▁t	-6.84852
▁they	-6.85094
▁store	-6.85137
▁package	-6.85667
▁still	-6.86173
▁less	-6.87694
▁yes	-6.87748
▁cepet	-6.88089
▁out	-6.89435
▁red	-6.91419
▁bit	-6.92388
▁n	-6.93921
▁been	-6.9473
▁these	-6.95831
▁neat	-6.95851
▁first	-6.96137
▁disappointed	-6.97556
▁condition	-7.01276
▁come	-7.01464
▁some	-7.01892
▁merchandise	-7.01923
▁thin	-7.02261
▁when	-7.03363
▁friendly	-7.03889
▁according	-7.04296
▁skin	-7.04727
▁5	-7.05056
▁shoe	-7.05165
▁kak	-7.05252
▁standard	-7.06113
▁steady	-7.06668
▁try	-7.08204
▁get	-7.08243
▁items	-7.0878
▁fabric	-7.10154
▁arrived	-7.10944
▁packaged	-7.11838
▁send	-7.12792
▁or	-7.12903
n	-7.13426
▁he	-7.15899
▁who	-7.15998
▁them	-7.1684
▁wear	-7.17123
ance	-7.17736
▁safe	-7.17985
▁box	-7.18439
▁want	-7.18478
quite	-7.19229
▁would	-7.20304
▁safely	-7.20749
▁free	-7.20821
▁anyway	-7.21283
▁cute	-7.21631
▁k	-7.21757
▁then	-7.22444
▁what	-7.23162
▁slow	-7.23588
▁does	-7.23608
▁ordered	-7.23985
▁best	-7.24299
▁shopping	-7.26155
▁orders	-7.26808
▁4	-7.2708
▁accord	-7.27444
▁tone	-7.28113
▁any	-7.28711
▁alhamdulillah	-7.29394
▁cool	-7.29562
▁poor	-7.30129
▁deh	-7.30237
▁even	-7.30272
▁quickly	-7.30337
▁day	-7.30562
an	-7.30696
▁recommended	-7.30773
▁star	-7.30976
▁soft	-7.31498
▁picture	-7.31586
▁accommodating	-7.31762
▁overall	-7.3206
▁may	-7.32228
er	-7.33021
▁should	-7.33423
▁bad	-7.34269
▁message	-7.34444
▁shopee	-7.35028
▁big	-7.35451
in	-7.35597
▁wrap	-7.35693
▁before	-7.36308
▁tq	-7.37887
▁days	-7.3805
▁prices	-7.38262
▁immediately	-7.3888
▁which	-7.39913
▁two	-7.40058
a	-7.40666
▁used	-7.40825
▁god	-7.41125
▁wait	-7.41769
▁bubble	-7.42089
▁had	-7.43365
▁jg	-7.4352
▁kiss	-7.43765
▁bagus	-7.44256
▁pack	-7.45963
▁complete	-7.46121
▁bag	-7.46823
▁after	-7.46847
▁go	-7.48979
▁lah	-7.4934
▁deliver	-7.49905
▁bough	-7.50761
▁hands	-7.51524
▁make	-7.51742
▁old	-7.52167
▁damage	-7.52211
▁black	-7.52339
▁we	-7.52459
▁lot	-7.52758
▁gr	-7.53074
▁did	-7.53102
▁thick	-7.53567
▁yet	-7.54801
▁look	-7.54975
k	-7.5551
▁were	-7.55651
▁right	-7.55856
▁gk	-7.56442
▁r	-7.56445
▁different	-7.56641
▁hand	-7.56649
▁wrong	-7.56863
inning	-7.57802
▁reply	-7.59378
able	-7.59498
▁expected	-7.60126
▁support	-7.60182
▁many	-7.61531
▁turn	-7.61571
te	-7.61672
▁lg	-7.62373
▁blow	-7.62736
▁an	-7.63061
▁back	-7.63399
▁happy	-7.63473
▁please	-7.63671
▁enough	-7.6369
▁durable	-7.64623
▁hope	-7.65554
x	-7.65595
h	-7.65975
▁feel	-7.66603
▁hearts	-7.67536
▁high	-7.67645
▁purchase	-7.67702
▁anothe	-7.69222
▁affordable	-7.69374
▁times	-7.69502
▁dah	-7.69552
▁quick	-7.69624
▁neatly	-7.69681
▁know	-7.69878
▁better	-7.71029
▁white	-7.71031
▁fold	-7.71296
▁need	-7.72523
▁ask	-7.73038
▁put	-7.73392
▁think	-7.73713
▁how	-7.73977
▁g	-7.73995
▁plastic	-7.74073
▁check	-7.74183
▁chat	-7.74766
▁now	-7.74964
▁broken	-7.75216
▁jd	-7.75452
▁us	-7.75824
▁udh	-7.75969
▁see	-7.76178
▁certainly	-7.7646
▁clothes	-7.76613
▁image	-7.77383
▁appropriate	-7.79322
▁passable	-7.79386
▁sure	-7.79782
▁pesen	-7.8011
▁top	-7.80323
▁carefully	-7.80585
▁definite	-7.8094
l	-7.81103
▁your	-7.81823
▁over	-7.82465
▁pair	-7.82508
▁got	-7.82776
▁u	-7.83178
es	-7.83255
▁real	-7.83503
▁continue	-7.83987
▁full	-7.8427
▁recommend	-7.8439
▁10	-7.84631
▁although	-7.85036
▁running	-7.85204
▁nyampe	-7.85269
▁brg	-7.85486
▁suitabl	-7.86309
▁beam	-7.87195
▁thing	-7.8733
▁smile	-7.87839
▁p	-7.88373
▁po	-7.88385
▁am	-7.88908
▁baik	-7.89028
▁shirt	-7.8919
▁about	-7.89366
▁gift	-7.89374
▁y	-7.91186
▁sy	-7.91394
▁standards	-7.9144
▁came	-7.91603
▁ve	-7.91734
▁customer	-7.92365
lightly	-7.92543
▁work	-7.93498
▁second	-7.93584
▁un	-7.93627
▁take	-7.93834
ather	-7.94089
▁let	-7.94151
▁ko	-7.94828
▁tear	-7.95204
▁blue	-7.95268
▁ny	-7.95757
i	-7.95782
▁smooth	-7.96266
▁colors	-7.965
▁fitting	-7.97888
▁though	-7.98072
▁say	-7.98673
▁easy	-7.9883
▁banget	-7.98885
▁stars	-7.99483
▁sis	-8.00671
▁perfect	-8.00864
▁she	-8.01088
▁services	-8.01967
▁correspond	-8.02058
▁child	-8.02133
▁case	-8.02444
ve	-8.03383
▁x	-8.03811
▁could	-8.03938
▁large	-8.04283
▁cry	-8.05096
▁pink	-8.05217
▁ung	-8.06024
▁without	-8.0621
▁soon	-8.06296
▁tpi	-8.06314
▁aja	-8.06759
▁unfortunately	-8.06804
▁packed	-8.06844
▁e	-8.07685
▁sdh	-8.07723
▁once	-8.07991
▁pants	-8.08317
▁wrappe	-8.08357
▁fits	-8.08564
▁hard	-8.08723
▁looks	-8.08796
▁transport	-8.09425
▁longer	-8.10298
▁suit	-8.10454
▁subscription	-8.10482
▁courier	-8.10805
▁why	-8.10883
▁short	-8.11283
▁description	-8.11526
▁match	-8.11566
▁keep	-8.1216
▁ka	-8.12285
▁exact	-8.12502
▁secure	-8.12614
▁smell	-8.12957
▁direct	-8.13645
▁repeat	-8.14154
▁joy	-8.14327
▁given	-8.14382
▁recomended	-8.14543
▁most	-8.15059
▁yaa	-8.15404
▁l	-8.15409
▁b	-8.1544
▁never	-8.15761
▁give	-8.15793
▁wro	-8.15889
▁c	-8.16164
▁ori	-8.16629
▁cover	-8.16648
g	-8.16763
▁carrier	-8.17849
▁fine	-8.18178
▁feet	-8.18258
th	-8.18383
▁success	-8.18639
▁date	-8.18729
▁customers	-8.18886
▁na	-8.19125
▁off	-8.19182
▁suka	-8.19192
▁mouth	-8.19429
▁bonus	-8.19496
▁model	-8.19646
▁return	-8.19678
▁subscriptions	-8.19783
▁6	-8.20649
▁cheaper	-8.20799
▁yg	-8.20961
on	-8.21475
▁problem	-8.21747
▁sorr	-8.22008
▁tried	-8.22019
▁fab	-8.22432
ulous	-8.23034
▁design	-8.23316
▁medium	-8.23416
▁post	-8.23926
▁ni	-8.24555
▁last	-8.24609
▁son	-8.25252
▁baby	-8.25857
▁krn	-8.25941
▁open	-8.26159
▁stores	-8.26258
▁sale	-8.26268
▁loved	-8.26886
▁every	-8.2694
▁mm	-8.27693
▁late	-8.2772
▁arrive	-8.28083
▁seem	-8.28254
▁those	-8.28258
▁receive	-8.29015
▁works	-8.29086
▁refund	-8.29407
▁set	-8.29488
▁tight	-8.29921
ies	-8.30167
▁far	-8.30595
▁re	-8.30976
▁made	-8.30995
▁sad	-8.31009
▁mantul	-8.31414
▁week	-8.31631
▁gan	-8.31678
▁create	-8.31758
▁said	-8.31823
▁sensitive	-8.32165
▁photo	-8.32252
▁dc	-8.32256
▁dent	-8.33148
▁materials	-8.33237
▁cpt	-8.33542
m	-8.33702
▁down	-8.34479
▁people	-8.34547
▁dr	-8.3459
▁buying	-8.34812
▁cloth	-8.34961
▁fair	-8.35013
nd	-8.35139
what	-8.35164
▁yesterday	-8.35291
▁baguss	-8.35309
▁j	-8.35402
▁wide	-8.3587
▁today	-8.36359
▁hehe	-8.36701
▁gpp	-8.37039
▁change	-8.37472
▁di	-8.38362
▁cuman	-8.38367
▁home	-8.38427
▁must	-8.38813
▁bottle	-8.38905
st	-8.39479
▁stock	-8.395
▁thx	-8.39786
▁taste	-8.40039
▁sp	-8.40597
ren	-8.41537
▁their	-8.41607
▁tebel	-8.41839
o	-8.42054
▁delier	-8.42173
▁packingnya	-8.42949
▁pas	-8.4325
▁brand	-8.43479
▁everything	-8.43682
▁loves	-8.44093
▁request	-8.44178
▁sellers	-8.44253
mc	-8.44734
▁close	-8.44871
▁dapet	-8.44997
▁thankyou	-8.45262
▁yung	-8.45316
▁rich	-8.45408
▁took	-8.45462
▁klo	-8.456
▁line	-8.45601
▁ever	-8.45767
▁cm	-8.45897
▁part	-8.46445
▁him	-8.46513
▁serve	-8.46592
▁instead	-8.46864
▁9	-8.47028
▁green	-8.47081
▁responsive	-8.47181
▁kind	-8.4799
▁strong	-8.48133
▁both	-8.48257
▁dress	-8.48292
▁sweat	-8.48563
▁process	-8.48893
▁cepat	-8.49148
ity	-8.49351
▁sensitivity	-8.50062
▁function	-8.50136
▁own	-8.50321
▁foot	-8.51363
▁answer	-8.5159
▁way	-8.52079
al	-8.52195
ten	-8.52338
u	-8.52346
▁nyesel	-8.52983
▁pay	-8.53134
▁later	-8.53248
▁tasty	-8.53277
▁run	-8.53967
▁7	-8.54032
▁sip	-8.55086
ation	-8.5509
▁dateng	-8.55436
▁add	-8.55698
▁amount	-8.55857
▁water	-8.56861
▁pict	-8.57013
▁eat	-8.57209
▁through	-8.57593
▁smaller	-8.58239
▁boss	-8.58287
▁hugg	-8.58655
▁few	-8.5877
▁la	-8.59184
▁into	-8.59735
▁mask	-8.59743
▁reasonabl	-8.59892
▁sm	-8.59933
▁looking	-8.60351
▁mantap	-8.60472
▁8	-8.60566
▁clear	-8.60598
▁faster	-8.606
▁dg	-8.60815
▁shape	-8.60903
▁mksh	-8.61147
▁praise	-8.6128
▁dislike	-8.61462
▁expensive	-8.6201
▁heavy	-8.62745
▁trimakasih	-8.63122
▁12	-8.63188
▁funny	-8.63239
▁low	-8.63694
▁satisfactory	-8.63771
▁bgus	-8.63799
ng	-8.64007
▁tidy	-8.64285
▁yellow	-8.64605
▁delicious	-8.64606
▁cardboard	-8.64731
each	-8.64832
▁normal	-8.65233
▁forward	-8.65387
▁actual	-8.65507
▁sir	-8.6579
le	-8.65882
▁dear	-8.66255
▁wearing	-8.66416
▁oke	-8.66513
▁point	-8.66768
▁miss	-8.67086
▁plus	-8.67624
▁done	-8.67639
▁content	-8.67918
▁hot	-8.67998
▁discount	-8.68305
▁inside	-8.6832
▁nya	-8.68375
day	-8.68383
▁weight	-8.68609
▁loudl	-8.68671
▁shipment	-8.69047
▁finally	-8.69111
▁where	-8.69373
▁cut	-8.69406
▁properly	-8.69672
▁provide	-8.69904
▁11	-8.70259
▁respond	-8.70725
▁landed	-8.71012
▁loose	-8.71222
▁cream	-8.71286
▁thought	-8.713
▁cost	-8.71302
▁pro	-8.71321
▁help	-8.71341
▁torn	-8.71345
▁while	-8.71403
▁trust	-8.71784
▁future	-8.71876
▁shops	-8.72131
▁dh	-8.72389
▁kk	-8.72564
▁100	-8.7284
▁general	-8.72866
▁expectations	-8.72919
ry	-8.73041
▁barang	-8.73056
▁dark	-8.73296
▁such	-8.73378
▁purchased	-8.73522
▁smoga	-8.73527
▁q	-8.73773
▁lack	-8.74073
▁form	-8.74138
▁however	-8.74302
▁number	-8.74333
▁photos	-8.7461
▁liked	-8.74802
lah	-8.74822
▁battery	-8.75339
▁restaurant	-8.7586
▁consider	-8.75976
▁regret	-8.76141
▁flash	-8.76142
ness	-8.7666
▁pokonya	-8.77754
▁phone	-8.77756
▁since	-8.77987
▁course	-8.78421
▁find	-8.78432
▁disappointing	-8.78576
▁leak	-8.78578
▁o	-8.788
▁disappoint	-8.79898
▁buyer	-8.80287
▁book	-8.80786
▁pictures	-8.81294
▁selling	-8.81377
▁deal	-8.81652
▁repurchase	-8.81687
▁xl	-8.81734
ion	-8.81812
▁com	-8.81844
▁bangett	-8.82033
▁defective	-8.82077
▁sya	-8.82216
round	-8.82698
▁je	-8.82709
▁expect	-8.82738
▁20	-8.82778
▁lng	-8.82952
▁side	-8.82962
age	-8.82999
▁naman	-8.83328
▁purple	-8.83429
▁careful	-8.83509
▁guns	-8.83534
▁maybe	-8.83562
▁sound	-8.8362
▁ll	-8.83852
▁glue	-8.83934
▁ma	-8.83959
▁h	-8.84131
▁slight	-8.8437
▁years	-8.84427
▁job	-8.84675
▁due	-8.8514
▁makasi	-8.85474
▁ad	-8.85577
▁oh	-8.85586
▁follow	-8.85877
▁hours	-8.86026
▁severa	-8.86257
▁bs	-8.86258
▁dd	-8.86289
▁house	-8.86295
▁dur	-8.86667
▁dong	-8.86913
▁values	-8.87036
▁correct	-8.87345
▁harga	-8.87953
▁month	-8.8815
▁body	-8.88419
▁seal	-8.88869
▁hair	-8.88872
▁hold	-8.88938
less	-8.88977
▁empt	-8.89516
▁dtg	-8.89638
▁kirain	-8.89672
▁bah	-8.89673
▁others	-8.898
▁texture	-8.89826
▁afternoon	-8.89827
▁true	-8.89865
▁working	-8.89869
▁makasih	-8.90212
ty	-8.90235
▁review	-8.90415
▁sold	-8.90509
▁sell	-8.90597
▁paper	-8.9113
▁gra	-8.91227
▁fall	-8.91316
▁mudah	-8.91553
▁thre	-8.91722
▁bright	-8.92007
▁usual	-8.92064
▁call	-8.92246
▁place	-8.92256
▁eh	-8.92347
▁glass	-8.92577
▁break	-8.92746
▁brown	-8.92765
▁perfectly	-8.92891
▁wink	-8.92952
▁subscribed	-8.93093
▁half	-8.93115
▁code	-8.93221
▁kok	-8.93826
▁pic	-8.93995
▁brother	-8.94117
▁charge	-8.94251
▁play	-8.94532
▁extreme	-8.94785
▁bags	-8.95271
▁together	-8.95835
▁type	-8.95851
▁outside	-8.96172
▁bounced	-8.96362
▁terimakasih	-8.96778
▁results	-8.96808
hing	-8.96888
c	-8.97294
▁al	-8.97685
▁genuine	-8.97703
▁admin	-8.9796
▁dirty	-8.9802
▁pa	-8.98092
▁difficult	-8.98403
▁broke	-8.98673
▁sampai	-8.98781
▁pengiriman	-8.9905
thing	-8.99255
▁enthusiastic	-8.99286
▁cushioning	-8.99323
▁rolling	-8.99529
▁end	-8.99734
▁easily	-8.99873
▁gak	-9.00512
▁food	-9.00724
▁under	-9.00842
▁blessing	-9.00857
▁compar	-9.01081
▁being	-9.01291
▁lovely	-9.01313
▁paid	-9.01639
▁w	-9.01934
▁finish	-9.02174
▁wash	-9.02291
▁dry	-9.02374
▁ng	-9.02379
▁narrow	-9.02525
▁crack	-9.02572
▁year	-9.02629
▁ready	-9.03002
▁balance	-9.03337
▁aq	-9.03439
▁confirmation	-9.03458
▁usually	-9.03502
▁stick	-9.03959
▁husband	-9.04187
▁china	-9.04387
▁hole	-9.05221
▁f	-9.05409
b	-9.05705
ya	-9.05772
▁comfort	-9.05885
▁weeks	-9.06071
▁per	-9.06345
ld	-9.06474
▁understand	-9.06773
p	-9.06883
▁clean	-9.07212
▁something	-9.07308
▁pieces	-9.07315
▁sending	-9.07623
▁interchangeable	-9.08171
▁sticker	-9.08566
▁test	-9.08777
▁opened	-9.08794
▁online	-9.08802
▁worn	-9.09436
▁substantial	-9.09733
▁fortunately	-9.09937
▁almo	-9.09992
ble	-9.10273
▁yah	-9.10388
▁30	-9.10498
▁left	-9.1052
▁transaction	-9.10919
▁meet	-9.11057
▁satisfying	-9.11213
▁bngt	-9.11283
▁walking	-9.11506
▁style	-9.11795
▁buyers	-9.11869
▁promo	-9.11996
▁useful	-9.12089
▁cat	-9.12309
▁tell	-9.12616
▁tu	-9.12675
▁smpe	-9.12694
▁relative	-9.13133
ther	-9.13355
▁sa	-9.13484
▁bless	-9.13497
▁jdi	-9.13676
▁parcel	-9.13745
▁sweet	-9.13841
▁mah	-9.13953
▁provid	-9.14058
▁mantab	-9.14129
▁piece	-9.14258
▁v	-9.14835
▁pcs	-9.15059
▁smpai	-9.1513
▁note	-9.1524
▁boxes	-9.15287
pcs	-9.15317
▁mark	-9.15734
▁away	-9.15747
▁se	-9.16073
▁sukaa	-9.16135
▁read	-9.16155
▁sellernya	-9.16332
▁luck	-9.16362
▁bener	-9.16384
kg	-9.16628
▁socks	-9.16793
▁sma	-9.17012
▁motive	-9.17082
▁spend	-9.17087
▁bnget	-9.17167
▁bigger	-9.17288
▁puas	-9.17359
▁da	-9.17591
▁successfully	-9.17643
▁push	-9.17723
▁despi	-9.17819
▁oil	-9.17854
▁sukak	-9.17897
ce	-9.18106
▁pdhl	-9.18354
▁kaka	-9.18531
▁contact	-9.18568
▁watch	-9.18826
▁important	-9.18998
en	-9.19026
ku	-9.19554
f	-9.19892
▁sales	-9.201
▁buildup	-9.2052
▁screen	-9.2052
fragrant	-9.20525
▁floor	-9.20739
▁air	-9.20798
▁nh	-9.20858
▁realpict	-9.20967
▁rubber	-9.21189
▁pesenan	-9.21199
▁choose	-9.21235
▁length	-9.21621
▁lgi	-9.22199
▁fix	-9.22525
▁lightweight	-9.22738
▁uda	-9.22776
▁rope	-9.22963
▁front	-9.22987
▁lagi	-9.22994
▁our	-9.23005
▁milk	-9.23309
▁avail	-9.23677
▁syuka	-9.23682
▁principal	-9.23861
▁hour	-9.23874
▁cushion	-9.24093
▁successful	-9.2419
▁hrga	-9.24296
▁offer	-9.24473
▁tapi	-9.24503
▁till	-9.24552
▁morning	-9.24772
▁trusted	-9.25016
▁40	-9.25098
▁temporar	-9.2523
▁tetep	-9.25231
▁flame	-9.25459
▁install	-9.25666
▁difference	-9.26152
▁mother	-9.26307
▁actuall	-9.26345
▁cotton	-9.26384
▁fragrance	-9.26385
▁fan	-9.26484
▁months	-9.26536
▁solid	-9.26634
▁found	-9.26639
▁mandat	-9.26786
▁lang	-9.26909
▁stretch	-9.27011
▁sole	-9.27121
▁rate	-9.27313
▁sgt	-9.27772
▁man	-9.27876
▁pattern	-9.28025
▁gini	-9.28037
▁asics	-9.28073
▁pairs	-9.28104
▁dis	-9.28137
▁night	-9.28386
▁person	-9.29083
▁gifts	-9.29177
▁colour	-9.2945
▁photograph	-9.29451
▁double	-9.29453
ous	-9.29504
▁min	-9.2963
ful	-9.29856
▁skirt	-9.29945
▁50	-9.30105
▁sempet	-9.30178
▁matches	-9.30312
▁extra	-9.30377
▁issue	-9.3043
ment	-9.30569
▁lama	-9.30618
▁continues	-9.30698
▁arriving	-9.30897
▁wrna	-9.30947
▁especially	-9.31145
▁base	-9.31269
▁spill	-9.31392
▁term	-9.31549
▁murah	-9.31577
▁added	-9.31615
▁advice	-9.31875
▁legit	-9.31879
▁terbaik	-9.3192
▁friends	-9.31958
▁sesuai	-9.32123
▁increase	-9.32124
cm	-9.32275
▁squint	-9.32366
▁strap	-9.32658
row	-9.32739
▁card	-9.32984
▁confirm	-9.3334
▁previous	-9.33361
▁15	-9.336
▁abroad	-9.33607
▁remain	-9.33612
▁wish	-9.33827
▁able	-9.3413
▁respon	-9.34141
▁terima	-9.34398
▁power	-9.34507
▁yaaa	-9.34524
▁motif	-9.34609
▁layer	-9.34623
▁update	-9.34796
▁intact	-9.3487
▁loss	-9.3491
orbid	-9.35121
▁pick	-9.35173
▁tomor	-9.35218
more	-9.35319
▁sister	-9.3532
▁probabl	-9.3533
pping	-9.35373
▁attitude	-9.3539
▁stain	-9.35471
▁brush	-9.35801
▁lbh	-9.36144
▁sangat	-9.36345
▁life	-9.36652
▁stitches	-9.36656
▁lid	-9.36791
est	-9.36896
▁regular	-9.3704
▁likes	-9.37229
orry	-9.37391
▁rest	-9.37531
▁bottom	-9.37684
▁ca	-9.377
▁dri	-9.37947
id	-9.38158
▁arch	-9.38264
▁coat	-9.38362
▁wherea	-9.38535
▁cla	-9.38675
▁head	-9.38678
▁guess	-9.38994
▁paketan	-9.39007
▁waste	-9.39035
▁care	-9.39039
▁semoga	-9.39091
▁umpteen	-9.39258
▁sneakers	-9.39286
▁round	-9.39416
▁owner	-9.3942
▁defects	-9.39911
▁stitching	-9.39986
▁unlike	-9.4006
▁rapid	-9.40299
▁ah	-9.40303
▁car	-9.40476
▁produk	-9.405
▁pen	-9.4059
▁orange	-9.40875
self	-9.40938
▁ha	-9.40968
▁exist	-9.41133
▁halo	-9.41149
▁pleasant	-9.41153
▁hell	-9.41359
▁amazing	-9.41446
nt	-9.41516
▁rekomended	-9.4181
truck	-9.41899
▁show	-9.42175
▁gold	-9.42305
▁jga	-9.4242
▁brang	-9.42464
▁purchasing	-9.4276
▁br	-9.42875
▁else	-9.43033
▁cable	-9.43209
▁grow	-9.43801
▁tau	-9.43856
▁receipt	-9.44129
▁statement	-9.44137
▁press	-9.44271
▁dents	-9.4435
▁zipper	-9.4441
▁result	-9.44449
▁packingan	-9.4459
▁crazy	-9.44967
▁shown	-9.45049
▁problems	-9.45117
▁period	-9.45245
▁expedition	-9.45246
▁sandal	-9.45251
▁express	-9.45267
▁trs	-9.45526
▁similar	-9.45811
▁laugh	-9.45813
▁name	-9.4584
▁business	-9.46048
▁attach	-9.46083
▁mmg	-9.46205
▁exp	-9.46208
▁aga	-9.46245
aaaaaaaaaaaaaaaa	-9.46365
▁makes	-9.46494
out	-9.46652
▁demand	-9.46658
▁tin	-9.46802
▁reached	-9.46949
▁confused	-9.47014
▁kids	-9.47247
▁cust	-9.47258
▁opportunit	-9.47267
▁sew	-9.47289
ize	-9.47303
▁heat	-9.47485
it	-9.4749
▁effective	-9.47525
▁24	-9.47752
▁near	-9.47811
▁market	-9.47818
▁loud	-9.47859
▁si	-9.47993
▁hehehe	-9.48106
▁sampenya	-9.48141
▁includ	-9.48235
▁sleep	-9.48522
▁ini	-9.4862
▁im	-9.48758
▁decent	-9.48962
▁tape	-9.49178
ted	-9.49239
▁pocket	-9.49251
▁reebok	-9.49254
▁edge	-9.49282
▁inform	-9.49442
▁terrible	-9.49553
▁ultra	-9.49839
▁patient	-9.49869
ps	-9.49915
▁seams	-9.50036
▁overseas	-9.50327
▁fresh	-9.50424
▁enjoy	-9.50429
▁inexpensive	-9.50722
w	-9.50865
▁expired	-9.51223
▁machine	-9.51447
▁nk	-9.51494
▁comment	-9.5165
▁favorite	-9.51736
▁doang	-9.51751
▁custom	-9.51806
▁foam	-9.51921
3	-9.52102
▁might	-9.52261
▁rough	-9.52265
▁walk	-9.52278
▁keren	-9.52494
▁defect	-9.52678
▁charger	-9.52721
▁talk	-9.52885
▁0	-9.53069
▁mksih	-9.53164
pensive	-9.53206
▁de	-9.53239
▁kayak	-9.53401
▁nike	-9.53754
▁improved	-9.54132
heck	-9.54163
▁dlu	-9.54179
▁mcm	-9.54181
▁gt	-9.54229
▁dn	-9.54325
▁acceptable	-9.54387
▁described	-9.54408
▁reviews	-9.54444
▁19	-9.54632
▁choice	-9.54651
▁cancel	-9.54751
▁total	-9.54823
▁expir	-9.54881
▁oder	-9.55593
▁ku	-9.55633
▁mak	-9.5579
▁early	-9.55851
▁coin	-9.55937
▁instant	-9.55948
▁tks	-9.56002
▁sample	-9.56007
▁severe	-9.56073
▁nyampenya	-9.56075
▁sticky	-9.56168
▁patron	-9.56285
▁13	-9.56287
▁matter	-9.5655
▁replaced	-9.56551
▁ke	-9.56573
▁experience	-9.5659
▁smua	-9.56707
▁scratch	-9.56791
▁inde	-9.56857
▁figure	-9.57147
▁rice	-9.57154
▁pass	-9.57216
▁don	-9.5723
▁straight	-9.57437
▁five	-9.57458
▁fake	-9.57476
▁packages	-9.57488
▁wire	-9.57583
▁hp	-9.57774
▁distinguish	-9.5778
▁okee	-9.57817
▁simple	-9.57996
▁tested	-9.58031
▁powder	-9.58098
▁company	-9.58101
z	-9.58138
▁packs	-9.58501
▁stay	-9.58714
v	-9.58774
▁brng	-9.58829
▁improve	-9.59017
▁sparkl	-9.59361
▁maintain	-9.59383
▁print	-9.59398
▁subsidize	-9.59604
▁pound	-9.59715
▁leave	-9.59958
▁sign	-9.59978
▁heel	-9.60021
▁arrival	-9.60031
▁navy	-9.60034
j	-9.60166
▁ball	-9.60293
▁responsibl	-9.6049
▁compare	-9.60642
▁trial	-9.6069
▁paint	-9.60705
▁information	-9.60707
▁uk	-9.60721
at	-9.60723
▁z	-9.60884
▁error	-9.61011
▁below	-9.61032
▁cantik	-9.61185
▁fault	-9.6134
▁normally	-9.61345
▁enter	-9.61348
▁bgs	-9.61389
▁reason	-9.61483
▁soap	-9.61511
▁convenient	-9.62052
▁earlie	-9.62083
kan	-9.62096
▁recommendation	-9.62122
▁38	-9.6223
▁gapapa	-9.62283
▁abis	-9.62382
▁address	-9.63002
▁felt	-9.63004
is	-9.63157
▁ei	-9.63197
▁runs	-9.63334
▁dsni	-9.63384
bility	-9.63391
▁button	-9.63411
▁aamiin	-9.63596
▁wow	-9.63651
▁nerawang	-9.63679
▁middl	-9.63758
▁ang	-9.63765
▁haha	-9.63766
▁feeling	-9.63924
▁smallness	-9.63954
▁slipper	-9.64055
▁forget	-9.64081
▁commodity	-9.64109
▁charging	-9.64359
▁width	-9.64844
▁notice	-9.64893
▁authentic	-9.65285
▁delay	-9.65386
worth	-9.65405
▁equal	-9.65427
▁ada	-9.65436
▁single	-9.65554
▁pain	-9.65865
▁jne	-9.66014
▁ordina	-9.66102
▁anak	-9.66359
▁stuck	-9.66411
▁transfer	-9.66411
5	-9.66517
lost	-9.66584
▁live	-9.66947
▁save	-9.67002
▁fear	-9.67068
▁packet	-9.67183
the	-9.67225
▁select	-9.67822
▁gel	-9.67933
▁ill	-9.681
▁ring	-9.68152
one	-9.6816
▁stand	-9.68208
▁mon	-9.68469
▁jnt	-9.68546
▁msh	-9.68572
ither	-9.68591
▁waist	-9.68605
▁thir	-9.68649
▁plant	-9.68659
▁camera	-9.68879
▁huhu	-9.68962
▁questions	-9.69057
▁vs	-9.69104
▁drawing	-9.69239
▁mini	-9.69311
▁four	-9.69551
▁wor	-9.6957
▁wind	-9.69812
▁clock	-9.70301
▁leas	-9.70428
▁guarantee	-9.70657
▁perha	-9.7066
▁word	-9.70692
▁lucu	-9.70787
▁thread	-9.71021
▁14	-9.71086
▁honest	-9.71367
▁jacket	-9.71384
▁danger	-9.71391
▁anyone	-9.71455
▁expectation	-9.7154
▁kasih	-9.71566
▁blister	-9.71749
▁arm	-9.71791
▁friend	-9.7203
▁rating	-9.72074
▁drawn	-9.72117
▁version	-9.72117
▁cap	-9.72231
▁freebie	-9.72241
▁flat	-9.72381
▁destination	-9.72482
▁mo	-9.72518
▁25	-9.72545
▁dlm	-9.72555
▁beat	-9.72627
ware	-9.72885
▁helpful	-9.7292
tried	-9.72921
▁dipake	-9.72945
▁advertised	-9.73113
▁nih	-9.73127
▁wet	-9.73165
▁fact	-9.73165
▁accomodat	-9.73212
▁ter	-9.73378
▁lipstick	-9.7348
▁flavor	-9.73594
ny	-9.73643
▁touch	-9.73676
ugly	-9.73709
▁sekali	-9.73833
▁bangettt	-9.73979
▁special	-9.74091
▁hat	-9.74148
▁beauty	-9.74349
▁lights	-9.74379
ious	-9.74412
▁seen	-9.74413
▁state	-9.74477
▁blm	-9.74725
▁trail	-9.74869
▁pesanan	-9.75075
▁everyone	-9.75127
▁surely	-9.75127
▁class	-9.75158
▁ksh	-9.75162
▁sampe	-9.75426
▁silver	-9.75477
▁bri	-9.75517
most	-9.75787
▁flaw	-9.75839
▁scratches	-9.75905
us	-9.75916
▁question	-9.76029
other	-9.76049
▁possible	-9.76252
▁gett	-9.76262
▁kl	-9.76317
▁bang	-9.76449
▁accept	-9.7661
▁shock	-9.76699
ch	-9.76721
▁cook	-9.76886
▁reliev	-9.7689
▁replace	-9.7701
▁stable	-9.77106
▁didn	-9.77149
▁peel	-9.77442
▁nyaa	-9.77694
rb	-9.77739
▁drink	-9.77783
▁payment	-9.77808
▁ttp	-9.77836
▁books	-9.77841
▁container	-9.77875
rd	-9.77918
▁past	-9.77992
▁hundred	-9.78165
▁prodct	-9.78166
▁wrapping	-9.78174
▁comfy	-9.78202
▁jgn	-9.78229
▁sist	-9.78418
▁mba	-9.78468
▁nt	-9.78679
▁handle	-9.78876
▁rada	-9.79
▁tea	-9.79056
▁fade	-9.79221
▁wanted	-9.79454
▁taken	-9.79471
▁pke	-9.79479
taff	-9.79696
▁writing	-9.79716
▁images	-9.8005
▁alone	-9.80156
▁start	-9.80176
▁user	-9.80376
▁pleased	-9.80422
▁depend	-9.80534
▁saw	-9.80622
▁exchange	-9.80712
▁writ	-9.80868
▁party	-9.809
▁gasket	-9.80936
▁yo	-9.80988
▁doubt	-9.81153
q	-9.81177
▁pillow	-9.81334
▁smp	-9.81403
▁include	-9.81535
▁apa	-9.81597
▁blnja	-9.81752
▁mantep	-9.81965
▁toe	-9.81979
▁glowing	-9.82026
▁area	-9.82047
▁kyk	-9.82339
ah	-9.82431
▁plug	-9.8245
▁voucher	-9.82549
▁lip	-9.82557
▁minus	-9.82563
▁girl	-9.82579
▁room	-9.82636
▁glasses	-9.82654
▁whole	-9.82836
▁voice	-9.82961
▁pngiriman	-9.82987
▁cake	-9.83528
▁clay	-9.83654
▁kasi	-9.83694
▁saya	-9.83732
▁fragile	-9.83778
▁label	-9.83794
▁cmn	-9.83805
▁hit	-9.83926
▁austria	-9.84192
▁between	-9.84192
▁level	-9.84196
▁rose	-9.84306
▁grip	-9.84326
▁39	-9.84601
▁savor	-9.84606
▁variation	-9.84612
▁shoppe	-9.84653
▁subscribe	-9.84955
▁steam	-9.85023
▁brilliant	-9.85024
▁amazon	-9.85026
ent	-9.85175
▁hijab	-9.85252
▁rapi	-9.85369
▁deduct	-9.85412
▁twice	-9.85442
▁maroon	-9.85502
▁disini	-9.85748
▁lock	-9.8582
▁pot	-9.85827
▁mkasih	-9.8599
4	-9.86007
▁pero	-9.86057
▁baguus	-9.86089
▁wom	-9.86118
▁mind	-9.86186
▁behind	-9.86284
▁glad	-9.86332
▁dont	-9.86351
▁non	-9.8646
▁kecewa	-9.86736
▁adjust	-9.86964
▁kualitas	-9.87067
▁random	-9.87133
▁2020	-9.87148
▁daily	-9.87193
▁eye	-9.87208
▁consumer	-9.87218
▁doesn	-9.87229
▁blame	-9.87244
▁37	-9.87459
▁recomend	-9.87475
▁effect	-9.87488
fty	-9.87503
▁btw	-9.87575
▁cold	-9.87595
▁descriptions	-9.8763
▁row	-9.87687
▁dech	-9.87853
▁sturdy	-9.8799
▁mantapp	-9.88083
▁unit	-9.88137
▁ear	-9.88208
▁lahh	-9.88256
▁fill	-9.88262
▁disposable	-9.8842
▁acne	-9.88421
▁surprise	-9.88424
▁wa	-9.88485
▁scent	-9.88508
▁feed	-9.88587
▁aman	-9.88677
▁ago	-9.88875
▁dan	-9.88943
back	-9.88948
▁sparkle	-9.89028
▁wallet	-9.89291
▁co	-9.8937
▁age	-9.89408
▁bru	-9.89421
▁pobud	-9.89728
▁haven	-9.89729
▁carton	-9.89736
or	-9.8974
▁cause	-9.89748
▁season	-9.89753
▁board	-9.89798
▁casing	-9.89799
▁seam	-9.89871
▁placed	-9.89973
coming	-9.90005
▁thorough	-9.90163
▁tongue	-9.90164
▁gtu	-9.90323
▁whe	-9.9056
▁sharp	-9.90588
▁warranty	-9.90628
▁game	-9.90786
▁tak	-9.90929
▁allah	-9.9101
▁reduce	-9.9112
ic	-9.9133
▁submitt	-9.91496
▁sun	-9.91524
▁kan	-9.9159
very	-9.91602
▁sometime	-9.91658
▁dehh	-9.9173
1	-9.91784
▁greatness	-9.92075
▁hi	-9.92135
▁guys	-9.92186
▁damag	-9.92201
▁18	-9.92267
▁door	-9.9235
▁accurate	-9.92416
▁subsidi	-9.92562
▁warm	-9.9261
▁abo	-9.92699
kept	-9.92805
▁xa	-9.92838
▁insert	-9.93037
▁freebies	-9.93048
▁miles	-9.93271
▁hurt	-9.93289
▁oath	-9.93292
good	-9.93294
▁expression	-9.93312
▁juga	-9.93321
▁byk	-9.93343
▁packagingnya	-9.93454
ected	-9.93466
▁initially	-9.9347
▁th	-9.93492
▁via	-9.93656
▁essential	-9.93748
▁iron	-9.93756
▁msg	-9.93874
▁afra	-9.93949
▁pp	-9.94041
▁soles	-9.94134
▁sleeve	-9.94702
▁impressed	-9.94835
cy	-9.94926
▁mateial	-9.9512
▁aj	-9.95171
▁legs	-9.95353
▁bahan	-9.95573
▁skrg	-9.95583
▁engga	-9.95771
▁kya	-9.95837
but	-9.9602
▁tuh	-9.96026
▁daughter	-9.96052
▁gorgeous	-9.96515
▁liquid	-9.96521
▁natural	-9.96524
▁elastic	-9.96527
▁earring	-9.96579
▁mall	-9.96928
▁slip	-9.9696
▁murmer	-9.96988
▁become	-9.97002
▁ngecewain	-9.97392
▁bangeet	-9.97397
▁stiff	-9.9745
▁36	-9.97546
▁cell	-9.97553
▁kek	-9.97878
▁profit	-9.97977
▁additional	-9.98006
▁hang	-9.98368
▁misplace	-9.98406
▁prompt	-9.98502
▁relieve	-9.98553
▁couple	-9.98592
▁lumayan	-9.9871
▁satisfy	-9.98715
▁bb	-9.98729
▁healthy	-9.98783
▁current	-9.98886
▁pull	-9.9889
▁misdir	-9.98892
▁further	-9.98894
▁hati	-9.98909
▁tired	-9.99048
red	-9.99066
▁willing	-9.99339
▁absolute	-9.99366
▁hihi	-9.99546
▁fun	-9.99584
ball	-10.0026
▁pokoknya	-10.0026
▁mn	-10.0028
▁replacement	-10.0035
▁dog	-10.0053
▁list	-10.0063
▁mix	-10.0071
▁duper	-10.0072
xxl	-10.008
▁ash	-10.0084
▁moga	-10.0088
▁scar	-10.0113
▁okeh	-10.013
▁advance	-10.0131
▁smg	-10.0134
▁reseller	-10.0136
ought	-10.0143
um	-10.0176
▁pouch	-10.0177
▁plain	-10.0184
▁lower	-10.0208
▁cup	-10.0227
▁ministry	-10.023
man	-10.0234
▁insole	-10.0239
▁detail	-10.0243
▁roll	-10.0255
▁superb	-10.0265
▁bra	-10.0267
▁jos	-10.0278
▁saturday	-10.028
▁effort	-10.028
▁leather	-10.0281
▁variant	-10.0281
▁subsid	-10.0286
▁speak	-10.0313
gb	-10.0315
▁trade	-10.0329
▁thinner	-10.0332
▁prev	-10.0332
▁load	-10.0333
▁table	-10.0342
▁28	-10.0344
▁protect	-10.0378
▁hahaha	-10.0392
▁ramah	-10.0394
ally	-10.0406
▁ganda	-10.041
▁obvious	-10.043
ml	-10.0431
▁nose	-10.0439
▁main	-10.0453
led	-10.0467
▁female	-10.0481
▁merchant	-10.0481
▁nyampek	-10.0489
▁write	-10.0492
▁banyak	-10.05
▁rm	-10.0503
▁fish	-10.0529
▁blanja	-10.0533
▁cutting	-10.0535
▁cuma	-10.0537
▁fail	-10.0551
▁nag	-10.0555
▁led	-10.057
▁bargain	-10.0635
▁ingredient	-10.0635
▁school	-10.0636
▁hook	-10.0637
▁jumbo	-10.0643
▁pn	-10.0679
▁kc	-10.0679
▁pdhal	-10.0687
▁pengirimanya	-10.0692
and	-10.0692
▁hello	-10.0712
▁boy	-10.0714
▁markotop	-10.0718
▁ba	-10.072
▁wood	-10.0724
▁16	-10.0729
▁availab	-10.073
▁system	-10.0739
▁whichsoever	-10.0739
▁exhaust	-10.0739
not	-10.0744
▁okey	-10.0749
▁din	-10.076
▁bg	-10.0772
▁remove	-10.079
▁perfume	-10.0791
▁frown	-10.0791
▁neck	-10.0792
▁simpl	-10.0794
▁hrg	-10.0823
▁bar	-10.0825
▁absorb	-10.083
▁pin	-10.0834
▁pm	-10.0835
▁count	-10.0838
▁display	-10.0844
▁uncomfortable	-10.0845
▁transmissi	-10.0849
▁repair	-10.085
▁view	-10.0857
▁connect	-10.0859
▁trims	-10.0874
▁hr	-10.0884
▁baikk	-10.0884
▁tip	-10.0895
▁revolv	-10.0897
▁washing	-10.0918
annya	-10.0927
▁22	-10.0929
▁accepted	-10.0938
▁dead	-10.0938
▁veil	-10.0952
▁kmr	-10.0964
▁reject	-10.0965
▁minutes	-10.0982
▁click	-10.1004
▁makasihh	-10.1021
go	-10.1029
▁happen	-10.1043
▁dsini	-10.1056
▁command	-10.1057
▁sana	-10.1061
▁promotion	-10.1062
▁leg	-10.1064
▁hav	-10.1079
▁otherwise	-10.1116
ish	-10.1121
ang	-10.1127
▁bear	-10.1143
▁dep	-10.1165
▁increasing	-10.1166
▁option	-10.1168
▁booking	-10.1169
▁carry	-10.117
▁excited	-10.1172
▁ngak	-10.1176
▁ama	-10.1198
gaada	-10.1205
▁23	-10.1208
▁pad	-10.1216
▁lose	-10.1218
▁bnyk	-10.1221
▁consistent	-10.1223
▁dust	-10.1229
▁suggestion	-10.123
mation	-10.1259
▁sukaaa	-10.1267
▁screw	-10.1276
▁win	-10.1299
7	-10.1304
mco	-10.1313
▁complain	-10.1313
days	-10.1322
▁kerr	-10.1324
▁priced	-10.1326
▁aroma	-10.133
▁compact	-10.1331
▁section	-10.1331
▁excla	-10.1331
▁collection	-10.1332
▁clip	-10.1335
▁recev	-10.1335
▁bhan	-10.1338
ers	-10.1359
se	-10.1383
▁persever	-10.1386
▁page	-10.1388
▁yong	-10.1394
▁dtng	-10.14
▁lain	-10.1402
▁fire	-10.1421
▁dng	-10.1436
▁sama	-10.144
▁respnse	-10.1442
▁buttons	-10.1443
▁famil	-10.1444
▁instruction	-10.1446
▁hesitate	-10.1449
▁interest	-10.1492
▁sunglass	-10.1498
▁forgot	-10.1501
▁semua	-10.1501
▁replie	-10.1501
▁ako	-10.1511
8	-10.1517
outing	-10.1518
weve	-10.1519
▁99	-10.153
▁datengnya	-10.1531
▁rock	-10.1534
▁suggest	-10.1546
▁sunday	-10.1558
▁recieve	-10.1573
▁batter	-10.1589
▁lh	-10.1592
▁sh	-10.1603
dah	-10.1607
▁volume	-10.1612
▁usb	-10.1612
▁rare	-10.1613
▁require	-10.1653
▁org	-10.1656
tion	-10.1667
▁friday	-10.1669
▁believe	-10.167
▁await	-10.1671
▁em	-10.1692
▁hear	-10.1697
to	-10.171
▁started	-10.1725
▁frame	-10.1727
▁langganan	-10.1728
▁jaitan	-10.1729
▁average	-10.173
ak	-10.1733
▁attenti	-10.1736
pun	-10.1754
et	-10.1761
▁lagii	-10.1762
▁tube	-10.1769
▁cord	-10.1782
▁crush	-10.1784
▁block	-10.1785
▁matching	-10.179
▁recently	-10.1793
▁ky	-10.1794
▁speaker	-10.1803
▁promise	-10.1804
traction	-10.1824
▁mouse	-10.1842
▁saller	-10.1843
▁incomplete	-10.1843
▁securely	-10.1848
▁none	-10.1855
▁thinking	-10.1873
▁cheapest	-10.1873
▁coffee	-10.1902
▁firm	-10.1902
▁towel	-10.1903
▁men	-10.1913
▁jugaa	-10.1935
▁lgs	-10.194
▁wrn	-10.1952
▁ninja	-10.1952
▁laces	-10.1955
▁status	-10.196
▁flowers	-10.1963
▁responsibility	-10.1976
▁cpet	-10.199
▁yun	-10.1995
▁except	-10.2012
▁qualty	-10.2018
▁kecil	-10.2028
▁gatau	-10.2034
▁office	-10.2052
▁warp	-10.2068
▁syg	-10.2072
▁knp	-10.2073
▁situation	-10.2078
▁sayang	-10.2078
▁segini	-10.2079
▁cepatt	-10.2085
▁cucok	-10.2086
▁knee	-10.2089
▁cross	-10.2091
eath	-10.2101
▁29	-10.2126
▁selamat	-10.2126
▁bhn	-10.2136
▁luggage	-10.2138
▁kapok	-10.2138
▁distance	-10.214
▁lo	-10.2141
▁train	-10.2143
▁drop	-10.2155
▁bli	-10.2156
▁reliabl	-10.2161
▁luv	-10.2179
▁shrimp	-10.2198
▁range	-10.2202
▁lazy	-10.2212
▁nyo	-10.2212
▁seler	-10.2245
lodge	-10.2258
▁separate	-10.2259
▁switch	-10.226
▁imagine	-10.2261
▁warna	-10.227
ged	-10.2278
▁ak	-10.2282
anya	-10.2298
▁pesennya	-10.2311
▁ye	-10.2312
ully	-10.2312
▁packging	-10.232
▁stylish	-10.232
▁worrie	-10.2321
▁waterproof	-10.2321
▁gambar	-10.2332
▁key	-10.2332
▁smga	-10.2336
▁die	-10.2342
▁bring	-10.2344
▁pake	-10.2347
▁lens	-10.2351
▁hrs	-10.236
▁papa	-10.2374
▁move	-10.2375
▁chocolate	-10.2381
▁odor	-10.2381
▁video	-10.2382
▁agk	-10.2398
▁mail	-10.2403
▁receiv	-10.2403
el	-10.2421
▁kalo	-10.2437
▁chine	-10.2438
▁control	-10.2442
▁000	-10.2443
▁blom	-10.2443
▁application	-10.2443
▁spot	-10.2445
▁anti	-10.2446
▁rust	-10.246
▁paste	-10.2461
▁90	-10.2471
▁lips	-10.2487
▁maganda	-10.2505
▁intimate	-10.2506
dislike	-10.2507
▁bass	-10.2509
▁belt	-10.2512
▁yeah	-10.2539
▁tree	-10.2559
▁appear	-10.2561
▁wif	-10.2562
▁production	-10.2563
▁kepake	-10.2567
▁remember	-10.2568
▁performance	-10.257
▁27	-10.2579
rang	-10.2596
hh	-10.2606
▁trus	-10.2611
▁jar	-10.2612
▁pr	-10.2616
▁submit	-10.263
▁polite	-10.2631
▁ra	-10.2633
▁supportive	-10.2634
▁damn	-10.2635
▁prefer	-10.2636
▁wkwk	-10.2641
▁certain	-10.2656
▁consult	-10.2693
▁giveaway	-10.2694
▁bundle	-10.2699
▁17	-10.2725
▁26	-10.2727
xl	-10.274
▁film	-10.2745
▁tr	-10.2746
▁surface	-10.2757
▁glove	-10.2759
ery	-10.2763
▁force	-10.277
▁apply	-10.2792
▁mom	-10.2794
▁booked	-10.2797
▁sneaker	-10.2815
re	-10.2822
▁protection	-10.2823
▁kat	-10.2845
▁bubblewrap	-10.2854
▁medica	-10.2861
▁colorful	-10.2875
▁bagussss	-10.2885
▁download	-10.2886
▁2019	-10.2887
▁tv	-10.2888
▁lead	-10.2889
▁nail	-10.2891
▁tas	-10.2896
▁gx	-10.2898
▁apart	-10.2932
▁sounds	-10.2946
ngry	-10.2947
▁tho	-10.295
▁trnyata	-10.2951
▁olshop	-10.2952
▁affection	-10.2953
▁sense	-10.2955
▁multipl	-10.2963
▁dl	-10.2977
▁nature	-10.2986
side	-10.2991
▁sih	-10.2995
▁cma	-10.2999
▁shovel	-10.3016
▁serum	-10.3016
▁satisfaction	-10.3018
▁60	-10.3024
▁flower	-10.3026
▁dusty	-10.3038
▁allow	-10.306
▁printing	-10.3061
▁sponge	-10.3084
▁chance	-10.3089
▁beli	-10.3089
▁lining	-10.3091
6	-10.3117
fast	-10.3117
▁details	-10.3131
▁lol	-10.3132
▁kid	-10.3141
▁site	-10.3145
▁kn	-10.3157
▁reach	-10.3174
▁victor	-10.3196
▁device	-10.321
▁road	-10.3211
▁sukaaaa	-10.3214
▁gym	-10.3215
▁awful	-10.3215
▁covid	-10.3215
▁competitive	-10.3215
▁communication	-10.3217
▁oversize	-10.3222
▁sihh	-10.3225
▁lamp	-10.3227
co	-10.3229
▁ank	-10.3238
▁unus	-10.324
▁mine	-10.3255
▁puass	-10.3256
▁gmn	-10.3259
▁origin	-10.3269
elves	-10.327
▁mistake	-10.3274
while	-10.3278
▁share	-10.3278
▁pit	-10.3279
▁adhesive	-10.3282
▁memory	-10.3284
ll	-10.3303
▁yaaaa	-10.3328
▁hote	-10.3331
▁bgtt	-10.3333
▁ugl	-10.3346
▁snug	-10.3354
▁baju	-10.3358
▁yourself	-10.336
▁meat	-10.336
▁ne	-10.3365
up	-10.3372
▁barangnya	-10.3378
▁scarf	-10.342
▁bnyak	-10.3424
▁rain	-10.3437
tqvm	-10.3444
▁ink	-10.3457
▁con	-10.3487
▁dpt	-10.3491
▁sampek	-10.35
▁beautifully	-10.352
▁former	-10.3523
ok	-10.3525
▁terms	-10.354
▁32	-10.3543
▁spray	-10.3544
▁antec	-10.3555
▁fell	-10.3558
aa	-10.3559
▁myself	-10.3561
▁brgnya	-10.3565
▁height	-10.3567
▁masks	-10.3578
thank	-10.3592
▁rat	-10.3594
rta	-10.3597
▁clothing	-10.3608
nyaa	-10.3615
▁bi	-10.3615
hari	-10.3621
▁pkp	-10.3624
▁sides	-10.3624
▁purse	-10.3626
▁coz	-10.3631
ada	-10.3653
▁tag	-10.3653
▁strange	-10.3654
▁info	-10.3655
▁appreciate	-10.3655
▁mas	-10.3691
edent	-10.3694
▁enthusiasm	-10.3694
▁mirror	-10.3694
▁doll	-10.3696
▁worry	-10.3703
▁ran	-10.3705
▁dental	-10.3711
▁ngk	-10.3712
▁cod	-10.3713
▁lace	-10.3716
mm	-10.3718
▁gone	-10.3724
hr	-10.3729
▁zip	-10.3732
▁fat	-10.3749
▁lun	-10.3758
▁fur	-10.3759
▁selected	-10.3763
▁bracelet	-10.3765
▁unknow	-10.3765
▁thailand	-10.3766
▁port	-10.3776
▁lighter	-10.3805
▁bangetttt	-10.3827
▁pre	-10.3829
llu	-10.3834
▁destroy	-10.3836
▁schedule	-10.3836
▁logistic	-10.3836
▁talaga	-10.3842
▁stated	-10.3848
▁mayan	-10.385
▁nnti	-10.3851
▁tues	-10.3851
ting	-10.3862
▁mag	-10.3868
▁slim	-10.3871
▁desired	-10.3872
▁etc	-10.3896
▁affect	-10.3906
▁letter	-10.3911
▁hoping	-10.3925
as	-10.3927
▁guide	-10.394
ily	-10.3943
▁200	-10.3955
▁van	-10.3974
▁practical	-10.3979
▁snack	-10.398
▁active	-10.398
▁fried	-10.3984
▁joss	-10.3986
▁shoppee	-10.3998
▁sizing	-10.4003
▁dus	-10.4006
sle	-10.401
▁assign	-10.4015
ksih	-10.4018
right	-10.4019
▁guy	-10.4019
▁tough	-10.4022
▁lamaa	-10.4022
▁communicate	-10.4023
▁mold	-10.4029
▁ja	-10.4035
▁jeans	-10.4043
▁pc	-10.4051
▁chest	-10.4053
▁ankle	-10.4055
▁mesen	-10.4055
▁shade	-10.4058
na	-10.406
▁21	-10.4069
ignal	-10.4088
▁band	-10.4095
▁discrepan	-10.4097
▁app	-10.4105
▁wholesale	-10.4107
used	-10.4108
▁impressive	-10.4125
▁pencil	-10.4125
▁envelope	-10.4127
▁reasonably	-10.4132
▁shell	-10.4147
▁insha	-10.4158
favorabl	-10.4167
▁enak	-10.4178
▁adem	-10.419
▁kw	-10.4191
▁visit	-10.4196
▁common	-10.4199
▁claim	-10.42
▁adidas	-10.4203
▁tempered	-10.421
▁travel	-10.4232
▁serious	-10.4232
▁hug	-10.425
▁fre	-10.4254
▁survive	-10.4272
▁local	-10.4272
▁logo	-10.4273
▁chose	-10.4275
▁series	-10.429
▁seeds	-10.4305
▁manda	-10.4341
▁excelent	-10.4347
▁maksih	-10.4347
▁evaluation	-10.4349
▁sngat	-10.4354
▁iphone	-10.4378
▁magnet	-10.4385
ha	-10.439
▁bt	-10.4393
▁wrinkle	-10.4399
▁beyon	-10.4399
▁mk	-10.4409
▁mace	-10.4416
▁wonder	-10.4421
▁entire	-10.4422
▁plate	-10.4428
▁present	-10.4429
▁wonderful	-10.4434
▁lucky	-10.4456
▁overload	-10.4498
▁limit	-10.4499
▁birthday	-10.4499
▁mgk	-10.4516
▁pd	-10.4533
▁manual	-10.4535
▁cun	-10.4544
▁measure	-10.4571
▁holiday	-10.4575
▁flexible	-10.4576
▁corner	-10.4576
▁ban	-10.4578
▁mh	-10.4589
▁seat	-10.4612
palm	-10.4622
ight	-10.4628
ever	-10.4628
▁quantity	-10.4651
▁adult	-10.4651
▁rupture	-10.4651
where	-10.4651
▁impression	-10.4652
▁women	-10.4653
▁congratulations	-10.4655
ped	-10.4673
▁shin	-10.4673
▁pls	-10.4677
cq	-10.4689
▁complaint	-10.4695
▁memuaskan	-10.4698
▁assess	-10.4729
▁remote	-10.473
▁saving	-10.473
▁weak	-10.4736
▁stop	-10.4737
ility	-10.475
▁bro	-10.4753
▁bls	-10.4767
▁skali	-10.4783
night	-10.4784
▁remov	-10.4785
▁contain	-10.4787
ure	-10.4801
▁laa	-10.4804
▁chicken	-10.4807
▁catch	-10.4811
▁ware	-10.4819
▁city	-10.4834
▁assembl	-10.4834
▁bored	-10.484
▁data	-10.4842
▁self	-10.4859
▁file	-10.4868
▁addition	-10.4883
▁cheat	-10.4884
▁throw	-10.489
▁ld	-10.4892
▁penjual	-10.4896
▁outer	-10.4902
▁stabili	-10.4903
▁secured	-10.4915
▁mat	-10.4952
▁malem	-10.4956
▁avoid	-10.4965
▁silicon	-10.4965
▁casual	-10.4965
▁saucy	-10.4966
▁mlm	-10.4976
▁toner	-10.4982
▁cocok	-10.4988
▁tablet	-10.4995
ga	-10.5003
9	-10.5005
am	-10.5018
▁expire	-10.5021
▁pakek	-10.5028
▁garne	-10.5036
ary	-10.5048
▁dissapoint	-10.505
▁unam	-10.5059
▁mic	-10.5067
▁jaka	-10.5082
▁qu	-10.5082
▁salt	-10.5086
odbless	-10.5089
▁won	-10.509
▁kaa	-10.5093
kk	-10.5096
▁bales	-10.5098
▁complaints	-10.5105
▁didnt	-10.5105
▁sz	-10.5107
hand	-10.511
▁text	-10.5112
▁ud	-10.512
▁melt	-10.513
▁makeup	-10.5132
▁trima	-10.514
bagus	-10.5143
▁rais	-10.5144
▁peach	-10.5153
▁trouble	-10.5157
blum	-10.5158
▁expel	-10.5159
▁555	-10.5164
▁pump	-10.5165
▁account	-10.5171
▁31	-10.5173
▁nga	-10.5193
▁peso	-10.5218
▁sim	-10.522
ne	-10.5229
▁nge	-10.523
▁young	-10.5231
ck	-10.5231
▁tlg	-10.5245
sh	-10.528
▁impact	-10.5289
▁rigid	-10.5289
▁beaui	-10.5289
▁grab	-10.529
▁mending	-10.5291
▁offline	-10.5291
▁space	-10.5292
▁fruit	-10.5294
10	-10.5296
head	-10.5318
ship	-10.5319
▁noon	-10.5336
▁map	-10.5336
lf	-10.5366
▁purpose	-10.5372
▁disabilit	-10.5376
▁nb	-10.5378
▁prior	-10.5386
▁rub	-10.5399
▁tk	-10.5405
▁headset	-10.5408
▁compani	-10.5425
▁resistan	-10.5432
went	-10.5435
▁chain	-10.5439
▁spic	-10.5444
▁fantastic	-10.5455
▁balloon	-10.5455
▁temporarily	-10.5456
▁pala	-10.5467
▁standar	-10.5473
▁ver	-10.5475
ant	-10.5503
▁bw	-10.5509
▁giv	-10.5513
▁bgd	-10.5517
▁sore	-10.5523
ung	-10.5533
▁pet	-10.5534
▁dikasi	-10.5535
▁selalu	-10.5536
▁disappint	-10.5539
▁neutral	-10.5539
▁axial	-10.5539
▁music	-10.5541
▁frustrat	-10.5543
▁xde	-10.5559
▁soul	-10.5561
▁ch	-10.5562
▁bat	-10.5565
▁character	-10.557
▁fee	-10.5576
▁race	-10.5578
▁ones	-10.5581
▁cases	-10.5582
▁awhile	-10.5589
hhhhhhhhhhhhhhhh	-10.5601
▁imagin	-10.562
▁eyebrow	-10.5623
▁diaper	-10.5625
▁huh	-10.5627
▁cou	-10.5635
▁proper	-10.5637
▁35	-10.5641
▁shope	-10.5641
▁variet	-10.565
▁hanger	-10.5652
ik	-10.5661
▁aku	-10.5684
▁tengkyu	-10.569
▁cards	-10.5696
▁burn	-10.5697
▁bye	-10.5704
▁thousand	-10.5709
▁premium	-10.5709
▁basic	-10.571
▁sheep	-10.571
line	-10.5711
wear	-10.5711
▁seamless	-10.5712
▁202	-10.5713
▁solution	-10.5714
▁shoulder	-10.5732
▁mi	-10.5736
▁wall	-10.5744
kkkkkkkkkkkkkkkk	-10.5748
▁kt	-10.5755
▁along	-10.576
▁80	-10.5794
▁crumple	-10.5795
▁gabisa	-10.5797
▁installation	-10.5802
▁mesh	-10.582
▁pe	-10.5825
▁palm	-10.5839
keep	-10.586
▁mw	-10.5867
▁repeated	-10.588
▁poslaju	-10.5882
▁lightning	-10.5886
▁amin	-10.5897
▁event	-10.5898
▁father	-10.5898
ee	-10.5913
▁ta	-10.592
ture	-10.5941
▁tool	-10.5943
▁klu	-10.5953
▁trmksh	-10.5972
▁inner	-10.5972
time	-10.5972
▁world	-10.5974
▁flawless	-10.5975
▁efficient	-10.5976
emg	-10.5981
▁dirt	-10.5987
▁official	-10.6002
▁concern	-10.6002
han	-10.6017
▁kakk	-10.6033
▁hind	-10.6034
▁upper	-10.604
okokokokokokokok	-10.6044
▁toes	-10.6046
▁headphone	-10.6059
▁personal	-10.6067
▁ribb	-10.6069
▁ug	-10.608
▁automatic	-10.6084
▁busy	-10.6087
▁sukses	-10.6087
▁strip	-10.6099
▁rapih	-10.61
lobb	-10.6115
▁sipp	-10.613
▁tipis	-10.6136
▁nak	-10.6139
▁insyaallah	-10.6148
▁submission	-10.6148
▁filter	-10.6148
▁edit	-10.616
tention	-10.6177
ling	-10.6181
▁sender	-10.6218
▁estimate	-10.6222
▁dura	-10.6227
▁forever	-10.6227
bit	-10.6228
▁idea	-10.6231
▁delicate	-10.6238
▁necklace	-10.6238
▁saucony	-10.6238
▁corona	-10.6238
▁earphone	-10.6238
▁prize	-10.6239
▁li	-10.6253
▁shortage	-10.6256
▁track	-10.6263
▁taunya	-10.628
prox	-10.6285
▁ilang	-10.629
spent	-10.6295
▁net	-10.6298
▁record	-10.6302
dahal	-10.6308
▁sii	-10.6317
▁opening	-10.632
rude	-10.6322
gr	-10.6323
around	-10.6325
▁capacit	-10.6329
▁shampoo	-10.6329
▁tread	-10.6329
▁moderate	-10.6331
▁communicati	-10.6332
▁june	-10.6334
▁tnx	-10.6335
ii	-10.6358
▁ngepas	-10.6361
▁boot	-10.638
021	-10.638
cross	-10.6389
▁su	-10.6402
▁pleading	-10.642
▁mount	-10.6421
▁conform	-10.6422
▁focus	-10.6422
▁sngt	-10.6424
▁perforat	-10.6424
▁500	-10.6425
▁karna	-10.6428
▁wo	-10.6436
▁sort	-10.6457
wn	-10.6467
ong	-10.6479
▁acco	-10.6494
▁amanah	-10.6504
they	-10.6504
▁luckily	-10.6514
▁segitu	-10.6539
light	-10.655
▁honey	-10.6586
▁bkn	-10.6589
▁70	-10.659
ssssssssssssssss	-10.6598
un	-10.6599
▁rear	-10.6606
▁blossom	-10.6606
▁secur	-10.6611
▁mid	-10.6617
▁bagusbagus	-10.662
kn	-10.6659
▁dipakenya	-10.6662
order	-10.6679
▁hnd	-10.6681
kin	-10.6681
▁weigh	-10.6684
so	-10.6693
▁sna	-10.6695
▁sll	-10.6697
▁wednesday	-10.6701
▁benefit	-10.6701
▁korea	-10.6704
▁worse	-10.6704
▁cntik	-10.6706
▁pac	-10.6712
▁penyok	-10.6717
▁evening	-10.6719
▁park	-10.672
▁transparen	-10.6754
▁initial	-10.6758
▁bend	-10.6759
iling	-10.6778
▁ho	-10.678
▁strength	-10.679
▁hehehehe	-10.6795
▁professional	-10.6796
▁aromatic	-10.6796
▁eventual	-10.6796
▁reward	-10.6797
▁center	-10.68
▁frequent	-10.6801
ive	-10.6804
▁ndak	-10.6808
▁cave	-10.682
▁factor	-10.6822
▁sewn	-10.6824
▁prepare	-10.6842
▁mali	-10.6844
ified	-10.6857
ar	-10.6869
▁nha	-10.688
▁donate	-10.6883
▁pric	-10.6889
▁nephew	-10.6892
▁collar	-10.6893
cast	-10.6899
▁bbrp	-10.6906
▁fi	-10.6906
▁kain	-10.6928
▁sering	-10.6937
lang	-10.6944
▁health	-10.695
▁wrapnya	-10.6953
▁mantull	-10.6954
▁pan	-10.6958
▁mg	-10.6965
▁45	-10.6967
▁ex	-10.6974
ma	-10.6979
▁abu	-10.6986
▁steel	-10.6989
▁kebuka	-10.699
keith	-10.6991
▁terimaksih	-10.6993
▁gmbr	-10.7002
▁smi	-10.7006
▁stripe	-10.7007
▁150	-10.7016
psbb	-10.7027
mah	-10.7028
▁kecepatan	-10.7031
▁uh	-10.7032
▁elegan	-10.7046
nna	-10.705
▁psen	-10.7082
▁dichat	-10.7089
▁nggk	-10.7089
la	-10.7101
0	-10.7106
▁yr	-10.7108
▁00	-10.7116
▁ice	-10.713
▁flex	-10.7131
▁gercep	-10.7145
top	-10.7145
▁weather	-10.7167
▁donk	-10.7186
▁trouser	-10.7186
▁wheel	-10.7188
▁overalls	-10.7188
▁mobile	-10.719
▁entr	-10.719
▁bath	-10.7199
▁duration	-10.7199
▁agree	-10.7202
▁legging	-10.7205
▁sour	-10.7213
▁manage	-10.7221
udos	-10.723
▁hik	-10.7231
aaa	-10.7234
▁jugak	-10.7249
▁sj	-10.7252
▁murce	-10.7254
▁sheet	-10.7258
▁05	-10.728
▁purchases	-10.7285
▁distort	-10.7285
▁vendor	-10.7286
▁quiet	-10.7286
▁tf	-10.7288
▁metal	-10.729
▁bender	-10.7299
▁ngam	-10.7377
ich	-10.7379
▁thursday	-10.7387
▁bget	-10.7387
▁nadeliver	-10.7389
rking	-10.739
▁bowl	-10.739
▁activit	-10.7393
▁assured	-10.7394
▁apple	-10.7395
▁suste	-10.7396
▁shipper	-10.7399
▁pulak	-10.741
▁six	-10.742
ka	-10.743
▁equip	-10.7432
▁sini	-10.7441
▁tie	-10.7449
▁step	-10.746
▁cam	-10.7469
▁loh	-10.7476
▁indonesia	-10.7485
▁collect	-10.7485
▁zero	-10.7489
▁bolt	-10.7491
▁tdk	-10.7491
▁import	-10.7491
▁alas	-10.7497
▁gentle	-10.7498
▁bner	-10.7502
nnya	-10.7514
gan	-10.7519
▁dikirim	-10.7531
▁appro	-10.7538
▁flow	-10.7547
▁umbrella	-10.7592
▁unexpected	-10.7592
▁summer	-10.7592
▁laptop	-10.7593
▁blanket	-10.7593
▁pnjual	-10.7593
▁berbaloi	-10.7593
▁bulk	-10.7593
▁lift	-10.7595
▁bait	-10.7596
▁beginning	-10.7597
rminate	-10.7598
ai	-10.7598
uuuuuuuuuuuuuuuu	-10.7599
▁moth	-10.76
▁seed	-10.7627
▁learn	-10.7627
▁hu	-10.7641
▁advertis	-10.7644
▁pla	-10.7655
▁lotion	-10.7656
▁bent	-10.7671
▁heheh	-10.7685
▁wah	-10.7688
▁rep	-10.7691
▁trip	-10.7694
▁dtang	-10.7695
▁outstanding	-10.7697
▁curtain	-10.7697
▁lbih	-10.7697
▁compliment	-10.7697
▁pigment	-10.7698
▁spring	-10.7698
▁mau	-10.7699
▁intend	-10.77
▁lines	-10.7704
dddddddddddddddd	-10.7705
▁needle	-10.7705
▁droppe	-10.7727
▁bsa	-10.7728
▁poko	-10.774
▁amen	-10.7741
▁fad	-10.7746
nance	-10.7747
lh	-10.7756
▁lie	-10.7758
▁sand	-10.7763
▁mess	-10.7767
▁hunt	-10.7781
▁bgttt	-10.7785
▁pengemasan	-10.7787
▁max	-10.7792
▁mukena	-10.7796
▁packingannya	-10.7799
▁protector	-10.7804
▁34	-10.7808
▁pokoke	-10.7815
▁welcome	-10.7826
▁sho	-10.7826
tested	-10.7838
▁barangx	-10.7839
ular	-10.7859
▁pengirimannya	-10.787
▁sudah	-10.7874
▁older	-10.7876
▁cas	-10.7889
▁types	-10.79
▁opinion	-10.7908
▁beige	-10.7908
▁accessories	-10.7908
▁bother	-10.7909
▁samsung	-10.7911
▁grim	-10.7913
▁mild	-10.7913
▁apparently	-10.7914
▁tosca	-10.7916
▁string	-10.7916
▁grey	-10.7921
▁indete	-10.7926
ial	-10.7927
▁gw	-10.7928
▁nareceive	-10.7929
▁dusnya	-10.7943
▁favor	-10.7948
▁mdh	-10.7961
▁nor	-10.7963
▁paket	-10.7982
▁sin	-10.7987
▁ce	-10.7992
▁mean	-10.8003
▁traffic	-10.8016
▁unique	-10.8016
▁prodak	-10.8017
▁link	-10.8018
▁motor	-10.8021
▁supplier	-10.8024
▁inch	-10.8027
▁appearance	-10.8029
▁smart	-10.8031
▁lmb	-10.8039
ter	-10.8039
how	-10.8041
▁kirim	-10.8042
ri	-10.8043
nife	-10.8052
▁report	-10.8057
▁undern	-10.8065
▁om	-10.8069
▁koq	-10.8073
▁diff	-10.8114
▁monkey	-10.8124
▁pandemic	-10.8124
▁physical	-10.8124
▁outdoor	-10.8125
▁deserve	-10.8125
▁dropship	-10.8126
▁attractive	-10.8127
▁fond	-10.8131
ros	-10.8134
▁costs	-10.8136
▁bank	-10.8137
▁supposed	-10.8142
▁pkoknya	-10.8145
▁known	-10.815
▁noise	-10.8158
▁yng	-10.8159
▁trader	-10.8167
▁voi	-10.8189
▁tuk	-10.819
▁holder	-10.8193
▁nympe	-10.8199
▁multi	-10.8201
some	-10.8201
▁krm	-10.8205
send	-10.8211
▁sukaaaaa	-10.8212
▁retriev	-10.8217
▁updates	-10.8221
▁42	-10.823
▁visib	-10.8231
▁incredibl	-10.8234
▁salomon	-10.8234
▁client	-10.8235
aaaaaaaaaaaaaaa	-10.8235
▁april	-10.8237
▁hurry	-10.8237
▁trim	-10.8243
▁udah	-10.8245
▁copy	-10.8249
▁los	-10.8257
▁bo	-10.8274
ni	-10.829
▁guests	-10.8292
▁suck	-10.8297
▁satu	-10.83
▁mu	-10.8318
▁tolera	-10.8324
▁wkwkwk	-10.8324
▁wipe	-10.8328
ih	-10.8333
▁stor	-10.8341
▁awet	-10.8343
▁basically	-10.8346
▁pressure	-10.8347
▁deform	-10.8348
▁disni	-10.8348
▁selection	-10.8351
▁egg	-10.8354
▁furni	-10.8355
smile	-10.8374
alcon	-10.8375
▁tap	-10.838
▁ade	-10.8397
tu	-10.8408
oh	-10.8421
▁foreign	-10.8423
▁hmm	-10.8423
oo	-10.8425
▁sizenya	-10.8431
ap	-10.8438
▁costumer	-10.8439
minggu	-10.844
ff	-10.8446
▁draw	-10.8447
be	-10.845
▁army	-10.8456
▁spirit	-10.8458
▁bluetooth	-10.8458
▁jap	-10.8459
▁cheese	-10.8462
▁dumat	-10.8464
▁recommenda	-10.8465
▁drive	-10.8475
▁nka	-10.8482
▁input	-10.8485
▁cloud	-10.8494
▁fr	-10.8509
▁hm	-10.8529
▁meter	-10.8562
▁sdikit	-10.8564
▁naka	-10.8569
▁carpet	-10.8572
▁pemgiriman	-10.8572
▁surviv	-10.8572
▁evil	-10.8572
▁abrasion	-10.8572
▁sugar	-10.8572
▁ride	-10.8576
▁disappointment	-10.8579
▁deceiv	-10.8598
tan	-10.8604
▁gmna	-10.8613
ine	-10.8621
▁chi	-10.8625
▁zig	-10.8632
▁sekalii	-10.8633
▁project	-10.8638
proof	-10.8653
▁lem	-10.8659
▁advise	-10.866
▁cant	-10.8664
▁finger	-10.8666
▁runner	-10.8667
acing	-10.8686
▁helmet	-10.8686
▁necessar	-10.8687
▁knew	-10.8689
▁klw	-10.869
▁betul	-10.8697
▁moon	-10.8698
▁sat	-10.8704
▁stone	-10.8706
tt	-10.8721
▁patch	-10.8726
▁upset	-10.8726
▁rp	-10.873
▁gap	-10.873
ut	-10.873
▁besides	-10.8732
no	-10.8737
▁chan	-10.8764
▁poorly	-10.8765
▁bole	-10.8774
▁accor	-10.8778
▁enhance	-10.8784
dalemnya	-10.8786
li	-10.8794
▁nyampai	-10.8803
▁panel	-10.8805
▁cramp	-10.8805
▁cherry	-10.8807
▁moment	-10.8807
▁kmren	-10.8807
▁beda	-10.8834
▁plan	-10.8848
▁chart	-10.8852
aught	-10.8856
▁crease	-10.8868
▁bare	-10.8894
▁fund	-10.89
shop	-10.8911
delivery	-10.8919
▁built	-10.892
▁fraud	-10.8921
▁private	-10.8921
ddy	-10.8922
▁connection	-10.8927
▁rush	-10.8927
▁bell	-10.8938
▁mb	-10.8938
▁bu	-10.8945
▁seger	-10.8948
▁quit	-10.8956
om	-10.8978
▁grade	-10.8981
ions	-10.9011
▁matte	-10.9023
si	-10.903
▁sketch	-10.9031
▁fool	-10.9039
▁mosquito	-10.9039
▁arrow	-10.904
▁breathable	-10.9044
▁sufficient	-10.9045
▁makasii	-10.9051
▁dull	-10.9052
▁joint	-10.9053
▁sampaii	-10.9056
▁mantappp	-10.9075
▁sheets	-10.9082
▁sni	-10.9084
▁fto	-10.9093
▁ten	-10.9115
▁introduc	-10.9119
pc	-10.9127
▁calculat	-10.9129
▁integr	-10.9129
▁extend	-10.9146
▁decid	-10.9149
▁pale	-10.915
▁weird	-10.916
▁doraemon	-10.916
▁preparation	-10.9161
▁km	-10.9164
▁ancur	-10.9168
▁mistaken	-10.9174
▁silky	-10.9198
▁nut	-10.9204
▁mov	-10.9206
▁trace	-10.9211
ppy	-10.9214
▁jam	-10.9219
rry	-10.924
▁easi	-10.9241
▁char	-10.9244
▁cha	-10.9253
▁tune	-10.9257
▁ownernya	-10.9269
opened	-10.9269
▁land	-10.927
▁dec	-10.9279
▁unresponsive	-10.9282
▁essence	-10.9282
▁protective	-10.9283
▁gestur	-10.9283
box	-10.9284
▁exceed	-10.9287
▁sport	-10.9294
▁kh	-10.9295
▁pra	-10.9298
▁psan	-10.9304
▁masi	-10.9305
▁plent	-10.9309
▁pure	-10.9309
▁puasss	-10.9318
▁43	-10.9319
▁55	-10.9319
thanks	-10.9323
pin	-10.9333
▁lma	-10.9348
star	-10.936
▁yang	-10.937
▁tela	-10.9391
▁remind	-10.9395
▁mile	-10.9405
▁christmas	-10.9405
▁concentrate	-10.9405
▁tissue	-10.9405
▁negative	-10.9405
▁incorrect	-10.9406
▁spoon	-10.9407
▁diamond	-10.9407
▁consultant	-10.9409
▁ap	-10.941
▁consum	-10.9419
▁chang	-10.942
▁bangat	-10.942
▁giao	-10.942
▁art	-10.9421
▁owners	-10.9423
▁baru	-10.9425
▁bagusssss	-10.9435
▁laju	-10.9439
▁feature	-10.9444
lon	-10.9466
▁wave	-10.9472
▁bangt	-10.9477
va	-10.948
ninjavan	-10.9482
▁minta	-10.9487
▁murahh	-10.9511
by	-10.9516
▁example	-10.953
▁positive	-10.953
▁shall	-10.9531
▁spread	-10.9531
▁yarn	-10.9534
▁comfortably	-10.9535
▁nyobain	-10.9535
▁300	-10.9535
▁honestly	-10.9537
▁padd	-10.9537
▁bill	-10.9543
pppppppppppppppp	-10.9544
tally	-10.9546
awa	-10.957
▁ground	-10.9573
▁orderan	-10.9573
▁comb	-10.9574
▁robe	-10.9576
hb	-10.9579
▁personally	-10.9587
▁nyari	-10.9589
▁means	-10.9591
▁seriously	-10.9596
▁nhanh	-10.9597
▁thems	-10.9603
11	-10.962
▁solve	-10.9624
▁intention	-10.9626
▁wrapper	-10.9631
▁sting	-10.964
▁scam	-10.964
ge	-10.9643
▁against	-10.9643
▁cya	-10.965
▁berkali	-10.9657
▁sudden	-10.9657
▁pelapak	-10.9657
▁brief	-10.9657
▁pearl	-10.9657
▁bread	-10.9658
▁economical	-10.9658
▁nyangka	-10.9659
▁winter	-10.966
▁deep	-10.9662
▁ceaaa	-10.9662
▁penghantaran	-10.9662
▁intentions	-10.9667
▁terbaikkk	-10.9672
▁counter	-10.9676
▁ti	-10.9684
▁vari	-10.969
▁sadly	-10.9691
▁syang	-10.9705
▁hanging	-10.972
ible	-10.9721
▁annoying	-10.9724
if	-10.9725
▁mengecewakan	-10.9727
▁skit	-10.9729
▁peti	-10.9737
▁barangny	-10.9762
▁ur	-10.9769
▁lucuu	-10.9784
▁approximate	-10.9785
▁auto	-10.9786
▁thigh	-10.9793
▁sehari	-10.9793
ized	-10.9806
▁warehouse	-10.9806
▁mashal	-10.9829
unch	-10.9837
▁thanx	-10.9848
▁pool	-10.9861
he	-10.9863
batam	-10.9868
▁beg	-10.9886
▁story	-10.9893
▁scale	-10.9913
▁bismillah	-10.9914
▁scuff	-10.9915
▁keyboard	-10.9915
▁particular	-10.9915
▁treatment	-10.9916
▁popper	-10.9916
▁position	-10.992
▁gosend	-10.9922
▁fracture	-10.9936
▁inquir	-10.9943
▁khimar	-10.9953
▁action	-10.9958
▁breath	-10.9971
▁01	-10.9984
▁fashion	-10.9986
▁electric	-10.9998
sih	-11
▁alhamdulilah	-11.0012
▁tire	-11.0023
▁toko	-11.0031
▁jan	-11.0031
▁slo	-11.0033
▁gud	-11.0037
▁41	-11.0039
▁velvet	-11.0047
▁search	-11.0047
▁alhmdulillah	-11.0047
▁cancellation	-11.0047
▁constraint	-11.005
▁country	-11.0051
▁fig	-11.0051
▁cepett	-11.0054
▁sudh	-11.0056
▁dapat	-11.0074
▁wise	-11.0076
▁hd	-11.0078
▁sever	-11.0089
▁maximu	-11.01
asi	-11.0108
▁jadi	-11.0112
▁ukuran	-11.0118
ta	-11.0121
▁okeee	-11.0144
▁gara	-11.0151
▁collapsi	-11.016
▁mantaap	-11.0161
ba	-11.0165
▁cepattt	-11.0166
▁explain	-11.0169
nce	-11.0175
▁pengirimn	-11.0179
▁casenya	-11.0179
▁embroider	-11.018
▁rainbow	-11.018
▁alias	-11.018
▁bublewrap	-11.018
▁dteng	-11.018
▁alhamdulillaah	-11.0181
▁gapernah	-11.0183
▁wool	-11.0183
▁improvement	-11.0184
▁field	-11.0188
▁ml	-11.0192
▁prevent	-11.0193
il	-11.0205
▁indicate	-11.0206
▁bnr	-11.0213
▁thus	-11.0217
▁gag	-11.0225
seller	-11.0228
▁correctly	-11.0237
▁lam	-11.0238
▁mention	-11.0248
▁burs	-11.0248
▁huhuhu	-11.0249
uu	-11.0256
▁sta	-11.0259
▁besar	-11.026
▁assemble	-11.0272
▁cats	-11.0273
▁sampee	-11.029
sel	-11.0294
▁transit	-11.0312
▁33	-11.0314
▁vacuum	-11.0315
▁trash	-11.0315
▁mizuno	-11.0315
▁yaudah	-11.0316
▁leaf	-11.0316
▁ber	-11.0316
▁horn	-11.0317
▁street	-11.0317
▁http	-11.0317
▁nude	-11.0319
ndex	-11.0319
deliver	-11.0319
▁komplen	-11.032
▁bangeett	-11.032
▁harm	-11.0322
▁ideal	-11.0325
▁handling	-11.0326
▁goes	-11.0328
pi	-11.0329
▁balikin	-11.033
ality	-11.033
▁youthank	-11.0333
▁lembut	-11.0334
io	-11.0342
do	-11.0343
llah	-11.0347
▁smpi	-11.0353
▁terus	-11.0354
▁mnta	-11.0358
ulit	-11.0374
▁kurang	-11.0385
▁bju	-11.0422
15	-11.0425
▁act	-11.0426
▁nanya	-11.0436
▁packets	-11.0437
▁kali	-11.0443
▁attempt	-11.0452
▁risk	-11.0453
▁flush	-11.0453
▁thankyouu	-11.0454
▁mud	-11.0455
▁mejo	-11.0462
▁hri	-11.0469
▁setting	-11.0469
nn	-11.047
▁effects	-11.0475
▁heels	-11.0476
▁complicat	-11.0481
▁06	-11.0492
▁tru	-11.0493
▁terimakasi	-11.0498
▁tend	-11.0501
▁mama	-11.0526
ra	-11.0532
▁gaes	-11.0534
▁dense	-11.0543
▁pi	-11.0549
satisfactory	-11.0559
▁tile	-11.0566
▁kece	-11.0568
▁ea	-11.0576
▁sauce	-11.0579
lot	-11.0584
▁accura	-11.0585
try	-11.0586
▁obstacle	-11.0591
▁banana	-11.0592
▁split	-11.0596
▁nye	-11.0602
▁sangatt	-11.0602
▁rekomend	-11.0602
▁bingit	-11.0604
▁kenceng	-11.0605
▁interesting	-11.0607
▁te	-11.062
▁yh	-11.0638
dkit	-11.0657
▁lit	-11.0677
▁gede	-11.0686
▁nmn	-11.0697
great	-11.07
▁hip	-11.0721
▁stra	-11.0729
▁advent	-11.0732
▁pol	-11.0732
▁flashsale	-11.0732
▁continuous	-11.0732
▁clamp	-11.0732
▁treat	-11.0732
▁chair	-11.0734
▁regard	-11.0734
▁1000	-11.0738
▁anywhere	-11.0744
▁drpd	-11.0745
▁nois	-11.0748
nk	-11.0752
▁kaya	-11.0754
▁shot	-11.0763
▁shower	-11.0769
ison	-11.0772
▁damp	-11.079
lo	-11.0807
▁syukak	-11.0812
▁pace	-11.0812
▁arrives	-11.0813
▁advis	-11.0815
▁mop	-11.0815
▁tall	-11.0817
▁mint	-11.0818
▁ndi	-11.0821
▁barng	-11.0829
▁terimakasihh	-11.086
▁hood	-11.0861
▁ignore	-11.0864
suai	-11.0868
▁siip	-11.0871
▁progress	-11.0874
▁alcohol	-11.0874
▁inappropriate	-11.0874
▁blouse	-11.0875
▁contribute	-11.0875
▁circle	-11.0875
▁window	-11.0875
▁fortune	-11.0875
▁klau	-11.0876
▁dibales	-11.0878
▁reorder	-11.0879
▁dozen	-11.0882
▁tender	-11.0882
▁datang	-11.0888
▁rmh	-11.0896
like	-11.0898
▁runners	-11.09
mg	-11.0918
sao	-11.0926
▁nex	-11.093
ption	-11.0935
▁pu	-11.0948
ab	-11.0953
▁bisa	-11.0968
▁repurchased	-11.0969
▁circum	-11.0969
▁seneng	-11.0975
▁heal	-11.0993
▁ampe	-11.0998
satisfied	-11.1007
▁alhamdlil	-11.1009
bg	-11.1012
▁padding	-11.1014
over	-11.1014
▁scrub	-11.1018
▁quota	-11.1019
▁powerbank	-11.102
▁individual	-11.102
▁salamat	-11.1022
▁specification	-11.1023
▁cobain	-11.1024
ceps	-11.1032
▁lov	-11.1033
▁wala	-11.1043
▁fly	-11.1052
▁rec	-11.1055
found	-11.1058
▁processed	-11.1071
▁hag	-11.1072
▁kitt	-11.1073
▁hey	-11.1076
ference	-11.1084
hhh	-11.1089
▁laah	-11.1099
▁lum	-11.1105
▁yahh	-11.1116
me	-11.1121
▁yea	-11.1121
lng	-11.1137
▁barangnyaa	-11.1142
set	-11.1143
we	-11.1146
▁gg	-11.1147
▁raise	-11.1158
▁mattress	-11.1167
▁athletic	-11.1167
▁employee	-11.1167
▁coupon	-11.1167
▁dentist	-11.1168
▁dizz	-11.1168
▁bandung	-11.1169
▁deliberate	-11.1169
▁ongkirnya	-11.1172
▁buble	-11.1177
▁cash	-11.1177
▁lemon	-11.118
▁powerful	-11.1182
▁kyak	-11.1195
▁tighten	-11.1199
▁listen	-11.1201
▁tailoring	-11.1207
▁refuse	-11.1216
▁specific	-11.1218
▁pecah	-11.122
ssuai	-11.1226
▁dicoba	-11.1228
▁ensure	-11.124
▁neglige	-11.1271
▁war	-11.1271
▁bahannya	-11.1293
product	-11.1294
▁youtube	-11.1302
▁sweater	-11.1307
▁encounter	-11.1316
▁surprising	-11.1316
▁bulb	-11.1318
▁kcewa	-11.1319
▁benar	-11.1321
▁build	-11.1325
shaallah	-11.1329
▁processing	-11.1334
▁yan	-11.1334
▁spar	-11.1366
▁spec	-11.1386
ot	-11.14
▁disinii	-11.1407
▁bangettttt	-11.141
dg	-11.1411
ugh	-11.1415
ated	-11.1416
▁stamp	-11.1427
tep	-11.1435
▁youu	-11.1445
▁prime	-11.1448
▁teruss	-11.1449
▁cs	-11.1465
▁jersey	-11.1467
▁clinch	-11.1467
▁percent	-11.1467
▁excuse	-11.1468
▁lmyan	-11.1468
▁combination	-11.1468
▁decoration	-11.1469
▁distortion	-11.147
▁mana	-11.1473
▁skli	-11.1476
▁drain	-11.1476
▁disabl	-11.1487
▁rider	-11.1489
▁ntn	-11.15
▁ki	-11.1506
▁sha	-11.1514
▁rapii	-11.1522
▁crispy	-11.1527
▁grain	-11.1535
▁suda	-11.1547
ttle	-11.1551
▁bsk	-11.1557
▁ntar	-11.1571
gh	-11.1572
ckup	-11.1574
bb	-11.1578
eh	-11.158
▁dare	-11.1608
▁keychain	-11.1621
▁scissor	-11.1621
▁anxious	-11.1621
▁dibadan	-11.1621
▁ultimate	-11.1621
▁unilever	-11.1621
▁coarse	-11.1621
▁stall	-11.1622
▁flims	-11.1622
▁dream	-11.1623
▁adapter	-11.1623
▁shift	-11.1626
▁03	-11.1627
▁duct	-11.1629
▁team	-11.1632
▁qc	-11.1637
▁collapse	-11.1637
▁realpic	-11.1639
▁clos	-11.165
▁cur	-11.1653
sung	-11.1654
▁nd	-11.1661
▁kli	-11.1663
▁til	-11.1669
▁trees	-11.1672
▁tenn	-11.1683
▁dua	-11.1694
▁syukaa	-11.1699
▁ps	-11.1705
▁ib	-11.1734
▁engl	-11.1741
▁tl	-11.1746
▁mantuul	-11.1748
came	-11.175
ual	-11.1751
▁mino	-11.1754
▁cakep	-11.1771
▁group	-11.1777
▁unload	-11.1778
▁facial	-11.1778
▁weekend	-11.1779
▁yeay	-11.1779
▁maap	-11.178
▁bun	-11.1781
▁04	-11.1782
▁odd	-11.1785
▁padahal	-11.1786
▁blade	-11.1789
▁square	-11.1792
▁stretchable	-11.1809
▁tank	-11.181
▁stitch	-11.1813
▁bagussssss	-11.1817
▁introduce	-11.184
eeeeeeeeeeeeeeee	-11.1844
▁abal	-11.1847
▁lambat	-11.1874
▁bos	-11.1891
sus	-11.1905
▁foto	-11.1906
▁inii	-11.1907
▁tapii	-11.1916
▁ag	-11.1917
▁reduc	-11.192
▁join	-11.1922
os	-11.1928
au	-11.1931
▁major	-11.1936
▁mustard	-11.1936
▁gojek	-11.1937
▁dhl	-11.1937
▁lumyan	-11.1938
▁location	-11.194
▁invoice	-11.194
▁polarize	-11.1941
size	-11.1944
▁mis	-11.1947
▁pokoknyaa	-11.1952
▁dar	-11.1985
▁creamy	-11.2004
▁nagse	-11.2011
▁tebal	-11.2018
▁tsk	-11.2028
▁appli	-11.2039
bx	-11.204
▁biasa	-11.2045
▁lu	-11.2047
comfort	-11.2061
▁functional	-11.2068
▁compete	-11.2075
▁sukaaaaaa	-11.2076
▁blush	-11.2084
ches	-11.2087
▁pl	-11.2087
▁gda	-11.2089
▁siya	-11.2093
▁virus	-11.2096
▁excess	-11.2097
▁false	-11.2097
▁broad	-11.2098
▁drill	-11.21
▁register	-11.2102
▁custmer	-11.2102
▁crowd	-11.2111
▁luxur	-11.2112
ay	-11.2113
▁rip	-11.2114
▁champion	-11.2114
remedy	-11.2122
▁cea	-11.2122
▁ease	-11.2124
▁truck	-11.2128
▁earn	-11.2134
▁emang	-11.214
uk	-11.2148
▁tang	-11.2152
▁exercise	-11.2155
atalin	-11.2184
▁makasihhh	-11.2199
▁smoke	-11.22
▁trc	-11.2203
▁thnks	-11.2206
▁meal	-11.2207
▁62	-11.2212
▁jaya	-11.2213
▁patien	-11.2215
▁produce	-11.2219
▁makasiih	-11.2233
▁bh	-11.2247
▁oppo	-11.2256
▁handy	-11.2256
▁ganti	-11.226
▁disappear	-11.2261
▁gradual	-11.2261
▁fluff	-11.2262
▁pos	-11.2262
▁urgent	-11.2262
▁restock	-11.2262
▁pun	-11.2262
▁desire	-11.2262
▁overprice	-11.2263
▁reccomend	-11.2263
▁crooked	-11.2263
▁asli	-11.2264
▁skrng	-11.2267
▁exceptional	-11.2273
▁untuk	-11.2279
▁pesan	-11.2284
▁hrus	-11.2288
▁drug	-11.2292
▁baguuss	-11.2301
▁diamete	-11.2302
▁bet	-11.2314
▁glow	-11.2316
▁ee	-11.2322
▁tg	-11.2328
▁pedes	-11.2361
▁op	-11.2363
yo	-11.2366
▁75	-11.2368
inya	-11.2374
▁caus	-11.2383
▁lamb	-11.2388
▁dm	-11.2394
fied	-11.2396
together	-11.2397
▁retail	-11.2402
▁63	-11.2407
▁trm	-11.2416
▁release	-11.2425
▁valorem	-11.2428
▁mascara	-11.2428
▁outgrow	-11.2428
▁excessive	-11.2428
▁household	-11.2429
▁march	-11.2429
▁milo	-11.2429
▁greasy	-11.2429
▁rapet	-11.243
▁colored	-11.2431
▁measur	-11.2433
▁consumable	-11.2434
▁sized	-11.244
▁120	-11.2446
lamat	-11.2448
▁kill	-11.2452
▁nyoba	-11.2454
bs	-11.2457
▁san	-11.246
▁specifi	-11.2461
▁painful	-11.2464
her	-11.247
▁rack	-11.2478
▁noodles	-11.2478
▁sub	-11.2479
▁workout	-11.2481
▁youuu	-11.2496
▁onion	-11.2497
ber	-11.2497
▁peng	-11.2502
▁prove	-11.2506
▁slh	-11.2506
que	-11.2512
▁rubb	-11.2517
▁sells	-11.2517
▁peking	-11.2519
▁snugly	-11.2524
▁valv	-11.2533
▁sit	-11.2535
▁core	-11.2538
▁bor	-11.2543
▁ripp	-11.2543
▁duh	-11.255
▁evaluate	-11.2551
uar	-11.2551
▁squeeze	-11.256
rent	-11.2564
▁osh	-11.2566
▁cooperati	-11.2583
kali	-11.2586
will	-11.2593
▁affair	-11.2597
▁blemish	-11.2597
▁grateful	-11.2597
▁internet	-11.2597
▁mickey	-11.2597
▁eyelash	-11.2598
▁loyal	-11.2598
▁deket	-11.2598
▁uneven	-11.2599
▁backpack	-11.26
▁student	-11.26
▁bristle	-11.2601
▁eight	-11.2606
▁adek	-11.2606
men	-11.2607
▁lebih	-11.2623
▁tick	-11.2624
▁lightly	-11.2634
▁moist	-11.2644
▁proof	-11.2646
▁alus	-11.2646
ja	-11.2647
▁kurir	-11.2649
▁notification	-11.265
▁trnyta	-11.2651
▁undama	-11.2655
▁settle	-11.2655
▁adminnya	-11.2671
▁serv	-11.2687
▁gi	-11.2691
▁pung	-11.2698
▁babi	-11.2699
▁promis	-11.2711
▁160	-11.2712
▁tui	-11.2722
▁lm	-11.2722
pm	-11.2739
▁float	-11.2746
▁maaf	-11.2748
▁convenien	-11.2751
ek	-11.2752
▁slot	-11.2753
▁sn	-11.2756
▁pole	-11.2761
▁perform	-11.2763
▁harganya	-11.2764
▁truth	-11.277
▁sligt	-11.277
▁article	-11.277
▁spoil	-11.277
▁secret	-11.277
▁prosper	-11.277
▁trigger	-11.277
▁channel	-11.2771
▁ccok	-11.2773
▁250	-11.2779
▁yu	-11.2786
▁fu	-11.2791
▁sukakk	-11.2797
▁manufacturer	-11.2798
▁kemas	-11.2809
▁consigne	-11.2812
▁wipes	-11.2812
▁provider	-11.2817
▁bubbles	-11.282
▁pg	-11.282
fit	-11.2823
▁hari	-11.2832
▁du	-11.2835
▁saying	-11.2836
▁tw	-11.2844
uc	-11.2853
▁cr	-11.2854
▁tidak	-11.2858
▁5555	-11.2872
▁rapihh	-11.2877
▁en	-11.2878
▁gener	-11.2881
▁messy	-11.2892
▁terjangkau	-11.2893
lly	-11.2894
▁yuhu	-11.2896
▁linen	-11.2907
▁dun	-11.2935
ul	-11.2943
018	-11.2944
▁prestig	-11.2945
▁knock	-11.2945
▁degree	-11.2945
▁compatib	-11.2946
▁symbol	-11.2946
▁gloss	-11.2946
▁mantaf	-11.2946
▁chew	-11.2946
▁nagrereply	-11.2946
▁title	-11.2946
▁manufactur	-11.2949
▁flatter	-11.2949
▁pour	-11.2953
▁jack	-11.2954
▁portion	-11.2955
▁diterima	-11.2956
▁devices	-11.2958
▁dehhh	-11.2959
▁forgive	-11.296
▁cu	-11.2963
ur	-11.2963
▁wag	-11.2964
▁province	-11.2969
▁impress	-11.2989
▁cepaat	-11.2993
ssss	-11.2997
▁tracking	-11.3001
▁qua	-11.3007
▁iship	-11.301
▁sablonan	-11.3021
▁sati	-11.3025
▁ehh	-11.3028
▁hub	-11.3036
▁sista	-11.3036
▁para	-11.3038
▁nakaka	-11.3039
▁nanti	-11.3039
▁goal	-11.3041
▁ksi	-11.3042
▁bajunya	-11.3043
▁ajah	-11.3052
ew	-11.3054
emng	-11.306
wa	-11.3062
▁ajh	-11.3064
▁mbk	-11.3065
▁kakak	-11.3067
▁signal	-11.3073
▁pk	-11.3074
▁mng	-11.308
▁laund	-11.3113
original	-11.3119
▁advantage	-11.3124
▁explanation	-11.3124
▁subject	-11.3124
▁meticulous	-11.3124
▁canvas	-11.3124
▁adopt	-11.3124
▁construction	-11.3125
▁currenc	-11.3125
▁polish	-11.3125
▁dpet	-11.3127
▁trick	-11.3128
iness	-11.3129
▁blg	-11.3131
▁overlay	-11.314
▁daleman	-11.3142
▁lope	-11.3144
▁wild	-11.3145
▁jilbab	-11.3148
▁vote	-11.315
▁unboxing	-11.3155
▁usd	-11.3156
ember	-11.3159
▁shaw	-11.3169
gi	-11.3171
▁tong	-11.3174
▁hike	-11.3178
ably	-11.3191
ie	-11.3191
▁shoot	-11.3194
▁sw	-11.3195
▁sky	-11.3201
ko	-11.3203
▁cacat	-11.3218
▁lan	-11.3219
▁rotte	-11.3224
ood	-11.3227
happy	-11.3229
well	-11.323
▁trails	-11.3233
▁supplie	-11.3236
roid	-11.3238
▁reed	-11.3238
▁moisturiz	-11.3249
▁boleh	-11.3267
mya	-11.3286
▁crop	-11.3289
▁cons	-11.3295
▁teeth	-11.3298
▁object	-11.33
▁met	-11.3305
▁harvest	-11.3306
▁constant	-11.3306
▁newspaper	-11.3306
▁shadow	-11.3306
▁stupid	-11.3306
▁fiber	-11.3306
▁pulse	-11.3306
▁jogging	-11.3307
▁peace	-11.3307
▁precise	-11.3308
▁credit	-11.331
▁jump	-11.3312
▁mngkin	-11.3314
▁bold	-11.3315
▁dikasih	-11.3319
▁budge	-11.3325
▁pengirman	-11.3336
hdfg	-11.3345
ua	-11.3353
iah	-11.3361
uh	-11.3368
30	-11.3369
▁mantaplah	-11.3377
▁cho	-11.3389
long	-11.3398
▁functions	-11.3398
▁crisp	-11.3419
▁itch	-11.3421
ca	-11.3422
atic	-11.3423
ran	-11.3426
ian	-11.3427
▁rama	-11.3432
99	-11.3447
▁mr	-11.3461
▁akuu	-11.3462
▁imut	-11.3463
zz	-11.3465
▁tb	-11.3466
▁hesita	-11.3468
ence	-11.3481
▁malaysia	-11.3482
▁va	-11.3487
▁meeting	-11.349
▁flour	-11.349
▁subscrption	-11.3491
▁kitchen	-11.3491
▁election	-11.3491
▁deplete	-11.3491
▁nagdeliver	-11.3492
▁sunscreen	-11.3492
▁neighbor	-11.3492
▁rabbit	-11.3493
▁medicine	-11.3493
▁nimbus	-11.3494
▁among	-11.3499
▁careless	-11.3501
▁stainless	-11.3501
▁raya	-11.3505
tttttttttttttttt	-11.3505
way	-11.3509
▁zan	-11.351
▁tuker	-11.3513
▁lha	-11.3515
▁biar	-11.3518
▁tray	-11.3519
▁lengkap	-11.3526
▁tipiss	-11.3527
▁happened	-11.3541
▁laen	-11.3544
sive	-11.356
▁sem	-11.3562
▁kerenn	-11.3562
▁jgk	-11.3568
▁hgaaa	-11.3584
▁buckle	-11.3596
▁brp	-11.3613
▁lense	-11.3631
▁han	-11.3636
case	-11.3638
▁shoope	-11.3645
▁pokok	-11.3645
▁kidd	-11.3649
▁omg	-11.365
▁hahahaha	-11.3654
ese	-11.366
▁luon	-11.3661
▁luxuri	-11.3662
▁mac	-11.3665
▁lagiii	-11.3671
▁ln	-11.3671
▁disc	-11.3672
▁glitter	-11.368
▁dkrm	-11.368
▁rugged	-11.368
▁network	-11.368
▁fellow	-11.368
▁courteous	-11.368
▁feather	-11.3681
▁yey	-11.3683
▁st	-11.3684
▁confident	-11.369
▁kesel	-11.3693
▁relat	-11.3694
▁sgtu	-11.3697
▁angle	-11.3699
▁110	-11.3706
bang	-11.3712
▁web	-11.3724
▁nda	-11.3729
im	-11.3738
▁yaaaaa	-11.3753
▁pang	-11.3764
▁deg	-11.3782
▁sblum	-11.3792
▁pakenya	-11.38
▁brngnya	-11.3807
▁promptly	-11.3833
▁drag	-11.3845
gnda	-11.3864
▁engine	-11.3864
ia	-11.3868
▁bundl	-11.3869
nts	-11.3871
▁skecher	-11.3872
▁lmyn	-11.3872
▁straw	-11.3873
▁plisket	-11.3873
▁nonetheless	-11.3873
▁hose	-11.3876
▁ato	-11.3884
▁thoughtful	-11.3885
▁euy	-11.3887
ain	-11.389
lmbat	-11.3892
▁locker	-11.3906
▁sick	-11.3912
▁pajamas	-11.3913
▁micro	-11.3928
▁rod	-11.3935
uede	-11.3941
▁bossku	-11.3944
sm	-11.3946
titude	-11.3953
▁breathe	-11.3957
▁gb	-11.3958
▁mlh	-11.3962
▁sekaliii	-11.3968
rena	-11.3973
ately	-11.3981
▁paking	-11.3983
▁mala	-11.3983
▁semuaa	-11.3995
▁cx	-11.4
▁dad	-11.4014
▁tint	-11.4033
▁butter	-11.4033
▁describe	-11.4033
▁gemes	-11.4034
jd	-11.4054
▁den	-11.406
▁harap	-11.4062
▁landing	-11.4064
▁bangeeet	-11.4066
af	-11.4067
▁acquire	-11.4068
▁comfotabl	-11.4068
▁boyfriend	-11.4068
▁heavi	-11.4068
▁scatter	-11.4068
▁xiaomi	-11.4068
▁horse	-11.4068
▁fraudster	-11.4068
▁dkrim	-11.4068
▁cleat	-11.4069
▁cashback	-11.4069
▁kerdus	-11.407
▁human	-11.4071
▁million	-11.4071
▁sampi	-11.4074
▁buanget	-11.4075
▁trimaksih	-11.4078
ke	-11.4083
▁dishes	-11.4084
▁pkok	-11.4091
▁rup	-11.4097
▁happi	-11.4106
kkk	-11.4106
▁prints	-11.411
pe	-11.4112
iiiiiiiiiiiiiiii	-11.4117
▁absorben	-11.4124
▁banyakk	-11.4136
▁amann	-11.4141
▁pokokny	-11.4149
▁rocks	-11.4149
ribu	-11.4167
▁bolong	-11.4169
▁mentioned	-11.417
▁maa	-11.4176
▁dealer	-11.418
▁minimal	-11.4185
▁hargaa	-11.4187
nh	-11.4189
ip	-11.419
▁nie	-11.4201
▁chips	-11.4206
▁bow	-11.4207
▁realize	-11.4224
▁complicate	-11.4227
▁immediate	-11.423
▁nnt	-11.4232
▁cb	-11.4235
▁tid	-11.4255
▁sooo	-11.4262
ssenger	-11.4267
▁biscuit	-11.4268
▁identical	-11.4268
▁public	-11.4268
▁mislead	-11.4268
▁suffer	-11.4268
▁cartoon	-11.4268
▁japanese	-11.4268
▁slick	-11.4268
▁blood	-11.4268
▁kayano	-11.4268
▁terrain	-11.4268
▁twist	-11.4269
▁java	-11.427
▁manner	-11.4271
▁penny	-11.4273
▁parent	-11.4274
▁fuck	-11.4274
▁jelly	-11.4275
▁strawberry	-11.4278
▁lamaaaa	-11.4279
▁strengthen	-11.428
▁okeeee	-11.428
▁foundation	-11.4285
▁nc	-11.4288
▁nobody	-11.4289
▁sports	-11.429
em	-11.4293
▁dikirm	-11.4296
work	-11.43
▁dia	-11.43
▁kau	-11.4303
▁produknya	-11.4305
▁audi	-11.4305
▁pengriman	-11.4312
▁dipakek	-11.4315
▁okk	-11.432
▁beware	-11.4327
▁oversea	-11.4336
pod	-11.4337
▁cast	-11.4345
▁cor	-11.435
rawang	-11.4367
▁ci	-11.4381
▁pipe	-11.4386
▁ane	-11.4391
▁extras	-11.4395
▁reading	-11.4411
▁knit	-11.4412
mi	-11.4413
▁48	-11.4421
▁bean	-11.4432
▁shake	-11.4432
▁compensat	-11.4436
▁thnk	-11.4438
haul	-11.444
board	-11.444
aran	-11.4442
▁syekali	-11.445
istic	-11.4454
▁hpnya	-11.4454
▁delays	-11.4465
▁pantas	-11.447
▁mai	-11.4471
▁catalog	-11.4472
▁computer	-11.4472
▁concr	-11.4473
▁intelligen	-11.4473
▁reaction	-11.4473
▁relax	-11.4473
▁sensor	-11.4474
▁ultrafast	-11.4474
▁sincere	-11.4477
▁baget	-11.4478
▁hide	-11.4479
▁pengemasanya	-11.448
▁horribl	-11.4492
▁kasihh	-11.4495
riate	-11.4497
▁sto	-11.4498
▁belonging	-11.4501
▁driver	-11.4501
20	-11.4504
▁fingers	-11.4509
▁boys	-11.4512
▁mks	-11.4513
aikum	-11.4516
dding	-11.4526
ig	-11.4539
▁cd	-11.4545
▁thumb	-11.4545
gu	-11.4557
▁ph	-11.4573
▁bangetttttt	-11.4582
gian	-11.4584
▁ntah	-11.4592
▁pat	-11.4602
▁cus	-11.4604
▁wangi	-11.4607
bato	-11.4609
ow	-11.4612
▁dib	-11.4627
▁sock	-11.4632
▁pagkaka	-11.4638
▁gni	-11.4639
▁ri	-11.4644
▁final	-11.4646
▁pnt	-11.4654
▁caps	-11.4655
▁tanks	-11.4655
aaaa	-11.4663
▁contemporar	-11.468
▁intersect	-11.468
▁language	-11.468
▁surabaya	-11.468
▁sleek	-11.468
▁foul	-11.4681
▁tumben	-11.4681
▁kilo	-11.4681
▁pregnan	-11.4682
▁crash	-11.4686
▁attentio	-11.4687
▁belum	-11.4691
▁bike	-11.4691
▁sprti	-11.4692
▁blackhead	-11.4694
▁awett	-11.4697
▁pakai	-11.4698
po	-11.4704
▁decide	-11.4706
per	-11.4707
▁juice	-11.471
eng	-11.4726
tdak	-11.4728
▁nyaaa	-11.4739
▁mna	-11.474
▁unyu	-11.4756
▁batik	-11.4757
ast	-11.4765
▁kira	-11.4772
▁ape	-11.4791
▁ademm	-11.4796
ti	-11.4805
▁ro	-11.4807
▁apologize	-11.4816
▁parah	-11.4818
▁kit	-11.4821
love	-11.4821
ete	-11.4833
▁song	-11.4835
▁pengirimann	-11.4841
tic	-11.4841
▁ulit	-11.4853
▁unfortunate	-11.4856
angkok	-11.4861
ridge	-11.4863
▁sling	-11.4871
▁tim	-11.4873
▁ac	-11.4874
jg	-11.4887
▁basket	-11.4893
▁marathon	-11.4893
▁upgrade	-11.4893
▁eyeliner	-11.4893
▁toilet	-11.4893
▁approach	-11.4893
▁sicepat	-11.4893
▁taiwan	-11.4894
▁efficac	-11.4894
▁reputation	-11.4895
▁supermarket	-11.4898
▁scream	-11.4899
▁supply	-11.4903
▁suction	-11.4903
ier	-11.4907
▁accidental	-11.4915
▁08	-11.4915
▁knpa	-11.4918
▁msih	-11.4921
▁grams	-11.4922
▁leash	-11.4933
ration	-11.4939
ila	-11.4942
gram	-11.4949
▁stud	-11.4961
hat	-11.4964
▁cent	-11.4973
▁ramahh	-11.4985
▁jahita	-11.5006
pp	-11.5008
▁oak	-11.503
hantaran	-11.5038
ngan	-11.5038
kasih	-11.5049
iiii	-11.5053
▁filling	-11.5061
bu	-11.5065
▁mksi	-11.5069
▁09	-11.507
▁cia	-11.5079
phone	-11.508
▁mua	-11.5085
wo	-11.5085
▁dahh	-11.5088
▁packa	-11.5099
▁blender	-11.5102
▁counterfeit	-11.5111
▁immaculate	-11.5111
▁pngriman	-11.5111
▁temperature	-11.5111
▁beginner	-11.5111
▁armpit	-11.5111
▁collision	-11.5111
▁dancing	-11.5111
▁leap	-11.5111
▁development	-11.5111
▁cosmetic	-11.5111
▁balm	-11.5112
super	-11.5112
▁source	-11.5113
▁influence	-11.5114
▁motion	-11.5114
▁hndi	-11.5115
▁skincare	-11.5115
▁generation	-11.5115
▁lepas	-11.5118
▁everywhere	-11.5118
▁dpat	-11.5123
▁nua	-11.5123
hhhhhh	-11.5126
▁murahan	-11.5126
▁sai	-11.5132
▁baikkk	-11.5135
▁lag	-11.5149
▁sesuaii	-11.5161
▁raw	-11.5171
▁mode	-11.5175
▁65	-11.5179
port	-11.5186
▁bla	-11.5194
▁slah	-11.5206
▁49	-11.521
▁deeh	-11.5217
▁nxt	-11.522
▁recomen	-11.5234
▁resolve	-11.5234
▁cars	-11.5237
▁ceaaaa	-11.524
km	-11.5243
tle	-11.5266
19	-11.5272
▁cantikk	-11.5274
▁mura	-11.5277
body	-11.528
▁produkk	-11.5294
ate	-11.5301
▁dedicate	-11.5302
▁bc	-11.5303
usah	-11.5307
dom	-11.5308
▁le	-11.5308
▁yak	-11.5313
▁entit	-11.5324
▁pop	-11.5331
▁embarrass	-11.5333
▁rancid	-11.5333
▁khaki	-11.5333
▁spandex	-11.5333
▁dipesen	-11.5333
▁inspect	-11.5333
▁elok	-11.5333
▁deskripsi	-11.5333
▁pillowcase	-11.5333
▁freegift	-11.5333
▁drawback	-11.5334
▁undoubted	-11.5335
▁barakallah	-11.5341
▁par	-11.5344
ue	-11.5346
▁pina	-11.5348
▁kainya	-11.5349
▁tax	-11.5352
▁wax	-11.5361
▁kapan	-11.5362
▁july	-11.5363
▁lecet	-11.5364
▁gila	-11.5366
▁sb	-11.5379
▁lps	-11.5379
▁barangg	-11.5384
lu	-11.5384
bel	-11.5385
▁nman	-11.5385
▁oki	-11.5387
▁resi	-11.5388
▁smuanya	-11.5389
▁syukro	-11.5396
▁weld	-11.5397
▁koko	-11.5398
▁kaso	-11.5404
▁bkal	-11.5408
▁minute	-11.5424
▁ternyata	-11.5433
eadline	-11.5434
▁buat	-11.5434
▁annoy	-11.544
iii	-11.5444
▁soak	-11.5453
sa	-11.5458
▁okok	-11.5459
▁machines	-11.546
▁pula	-11.5463
▁85	-11.5469
ned	-11.5475
hipped	-11.5477
▁tien	-11.5479
▁shooting	-11.5482
▁snap	-11.5495
bh	-11.5509
▁ajaa	-11.551
▁seh	-11.5512
▁pag	-11.5513
▁heheheh	-11.5527
flower	-11.5529
pent	-11.5531
chat	-11.5541
▁semogaa	-11.5554
▁medi	-11.5558
▁contribution	-11.556
▁uncertain	-11.556
▁kliatan	-11.556
▁batrai	-11.5561
▁bleach	-11.5561
▁wi	-11.5562
▁400	-11.5563
▁thnx	-11.5563
▁snow	-11.5567
▁duck	-11.5568
▁kwalitas	-11.5569
▁coba	-11.557
▁mintak	-11.5572
▁gapapalah	-11.558
▁sk	-11.5581
▁servis	-11.5582
▁batre	-11.5585
▁greeting	-11.5587
▁tumpah	-11.5587
▁reapon	-11.5594
ummy	-11.5596
▁sex	-11.5597
▁corrupt	-11.5608
ag	-11.5609
▁pkonya	-11.5614
▁soil	-11.5614
▁boom	-11.5621
▁cz	-11.5633
▁sucks	-11.5635
▁nu	-11.5652
▁blurr	-11.5654
▁puassss	-11.5658
▁bounce	-11.5662
▁tn	-11.5669
▁bagu	-11.5671
live	-11.568
▁inbox	-11.5685
▁approv	-11.5686
▁basi	-11.5689
▁mong	-11.5703
da	-11.5703
bi	-11.5704
▁mantapppp	-11.5704
▁kcw	-11.571
▁pictre	-11.5712
▁silk	-11.5725
ner	-11.5737
ir	-11.5741
ol	-11.5755
eries	-11.5759
▁oklah	-11.5763
▁130	-11.5763
▁ramad	-11.5768
de	-11.5769
▁fight	-11.577
▁conf	-11.5778
▁mulu	-11.5785
▁yuk	-11.5785
▁terbaek	-11.5788
▁calendar	-11.5793
▁circumstance	-11.5793
▁monitor	-11.5793
▁practice	-11.5793
▁mocha	-11.5793
▁subtle	-11.5793
▁uniform	-11.5793
▁tripod	-11.5793
▁breast	-11.5793
▁department	-11.5793
▁compartment	-11.5793
▁reput	-11.5793
▁operator	-11.5793
▁assist	-11.5794
▁delete	-11.5794
▁calm	-11.5795
▁recharge	-11.5795
▁newborn	-11.5795
▁stack	-11.5796
▁shoelace	-11.5796
▁compress	-11.5798
▁expand	-11.5799
▁rise	-11.5802
▁north	-11.5804
▁pecking	-11.5804
▁mga	-11.5808
▁wasn	-11.5812
▁nihh	-11.5812
▁seven	-11.5819
▁ador	-11.5826
▁extensi	-11.5829
▁gun	-11.5833
ory	-11.5837
▁verifi	-11.5842
ozen	-11.5843
▁bakal	-11.585
▁thks	-11.5856
▁lite	-11.5857
▁irresponsibl	-11.5863
barang	-11.5865
▁prn	-11.587
▁bangus	-11.5871
▁fanta	-11.5872
ro	-11.5881
tp	-11.5881
▁brighter	-11.5888
▁alhmdll	-11.589
▁minimalist	-11.5893
▁brushe	-11.5893
▁cycle	-11.5899
▁regularly	-11.5907
▁nyaman	-11.591
▁male	-11.5918
▁jog	-11.5922
▁mug	-11.5926
ktu	-11.5928
pite	-11.5928
vi	-11.5941
▁jwb	-11.5948
▁kase	-11.596
oooooooooooooooo	-11.5966
▁batch	-11.597
▁gam	-11.5976
tive	-11.5992
▁keterim	-11.5996
▁wrnanya	-11.6009
▁tuck	-11.6016
eo	-11.6017
rs	-11.6018
▁vehicle	-11.6031
▁preserve	-11.6031
▁minimum	-11.6031
▁busui	-11.6031
▁appeal	-11.6031
▁garment	-11.6031
▁socket	-11.6031
congru	-11.6031
nvinci	-11.6031
▁pengeriman	-11.6032
▁scrupulous	-11.6032
▁servce	-11.6032
▁chili	-11.6033
▁nuhun	-11.6034
▁kahit	-11.6034
▁cooperative	-11.6036
▁165	-11.6038
▁combo	-11.6038
▁brooch	-11.6038
▁wlw	-11.6044
▁sul	-11.6049
▁pastel	-11.6051
▁agan	-11.6051
▁boil	-11.6055
▁crem	-11.6062
liant	-11.6063
▁valid	-11.6066
24	-11.6094
▁lap	-11.6097
▁spike	-11.6097
▁remover	-11.6105
▁capture	-11.611
equate	-11.6114
▁toward	-11.6124
yu	-11.6128
▁deni	-11.6131
leak	-11.6134
▁stopp	-11.6153
mu	-11.6156
nx	-11.6165
tg	-11.6166
▁cl	-11.6167
ced	-11.6201
▁mf	-11.6208
▁bin	-11.6212
ui	-11.6212
hhhh	-11.6214
▁95	-11.6216
▁plastik	-11.6231
▁affor	-11.6236
▁suppose	-11.6236
▁sekaliiii	-11.6238
▁recent	-11.6239
▁gain	-11.6242
down	-11.6258
consequent	-11.6262
▁leopard	-11.6275
▁hidden	-11.6275
▁research	-11.6275
▁appointment	-11.6275
▁humor	-11.6275
▁target	-11.6275
▁bracket	-11.6276
▁analys	-11.6276
▁carbon	-11.6276
▁confortable	-11.6276
▁cleanser	-11.6277
▁nhung	-11.6278
▁pingin	-11.6278
▁therefore	-11.6278
▁classic	-11.6278
▁mganda	-11.6278
▁tshirt	-11.6279
▁syukaaa	-11.628
▁cork	-11.6281
▁alumin	-11.6283
▁sakin	-11.6283
▁lean	-11.6284
▁custumer	-11.6284
▁ruin	-11.6284
▁packig	-11.6287
▁agak	-11.6289
▁yuan	-11.6289
▁bus	-11.6304
▁strike	-11.6305
▁conscien	-11.6305
▁substitute	-11.6311
▁bone	-11.6312
▁bilis	-11.6317
▁ipad	-11.6319
▁cheer	-11.6325
▁mam	-11.6328
ze	-11.633
vivo	-11.6334
▁auth	-11.6336
▁lumayanlah	-11.6336
▁ket	-11.6342
▁marked	-11.6342
ki	-11.6348
▁kso	-11.635
▁liv	-11.635
▁dam	-11.6351
▁notify	-11.6355
▁mbak	-11.6359
ist	-11.6364
ved	-11.6365
▁besok	-11.6365
nta	-11.6366
▁gamis	-11.6393
gus	-11.6398
▁cleaner	-11.6399
▁desir	-11.6404
▁bngett	-11.641
▁gia	-11.6412
packing	-11.6418
▁trimakasi	-11.6433
▁maka	-11.6436
ities	-11.6436
▁banged	-11.6438
▁pj	-11.6439
▁ram	-11.644
▁tilt	-11.6443
▁commodit	-11.6452
▁nen	-11.6456
▁gentl	-11.6459
45	-11.647
▁kin	-11.6475
▁bas	-11.6482
front	-11.6487
▁jo	-11.6495
▁kekecilan	-11.6496
▁nov	-11.6496
mos	-11.6498
▁dikit	-11.6499
▁dkit	-11.651
▁apolog	-11.6517
▁itu	-11.6518
bilis	-11.6518
▁arri	-11.6523
▁district	-11.6525
▁website	-11.6525
▁refill	-11.6525
tor	-11.6525
▁belnja	-11.6525
▁stanard	-11.6525
▁squid	-11.6525
▁cartridge	-11.6525
▁diinfo	-11.6525
▁condiion	-11.6525
▁flesh	-11.6525
▁infant	-11.6525
▁mantapkeren	-11.6525
▁sustain	-11.6525
▁trimksih	-11.6526
▁outbreak	-11.6526
▁lime	-11.6527
▁connector	-11.6529
▁movement	-11.6529
▁requirement	-11.6529
▁lsg	-11.653
▁sobrang	-11.653
▁sanitizer	-11.6531
▁hubby	-11.6532
▁hs	-11.6532
▁crunchy	-11.6533
▁pngemasan	-11.6534
▁sikit	-11.6534
balot	-11.6537
▁senang	-11.6538
▁kualiti	-11.6545
▁mimin	-11.6551
▁sesuailah	-11.6557
▁febr	-11.6558
▁dat	-11.6561
aaaaaaaaaaaaa	-11.6563
▁toothp	-11.6564
▁sss	-11.657
▁soften	-11.6579
state	-11.6588
▁bsok	-11.6602
▁kalau	-11.6608
▁youuuu	-11.6611
onding	-11.6615
▁agad	-11.6624
▁syaa	-11.6628
▁02	-11.6632
▁halus	-11.6641
017	-11.6642
▁substance	-11.6643
▁sea	-11.6647
▁44	-11.665
▁headscar	-11.6652
▁mudd	-11.6655
aaaaaaaaaaaa	-11.6661
▁bio	-11.6672
▁dengan	-11.6675
▁insta	-11.6679
▁tiba	-11.6688
ug	-11.67
▁univers	-11.6705
▁nila	-11.6708
▁responsibilit	-11.6708
ep	-11.6709
▁kah	-11.6713
▁island	-11.6725
▁cuco	-11.6736
awe	-11.6747
▁grind	-11.6748
asa	-11.6749
tas	-11.675
aja	-11.6751
foot	-11.6754
mach	-11.6755
▁loosen	-11.6758
▁untung	-11.6759
▁siu	-11.6762
▁access	-11.6771
▁viole	-11.678
▁barokah	-11.6781
▁treadmill	-11.6781
▁vietnam	-11.6781
▁wealth	-11.6781
▁significant	-11.6781
▁drool	-11.6781
▁alhamdullilah	-11.6782
▁vapor	-11.6782
▁niece	-11.6782
▁kecik	-11.6783
▁mslh	-11.6783
▁candle	-11.6783
▁hmmm	-11.6785
▁bird	-11.6786
these	-11.6787
▁superior	-11.6789
▁outlet	-11.679
▁downside	-11.6791
▁corres	-11.6794
▁lcd	-11.6794
▁elde	-11.6796
▁shame	-11.68
▁backup	-11.68
▁cra	-11.6802
▁bitter	-11.6807
free	-11.6811
eeee	-11.6814
ocre	-11.6826
ouch	-11.6828
nua	-11.683
▁produc	-11.6835
▁hate	-11.6838
▁messag	-11.6839
ubic	-11.6844
▁rusak	-11.6845
▁plugg	-11.6845
▁repo	-11.6848
▁lesson	-11.6857
of	-11.6858
▁okie	-11.6859
▁plann	-11.6863
▁bkl	-11.6867
ank	-11.6868
▁dinelive	-11.6869
aque	-11.6891
▁staple	-11.6892
▁vc	-11.6893
▁partner	-11.6899
cus	-11.6909
▁guest	-11.6912
itis	-11.6919
▁cart	-11.6921
▁fate	-11.6938
▁hrganya	-11.6942
▁dumb	-11.6947
▁nkaka	-11.6951
▁pant	-11.696
ries	-11.6977
aaguuuuuus	-11.6978
▁argu	-11.6981
aya	-11.6982
▁assume	-11.6987
▁herb	-11.6991
bag	-11.7
▁syukaaaa	-11.7002
di	-11.7003
▁spare	-11.7019
land	-11.7019
▁desk	-11.702
oi	-11.7025
▁realpick	-11.7026
▁efficien	-11.7027
▁prod	-11.703
▁bite	-11.7032
▁deliv	-11.7036
▁buagus	-11.704
▁dispatch	-11.7044
▁exquisite	-11.7044
▁identify	-11.7044
▁opposite	-11.7044
▁vegetable	-11.7044
▁raincoat	-11.7044
▁shatter	-11.7044
▁orthotic	-11.7044
▁popular	-11.7044
▁quarantine	-11.7045
▁alert	-11.7045
▁respect	-11.7046
▁sgitu	-11.7046
▁recomnd	-11.7046
▁summar	-11.7046
▁vitamin	-11.7046
▁ngepres	-11.7048
▁reduction	-11.7048
▁reference	-11.7049
▁panda	-11.7049
▁otg	-11.7049
▁exelent	-11.705
▁shant	-11.7051
utan	-11.7051
after	-11.7056
▁kcil	-11.7056
▁rule	-11.7057
▁panas	-11.7058
▁directive	-11.706
▁dikirimin	-11.7061
▁deli	-11.7063
vibrant	-11.7069
▁favorabl	-11.7073
▁typically	-11.7075
▁thankfully	-11.7076
▁unclea	-11.7077
aste	-11.7084
▁station	-11.7087
▁pur	-11.7091
sesuai	-11.7091
▁outfit	-11.7095
▁keeps	-11.7097
jkt	-11.7098
rated	-11.7098
▁chatt	-11.7098
iu	-11.7102
ick	-11.7105
▁sticks	-11.713
▁mantulmantul	-11.7132
▁tolong	-11.7137
▁muantap	-11.7141
jo	-11.7151
▁wat	-11.7152
▁score	-11.7162
tory	-11.7164
▁sangt	-11.7164
▁twin	-11.717
for	-11.717
▁kka	-11.7179
▁gd	-11.7186
▁pak	-11.7187
▁swear	-11.7194
▁widths	-11.7195
▁murahhh	-11.7198
▁memuask	-11.7204
▁hic	-11.7219
ama	-11.7223
▁painting	-11.7227
▁masa	-11.7228
▁hk	-11.7231
pkai	-11.7233
rt	-11.7234
▁bae	-11.7237
▁cowb	-11.724
▁chu	-11.7252
selalu	-11.7258
▁eyeshadow	-11.7259
▁cul	-11.726
▁grand	-11.727
gat	-11.7273
plus	-11.7283
▁radi	-11.7289
bar	-11.729
▁dkt	-11.7293
▁pda	-11.7295
▁waw	-11.7296
▁kecewaa	-11.7298
▁siih	-11.7298
▁seek	-11.7304
▁mahal	-11.7307
▁bim	-11.7309
ells	-11.7313
▁component	-11.7314
▁peregrine	-11.7314
▁dessert	-11.7314
▁whatsoever	-11.7314
▁fingerprint	-11.7314
▁disconnect	-11.7315
▁silent	-11.7315
▁wrist	-11.7315
▁purcase	-11.7315
▁cuff	-11.7316
▁cardigan	-11.7316
▁sbnr	-11.7317
▁curve	-11.7317
▁lavend	-11.7318
▁restore	-11.7321
▁bail	-11.7323
▁medyo	-11.7324
▁muter	-11.7326
▁zon	-11.7327
▁beef	-11.734
▁merc	-11.7342
▁handbag	-11.7348
▁buka	-11.7353
▁adminya	-11.7353
▁zigs	-11.7361
uuuu	-11.7369
ical	-11.7371
▁ncc	-11.7373
▁liner	-11.7373
▁partial	-11.7376
▁transl	-11.7381
▁smash	-11.7381
▁underst	-11.7382
check	-11.7386
▁knowing	-11.7389
▁sukaaaaaaa	-11.7389
▁woke	-11.7395
▁puma	-11.7396
▁dto	-11.7403
▁pngirimn	-11.7405
aaaaaa	-11.7408
kasi	-11.7414
▁asal	-11.7418
▁chatnya	-11.742
▁expet	-11.7429
▁syng	-11.743
▁wk	-11.7445
▁sesua	-11.7449
▁garb	-11.7452
▁sie	-11.7456
hhhhhhhhh	-11.7457
▁substances	-11.7462
▁pray	-11.7468
▁sleting	-11.747
▁ip	-11.7477
▁muat	-11.7482
▁medj	-11.7484
▁kaos	-11.7487
▁bgi	-11.7492
▁poh	-11.7493
bulan	-11.7495
▁mntap	-11.7503
ginal	-11.7507
▁reciev	-11.7507
comfortable	-11.7512
▁tha	-11.7518
▁ahh	-11.7528
ou	-11.7532
▁bgtttt	-11.7537
▁workouts	-11.7539
je	-11.7542
▁af	-11.7542
ho	-11.7547
▁gras	-11.755
▁pee	-11.755
▁cepeet	-11.7554
▁sangaat	-11.7554
▁shine	-11.7554
▁ended	-11.7555
ska	-11.7557
refund	-11.7564
gal	-11.7564
book	-11.7568
▁mate	-11.757
▁kemasan	-11.7581
▁coksu	-11.7592
▁refrigerator	-11.7592
▁crot	-11.7593
▁blank	-11.7594
▁discuss	-11.7599
▁gear	-11.7599
▁stopper	-11.7601
ground	-11.7607
▁redmi	-11.7608
▁saler	-11.761
▁caption	-11.7611
▁155	-11.7612
▁sink	-11.7612
▁bias	-11.7617
▁severance	-11.7618
▁menu	-11.7621
▁rumah	-11.7624
▁shopie	-11.7632
▁ben	-11.7635
▁bead	-11.764
▁mik	-11.7642
▁chip	-11.7649
▁trimks	-11.7649
▁warnanya	-11.765
inch	-11.7652
▁smudge	-11.7656
▁merah	-11.7658
oven	-11.7659
tun	-11.7662
▁soalny	-11.7665
▁keys	-11.7667
▁pelayanan	-11.7671
▁understandabl	-11.7672
▁pengen	-11.7673
▁allocat	-11.7674
▁nast	-11.7676
here	-11.7693
▁pens	-11.7693
▁slide	-11.7694
▁gandos	-11.7699
▁warning	-11.7699
▁tali	-11.7703
▁koin	-11.771
▁siap	-11.7713
wr	-11.7721
▁blu	-11.7721
you	-11.7728
tttt	-11.773
▁dislo	-11.773
all	-11.7736
▁ge	-11.7741
▁measurement	-11.7741
▁gitu	-11.7744
its	-11.7755
▁shelve	-11.7756
▁ngg	-11.7758
▁sumpah	-11.7764
▁tel	-11.7767
▁tanya	-11.7767
▁soo	-11.7771
hamdulillah	-11.7776
▁salut	-11.7777
▁salah	-11.7778
▁wearable	-11.7782
▁kena	-11.7786
▁tran	-11.7786
▁prin	-11.7787
▁cape	-11.7787
▁dung	-11.779
ification	-11.7802
▁complet	-11.7803
▁cum	-11.7817
▁refer	-11.7819
wan	-11.782
baik	-11.7827
▁yasudah	-11.7828
hopefully	-11.7836
▁topp	-11.784
▁semi	-11.7842
▁nung	-11.7844
aaaaa	-11.7848
12	-11.7851
▁decrease	-11.7851
▁aware	-11.7855
hd	-11.7856
pleasant	-11.786
▁hhe	-11.7861
rific	-11.7864
▁wlp	-11.7877
▁faith	-11.7877
▁nevertheless	-11.7878
▁garden	-11.7878
▁disapoint	-11.7878
▁document	-11.7878
▁animal	-11.788
▁ternyta	-11.788
▁walaupun	-11.7881
▁blend	-11.7881
▁potent	-11.7882
▁master	-11.7885
▁reservation	-11.7885
▁guard	-11.7885
▁sendalnya	-11.789
▁prayer	-11.789
▁flatten	-11.7894
▁xxxl	-11.7898
mh	-11.79
▁deduction	-11.79
ado	-11.7904
▁pig	-11.7909
▁php	-11.7911
▁arrange	-11.7912
▁nuts	-11.7914
put	-11.7918
▁terimkasih	-11.7918
▁manis	-11.7919
▁mantapmantap	-11.7921
bl	-11.7921
▁encourage	-11.7922
▁trap	-11.7925
▁exaggerat	-11.7928
oduk	-11.7929
▁chin	-11.7932
▁supporter	-11.7933
store	-11.7936
▁bl	-11.7942
▁swell	-11.7957
nice	-11.7958
▁equi	-11.7958
▁tri	-11.7959
▁bahanny	-11.7961
▁trainer	-11.7965
▁muraah	-11.7968
▁chao	-11.7968
▁kereen	-11.7969
▁hay	-11.798
▁kur	-11.7985
▁meriah	-11.7986
▁kem	-11.7987
▁queue	-11.799
▁47	-11.7998
▁cuy	-11.8004
▁moi	-11.8004
▁nia	-11.8006
▁tar	-11.8012
▁hn	-11.8016
▁watson	-11.8017
▁packingny	-11.8022
▁nv	-11.8026
▁duo	-11.8032
▁continu	-11.8032
▁flexi	-11.8066
▁bintang	-11.8076
▁occasion	-11.8083
▁pb	-11.809
▁law	-11.8093
▁accelerate	-11.8094
▁moder	-11.8104
▁stem	-11.8105
13	-11.8113
▁rin	-11.8116
▁tet	-11.8124
gedean	-11.8126
▁bunch	-11.8127
▁makasiihh	-11.813
▁rot	-11.8132
▁confus	-11.8142
ack	-11.8144
coal	-11.815
▁soalnya	-11.8171
▁dimension	-11.8172
▁peyok	-11.8172
▁template	-11.8172
▁unfortnate	-11.8172
▁propose	-11.8172
▁tunic	-11.8173
▁faint	-11.8173
▁massage	-11.8174
▁ngelupas	-11.8174
▁tgk	-11.8174
▁facilitate	-11.8176
▁octo	-11.8176
▁alter	-11.8177
▁2000	-11.8177
▁boost	-11.8178
▁nah	-11.8179
▁mango	-11.8181
▁overcom	-11.8183
▁boong	-11.8184
▁profi	-11.8187
terimakasih	-11.8187
▁aunt	-11.8187
▁recover	-11.8188
▁border	-11.8192
mb	-11.8192
▁updat	-11.8192
cu	-11.8195
▁shit	-11.82
▁oct	-11.8205
place	-11.8208
▁mem	-11.8211
▁invite	-11.8219
▁shopeee	-11.8224
▁rid	-11.8225
ecision	-11.8233
▁hoi	-11.8236
▁bearing	-11.8242
▁eco	-11.8258
▁kala	-11.8258
▁hill	-11.826
▁thi	-11.826
aaaaaaa	-11.8266
▁bambo	-11.8273
▁saiz	-11.8281
▁hv	-11.8282
ver	-11.8288
▁pleas	-11.829
▁propert	-11.8292
▁soup	-11.8307
▁che	-11.8311
kumplit	-11.8324
54	-11.8328
▁prepar	-11.8328
▁moneygood	-11.8334
▁64	-11.8335
▁appreciated	-11.8341
▁iba	-11.8344
▁kun	-11.8346
▁dai	-11.8348
▁coating	-11.8348
dak	-11.8349
mantapmantap	-11.8361
▁reported	-11.8363
ru	-11.8365
respon	-11.8369
nga	-11.8379
mic	-11.8392
▁themes	-11.8394
▁hospital	-11.8398
▁cc	-11.8405
▁poke	-11.8411
rnya	-11.8413
nf	-11.8414
▁sam	-11.8419
▁dk	-11.8423
▁plac	-11.8439
▁navi	-11.8443
▁sihhh	-11.8446
let	-11.8447
▁puzzle	-11.8447
▁carve	-11.8448
▁defin	-11.8449
▁confiden	-11.8459
▁sobek	-11.846
▁activate	-11.8473
▁beautful	-11.8475
▁bouquet	-11.8475
▁recipient	-11.8475
▁album	-11.8475
▁method	-11.8475
▁visual	-11.8475
▁detach	-11.8475
▁samapai	-11.8475
▁tulip	-11.8475
▁element	-11.8475
▁advertisement	-11.8475
▁temen	-11.8476
▁insyallah	-11.8476
▁narecieve	-11.8476
▁resale	-11.8476
▁trlalu	-11.8477
▁sachet	-11.8477
▁barcode	-11.8477
▁wanna	-11.8477
▁gimna	-11.8478
▁kemana	-11.8478
▁fuss	-11.8478
▁puff	-11.8478
▁hitam	-11.8479
▁spoke	-11.848
▁fox	-11.848
▁keliatan	-11.848
▁rereply	-11.8481
▁participate	-11.8482
den	-11.8483
▁okokok	-11.8483
▁truss	-11.8487
▁clue	-11.8488
▁jamm	-11.8489
▁stress	-11.8491
▁unusual	-11.8493
▁deflat	-11.8495
▁iya	-11.8497
▁workman	-11.8498
uncture	-11.8503
▁reminder	-11.8503
hhhhh	-11.8504
▁lil	-11.8504
▁sau	-11.8507
▁dial	-11.8507
▁sdk	-11.8508
▁almond	-11.8508
▁rasa	-11.8508
▁jewelr	-11.851
▁oce	-11.851
▁memang	-11.8516
akan	-11.8517
▁intra	-11.8522
get	-11.8526
▁organize	-11.8528
▁wishes	-11.8529
▁dongg	-11.853
▁ru	-11.854
▁cepa	-11.8542
▁player	-11.8543
▁acc	-11.8545
itting	-11.855
▁skinny	-11.8553
▁okla	-11.8553
▁remark	-11.8562
▁vi	-11.8562
▁wkwkw	-11.8564
▁cond	-11.8572
▁tee	-11.8576
▁sx	-11.8582
▁overal	-11.8585
▁sek	-11.8585
nnnnnnnnnnnnnnnn	-11.8592
▁wan	-11.8595
▁wine	-11.86
dar	-11.861
▁cousin	-11.861
▁receiver	-11.8612
dain	-11.8614
▁akhirnya	-11.8615
▁zen	-11.8615
▁belii	-11.8635
▁movie	-11.8636
arang	-11.8637
nan	-11.8648
▁cos	-11.8655
▁tama	-11.8668
▁sep	-11.8671
kalin	-11.8678
▁shak	-11.8679
▁recom	-11.8681
▁poster	-11.8695
▁coy	-11.8696
▁kotak	-11.8698
heart	-11.8698
▁shoopee	-11.8699
▁tx	-11.8709
nant	-11.8715
▁stead	-11.8715
▁manufacture	-11.8731
▁qualit	-11.8734
▁launch	-11.8735
▁magic	-11.8739
▁kegedean	-11.8739
quality	-11.874
▁el	-11.8745
▁feb	-11.8753
▁58	-11.8754
pa	-11.8758
▁ska	-11.8761
▁gum	-11.8766
made	-11.8767
▁unbelievabl	-11.8768
niversa	-11.8782
▁arbitrar	-11.8788
▁disadvantage	-11.8788
▁hibis	-11.8788
▁coconut	-11.8788
▁succeed	-11.8788
▁counsel	-11.8788
▁cabinet	-11.8788
▁festiv	-11.8788
▁fluid	-11.8788
▁kualiatas	-11.8788
▁provision	-11.8788
▁sukasuka	-11.8789
hj	-11.879
▁plantar	-11.879
▁program	-11.879
▁penyot	-11.879
▁harini	-11.879
▁outcome	-11.879
▁insist	-11.8791
▁modest	-11.8791
▁sndiri	-11.8791
▁mungkin	-11.8792
▁sob	-11.8794
▁jait	-11.8794
▁uwu	-11.8796
▁gamau	-11.8796
ime	-11.8797
▁thru	-11.8799
▁decision	-11.88
▁loop	-11.8805
▁inter	-11.8808
▁nti	-11.8809
▁pgn	-11.881
ward	-11.8812
▁dikanto	-11.8822
▁davi	-11.8826
▁agent	-11.8827
100	-11.8834
sss	-11.8839
▁alth	-11.8845
tttttttttttttt	-11.8847
▁aqua	-11.8855
ggu	-11.8861
▁harg	-11.8864
▁format	-11.8866
nyaaa	-11.887
▁alhmdulila	-11.8875
vement	-11.8875
▁dik	-11.8876
▁patah	-11.8877
▁warn	-11.8878
▁hiya	-11.8884
▁wr	-11.8886
▁sexy	-11.8887
▁ukura	-11.8895
iriman	-11.8897
aan	-11.8904
▁knitt	-11.8913
▁compli	-11.8915
▁smok	-11.8922
▁styl	-11.8925
▁fa	-11.8926
▁natr	-11.8934
ficial	-11.8938
▁dish	-11.8939
▁discharge	-11.894
▁bum	-11.8942
hi	-11.8951
▁tele	-11.8955
jual	-11.8956
▁usa	-11.8957
▁hga	-11.8965
▁paketnya	-11.8972
ngecewakan	-11.8975
▁bali	-11.8976
sp	-11.898
ara	-11.8985
▁thankyouuu	-11.8987
this	-11.8998
mo	-11.9004
▁png	-11.9026
gg	-11.9036
best	-11.9039
▁yaaaaaa	-11.904
▁jauh	-11.9041
inform	-11.9041
▁superr	-11.9045
▁pwd	-11.9051
tions	-11.9054
▁07	-11.9057
ham	-11.906
table	-11.9061
▁sedikit	-11.907
▁sebel	-11.9072
ct	-11.9075
55	-11.9078
balikin	-11.9079
awesome	-11.9079
peso	-11.9079
shake	-11.9083
meal	-11.9084
su	-11.9094
▁alternat	-11.9098
▁locat	-11.9108
▁cactus	-11.911
▁contnue	-11.911
▁inferior	-11.911
▁nipple	-11.911
▁jastip	-11.911
▁shrink	-11.911
▁crystal	-11.911
▁obtain	-11.911
▁fasci	-11.911
▁pretend	-11.911
▁phase	-11.911
▁expetasi	-11.911
▁realflex	-11.9111
▁diliat	-11.9111
valent	-11.9111
▁pendant	-11.9111
▁contrast	-11.9111
▁dikirain	-11.9111
▁inventor	-11.9111
▁assorted	-11.9111
▁refine	-11.9113
sukasukasukasuka	-11.9114
▁dipengiriman	-11.9114
▁transferred	-11.9115
▁whitening	-11.9117
▁okokokok	-11.9117
▁upload	-11.9118
▁recommed	-11.9118
▁bilangnya	-11.9118
▁smw	-11.9119
▁assalamual	-11.9119
trimakasih	-11.9119
▁highlight	-11.912
▁collage	-11.912
▁produck	-11.912
▁cushy	-11.9124
▁hush	-11.9126
▁squishy	-11.9128
▁japan	-11.913
▁assurance	-11.9131
▁laz	-11.9132
▁tan	-11.9132
▁dgn	-11.9134
▁crime	-11.9137
▁differ	-11.9144
▁kog	-11.9144
▁pinch	-11.9149
aaaaaaaaaaa	-11.9149
▁pesenannya	-11.9149
bagussbaguss	-11.9151
ngn	-11.9154
just	-11.9156
▁lacing	-11.9158
▁111	-11.9159
produk	-11.9162
▁recomende	-11.9163
stone	-11.9184
ina	-11.9185
▁nich	-11.9194
ude	-11.9196
bd	-11.9203
▁baking	-11.9205
▁sepatunya	-11.9209
▁hy	-11.921
▁tro	-11.9219
▁study	-11.9222
hiff	-11.9226
step	-11.9231
▁nyampee	-11.9236
▁kuat	-11.9237
▁primar	-11.924
▁rapiii	-11.9242
▁fanc	-11.9245
▁nyala	-11.9245
▁decor	-11.9255
iz	-11.9258
▁allerg	-11.9263
▁diet	-11.9264
▁jahitan	-11.9276
▁qui	-11.9285
▁bj	-11.9285
rapa	-11.9288
tidy	-11.9293
▁sen	-11.9299
▁puaas	-11.9302
▁hgaaaa	-11.9307
end	-11.9311
cer	-11.9315
▁proud	-11.9318
▁guid	-11.9318
mat	-11.9318
▁mantulll	-11.9319
▁incident	-11.932
vc	-11.9322
▁gde	-11.9326
▁reflect	-11.9327
▁puasssss	-11.9338
▁trad	-11.9341
▁sel	-11.9342
▁stained	-11.9342
bby	-11.9348
▁cek	-11.9351
▁satisi	-11.9357
▁consign	-11.9364
▁cow	-11.9366
▁moistur	-11.9368
ened	-11.937
▁lnggan	-11.9376
▁listening	-11.9379
▁diy	-11.9381
▁sesui	-11.9387
▁cume	-11.9388
▁bug	-11.939
▁kaaa	-11.9395
▁fav	-11.9399
▁naship	-11.9405
▁rim	-11.9408
▁mantepp	-11.9408
▁typical	-11.941
tahun	-11.9412
▁bagg	-11.9413
excellent	-11.9414
▁lumayann	-11.9414
▁accommodate	-11.9415
▁pend	-11.9428
▁xs	-11.9435
▁elephant	-11.9443
▁international	-11.9443
▁platform	-11.9443
▁screwdriver	-11.9443
▁bublewarp	-11.9443
▁default	-11.9443
▁extraordinar	-11.9443
▁wallpaper	-11.9443
▁ciput	-11.9444
▁ditunggu	-11.9444
▁skew	-11.9444
▁motorcycle	-11.9445
▁enhancement	-11.9446
▁slack	-11.9446
▁brew	-11.9448
▁herbal	-11.945
▁conscious	-11.9451
▁shredd	-11.9451
▁wedding	-11.9452
▁buru	-11.9452
▁yaudahlah	-11.9453
▁aloe	-11.9455
fa	-11.9456
▁hays	-11.9458
▁elder	-11.946
▁neon	-11.9461
▁indonesian	-11.9461
▁tail	-11.9462
og	-11.9463
▁satin	-11.9464
▁earth	-11.9466
▁mood	-11.9466
ism	-11.947
▁jelas	-11.9474
ler	-11.9485
▁prone	-11.9487
▁orig	-11.9501
▁produkny	-11.9502
▁sack	-11.9503
▁meaning	-11.9504
▁expos	-11.9508
▁botol	-11.9511
▁pokonyaa	-11.9525
harga	-11.9529
▁palat	-11.9531
wi	-11.9531
▁chopp	-11.9533
yang	-11.9533
▁jk	-11.9539
▁taro	-11.9544
▁resposi	-11.9545
▁aw	-11.955
▁bagi	-11.9554
▁retur	-11.9556
▁estimat	-11.9579
dh	-11.9584
▁sao	-11.9585
▁hatur	-11.9586
ls	-11.9593
lic	-11.9598
▁flip	-11.9603
▁ideliver	-11.9608
oke	-11.9609
▁mono	-11.9619
ster	-11.9626
safe	-11.9629
room	-11.9629
▁trimm	-11.9634
trf	-11.9653
▁bats	-11.9657
▁fb	-11.9673
aw	-11.9684
▁putih	-11.9686
dating	-11.9687
▁settl	-11.9692
quran	-11.9693
▁blind	-11.9704
▁belanja	-11.9707
▁worker	-11.9711
▁cumul	-11.9711
wise	-11.9712
jh	-11.9716
gged	-11.9735
▁commen	-11.9735
eid	-11.9737
▁invit	-11.9738
▁batt	-11.974
tul	-11.9748
cent	-11.9751
rin	-11.9753
▁clog	-11.9754
▁jsjsj	-11.9757
▁sur	-11.9774
▁farm	-11.9774
▁heads	-11.9776
▁kecill	-11.9776
▁circu	-11.9778
my	-11.9778
duk	-11.9779
▁ngecas	-11.9782
▁dang	-11.9783
ttt	-11.9785
▁stu	-11.9785
▁regist	-11.9785
▁detect	-11.9788
▁electronic	-11.9788
▁floral	-11.9788
▁pashmina	-11.9788
▁ridiculous	-11.9788
▁undersell	-11.9788
▁initiative	-11.9788
▁impatient	-11.9788
▁session	-11.9789
▁club	-11.9789
▁fleet	-11.9789
▁brake	-11.9789
▁meatball	-11.9791
▁alarm	-11.9791
▁retain	-11.9791
▁injur	-11.9792
▁tribe	-11.9792
▁grape	-11.9793
▁600	-11.9794
▁particle	-11.9794
▁disso	-11.9794
▁curl	-11.9795
▁stove	-11.9795
▁selleer	-11.9797
▁dt	-11.9798
goodgoodgoodgood	-11.9799
▁admit	-11.9799
alhamdulillah	-11.9799
op	-11.9801
▁nget	-11.9802
▁yummy	-11.9805
▁tech	-11.9806
▁afford	-11.981
▁determine	-11.9815
▁naorder	-11.9815
▁cleansing	-11.9818
▁bleh	-11.9818
▁tdi	-11.9821
agana	-11.9823
▁daw	-11.9824
▁separat	-11.9824
▁combin	-11.9825
▁cheater	-11.9827
▁affi	-11.983
▁fom	-11.9835
nha	-11.9846
▁swim	-11.985
ju	-11.985
wh	-11.985
▁bangeeeet	-11.9852
▁dot	-11.9865
▁bagos	-11.9873
▁orang	-11.9882
▁convers	-11.989
aming	-11.989
▁kata	-11.9892
▁poto	-11.9894
ji	-11.9904
goods	-11.9907
ottes	-11.9922
deh	-11.9922
▁kualitasnya	-11.9929
▁okelah	-11.9929
sssssssssssss	-11.9932
▁keri	-11.9938
cat	-11.9946
▁born	-11.9955
▁baguuus	-11.9955
sama	-11.9961
▁tangle	-11.9964
▁drops	-11.9972
▁terim	-11.9976
▁proses	-11.998
hin	-11.9982
▁ab	-11.9988
▁lucuuu	-11.9993
aaaaaaaa	-12
▁reverse	-12.0005
▁intens	-12.0006
eez	-12.0007
amik	-12.001
itui	-12.0019
▁gem	-12.0031
▁divers	-12.0032
▁bngtt	-12.0034
post	-12.0036
▁handed	-12.0037
▁pulaa	-12.0051
▁sneak	-12.0051
▁cracker	-12.0052
▁segituu	-12.0064
mn	-12.0066
fe	-12.0066
▁pki	-12.007
▁sja	-12.0072
▁fift	-12.0072
▁tast	-12.0074
ton	-12.008
ming	-12.0085
▁dipakai	-12.0087
tb	-12.0091
▁naik	-12.0093
2016	-12.0103
▁rout	-12.0103
▁admitted	-12.0107
▁develop	-12.0109
lg	-12.0116
▁suk	-12.0119
dmi	-12.0124
▁climb	-12.0126
diin	-12.0129
pay	-12.013
▁dip	-12.0131
ggy	-12.0131
ating	-12.0132
▁selesa	-12.0133
▁scan	-12.0137
▁appeti	-12.0139
▁mumer	-12.0139
pat	-12.014
▁pasmina	-12.0141
maren	-12.0141
inal	-12.0142
acious	-12.0142
▁south	-12.0145
▁external	-12.0145
▁nostalgi	-12.0145
▁refresh	-12.0145
▁unicorn	-12.0145
▁government	-12.0145
▁reasoabl	-12.0145
▁potato	-12.0145
cense	-12.0146
▁quantities	-12.0146
▁traditional	-12.0146
▁pimple	-12.0146
▁speech	-12.0146
▁shuttle	-12.0146
▁inspiration	-12.0146
▁knowledge	-12.0146
▁pngirimannya	-12.0146
▁bullet	-12.0146
▁indicator	-12.0146
▁pitch	-12.0146
▁bntang	-12.0146
▁slmt	-12.0147
▁judgment	-12.0148
▁luamayan	-12.0148
▁ujung	-12.0148
▁jazakumullah	-12.0148
▁snail	-12.0149
▁quarter	-12.0149
▁regardless	-12.015
▁ner	-12.015
▁keluar	-12.0151
▁familiar	-12.0151
▁ckp	-12.0151
▁pokokx	-12.0155
▁liking	-12.0162
▁wolfis	-12.0162
thn	-12.0165
▁lumayaan	-12.0165
▁meow	-12.0174
▁fourth	-12.0174
▁nan	-12.0175
▁tidk	-12.0176
▁volt	-12.0176
▁soooo	-12.0184
▁bk	-12.0185
▁pork	-12.0196
▁pengirimanny	-12.0198
▁budd	-12.0201
▁lump	-12.0204
mth	-12.0213
▁outgo	-12.022
▁dye	-12.0223
▁goi	-12.0225
▁safer	-12.0226
▁howeverthe	-12.0226
▁leav	-12.0229
▁prob	-12.0237
fg	-12.0239
▁beside	-12.0245
▁cuz	-12.025
hang	-12.0251
bya	-12.0251
▁matur	-12.0253
▁brooks	-12.0263
mature	-12.0267
▁vent	-12.0268
▁dija	-12.0275
▁nx	-12.0276
neda	-12.0288
oy	-12.0296
▁tomb	-12.0299
▁descen	-12.0299
bait	-12.0307
▁por	-12.031
▁bogo	-12.0311
ks	-12.0319
▁ventilat	-12.0334
▁bda	-12.0337
▁decepti	-12.0341
▁examin	-12.0349
▁68	-12.0352
ili	-12.0357
▁rotate	-12.0367
▁laris	-12.037
▁tam	-12.0373
cro	-12.0376
▁ceaaaaaa	-12.0381
▁blur	-12.0392
▁produ	-12.0399
▁wil	-12.0399
gsg	-12.0401
fense	-12.0407
▁hok	-12.0411
eaten	-12.0414
▁enakk	-12.0415
▁gin	-12.0415
▁ker	-12.0415
▁minh	-12.0419
tagal	-12.0422
▁kasihhh	-12.0428
▁vai	-12.0433
▁mist	-12.0433
▁gu	-12.0438
▁indicat	-12.0439
kkkkkkkkkkkkkkk	-12.0446
reply	-12.0446
ngnya	-12.0446
▁central	-12.0451
▁pese	-12.0451
▁spiderm	-12.0455
▁eliminate	-12.0458
▁coco	-12.0459
▁dalam	-12.0463
▁ktnya	-12.0466
▁kalinya	-12.0468
▁wt	-12.047
sip	-12.0473
ht	-12.0473
llllllllllllllll	-12.0475
packaging	-12.0477
ght	-12.0478
▁har	-12.0486
▁joke	-12.0488
▁energ	-12.0498
▁55555	-12.0506
▁instruct	-12.0506
▁chemical	-12.0516
▁expenditure	-12.0516
▁liptint	-12.0516
▁ngefek	-12.0516
▁punctual	-12.0516
▁elbow	-12.0516
▁pacifier	-12.0516
▁dianter	-12.0516
▁frail	-12.0516
▁college	-12.0516
▁convention	-12.0516
▁robot	-12.0516
▁malowbat	-12.0516
▁capsule	-12.0516
▁invest	-12.0517
▁selamatt	-12.0517
▁digital	-12.0517
stars	-12.0517
▁macam	-12.0519
▁jazakallah	-12.0519
▁discover	-12.052
▁mohon	-12.052
▁tengkyuu	-12.052
▁bersih	-12.052
▁begging	-12.052
▁trmksih	-12.0521
▁sakto	-12.0522
▁indoor	-12.0523
▁symmetrical	-12.0523
▁tunggu	-12.0524
▁guilt	-12.0526
sole	-12.0526
▁sampeee	-12.0527
▁macem	-12.0528
▁cepatttt	-12.053
▁ntr	-12.0533
▁kalii	-12.0534
▁140	-12.0534
▁competiti	-12.0541
equal	-12.0541
▁flag	-12.0543
▁benang	-12.0547
▁bln	-12.0548
▁hong	-12.0549
can	-12.055
▁berkah	-12.0551
are	-12.0552
▁kejahi	-12.0558
biji	-12.056
nel	-12.0561
▁sliding	-12.0561
ann	-12.0564
▁tipu	-12.0572
▁dug	-12.0574
▁kecilin	-12.0577
▁kz	-12.0578
▁marina	-12.0584
▁literal	-12.0586
▁res	-12.0594
▁ray	-12.0601
▁dibl	-12.0602
▁facebook	-12.0603
▁qa	-12.0606
sapp	-12.0612
▁wilt	-12.062
▁panty	-12.0625
▁pokoe	-12.0625
▁rap	-12.0625
▁occasional	-12.063
▁thankz	-12.0638
hg	-12.0642
▁mkn	-12.0645
ative	-12.0656
▁vanill	-12.0656
▁shave	-12.0656
ightly	-12.0658
▁kai	-12.0663
▁recognize	-12.0665
▁bila	-12.0666
▁pnya	-12.0671
▁ham	-12.0673
cut	-12.0674
▁mant	-12.0677
▁chgaaaaaaaa	-12.0678
▁tanger	-12.0679
▁fl	-12.0692
tation	-12.0692
▁kta	-12.0695
▁ken	-12.0699
▁ndk	-12.0709
▁unuse	-12.0718
▁capital	-12.0718
▁mar	-12.0719
▁bahanya	-12.0719
▁bars	-12.0725
▁dgan	-12.0728
der	-12.0734
▁aesthetic	-12.0743
▁fo	-12.0745
▁west	-12.0761
▁pasti	-12.0765
gdfj	-12.0772
▁fails	-12.0774
▁mass	-12.0775
▁hydro	-12.0775
▁tent	-12.0777
▁charm	-12.0786
▁bn	-12.0786
▁kualita	-12.079
▁sampaiii	-12.0795
ngsung	-12.0795
▁dulu	-12.0802
▁xie	-12.0803
lit	-12.0804
▁kpn	-12.0805
▁baiik	-12.0805
▁choos	-12.0807
▁eto	-12.081
▁organiz	-12.0811
▁kecewaaa	-12.0812
▁sal	-12.0817
▁syantik	-12.0819
▁hem	-12.0819
shes	-12.0823
▁needles	-12.0825
ction	-12.0828
terior	-12.0833
▁masing	-12.0838
buka	-12.0838
▁konsumen	-12.0839
llllllllllll	-12.0847
pack	-12.0847
▁peru	-12.0868
finish	-12.0869
▁goo	-12.087
▁terimakasiih	-12.0872
ems	-12.0876
▁bocor	-12.0878
▁amannn	-12.0878
▁indo	-12.088
▁roy	-12.0886
pppppppppppppp	-12.0887
▁excellen	-12.0888
▁uang	-12.0888
▁america	-12.0892
▁hmmmm	-12.0894
▁kaak	-12.0896
▁jer	-12.0896
▁disk	-12.0898
▁kb	-12.09
▁accompany	-12.09
▁ghost	-12.09
▁horizontal	-12.09
▁irreparabl	-12.09
▁resilien	-12.09
▁grocer	-12.09
▁establish	-12.09
▁eager	-12.0901
▁november	-12.0901
▁imitation	-12.0901
▁3000	-12.0901
▁jatoh	-12.0901
▁unavailab	-12.0901
▁john	-12.0901
▁arrangement	-12.0902
▁baranh	-12.0902
▁dpke	-12.0902
ulent	-12.0902
▁ruffled	-12.0903
▁ticket	-12.0903
js	-12.0903
▁litter	-12.0905
90	-12.0906
▁pill	-12.0908
▁fila	-12.0908
▁tab	-12.091
▁kick	-12.091
▁balo	-12.0912
▁comply	-12.0912
lmat	-12.0913
▁liar	-12.0913
▁hin	-12.0913
▁wedge	-12.0913
▁visitor	-12.0915
ore	-12.093
▁125	-12.093
▁cock	-12.0933
▁vagu	-12.0939
▁huft	-12.0942
▁liat	-12.0945
▁padin	-12.0947
▁wiper	-12.0954
▁pasang	-12.0958
too	-12.0959
gant	-12.0969
▁compensate	-12.0969
▁tur	-12.0988
▁bgtu	-12.099
uous	-12.0996
▁shopper	-12.1
▁calculate	-12.1005
▁posting	-12.1006
rf	-12.1007
▁printer	-12.101
aaaaaaaaa	-12.1015
lnya	-12.1019
▁irritat	-12.1025
▁sara	-12.1026
mak	-12.103
▁sham	-12.1032
▁niya	-12.1038
▁kita	-12.1038
▁lateral	-12.1039
▁kaga	-12.1042
terima	-12.1042
▁twit	-12.1043
▁peg	-12.1047
hhhhhhhhhhhhh	-12.1049
ksh	-12.1049
eee	-12.1049
▁bab	-12.1049
▁chic	-12.1051
meter	-12.1052
17	-12.1058
▁cukup	-12.1065
esek	-12.1065
▁xda	-12.1072
▁seep	-12.1075
▁reliab	-12.1086
▁myster	-12.1092
od	-12.1096
ior	-12.1101
▁pagka	-12.1104
▁dim	-12.1105
mine	-12.1113
▁ck	-12.1114
▁madam	-12.1119
▁expektasi	-12.1119
ana	-12.112
▁lai	-12.112
hu	-12.1124
▁bagua	-12.1126
▁parahh	-12.1129
▁ngay	-12.1132
▁napa	-12.1141
▁900	-12.1142
▁mkasi	-12.1144
mlm	-12.1155
ella	-12.1157
▁bonusnya	-12.1157
gen	-12.1161
▁pile	-12.1164
▁kasihhhh	-12.1165
▁tsu	-12.1168
▁chill	-12.118
▁kona	-12.1185
▁baaik	-12.1189
▁yaah	-12.1192
new	-12.1193
▁reserve	-12.1194
▁jualan	-12.1198
▁pepper	-12.1204
ves	-12.1207
▁spin	-12.1209
gn	-12.1213
berry	-12.1215
pped	-12.1215
pro	-12.1216
▁jelek	-12.1221
▁bay	-12.1231
bungkusan	-12.1233
▁bud	-12.1234
▁baikkkk	-12.1246
▁tnp	-12.1252
▁direction	-12.1254
▁tolerate	-12.1257
▁esp	-12.1257
▁dilute	-12.1259
▁spy	-12.1267
▁nii	-12.1268
ite	-12.1273
▁gimana	-12.1273
nnnn	-12.1278
▁combine	-12.1288
rr	-12.1289
sampai	-12.1291
▁repon	-12.1295
▁pantes	-12.1295
cation	-12.1299
mnopqrstuvwxyz	-12.13
▁concentration	-12.13
▁distribution	-12.13
▁evidence	-12.13
▁decisive	-12.13
▁heaven	-12.13
▁mushroom	-12.13
▁knob	-12.1301
▁plague	-12.1301
▁strobe	-12.1301
▁ngatung	-12.1301
▁email	-12.1301
▁technic	-12.1301
▁headband	-12.1301
▁allhamdulilah	-12.1301
▁supplement	-12.1301
▁teteh	-12.1301
▁ceaaaaa	-12.1302
▁organization	-12.1302
▁ngisi	-12.1302
▁170	-12.1303
▁dipke	-12.1304
▁coil	-12.1304
▁caution	-12.1305
▁tmbah	-12.1306
▁nantap	-12.1307
▁cube	-12.1308
▁preferabl	-12.131
▁vary	-12.131
▁smear	-12.1311
▁pakaging	-12.1311
▁native	-12.1316
etti	-12.1317
▁panic	-12.1317
▁mantaps	-12.1319
▁shield	-12.1321
▁rb	-12.1321
anget	-12.1322
▁orches	-12.1325
▁dash	-12.1329
▁feas	-12.133
▁bump	-12.133
▁duit	-12.1332
▁erase	-12.1337
▁struggle	-12.1339
▁samsek	-12.1342
▁muda	-12.1345
▁policy	-12.1347
▁labor	-12.1348
▁airpods	-12.1349
▁tad	-12.136
▁ambili	-12.1366
▁insyaa	-12.1366
▁coal	-12.1367
40	-12.1376
▁suke	-12.1376
▁sukaaaaaaaaa	-12.138
▁wlpu	-12.1381
ao	-12.1391
nguishe	-12.1394
rg	-12.1398
▁luama	-12.1399
▁arti	-12.1401
▁scammer	-12.1401
▁dann	-12.1403
▁ble	-12.1405
aba	-12.1405
▁clot	-12.1408
ron	-12.1408
▁eg	-12.1411
▁cba	-12.1418
▁walked	-12.1418
▁lumaya	-12.1419
▁sake	-12.1419
▁resist	-12.1421
▁cookies	-12.1422
▁applica	-12.1422
▁hb	-12.1423
moga	-12.1425
▁def	-12.1425
▁nyesell	-12.1427
▁kq	-12.1428
▁banyaak	-12.1433
▁terbaikk	-12.1433
▁sagg	-12.1434
nger	-12.1436
▁josss	-12.1445
▁selebih	-12.1445
▁barngnya	-12.1446
▁conditioner	-12.1449
▁valve	-12.1457
cp	-12.1458
itten	-12.146
ooo	-12.146
▁unpack	-12.146
▁informati	-12.1473
return	-12.1478
▁kale	-12.1478
▁sg	-12.1483
fi	-12.1483
▁cai	-12.1485
▁ata	-12.1486
▁yaaaaaaa	-12.1487
▁umm	-12.1494
▁wai	-12.1498
▁glu	-12.1504
nj	-12.151
lobat	-12.1516
▁mp	-12.1518
ira	-12.1521
fh	-12.1524
▁notif	-12.1531
lk	-12.1533
kkkk	-12.1543
hbis	-12.1544
liver	-12.1548
▁bomb	-12.1551
▁hny	-12.1552
▁langganann	-12.1567
▁flu	-12.1571
▁addict	-12.1571
▁mash	-12.1574
▁kilat	-12.1574
▁sbb	-12.1577
dfj	-12.1577
dies	-12.1577
▁saver	-12.1581
▁terimakasihhh	-12.1587
kot	-12.1587
nks	-12.1597
kp	-12.1605
▁kren	-12.1607
▁wks	-12.1615
jk	-12.1617
kung	-12.1626
▁slipp	-12.1629
▁bulu	-12.1638
▁59	-12.1641
▁drugs	-12.1642
▁pie	-12.1648
▁siz	-12.1651
eral	-12.1653
▁dehhhh	-12.1655
kat	-12.1656
▁tack	-12.1659
▁rash	-12.1663
▁haluss	-12.1676
▁las	-12.1676
▁shut	-12.1679
▁sellr	-12.1681
▁luvv	-12.1685
update	-12.1686
▁rata	-12.169
▁ser	-12.1692
▁pape	-12.1697
▁zoo	-12.1705
▁khair	-12.1709
▁jas	-12.1713
▁yaaaaaaaa	-12.1713
▁arro	-12.1715
cancel	-12.1716
▁khasanah	-12.1717
▁perishable	-12.1717
▁proposal	-12.1717
▁toothbrush	-12.1717
▁flannel	-12.1717
▁antenna	-12.1717
▁technolog	-12.1717
▁dikrm	-12.1717
▁strict	-12.1717
▁custemer	-12.1717
▁stunn	-12.1717
▁epide	-12.1717
▁exclusive	-12.1717
▁attract	-12.1718
▁harsh	-12.1718
▁alternative	-12.1718
▁dishopee	-12.1718
▁slant	-12.1718
▁gnti	-12.1719
▁bordir	-12.1719
▁manipis	-12.172
▁deem	-12.1721
▁mush	-12.1721
▁duty	-12.1721
▁fluent	-12.1721
cepet	-12.1723
▁buffer	-12.1724
▁operation	-12.1724
▁drift	-12.1724
▁possibilit	-12.1725
▁segtu	-12.1726
▁az	-12.1727
▁garl	-12.1728
▁tym	-12.1731
▁outward	-12.1731
gish	-12.1733
▁choco	-12.1735
yrs	-12.1736
▁diskonan	-12.1736
▁root	-12.1739
▁gusto	-12.1739
▁bagusss	-12.1741
▁aweet	-12.1744
▁bangeettt	-12.1744
▁golf	-12.1745
▁beret	-12.1749
▁tempt	-12.1753
▁hrp	-12.1754
▁puzzl	-12.1756
run	-12.1756
▁bak	-12.1759
tik	-12.1762
▁google	-12.1766
laupun	-12.177
▁deck	-12.1771
▁treasure	-12.1771
▁recomand	-12.1772
ci	-12.1773
surance	-12.1776
ket	-12.1781
▁pertahankan	-12.1782
▁panjang	-12.1783
▁bikin	-12.1783
▁businesses	-12.1784
▁noticeable	-12.1784
▁asdg	-12.1789
▁soal	-12.1799
▁bng	-12.1801
▁solo	-12.1802
ft	-12.1805
▁lahhh	-12.1805
▁maybel	-12.1806
▁hoodie	-12.1808
▁dicki	-12.1812
▁jual	-12.1818
uuu	-12.1819
cock	-12.1821
▁grabe	-12.1822
▁hanya	-12.1826
▁desc	-12.1827
▁dud	-12.183
▁cug	-12.1836
▁diskon	-12.1838
▁samp	-12.1855
makasih	-12.1856
with	-12.1857
charge	-12.1865
▁steps	-12.1869
▁zigtech	-12.1872
▁amaan	-12.1874
▁sens	-12.1875
▁crown	-12.1887
▁xpe	-12.189
▁royal	-12.189
mana	-12.1897
▁packge	-12.1908
▁ala	-12.1908
▁saran	-12.1909
▁pond	-12.1911
even	-12.1918
▁orng	-12.1924
iti	-12.1925
zzle	-12.1931
okokokokokokoko	-12.1946
ef	-12.1952
▁pokoknyaaa	-12.1954
▁sooth	-12.1961
▁shar	-12.1962
▁produknyaa	-12.1973
uan	-12.1976
▁conclude	-12.1977
▁temper	-12.1978
▁ot	-12.1986
▁lampu	-12.1993
uuuuuu	-12.2
▁barag	-12.2003
▁prov	-12.2003
nak	-12.2004
▁learned	-12.2005
▁pesann	-12.2006
fu	-12.2006
▁ngabari	-12.201
▁packng	-12.2016
▁nerv	-12.2017
▁bangetttttttttt	-12.2018
▁pom	-12.202
▁slit	-12.2022
▁trend	-12.2022
▁intentional	-12.2024
▁tida	-12.203
▁sby	-12.2031
▁tailor	-12.2033
pan	-12.2035
ell	-12.2037
▁gada	-12.2045
▁banyakkk	-12.2048
▁ignor	-12.2049
▁tables	-12.2053
▁kayo	-12.2056
▁kua	-12.2059
▁gc	-12.2059
ac	-12.2067
▁dj	-12.2079
▁poll	-12.2079
▁member	-12.209
▁nagih	-12.209
almon	-12.2093
mart	-12.2093
▁jl	-12.2102
▁paa	-12.2102
turan	-12.2103
▁awal	-12.2104
▁redundan	-12.2109
▁kereeen	-12.2113
▁sup	-12.2114
▁sippp	-12.2115
cl	-12.2116
▁nm	-12.2118
php	-12.2121
balance	-12.2124
same	-12.2125
next	-12.2126
vk	-12.2127
▁maen	-12.213
puas	-12.213
▁blnj	-12.2137
yah	-12.2142
▁absor	-12.2146
▁harus	-12.2146
string	-12.2147
▁asia	-12.2148
sap	-12.2151
▁brocade	-12.2152
▁deposit	-12.2152
▁dishonest	-12.2152
▁enclose	-12.2152
▁singapore	-12.2152
▁peanut	-12.2152
▁swimsuit	-12.2152
▁categor	-12.2152
▁alhmdlh	-12.2152
▁repack	-12.2152
▁suspect	-12.2152
▁kasihterima	-12.2153
▁dissappoint	-12.2153
▁fulfill	-12.2153
▁triang	-12.2153
▁halal	-12.2153
▁sangatbaik	-12.2154
▁barter	-12.2154
▁selller	-12.2154
▁birth	-12.2154
▁survivor	-12.2155
▁sbelum	-12.2155
▁kaleng	-12.2155
▁unluck	-12.2155
▁doctor	-12.2156
▁jngn	-12.2158
▁abcdefghijkl	-12.2158
▁kudu	-12.2158
▁national	-12.2159
▁pharmac	-12.216
rtma	-12.216
ox	-12.2161
gf	-12.2161
▁proceed	-12.2163
▁180	-12.2164
▁prngiriman	-12.2164
▁malu	-12.2165
▁bumper	-12.2165
▁tgl	-12.2167
▁penjualnya	-12.2173
mon	-12.2174
▁gppa	-12.2177
qu	-12.2177
nation	-12.2179
▁messge	-12.218
▁napaka	-12.2182
rjangkau	-12.2184
▁peo	-12.2185
▁dasternya	-12.2187
▁oi	-12.219
urate	-12.2191
▁bkan	-12.2193
mp	-12.2193
ents	-12.2194
▁ordee	-12.2195
▁mamah	-12.2195
wood	-12.2195
▁terbaikkkk	-12.2197
anku	-12.2202
▁allowance	-12.2205
▁yahhh	-12.2205
▁bik	-12.2207
▁plg	-12.221
▁contract	-12.2211
▁fin	-12.2212
using	-12.2215
▁mantaapp	-12.2216
gest	-12.2217
xx	-12.2222
▁scann	-12.2225
tahi	-12.2226
▁dksh	-12.2227
▁dragg	-12.2227
▁kac	-12.2227
▁laid	-12.2228
ib	-12.2231
▁masang	-12.2239
▁walo	-12.2242
▁vnd	-12.2244
▁magn	-12.2247
▁couldn	-12.2247
▁reset	-12.2248
▁krudung	-12.2254
▁pelanggan	-12.2255
▁wholesaler	-12.2259
pas	-12.2259
▁thoi	-12.2262
expect	-12.2264
▁vn	-12.2271
▁gue	-12.2273
▁courte	-12.2279
▁keras	-12.2282
ound	-12.2284
▁respo	-12.2287
▁spt	-12.229
▁maxi	-12.229
sis	-12.229
▁drama	-12.2292
our	-12.2293
fyi	-12.2294
▁sala	-12.2294
▁dpake	-12.23
▁harh	-12.2305
▁mang	-12.231
▁addicti	-12.2311
▁sukka	-12.2319
▁plush	-12.2323
▁stre	-12.2328
apal	-12.2337
▁kasiih	-12.2341
▁ways	-12.2344
▁tgn	-12.2344
mber	-12.2345
▁tow	-12.2346
▁branch	-12.2349
tis	-12.2351
▁cn	-12.2353
▁pine	-12.2354
▁qr	-12.2374
uo	-12.2377
▁mka	-12.2378
kurang	-12.2379
▁allergi	-12.2394
▁spa	-12.2395
▁pembeli	-12.2397
phom	-12.2399
eberapa	-12.2403
▁novel	-12.2403
▁gui	-12.2404
gs	-12.2405
▁luc	-12.241
▁promote	-12.2416
▁hinh	-12.2416
▁gpplah	-12.2431
▁syudah	-12.2437
▁scrape	-12.2439
▁kkk	-12.2443
▁rapihhh	-12.2444
gnya	-12.2445
ken	-12.2449
▁makasiiih	-12.2451
▁nama	-12.2451
▁walaup	-12.2459
▁headache	-12.2464
▁clari	-12.247
▁noodle	-12.247
▁meng	-12.248
▁pes	-12.2482
▁vel	-12.2483
▁fry	-12.2484
▁obli	-12.2489
▁kim	-12.2494
rhati	-12.2495
sj	-12.2499
crib	-12.2505
tnya	-12.2523
50	-12.2527
ller	-12.2527
ide	-12.2531
ggg	-12.2531
▁orde	-12.2541
▁mal	-12.2541
▁psn	-12.2542
▁masih	-12.2543
cc	-12.2544
▁closet	-12.2545
▁casan	-12.2547
▁cantek	-12.2548
lan	-12.2551
▁sine	-12.2554
▁aaa	-12.2565
view	-12.2566
▁cure	-12.2567
▁tapiii	-12.2568
toyiba	-12.2569
▁sudahh	-12.257
▁sayaa	-12.257
harmon	-12.2573
▁des	-12.2573
▁loo	-12.2573
cover	-12.258
▁lancar	-12.2586
▁regards	-12.2593
een	-12.2604
▁conclusion	-12.2606
▁riject	-12.2606
▁upholster	-12.2606
▁improper	-12.2606
▁sausage	-12.2606
▁priduk	-12.2606
▁berlapis	-12.2606
▁hologram	-12.2606
▁commercial	-12.2607
▁tuspin	-12.2607
▁mechanic	-12.2607
▁penguriman	-12.2607
▁thnkyou	-12.2607
▁jalan	-12.2607
▁palette	-12.2607
▁sidewalk	-12.2607
▁entertain	-12.2607
▁galax	-12.2607
▁distribute	-12.2607
▁bookmark	-12.2607
▁ditoko	-12.2608
▁takpe	-12.2608
▁longgar	-12.2609
▁qualitas	-12.2609
▁kosong	-12.2609
▁sensiiv	-12.2609
▁spell	-12.2609
▁direfund	-12.261
▁agreement	-12.2611
▁mountain	-12.2611
tely	-12.2611
▁seleting	-12.2611
mk	-12.2612
▁tmpt	-12.2613
▁recheck	-12.2613
▁hungry	-12.2614
▁queen	-12.2614
▁ngaju	-12.2614
▁dump	-12.2615
▁breakfast	-12.2616
▁slice	-12.2616
▁gatel	-12.2616
▁adjustment	-12.2617
▁kulitas	-12.2617
▁baggus	-12.2618
▁poison	-12.2619
▁kardus	-12.2619
▁depress	-12.262
▁softcase	-12.2623
▁facilit	-12.2625
▁exception	-12.2626
ice	-12.2626
▁lighten	-12.2628
▁notebook	-12.2628
▁trbaik	-12.2631
▁dkasih	-12.2633
▁marker	-12.2636
couzi	-12.2638
knya	-12.2638
▁indent	-12.2638
▁lw	-12.2639
▁surger	-12.2649
▁chun	-12.2654
▁nun	-12.2655
▁pengemasannya	-12.2655
ugust	-12.2657
▁blast	-12.2658
▁hai	-12.2658
▁granted	-12.2658
▁kebaya	-12.2661
▁128	-12.2662
▁dab	-12.2673
▁nagus	-12.2674
▁toughen	-12.2674
▁toptop	-12.2675
▁makash	-12.2678
▁organi	-12.2679
auai	-12.2682
▁dito	-12.2683
▁vest	-12.2697
pus	-12.2703
▁lovers	-12.2704
ayos	-12.2715
▁hop	-12.2716
▁fastrespon	-12.2718
ayan	-12.2722
▁goodjob	-12.2726
▁bjunya	-12.2727
▁brighten	-12.2733
▁tat	-12.2733
▁thankssss	-12.2735
▁ol	-12.2738
▁dit	-12.2739
▁hon	-12.274
▁glute	-12.274
▁offense	-12.2745
▁sampa	-12.2751
▁reflectiv	-12.2759
▁discret	-12.2764
mate	-12.2765
▁bathro	-12.2771
alt	-12.2777
aga	-12.2777
▁selaluu	-12.2781
▁decline	-12.2782
gv	-12.2785
▁tebell	-12.2786
▁yard	-12.2788
▁bust	-12.2789
▁airy	-12.2794
▁stripp	-12.2797
▁nhe	-12.28
▁liver	-12.2806
▁dari	-12.2807
▁sia	-12.2808
▁nest	-12.2809
▁dryer	-12.2816
▁pupp	-12.2817
▁dau	-12.2833
▁thankful	-12.2838
ium	-12.2838
kj	-12.2846
▁bajuny	-12.2848
fc	-12.285
item	-12.2862
▁bull	-12.2869
gk	-12.2871
ori	-12.2878
▁favorites	-12.2886
khit	-12.2894
▁laahh	-12.2897
max	-12.2903
▁concerns	-12.2907
▁crow	-12.2909
▁bake	-12.291
expedisinya	-12.2912
▁pagi	-12.2918
▁mut	-12.2918
▁56	-12.2918
liit	-12.2929
▁ramaah	-12.2933
▁operate	-12.2934
▁bgttttt	-12.2936
▁gajela	-12.295
▁resubmit	-12.2951
lock	-12.296
ttttttttttttt	-12.2962
▁selle	-12.2969
arin	-12.2973
nda	-12.2979
iya	-12.2988
tain	-12.2992
▁maker	-12.2997
▁sygnya	-12.2998
▁wig	-12.2999
▁sepatu	-12.3003
▁laaah	-12.3003
▁rasanya	-12.3004
▁langgann	-12.3011
▁bal	-12.3014
pu	-12.3014
▁sept	-12.3023
▁hehee	-12.3024
▁occur	-12.3026
▁masuk	-12.3028
▁carg	-12.3028
cco	-12.3033
▁classifi	-12.304
▁trans	-12.304
▁bagusssssss	-12.3042
▁cer	-12.3044
luck	-12.3045
▁jug	-12.3045
▁dig	-12.3045
season	-12.3047
half	-12.3053
food	-12.3055
barin	-12.306
rti	-12.306
▁possibl	-12.3062
▁emotion	-12.3063
▁bahann	-12.3065
hood	-12.3066
▁sedap	-12.3069
▁disturb	-12.3073
▁berpat	-12.3075
▁kang	-12.3078
▁tokonya	-12.3079
▁construct	-12.3081
▁cockroach	-12.3083
▁jordan	-12.3083
▁jwab	-12.3083
▁squeak	-12.3083
▁reassur	-12.3083
▁seaweed	-12.3083
▁bolster	-12.3083
▁guitar	-12.3083
▁pinadala	-12.3083
▁baramg	-12.3083
▁bloom	-12.3083
▁dikardus	-12.3083
▁roast	-12.3083
▁skill	-12.3083
▁reclaim	-12.3083
▁gross	-12.3083
▁flos	-12.3083
▁overflow	-12.3083
▁forecast	-12.3083
▁slug	-12.3083
▁silence	-12.3083
▁baij	-12.3084
▁muscle	-12.3084
▁gituu	-12.3084
▁bintng	-12.3084
▁sophee	-12.3084
▁footprint	-12.3084
▁seedling	-12.3084
▁challenge	-12.3084
▁indentation	-12.3085
▁arise	-12.3085
▁irritation	-12.3086
▁exit	-12.3087
▁vul	-12.3088
▁ujan	-12.3088
▁langsung	-12.3089
▁strech	-12.3089
▁pegiriman	-12.3089
▁chick	-12.309
▁sodara	-12.3091
▁rcv	-12.3091
▁american	-12.3093
▁butterfl	-12.3093
▁thril	-12.3095
▁kgedean	-12.3096
ential	-12.3097
ita	-12.3098
▁tmn	-12.3098
▁ragu	-12.31
▁pngrmn	-12.3101
▁triple	-12.3101
▁kedepan	-12.3103
▁font	-12.3104
▁biru	-12.3105
▁kula	-12.3106
▁walang	-12.311
▁bwah	-12.3111
▁stage	-12.3111
utk	-12.312
though	-12.312
▁carrie	-12.3124
disappoint	-12.3128
kap	-12.3128
ecwa	-12.3129
▁berfungsi	-12.313
▁hous	-12.3133
▁btl	-12.3133
▁admittedly	-12.3135
bo	-12.3146
▁behav	-12.3146
▁xia	-12.3147
▁teach	-12.3152
times	-12.3156
▁frequen	-12.3157
▁responds	-12.3158
▁bind	-12.3159
▁ppa	-12.3163
▁kha	-12.3165
▁slipped	-12.3166
taran	-12.3166
▁costumerku	-12.3171
▁konfir	-12.3179
▁untu	-12.3179
▁ju	-12.3183
coz	-12.3187
▁dollars	-12.3189
▁simp	-12.3191
ahh	-12.3193
▁galing	-12.3197
▁dee	-12.3197
▁sopee	-12.3199
▁laaa	-12.3199
▁cage	-12.32
▁zin	-12.32
▁hahaa	-12.3201
▁teman	-12.3203
▁akhir	-12.3214
una	-12.3217
▁minn	-12.3223
▁dipacking	-12.3223
▁nyah	-12.3224
ade	-12.3225
▁ji	-12.3228
mpir	-12.3231
▁kedua	-12.3231
ad	-12.3239
▁operat	-12.324
▁expe	-12.324
▁ivo	-12.3242
▁sop	-12.325
rimaasih	-12.3251
▁extract	-12.3273
nah	-12.3273
▁orii	-12.3274
▁contri	-12.3277
▁involv	-12.3279
▁tingkat	-12.3279
▁mantullll	-12.3281
▁sol	-12.3285
▁bagusssssssssss	-12.3286
▁tracks	-12.3289
▁glob	-12.3292
▁mad	-12.33
mbang	-12.3304
▁mantaaap	-12.3307
▁jawab	-12.3311
▁aaaaa	-12.3316
▁yer	-12.333
▁neh	-12.3331
▁sedih	-12.3332
▁humid	-12.3335
▁mimi	-12.3339
▁syantii	-12.3339
▁rotat	-12.3339
▁protest	-12.334
▁hg	-12.334
▁sl	-12.3347
▁wlau	-12.335
▁baret	-12.3358
aaaaaaaaaaaaaa	-12.3361
kembaliin	-12.3366
▁dots	-12.3368
hri	-12.337
▁barokallah	-12.3372
jj	-12.3375
rench	-12.3375
▁tons	-12.3392
▁lamaaaaaa	-12.3394
▁ngu	-12.3396
▁wav	-12.3397
nipis	-12.3401
elon	-12.3401
▁djd	-12.3404
▁approve	-12.3407
▁tai	-12.3409
ngganan	-12.3412
fl	-12.3412
▁tlga	-12.3413
▁bahn	-12.3424
▁chil	-12.343
▁thk	-12.3431
ela	-12.3432
price	-12.3433
ttttt	-12.3437
▁path	-12.3439
▁sira	-12.3449
▁brpa	-12.345
▁nap	-12.3459
engiriman	-12.3465
ome	-12.3466
▁bung	-12.3467
vd	-12.3468
▁makasiii	-12.3468
tau	-12.3471
iiiiiiiiii	-12.3474
▁hee	-12.3476
pic	-12.3477
etic	-12.348
▁camp	-12.3488
▁stat	-12.3494
▁bai	-12.3497
▁wla	-12.3508
vs	-12.351
▁rok	-12.3512
▁bene	-12.3512
res	-12.3517
▁thich	-12.3524
▁69	-12.3531
journe	-12.3535
cpat	-12.3536
▁990	-12.354
▁wip	-12.3541
graph	-12.3544
▁freeze	-12.3545
▁complement	-12.3546
foil	-12.355
▁latte	-12.3551
hijab	-12.3551
skirt	-12.3551
piece	-12.3552
habit	-12.3552
▁mula	-12.3553
▁crim	-12.3558
▁rac	-12.3561
▁ratio	-12.3561
▁sprt	-12.3562
gold	-12.3563
▁wahh	-12.3566
▁stroll	-12.3571
▁pekin	-12.3571
▁rang	-12.3575
▁smog	-12.3576
▁betullll	-12.3577
▁exam	-12.3577
▁qualiti	-12.3578
▁abrasi	-12.3581
▁nong	-12.3582
▁astonish	-12.3583
▁ceramic	-12.3583
▁chopstick	-12.3583
▁complex	-12.3583
▁permanent	-12.3583
▁scheme	-12.3583
▁swift	-12.3583
▁pampers	-12.3583
▁squash	-12.3583
▁yaampun	-12.3583
▁quilt	-12.3583
▁tutorial	-12.3583
▁tiger	-12.3583
▁pruduk	-12.3583
▁flood	-12.3583
▁vacation	-12.3583
▁dibibir	-12.3583
▁trimkasih	-12.3583
▁plaque	-12.3584
▁berkualiti	-12.3584
▁temple	-12.3584
▁fray	-12.3584
▁supple	-12.3584
▁succesful	-12.3584
▁division	-12.3584
▁cheek	-12.3585
▁pierce	-12.3585
▁nestle	-12.3585
▁denga	-12.3585
▁gores	-12.3587
▁roof	-12.3587
▁mentang	-12.3588
▁microphone	-12.3589
▁glance	-12.359
▁seblum	-12.359
▁clipper	-12.359
▁kotor	-12.3591
▁manteb	-12.3593
▁emboss	-12.3594
▁rekomen	-12.3594
▁helm	-12.3594
▁softlens	-12.3594
▁highlighter	-12.3595
▁forgetful	-12.3597
▁dea	-12.3597
abah	-12.3599
▁align	-12.36
▁khairan	-12.3601
▁acid	-12.3601
▁asdga	-12.3601
▁158	-12.3601
▁waktu	-12.3603
▁storefront	-12.3605
▁nutrition	-12.3606
▁appliance	-12.3606
hhhhhhhhhhhhhh	-12.3608
▁polka	-12.3608
▁enk	-12.3609
▁sooooo	-12.3609
▁mantabb	-12.3611
▁emina	-12.3612
▁sap	-12.3614
▁kmar	-12.3616
kyu	-12.3618
▁ilove	-12.3621
erial	-12.3621
kash	-12.3623
uf	-12.3624
▁watt	-12.3627
rban	-12.363
▁thai	-12.3632
▁asph	-12.3637
uuuuuuuuuuuuuuu	-12.3639
bris	-12.364
▁stith	-12.3641
▁propr	-12.3641
▁whenever	-12.3643
▁ngebass	-12.3644
▁dak	-12.3646
▁clana	-12.3651
▁que	-12.3655
▁accepta	-12.3656
walitas	-12.366
▁nurs	-12.3662
563	-12.3663
▁dp	-12.3665
▁bot	-12.3667
hill	-12.3667
▁idk	-12.3668
▁interior	-12.3672
latter	-12.3679
▁resp	-12.3679
bagusbagusbagus	-12.3689
▁amid	-12.3691
▁loan	-12.3691
▁barangya	-12.3692
▁sukaak	-12.3694
▁nakabubble	-12.3697
ena	-12.3697
ppppppppppppppp	-12.3698
▁mami	-12.37
eeeeeeeeeee	-12.3703
lar	-12.3705
▁lagiiii	-12.3706
▁slop	-12.3713
▁hahah	-12.3715
df	-12.3716
▁abs	-12.3718
▁slam	-12.372
▁meant	-12.372
▁inflat	-12.3723
▁covering	-12.3728
▁bandana	-12.3732
▁rom	-12.3733
▁pko	-12.3742
▁blk	-12.3746
▁dag	-12.3747
▁industr	-12.3752
▁jun	-12.3754
▁recording	-12.3755
dyo	-12.3757
far	-12.3757
▁ano	-12.3758
ens	-12.3763
▁lawa	-12.3771
▁electrical	-12.3772
▁lia	-12.3785
▁pore	-12.38
▁nsa	-12.3804
▁dama	-12.3805
▁tuber	-12.3805
▁sisters	-12.3805
▁pendek	-12.3806
▁aka	-12.3808
▁smpenya	-12.3814
▁tis	-12.3833
▁byr	-12.3834
▁cantiik	-12.3836
▁insyaall	-12.3836
lagay	-12.3839
▁wort	-12.3845
▁strain	-12.3846
aih	-12.3848
jbl	-12.3854
lbc	-12.3856
tr	-12.3859
▁msa	-12.3875
▁diplastik	-12.3879
▁scor	-12.3881
eg	-12.3883
▁loser	-12.3884
wak	-12.3889
▁conceale	-12.3889
▁sablon	-12.389
agak	-12.3895
lla	-12.3896
▁span	-12.3897
▁baguuusss	-12.3898
▁sil	-12.3899
▁79	-12.3899
ctory	-12.3901
▁pel	-12.3901
▁kep	-12.3904
imber	-12.3909
kw	-12.391
▁social	-12.3911
▁formula	-12.3912
▁phu	-12.3915
▁clove	-12.3916
bj	-12.3917
▁dikemas	-12.3919
ub	-12.392
pom	-12.3929
▁bsr	-12.393
▁pem	-12.3935
▁specif	-12.3936
kkkkk	-12.3941
▁pres	-12.3943
▁dressnya	-12.3943
▁sided	-12.3943
bf	-12.3948
▁refu	-12.3949
▁gilaa	-12.3952
cuous	-12.3955
erine	-12.3955
ech	-12.3956
lamin	-12.3956
nyata	-12.3967
ex	-12.3971
▁lamaaaaa	-12.3972
ssssss	-12.3978
▁waistba	-12.3979
▁cancell	-12.398
▁pea	-12.398
sssss	-12.3984
▁disiniii	-12.3986
rap	-12.3989
▁thanyou	-12.3989
▁paddl	-12.399
▁tra	-12.4003
▁baka	-12.4027
tq	-12.4029
▁roi	-12.4037
▁uuu	-12.4043
▁pede	-12.4045
ban	-12.4045
▁xbole	-12.4048
▁siii	-12.4049
meen	-12.405
care	-12.405
mz	-12.4054
▁makasihhhh	-12.4057
▁subtract	-12.4057
ngon	-12.4059
▁guna	-12.406
▁kot	-12.406
▁aid	-12.4062
rative	-12.4063
stable	-12.4065
▁hehehhe	-12.4075
cloth	-12.4076
wt	-12.4081
za	-12.4081
field	-12.4082
▁garter	-12.4083
genta	-12.4084
kl	-12.4084
abi	-12.4088
bubble	-12.4088
▁pgiriman	-12.4098
▁kalinyaa	-12.4101
▁mnurut	-12.4106
▁fm	-12.4107
▁siiip	-12.4107
▁dicas	-12.4108
▁kalim	-12.4108
▁acquisition	-12.4109
▁diligent	-12.4109
▁favourite	-12.4109
▁tajem	-12.4109
▁eyelid	-12.4109
▁impossibl	-12.4109
▁simultaneous	-12.4109
▁orchid	-12.4109
▁village	-12.4109
▁girlfriend	-12.4109
▁naideliver	-12.4109
▁mendarat	-12.4109
▁yield	-12.4109
▁decade	-12.4109
▁baagus	-12.4109
▁stalk	-12.4109
▁chalk	-12.4109
▁vibration	-12.4109
▁mocca	-12.4109
recommended	-12.4109
▁buzz	-12.4109
▁sesusai	-12.411
▁reseler	-12.411
▁khayr	-12.411
▁wrab	-12.411
▁bukan	-12.411
▁crayon	-12.411
▁versatil	-12.4111
▁plump	-12.4112
▁faithful	-12.4112
▁interch	-12.4112
▁vow	-12.4112
▁echo	-12.4113
▁kemek	-12.4113
▁flask	-12.4113
▁msuk	-12.4114
▁800	-12.4114
▁contnt	-12.4115
▁cooperate	-12.4115
▁mur	-12.4116
▁jujur	-12.4116
▁durian	-12.4118
▁east	-12.4119
hw	-12.4119
▁harapan	-12.412
▁kenapa	-12.412
▁crate	-12.4122
nye	-12.4124
▁dumt	-12.4124
▁coach	-12.4125
▁lamps	-12.4126
▁163	-12.4126
▁lowbat	-12.4127
grereply	-12.4128
▁sketchers	-12.413
▁len	-12.4131
▁alkhamdulil	-12.4132
kak	-12.4133
▁chrom	-12.4135
▁ditrim	-12.4136
▁ibu	-12.4136
mr	-12.4138
▁depth	-12.4139
▁corn	-12.4142
hf	-12.4142
▁filing	-12.4142
▁mudh	-12.4144
▁dko	-12.4146
▁psnan	-12.4146
tock	-12.4147
tok	-12.4148
aq	-12.4152
tong	-12.4152
emalem	-12.4153
▁duoc	-12.4153
▁bguss	-12.4153
▁curv	-12.4157
▁54	-12.4158
▁batrei	-12.4161
▁nick	-12.4164
skipun	-12.4164
▁req	-12.4174
47	-12.4179
▁sampaiiii	-12.418
tanya	-12.4182
▁penal	-12.4184
▁61	-12.4195
cs	-12.4196
▁roller	-12.42
ach	-12.42
ms	-12.42
▁sng	-12.4209
▁ajja	-12.4209
▁lous	-12.4211
▁bur	-12.4211
laah	-12.4211
▁clo	-12.4213
▁feeder	-12.4214
▁coverage	-12.4214
▁mahh	-12.4216
▁pros	-12.4217
wk	-12.4218
95	-12.4219
angat	-12.4219
▁conca	-12.4219
▁dock	-12.422
▁goat	-12.4223
▁drip	-12.4228
▁bata	-12.4231
▁magrep	-12.4232
jx	-12.4236
ksk	-12.4236
rp	-12.4237
▁ari	-12.4239
▁salem	-12.4239
tek	-12.424
little	-12.4245
coba	-12.4257
tched	-12.4258
▁thu	-12.4259
cai	-12.4261
▁furing	-12.4267
▁stays	-12.4275
▁bangettttttttt	-12.4277
▁rapiiii	-12.4279
▁maf	-12.428
39	-12.4282
may	-12.4285
kia	-12.4286
▁yeayy	-12.4289
▁skipp	-12.4296
pt	-12.4297
▁608	-12.4298
du	-12.4299
▁stepp	-12.4305
▁dand	-12.4306
▁copie	-12.4307
▁ehehe	-12.4309
meric	-12.4311
▁unha	-12.4318
▁reli	-12.4319
tin	-12.432
▁makai	-12.4321
there	-12.4327
▁kr	-12.4333
kah	-12.4338
otic	-12.4339
qn	-12.4345
▁wkwkwkwk	-12.4347
▁jugaaa	-12.4353
▁cop	-12.4354
▁lucuk	-12.4357
▁lohh	-12.436
nyaaaa	-12.4361
▁luong	-12.4363
▁saja	-12.4367
▁subsidiz	-12.4368
rit	-12.4369
nnnnn	-12.4374
▁bush	-12.4374
ollow	-12.4377
▁uuliti	-12.4382
▁thankyu	-12.4385
▁thanksssss	-12.4387
▁nasa	-12.4394
god	-12.4396
▁sooooooo	-12.4411
▁gaess	-12.4412
▁pickle	-12.4414
▁diretur	-12.4414
▁pengi	-12.4419
bng	-12.442
▁sofa	-12.442
▁dsn	-12.4423
▁cling	-12.4427
▁pakingan	-12.4436
▁tips	-12.4437
▁teball	-12.4439
▁tengkiu	-12.4442
ndri	-12.4443
▁terusss	-12.4447
▁fac	-12.4454
have	-12.4454
lin	-12.4458
▁kar	-12.4475
▁swing	-12.4487
uda	-12.4489
akanya	-12.4492
▁bangeeettt	-12.45
▁nek	-12.4502
▁thr	-12.4506
▁wangii	-12.4522
▁beud	-12.4523
▁lapis	-12.4526
▁memuaskann	-12.4526
▁suma	-12.4526
rosak	-12.4527
▁oem	-12.4535
▁kecee	-12.4541
▁lucuuuu	-12.4541
mmm	-12.4544
▁57	-12.455
▁expose	-12.456
pical	-12.4563
▁ep	-12.4569
▁kakkk	-12.4569
▁ngan	-12.4583
▁dengann	-12.4586
ngat	-12.4588
▁sela	-12.4591
len	-12.4592
▁langgana	-12.4602
▁cepaatt	-12.4605
▁lv	-12.4605
▁ganto	-12.4608
▁bangettttttt	-12.461
iiiii	-12.4617
wer	-12.4619
▁seperti	-12.462
iiiiiii	-12.4621
rder	-12.4625
xii	-12.4629
▁strik	-12.463
▁rapiih	-12.463
▁okokokokokokok	-12.4631
pasang	-12.4632
fruit	-12.4633
xn	-12.4636
standard	-12.4637
shipping	-12.4637
min	-12.4638
▁nla	-12.4638
shod	-12.464
▁assure	-12.4642
▁sebelum	-12.4643
▁punya	-12.4646
▁manta	-12.4647
▁nutri	-12.4647
▁constrain	-12.4648
speed	-12.4648
bt	-12.4651
▁oren	-12.4652
▁slalu	-12.4653
koin	-12.4655
▁huhuhuhu	-12.466
▁exceeding	-12.466
▁jazakillah	-12.4662
gressive	-12.4663
▁hehhe	-12.4664
▁convert	-12.4664
sjjdhdj	-12.4664
▁accompani	-12.4664
▁anticipat	-12.4664
▁column	-12.4664
▁domestic	-12.4664
▁faucet	-12.4664
▁polyester	-12.4664
▁virtual	-12.4664
▁criticism	-12.4664
▁gabakal	-12.4664
▁garnier	-12.4665
▁sanggat	-12.4665
▁kejait	-12.4665
▁kebaca	-12.4665
▁throat	-12.4665
▁handwrit	-12.4665
▁explosi	-12.4665
▁bedroom	-12.4665
▁diperhati	-12.4665
▁kepakai	-12.4665
▁pejual	-12.4665
▁disease	-12.4665
▁grandmother	-12.4665
▁terimksih	-12.4665
▁empuk	-12.4665
▁cereal	-12.4665
▁characteristic	-12.4665
▁lmayan	-12.4665
▁planggan	-12.4665
▁nemu	-12.4665
▁hammer	-12.4665
▁colleague	-12.4666
amarind	-12.4666
structure	-12.4666
▁resent	-12.4666
▁lak	-12.4666
▁stink	-12.4666
▁gravel	-12.4666
▁luchu	-12.4667
▁ballot	-12.4668
▁antique	-12.4668
▁abdom	-12.4668
▁nunggu	-12.4668
▁olive	-12.4669
ergean	-12.4669
▁delight	-12.4669
▁hyper	-12.467
▁defet	-12.4671
▁blink	-12.4671
▁immed	-12.4672
▁za	-12.4673
▁kulang	-12.4674
▁belom	-12.4675
lak	-12.4676
▁tinggal	-12.4677
▁qualifie	-12.4678
▁tujuan	-12.4678
▁emergenc	-12.4679
▁rotation	-12.4681
▁teacher	-12.4683
ava	-12.4689
▁bound	-12.4689
▁tinh	-12.469
his	-12.469
▁89	-12.4691
▁spott	-12.4693
▁psti	-12.4694
▁copot	-12.4695
▁lapak	-12.4697
▁supper	-12.4702
▁melar	-12.4709
▁ajj	-12.4712
▁income	-12.4715
months	-12.4718
▁soale	-12.4718
▁saucer	-12.4719
▁brgny	-12.4721
▁walau	-12.4722
▁mulus	-12.4722
▁jh	-12.473
▁bangget	-12.4731
lp	-12.4731
▁napic	-12.4732
tuker	-12.4735
nv	-12.4749
lace	-12.475
▁joa	-12.4761
▁katanya	-12.4761
▁dart	-12.4761
▁robu	-12.4762
ario	-12.4763
▁gie	-12.4765
▁ceaaaaaaaa	-12.4766
▁pngn	-12.4769
kirm	-12.477
▁hao	-12.477
▁sua	-12.4777
▁ngt	-12.4778
hhhhhhh	-12.4778
▁explode	-12.4787
ilan	-12.4789
▁jaga	-12.479
▁naro	-12.4791
▁rob	-12.4791
▁bruise	-12.4793
▁kepoto	-12.4799
ura	-12.4804
▁hahahah	-12.481
▁offse	-12.4813
ux	-12.4814
wipe	-12.4815
hdh	-12.4822
▁gon	-12.4823
▁53	-12.4825
ihh	-12.4826
▁susah	-12.4826
tar	-12.4828
▁pri	-12.4828
▁teen	-12.483
suka	-12.483
mx	-12.4843
▁123	-12.4846
16	-12.4846
▁mantulllll	-12.4856
▁mkch	-12.4857
▁careul	-12.4858
▁mantabs	-12.4862
▁thun	-12.4863
▁tipisss	-12.4864
▁gl	-12.4865
▁originall	-12.4874
ives	-12.4875
▁airpa	-12.4879
▁pru	-12.4881
▁vera	-12.4884
▁achieve	-12.4886
▁um	-12.4886
▁tub	-12.4892
▁gua	-12.4894
▁amend	-12.4896
umayan	-12.4902
gggg	-12.4908
▁tkt	-12.491
▁senengnya	-12.4912
wag	-12.4925
▁satisf	-12.4928
▁rag	-12.4929
▁vo	-12.4929
▁curly	-12.493
▁hape	-12.4939
▁crumb	-12.4944
▁suksess	-12.4945
▁digit	-12.4947
qsm	-12.4957
cing	-12.4957
▁komen	-12.4965
signed	-12.4967
▁discharg	-12.4969
▁diakal	-12.4972
▁xx	-12.4997
▁pelayanannya	-12.5001
away	-12.5001
▁dew	-12.5011
fj	-12.5015
▁pictured	-12.5018
▁walls	-12.5019
▁kel	-12.5019
▁gaa	-12.5022
pen	-12.5024
▁hasilnya	-12.503
eller	-12.5044
rmed	-12.5044
uz	-12.5048
ernya	-12.5049
ww	-12.5051
▁bras	-12.5059
tra	-12.5059
okey	-12.5061
mmmmmmmmmmmmmmmm	-12.5062
▁bawa	-12.5063
▁shs	-12.5068
▁cri	-12.5069
▁ademmm	-12.5081
week	-12.5083
ekli	-12.509
▁sang	-12.5092
▁sebelah	-12.5093
▁gather	-12.5095
ini	-12.5098
▁skip	-12.511
▁suture	-12.5115
▁cookie	-12.5116
yyy	-12.5117
▁ukurn	-12.5117
pper	-12.5121
14	-12.5127
iiiiiiiiiiii	-12.5129
mple	-12.5131
▁nadi	-12.5132
▁buku	-12.5132
▁susu	-12.5138
aj	-12.514
▁akhirnyaa	-12.5141
▁obras	-12.5142
impen	-12.5143
▁typ	-12.5145
▁marking	-12.5147
▁lom	-12.5153
▁craft	-12.5155
▁mkasihh	-12.5157
▁equ	-12.5161
▁blaz	-12.5166
▁prna	-12.5168
▁crap	-12.5172
napa	-12.5173
miga	-12.5174
rous	-12.518
▁votes	-12.5181
aah	-12.5181
35	-12.5182
▁cocokk	-12.5182
ove	-12.5183
rian	-12.5194
▁gut	-12.52
oga	-12.5202
▁bau	-12.5203
nal	-12.5207
▁amiin	-12.5207
▁bergo	-12.5214
epet	-12.5217
mpel	-12.5218
uka	-12.522
valid	-12.5221
solution	-12.5221
▁hehehehehe	-12.5222
▁choc	-12.5225
▁thanksss	-12.5225
▁servic	-12.5225
kecilin	-12.5226
warna	-12.5229
hold	-12.5234
▁proportion	-12.524
▁bdn	-12.5241
▁700	-12.5241
packaged	-12.5244
▁knot	-12.5246
▁intensi	-12.5247
▁baguuuuus	-12.5248
lthy	-12.5249
▁incrus	-12.5253
▁bicycle	-12.5253
▁detrimental	-12.5253
▁disguise	-12.5253
▁ngecilin	-12.5253
▁subscib	-12.5253
▁bubblewarp	-12.5253
▁hurried	-12.5253
▁autumn	-12.5253
▁nominal	-12.5253
▁purchs	-12.5253
▁clarify	-12.5253
▁residue	-12.5253
▁relationship	-12.5253
▁grandson	-12.5253
▁skull	-12.5253
▁totebag	-12.5253
▁lipcream	-12.5253
▁seduai	-12.5253
▁mutual	-12.5253
▁napkin	-12.5253
▁kilogram	-12.5253
▁bublle	-12.5253
▁misunderstand	-12.5253
▁clutch	-12.5253
▁shallow	-12.5253
▁discolor	-12.5253
▁ribet	-12.5253
▁ketuker	-12.5253
▁ikea	-12.5254
▁invisib	-12.5254
▁clever	-12.5254
▁kulaitas	-12.5254
▁basketball	-12.5254
▁preview	-12.5255
▁cepetttt	-12.5255
▁preorder	-12.5255
▁wound	-12.5255
ngeable	-12.5256
▁airport	-12.5256
▁centur	-12.5256
▁vase	-12.5257
▁grill	-12.5258
▁river	-12.5259
▁carriage	-12.5259
▁defici	-12.5259
▁battle	-12.5259
▁puncture	-12.5261
▁brick	-12.5261
▁dtoko	-12.5261
▁retro	-12.5262
cepat	-12.5262
▁recive	-12.5262
▁suitcase	-12.5262
ualitas	-12.5263
▁owl	-12.5263
▁surrounding	-12.5264
ud	-12.5265
lush	-12.5266
▁abundan	-12.5266
geon	-12.5267
▁penjul	-12.5268
▁156	-12.5271
isi	-12.5271
▁sellee	-12.5274
▁okke	-12.5274
▁tapos	-12.5275
▁aminn	-12.5276
▁engineer	-12.5277
ngs	-12.5278
▁bakalan	-12.5281
▁htm	-12.5284
▁stif	-12.5285
▁sharpen	-12.5286
▁amaz	-12.5288
▁ebook	-12.5288
▁prick	-12.5288
▁produl	-12.5289
▁pancake	-12.5297
▁thaks	-12.5298
▁environmental	-12.5302
▁sib	-12.5303
years	-12.5304
▁scene	-12.5311
▁simpen	-12.5313
▁bella	-12.5315
ect	-12.5316
▁excite	-12.5318
▁jangan	-12.5319
ker	-12.5319
antan	-12.5334
ace	-12.5336
▁blud	-12.5337
icate	-12.5339
ify	-12.5341
▁task	-12.5345
ise	-12.5346
bat	-12.5353
▁shocking	-12.5354
▁harganyaa	-12.5361
▁adaa	-12.5362
weeks	-12.5363
litas	-12.5367
▁cuc	-12.5383
▁dedicat	-12.5386
▁distan	-12.5391
▁okkk	-12.5396
▁aspect	-12.5405
▁members	-12.5407
▁yaaaaaaaaa	-12.5411
▁recoment	-12.5416
ola	-12.5417
xi	-12.5418
nnn	-12.5421
▁terimakasihhhh	-12.5421
▁token	-12.5423
▁gilak	-12.5424
▁subscriber	-12.5425
skin	-12.5427
▁akn	-12.543
▁thou	-12.543
sau	-12.5431
umble	-12.5432
foto	-12.5437
wat	-12.5441
▁slime	-12.5442
imah	-12.5445
green	-12.5446
▁minimize	-12.5456
▁pkknya	-12.5456
▁perva	-12.5458
▁commun	-12.5463
hil	-12.5466
rah	-12.5467
▁largest	-12.5469
ature	-12.547
▁jim	-12.5473
gyan	-12.5478
▁mere	-12.5479
28	-12.5481
▁caa	-12.5482
▁kaki	-12.5484
berapa	-12.5484
▁eo	-12.5486
▁pai	-12.5488
▁fe	-12.5493
▁tier	-12.5502
▁kiriman	-12.5503
▁jadii	-12.5506
▁dx	-12.5513
apped	-12.5514
lupun	-12.5515
▁accounta	-12.5522
▁padah	-12.5524
rim	-12.5526
alo	-12.5529
npa	-12.5529
▁rekomende	-12.5531
ette	-12.5532
limp	-12.5536
▁balik	-12.5537
▁akan	-12.554
▁epi	-12.5542
oa	-12.5542
bdb	-12.5544
tol	-12.5547
▁sukaaaaaaaa	-12.5548
rday	-12.5572
▁thanku	-12.5573
hehehehehehehehe	-12.5581
▁noi	-12.5584
▁berk	-12.5585
ipping	-12.5587
utin	-12.5587
▁lame	-12.5587
▁mc	-12.5602
▁grant	-12.5606
urg	-12.5607
▁maklum	-12.562
mmmmmmmmmmmmmmm	-12.5621
▁comel	-12.5624
▁tul	-12.5625
apa	-12.5625
tile	-12.5636
▁uv	-12.5637
isk	-12.564
▁pal	-12.5641
ign	-12.5644
▁sabi	-12.5647
▁tasnya	-12.5651
pit	-12.5653
kkkkkkkkkkkk	-12.5653
▁hil	-12.5653
▁bahannyaa	-12.5664
▁ski	-12.5672
▁sampainya	-12.5684
▁pengirim	-12.5684
▁tetap	-12.5686
paket	-12.5687
▁sume	-12.5688
▁dap	-12.5692
▁nagka	-12.5695
gggggggggggggggg	-12.57
vo	-12.57
▁kemarin	-12.5702
▁mantappppp	-12.5705
▁hargaaa	-12.5706
▁bingits	-12.5713
▁salam	-12.5714
▁fle	-12.5716
aaaaaaaaaa	-12.5718
▁attend	-12.5718
gkn	-12.572
maka	-12.5722
bok	-12.5725
▁hihihi	-12.5728
▁ordr	-12.5729
▁joos	-12.573
▁lngs	-12.5731
runin	-12.5737
▁pon	-12.5737
▁pajama	-12.5741
pon	-12.5741
▁dollar	-12.5742
25	-12.5748
ggl	-12.5751
▁pisan	-12.5753
bn	-12.5756
▁fir	-12.5758
bee	-12.5759
▁pengirimannyaa	-12.5761
▁nn	-12.5762
db	-12.5764
dj	-12.5764
▁polo	-12.5765
▁mature	-12.5765
▁apr	-12.5765
▁respons	-12.5766
sangat	-12.5767
▁bhanya	-12.5767
▁saf	-12.5769
▁pli	-12.5775
▁poles	-12.5777
andar	-12.5781
bon	-12.5783
▁discre	-12.5785
▁88	-12.5789
▁raisin	-12.5792
▁replac	-12.5793
lm	-12.5794
▁thxx	-12.5803
imakasih	-12.5806
rfungsi	-12.5808
▁750	-12.5808
▁rame	-12.581
▁dw	-12.5817
▁illuminat	-12.5818
however	-12.5827
▁cutie	-12.5831
▁kkb	-12.5833
gini	-12.5833
▁nurse	-12.5834
▁hancur	-12.5836
pet	-12.5837
bln	-12.5839
▁ui	-12.584
▁perhati	-12.5841
▁tengkiyu	-12.5841
shield	-12.5846
▁sag	-12.5848
▁tutu	-12.5848
▁blo	-12.5851
rries	-12.5852
▁cepattttt	-12.5853
ttttttttt	-12.5853
ndi	-12.5853
siderat	-12.5853
▁arab	-12.5853
oon	-12.5855
tekuk	-12.5856
▁luar	-12.5856
▁tggu	-12.5858
▁puassssss	-12.5866
antab	-12.5867
inegar	-12.5868
hhhhhhhhhhh	-12.5869
200	-12.5871
▁priva	-12.5872
▁sumpahh	-12.5874
▁sync	-12.5876
▁dinosaur	-12.5878
▁evident	-12.5878
▁kindergart	-12.5878
▁kinvara	-12.5878
▁subordinate	-12.5878
▁yogurt	-12.5878
▁anchor	-12.5878
▁implement	-12.5878
▁holster	-12.5878
▁kimchi	-12.5878
▁philip	-12.5878
▁conditon	-12.5878
▁dishwash	-12.5878
▁riddance	-12.5878
▁penipu	-12.5878
▁tattoo	-12.5878
▁contour	-12.5878
▁craving	-12.5878
▁internal	-12.5878
▁kesetnya	-12.5878
▁recommand	-12.5878
guro	-12.5878
▁definitive	-12.5878
▁techno	-12.5878
▁barrier	-12.5878
▁ngilang	-12.5878
▁ziplock	-12.5878
▁squat	-12.5878
▁gakpapa	-12.5878
▁appreciati	-12.5879
▁pok	-12.5879
▁bucket	-12.5879
▁smapai	-12.5879
▁redeem	-12.5879
▁illustration	-12.5879
▁frost	-12.5879
▁steal	-12.5879
▁attack	-12.5879
▁terminal	-12.5879
▁siipp	-12.588
▁nitip	-12.588
▁whisk	-12.588
▁ditambah	-12.5881
▁vape	-12.5881
▁ethic	-12.5881
▁clasp	-12.5881
▁nivea	-12.5881
▁turtle	-12.5881
▁kuyang	-12.5881
▁stair	-12.5881
▁produkbaik	-12.5882
runk	-12.5882
▁semuanya	-12.5883
▁borrow	-12.5883
▁wooz	-12.5883
▁berpungsi	-12.5884
▁compose	-12.5885
▁nhieu	-12.5885
▁suspicio	-12.5886
▁repent	-12.5886
▁cerah	-12.5887
▁lebaran	-12.5887
▁peak	-12.5887
▁masyaallah	-12.5887
▁isolate	-12.5888
▁crab	-12.5888
▁applie	-12.5889
▁browse	-12.5889
▁mart	-12.5889
▁enakeu	-12.589
tttttttttttt	-12.5891
mble	-12.5891
▁dahhh	-12.5891
▁chanel	-12.5892
▁insect	-12.5893
▁lady	-12.5893
▁hilang	-12.5895
▁datng	-12.5896
mind	-12.5897
▁dikrim	-12.5897
▁host	-12.5899
▁baa	-12.5899
▁agenc	-12.5899
▁polic	-12.59
▁cnt	-12.5903
lomon	-12.5904
fold	-12.5905
▁pertahani	-12.5905
▁thanksgiving	-12.5906
▁nano	-12.5908
▁yap	-12.5911
▁interm	-12.5912
▁adhesi	-12.5913
▁barg	-12.5914
▁pketan	-12.5915
▁splay	-12.5915
▁enable	-12.5918
▁discont	-12.5919
▁berkualitas	-12.5919
viation	-12.592
▁xd	-12.5922
▁mukenah	-12.5926
ency	-12.5934
egara	-12.5934
▁jumper	-12.594
▁pakee	-12.594
▁developer	-12.5941
▁spreinya	-12.5944
▁ddd	-12.5945
▁snoo	-12.5945
▁nyaaaa	-12.5952
chy	-12.5953
wj	-12.5954
clone	-12.5958
▁recomd	-12.596
patan	-12.596
katnya	-12.596
▁lay	-12.5961
ennya	-12.5963
▁dealing	-12.5964
▁sik	-12.5968
cg	-12.5969
hiu	-12.5974
▁cep	-12.5975
bonus	-12.5977
ict	-12.598
atula	-12.5986
rrr	-12.5986
▁creativ	-12.5987
dismaya	-12.5991
▁lagih	-12.5992
reckles	-12.5992
▁vial	-12.5995
▁kre	-12.6
▁bok	-12.6005
▁consume	-12.6009
hl	-12.6013
tqtqtqtqtqtqtqtq	-12.6016
fn	-12.6016
▁origina	-12.6017
scent	-12.6017
sufficient	-12.6028
▁diem	-12.6032
▁standart	-12.6035
yong	-12.6035
▁liter	-12.6038
▁visco	-12.6039
▁requir	-12.6039
▁teaching	-12.6047
fo	-12.6048
▁pernh	-12.6049
elalu	-12.6052
▁angel	-12.6055
▁brass	-12.6056
▁rayon	-12.6058
▁puce	-12.606
pesan	-12.6061
wwwwwwwwwwwwww	-12.6061
▁vit	-12.6062
▁anw	-12.6065
▁stabilize	-12.6066
▁clad	-12.6067
▁minion	-12.6067
▁minggu	-12.6067
tam	-12.607
▁dipesan	-12.6073
▁wrinkl	-12.6075
lai	-12.6083
▁bp	-12.6083
err	-12.6085
▁kpd	-12.6086
▁disaya	-12.6088
lam	-12.6093
hirnya	-12.6096
kkkkkk	-12.6096
▁mul	-12.6098
encil	-12.6099
▁offering	-12.61
kualitas	-12.6102
▁aslii	-12.6105
ngkap	-12.6114
telah	-12.6115
gasal	-12.6122
▁safi	-12.6122
▁dddd	-12.6128
xnya	-12.6133
▁hais	-12.6138
▁deng	-12.6143
▁route	-12.6148
▁chua	-12.6149
▁hum	-12.6152
gx	-12.6155
▁alhamdll	-12.6156
▁langgan	-12.616
▁formation	-12.6162
uuuuu	-12.6165
pake	-12.6171
▁nao	-12.6175
▁kne	-12.618
▁solder	-12.6181
▁ukht	-12.6183
padala	-12.6184
adin	-12.6185
qh	-12.6189
▁mx	-12.6193
▁divide	-12.6194
▁commend	-12.6195
▁measurements	-12.6197
rimakasih	-12.6206
anan	-12.6209
▁masker	-12.6213
▁pokoknyaaaa	-12.6217
lat	-12.6223
eeeee	-12.6227
▁cal	-12.6229
23	-12.6234
kuha	-12.624
kit	-12.6241
ppppppppppppp	-12.6243
tapi	-12.6244
▁rinse	-12.6247
▁unt	-12.6247
▁lau	-12.6248
▁tract	-12.625
voca	-12.6251
▁stab	-12.6253
▁celana	-12.6257
▁prim	-12.6263
▁belanjaa	-12.6264
vity	-12.6268
▁suki	-12.6268
cj	-12.6271
▁kembali	-12.6274
ties	-12.6281
▁borne	-12.6282
uoi	-12.6283
▁tutup	-12.6285
▁cel	-12.6289
▁iket	-12.6289
ttttttt	-12.6289
▁ukr	-12.63
mau	-12.6301
▁flak	-12.631
▁gate	-12.631
▁diret	-12.6314
▁tpii	-12.6318
▁mani	-12.6319
▁mantu	-12.6321
ehh	-12.6323
▁dub	-12.6326
▁bersahabat	-12.6327
▁irritate	-12.6329
point	-12.633
▁memora	-12.6338
▁dami	-12.6341
▁bajunyaa	-12.6342
was	-12.6349
▁jt	-12.6357
buy	-12.636
bohong	-12.6363
▁sele	-12.6364
ati	-12.6365
▁lop	-12.6367
▁hadehh	-12.6377
hhhhhhhh	-12.638
mark	-12.6383
▁aza	-12.6385
ilah	-12.6391
▁aaaa	-12.6393
▁kayu	-12.6399
▁gp	-12.6401
▁muraahh	-12.6402
▁barrel	-12.6402
dang	-12.6404
wth	-12.6405
ali	-12.6406
▁smal	-12.6406
▁kutu	-12.6406
▁kualitass	-12.6408
▁penjualny	-12.6409
▁syukka	-12.641
▁sti	-12.6414
wu	-12.6414
▁kna	-12.6417
pengiriman	-12.6418
▁gee	-12.6418
jam	-12.6421
▁rug	-12.6422
mantap	-12.6432
eje	-12.6432
nsi	-12.6436
ix	-12.644
patunya	-12.644
ilita	-12.6442
▁diketerangan	-12.6446
▁meron	-12.6449
zzz	-12.6452
▁pix	-12.6461
▁pngen	-12.6462
mura	-12.6463
rup	-12.6463
▁nagan	-12.6468
yuu	-12.647
▁begin	-12.6475
secure	-12.6476
jngan	-12.6503
▁hargany	-12.6504
▁apparent	-12.6507
▁splint	-12.6508
▁pursu	-12.651
botol	-12.6512
▁mantuull	-12.6513
▁cga	-12.6514
▁sekaliiiii	-12.6515
outfit	-12.6516
▁360	-12.6516
benerin	-12.6519
▁goood	-12.6519
▁mao	-12.652
friendly	-12.652
▁nexs	-12.652
▁alhamd	-12.6522
▁buang	-12.6522
▁bangttt	-12.6522
erep	-12.6523
▁terribl	-12.6523
▁gann	-12.6524
▁haduh	-12.6524
▁hehehee	-12.6524
bound	-12.6525
▁numb	-12.6525
mbot	-12.6526
kx	-12.653
▁adapt	-12.6537
▁kerennn	-12.6538
ipop	-12.6538
hong	-12.6541
▁dikembali	-12.6541
▁cautio	-12.6542
chille	-12.6543
▁xb	-12.6543
▁enquir	-12.6544
▁diffeence	-12.6544
▁disinfect	-12.6544
▁irregular	-12.6544
▁macaron	-12.6544
▁phenomen	-12.6544
▁reimburse	-12.6544
▁disgust	-12.6544
▁fundamental	-12.6544
▁okokokokokokkok	-12.6544
▁synthetic	-12.6544
▁malfunction	-12.6544
▁plywood	-12.6544
▁discunt	-12.6544
▁recipe	-12.6544
▁unread	-12.6544
▁multifunction	-12.6544
▁swallow	-12.6544
▁church	-12.6544
▁cradle	-12.6544
sjkskd	-12.6544
▁flavour	-12.6545
▁uniq	-12.6545
▁199	-12.6545
▁sneez	-12.6545
▁keypad	-12.6545
▁relief	-12.6545
▁scrap	-12.6545
▁econom	-12.6545
▁pmbeli	-12.6545
▁keycap	-12.6545
▁expense	-12.6545
▁population	-12.6546
▁wardrobe	-12.6546
▁stroke	-12.6546
▁ekspetasi	-12.6546
▁jempol	-12.6547
▁mngkn	-12.6547
▁preference	-12.6547
▁axis	-12.6547
▁ladyfame	-12.6548
▁announce	-12.6548
▁numer	-12.6548
▁rempel	-12.6548
▁sensation	-12.6548
▁cough	-12.6549
▁dtrima	-12.6549
▁bruntusan	-12.6549
▁xi	-12.6549
▁bunny	-12.6549
▁taint	-12.655
▁karma	-12.655
dv	-12.655
▁woww	-12.6551
▁teenager	-12.6552
▁350	-12.6553
▁thui	-12.6554
qwertyuiop	-12.6554
▁pedi	-12.6555
▁164	-12.6556
▁ngasih	-12.6556
▁segelan	-12.6556
allah	-12.6556
▁region	-12.6557
▁sendiri	-12.6557
▁dilapis	-12.6558
▁tendon	-12.6558
▁cutter	-12.6559
▁ecer	-12.6559
▁influ	-12.656
▁abaya	-12.6561
▁1234567890	-12.6561
▁bermanfaat	-12.6561
▁huhuu	-12.6562
▁centimeters	-12.6563
▁hijau	-12.6564
llen	-12.6565
▁grea	-12.6566
▁chek	-12.6566
▁sukakkk	-12.6567
▁sesuwa	-12.6567
▁attachment	-12.6567
nent	-12.6568
▁shopp	-12.6569
▁dawn	-12.6569
▁maksh	-12.6569
▁mump	-12.6569
▁medication	-12.6569
▁magnda	-12.657
▁punch	-12.657
▁highway	-12.6572
▁tambh	-12.6573
▁wake	-12.6574
▁kakkkk	-12.6574
cle	-12.6575
▁grasp	-12.6576
▁mudder	-12.658
▁binder	-12.658
▁consequen	-12.6581
▁poo	-12.6581
vj	-12.6582
pink	-12.6583
▁leh	-12.6584
▁tambah	-12.6584
▁bgitu	-12.6585
home	-12.6586
rumple	-12.6587
▁sprint	-12.6591
▁acr	-12.6592
▁muraaa	-12.6592
▁revise	-12.6595
nth	-12.6597
▁ipa	-12.6599
▁pengirimaan	-12.6599
▁thermal	-12.661
▁provd	-12.6611
illah	-12.6612
▁miring	-12.6615
▁nomer	-12.6616
qua	-12.6617
urng	-12.6623
rain	-12.6627
▁gus	-12.6627
▁nutup	-12.663
hir	-12.6633
hel	-12.6634
lbs	-12.6634
▁kuya	-12.6635
▁cepaaat	-12.6641
▁thxu	-12.6641
▁inspire	-12.6644
▁souvenirs	-12.6647
angin	-12.6651
▁hix	-12.6652
lagi	-12.6654
▁hiks	-12.6658
▁masha	-12.6658
▁toppp	-12.6658
kirim	-12.666
▁ngare	-12.6662
500	-12.6662
▁mantaabb	-12.6667
uli	-12.6674
lasih	-12.6676
▁burg	-12.6685
▁sese	-12.6685
▁oake	-12.6691
edition	-12.6693
rung	-12.6695
ceoat	-12.6695
ges	-12.6696
akk	-12.6698
▁abc	-12.6699
01	-12.6699
assis	-12.6701
▁pony	-12.6702
jn	-12.6703
ksi	-12.6714
▁jm	-12.6715
▁sinii	-12.6721
▁pesanann	-12.6724
▁lego	-12.6724
▁medic	-12.6725
venture	-12.6725
43	-12.6732
▁cooker	-12.6738
tos	-12.674
▁trimaks	-12.6742
mar	-12.6743
▁transmitt	-12.6744
▁baling	-12.6746
iri	-12.6748
kut	-12.6749
▁nympek	-12.6754
ediri	-12.6757
▁optic	-12.6764
▁hdd	-12.6765
▁rece	-12.6766
urf	-12.6766
▁peb	-12.677
▁waterm	-12.6771
▁paki	-12.6772
▁beach	-12.6774
▁tens	-12.6774
rumah	-12.6774
ubg	-12.6775
▁toop	-12.6775
▁teri	-12.6778
▁kualit	-12.6778
ret	-12.6785
plak	-12.6786
sale	-12.6786
▁jualannya	-12.6787
▁rota	-12.6789
nun	-12.6789
▁ijo	-12.679
▁ek	-12.6792
low	-12.6797
vb	-12.6798
▁definit	-12.68
▁kalok	-12.68
pal	-12.6805
bags	-12.6806
own	-12.6811
buat	-12.6817
▁jus	-12.6819
▁bid	-12.6824
▁moto	-12.6825
ivel	-12.6825
tered	-12.6828
▁kuning	-12.6828
▁asic	-12.6831
▁cham	-12.6834
▁notch	-12.6838
cuba	-12.6841
hhhhhhhhhhhhhhh	-12.6841
message	-12.6844
bah	-12.6849
▁insya	-12.6853
▁kurirnya	-12.6857
▁comm	-12.6857
21	-12.6863
▁jiwa	-12.6864
bsh	-12.6864
tc	-12.6864
udahlah	-12.6868
ala	-12.687
▁baguuusssss	-12.6874
▁cee	-12.6875
▁brutal	-12.6886
▁pam	-12.6886
▁buckl	-12.6887
▁hna	-12.6889
▁reco	-12.6895
▁alhamdulillahh	-12.69
rbu	-12.6902
▁bth	-12.6903
loved	-12.6903
▁sampaai	-12.6903
shed	-12.6905
tted	-12.6906
▁khoir	-12.6907
▁herein	-12.6908
▁dirumah	-12.6909
▁rugi	-12.691
▁pari	-12.6914
riman	-12.6914
antap	-12.6917
▁smpaii	-12.6923
▁kecepata	-12.6931
58	-12.6932
▁balas	-12.6932
gak	-12.6935
▁cg	-12.6937
▁cran	-12.694
▁youuuuuuuuuuuuu	-12.6942
sssssss	-12.6942
late	-12.6943
▁yi	-12.6946
vv	-12.6947
▁kete	-12.6951
▁starch	-12.6952
ready	-12.6956
▁langanga	-12.6956
▁boo	-12.6962
▁terimaa	-12.6966
▁buff	-12.6967
▁96	-12.6967
lllllllllllllll	-12.6967
▁involve	-12.6968
nang	-12.6969
▁kurangg	-12.6974
yiap	-12.6974
tone	-12.6978
70	-12.698
zi	-12.6981
▁mun	-12.6982
▁baguusss	-12.6983
yyyyyyyyyyyyyyyy	-12.6985
▁buck	-12.6986
xj	-12.6991
▁selfi	-12.6992
perlu	-12.6994
▁hal	-12.6994
odi	-12.6997
▁mantao	-12.7
▁exercis	-12.7
▁mor	-12.7001
▁ssh	-12.7004
con	-12.7009
nnnnnnnnnnnnnn	-12.7011
▁pedest	-12.7012
convenient	-12.7023
▁sempurna	-12.7025
▁bable	-12.703
nic	-12.7033
leh	-12.7038
▁makasiiii	-12.7041
▁beb	-12.7043
iap	-12.7046
▁plng	-12.7054
▁cone	-12.7055
▁pada	-12.7056
▁remarkabl	-12.7059
jdb	-12.706
▁samaa	-12.7062
pants	-12.7072
▁putus	-12.7074
baek	-12.7075
▁pronate	-12.7077
▁cass	-12.7086
jf	-12.709
▁thankyouuuu	-12.709
kok	-12.71
▁enaak	-12.7102
rrier	-12.7104
▁cuss	-12.7105
▁ternyataa	-12.7107
▁celananya	-12.7109
▁256	-12.711
▁uncle	-12.7114
▁hq	-12.7115
▁soflen	-12.7118
▁raft	-12.7119
▁220	-12.7129
▁syari	-12.713
▁rw	-12.7132
▁scot	-12.7134
arant	-12.7135
▁fla	-12.7137
▁tester	-12.7138
atagal	-12.7138
pad	-12.7139
zzzzzzzzzzzzzzzz	-12.7144
▁engg	-12.7149
▁restrict	-12.7153
▁habis	-12.7156
▁maship	-12.7158
▁kes	-12.7158
hor	-12.7159
▁didalem	-12.7161
▁namn	-12.7161
▁unbox	-12.7162
gun	-12.7163
▁ehhh	-12.7169
rrrrrrrrrrrrrr	-12.7172
▁jugaaaa	-12.7174
▁associat	-12.7175
▁lav	-12.7175
▁ceaa	-12.718
print	-12.7182
▁kp	-12.7187
▁insider	-12.7192
▁respont	-12.7193
tell	-12.72
▁makap	-12.7201
▁murahhhh	-12.7202
▁siiiip	-12.7208
▁db	-12.7211
▁paketny	-12.7215
▁mnggu	-12.7216
▁mela	-12.7216
open	-12.7217
response	-12.7221
▁98	-12.7221
success	-12.7226
penghantaran	-12.7227
healthy	-12.7227
steady	-12.7227
obo	-12.7228
▁ongkir	-12.7229
cous	-12.723
leaders	-12.723
although	-12.7231
jadi	-12.7233
▁terjangkauu	-12.7234
▁hung	-12.7235
vision	-12.7236
root	-12.7236
▁gbs	-12.7237
▁lalalalala	-12.7241
dissapoint	-12.7245
feel	-12.7245
▁undergro	-12.7246
ndum	-12.7246
▁sesuaiii	-12.7248
▁nma	-12.7248
ors	-12.7248
stay	-12.7249
▁crew	-12.7249
▁dv	-12.7249
▁morb	-12.725
▁cepeeet	-12.7251
pr	-12.7251
▁overalli	-12.7255
▁dmn	-12.7255
▁sukakkkk	-12.7256
reek	-12.7257
▁flop	-12.7257
kkkokkkkk	-12.7259
▁descrition	-12.7259
▁detox	-12.7259
▁lembuut	-12.7259
▁pngrimn	-12.7259
▁popsocket	-12.7259
▁razor	-12.7259
▁secinta	-12.7259
▁shimmer	-12.7259
▁subsequent	-12.7259
▁unprofessional	-12.7259
▁basreng	-12.7259
▁idiot	-12.7259
▁kuliatas	-12.7259
▁walnut	-12.7259
▁europe	-12.7259
▁stereo	-12.7259
▁femini	-12.7259
▁bnaget	-12.7259
▁gambr	-12.7259
▁chapter	-12.7259
▁glitch	-12.7259
▁wlopun	-12.7259
▁barabg	-12.7259
▁burem	-12.7259
▁mengecawak	-12.7259
▁modified	-12.7259
▁teryata	-12.7259
▁jutek	-12.7259
▁vacan	-12.7259
▁ounce	-12.7259
▁premature	-12.7259
▁dipengemasan	-12.7259
▁dropping	-12.7259
▁dispenser	-12.726
▁droplet	-12.726
▁demolishe	-12.726
▁adaptor	-12.726
▁ikhlas	-12.726
▁bleber	-12.726
▁deviation	-12.726
▁yupi	-12.7261
▁cylind	-12.7261
▁thrive	-12.7261
mf	-12.7261
▁selipin	-12.7261
▁keringet	-12.7261
▁insulat	-12.7262
▁snake	-12.7262
scrption	-12.7263
▁pertama	-12.7263
▁diselipin	-12.7263
▁oc	-12.7263
▁scoop	-12.7263
▁winner	-12.7263
▁termurah	-12.7263
hn	-12.7264
▁penetrate	-12.7264
▁playanan	-12.7265
▁vidio	-12.7265
▁padet	-12.7265
▁fastener	-12.7265
▁alhamdulillh	-12.7266
▁meski	-12.7266
▁weave	-12.7267
▁bgini	-12.7267
▁modif	-12.7267
▁crank	-12.7267
▁fuzzy	-12.7267
▁muslim	-12.7267
▁patent	-12.7267
▁nerima	-12.7268
▁apalg	-12.7268
▁hti	-12.7269
▁aseli	-12.7269
▁thorn	-12.7271
▁groove	-12.7271
▁anakq	-12.7271
juga	-12.7271
▁kebesaran	-12.7273
▁africa	-12.7274
petasi	-12.7275
▁expend	-12.7278
▁stok	-12.7278
▁ulet	-12.728
▁pengirimin	-12.728
fall	-12.7282
▁huawe	-12.7283
5555555555555555	-12.7283
▁judge	-12.7283
▁consier	-12.7284
▁dlam	-12.7285
▁skeptic	-12.7287
ganda	-12.7291
▁aamin	-12.7293
▁keje	-12.7294
▁breakout	-12.7295
▁rail	-12.7295
▁bumme	-12.7295
▁credi	-12.7297
▁trustee	-12.73
vh	-12.7301
▁atti	-12.7301
▁pengirimam	-12.7303
tape	-12.7303
▁princess	-12.7305
ttg	-12.7306
▁basta	-12.731
▁disa	-12.7314
hole	-12.7316
▁gmbar	-12.7317
▁xpa	-12.7318
▁amby	-12.7318
▁endless	-12.7318
▁sangay	-12.7325
▁bagusa	-12.7326
uch	-12.7326
▁breakage	-12.7326
kc	-12.7326
dddd	-12.733
abunya	-12.7336
▁upward	-12.7339
▁buah	-12.734
▁bater	-12.734
▁acak	-12.7342
▁sampnya	-12.7342
▁cgaaa	-12.7344
und	-12.7344
pada	-12.7346
band	-12.7352
tebel	-12.7355
▁bf	-12.7356
▁gambarr	-12.7361
▁mixer	-12.7363
▁yuhuu	-12.7364
itable	-12.7367
▁pokonyaaa	-12.7368
▁ungu	-12.7369
▁exc	-12.737
▁madame	-12.7371
oz	-12.7372
▁curr	-12.7372
▁certificat	-12.7377
gue	-12.7377
cult	-12.7382
▁flas	-12.7386
▁escape	-12.7387
▁murcee	-12.7392
▁diorder	-12.7395
▁hh	-12.74
▁bedain	-12.74
▁paw	-12.7405
▁absen	-12.7408
▁cepettt	-12.7411
▁kulit	-12.7412
hug	-12.7414
▁nai	-12.7414
mksh	-12.7415
▁masangny	-12.7416
▁beast	-12.7418
ants	-12.742
llllllllllllll	-12.7421
pant	-12.7424
rk	-12.7427
aka	-12.7428
fer	-12.7435
▁gandoss	-12.7436
joy	-12.7437
▁159	-12.7438
▁hydrat	-12.7439
▁smaa	-12.744
▁abt	-12.7441
ika	-12.7446
cake	-12.7447
▁probab	-12.7447
▁keta	-12.7448
iiiiiiiiiiiii	-12.7449
▁assum	-12.745
▁begini	-12.7453
kkkkkkk	-12.7454
▁integrate	-12.7455
djd	-12.7457
tent	-12.7463
▁notic	-12.7465
▁sharing	-12.7467
▁sellerrr	-12.7468
▁kuu	-12.7471
▁anget	-12.7478
▁dobel	-12.748
igi	-12.7482
ln	-12.7483
▁bando	-12.7484
nnnnnnnnnn	-12.7484
▁pertahan	-12.7486
uri	-12.7488
nong	-12.7493
▁162	-12.7496
▁executi	-12.7497
▁wis	-12.7499
▁jee	-12.75
▁jaj	-12.75
▁moisturize	-12.75
▁bangeeeeeet	-12.7502
▁mantp	-12.7506
▁crumble	-12.7507
▁plea	-12.7509
iro	-12.7512
▁kasiihh	-12.7513
▁terimakash	-12.7514
▁bwes	-12.7514
▁dna	-12.7515
▁dres	-12.7519
▁skid	-12.7526
udh	-12.7526
▁walker	-12.7536
▁51	-12.7536
▁makass	-12.7537
▁reg	-12.7538
▁youuuuu	-12.754
ancel	-12.754
take	-12.7542
▁koh	-12.7548
▁postpone	-12.755
▁okeeeeee	-12.7551
angan	-12.7557
geh	-12.7559
▁dens	-12.7559
▁coment	-12.7573
▁mantapppppp	-12.7574
bk	-12.7577
▁ringan	-12.758
uge	-12.7582
▁rent	-12.7584
▁colo	-12.7587
uality	-12.7587
▁ox	-12.7589
uv	-12.7591
▁doubts	-12.7598
▁loka	-12.76
▁col	-12.7605
▁nch	-12.7612
▁diko	-12.7618
▁saa	-12.7623
▁varie	-12.7631
udu	-12.7632
014	-12.7637
▁ej	-12.7638
kz	-12.7638
▁lash	-12.7639
otw	-12.764
riction	-12.764
oko	-12.7644
▁ekspektasi	-12.7646
drawn	-12.765
barakallah	-12.7655
▁lmpu	-12.7656
▁aqu	-12.7659
▁terimakasihhhhh	-12.7661
lahh	-12.7661
tab	-12.7665
▁balesan	-12.7665
▁broo	-12.7667
▁travell	-12.7667
▁mika	-12.7674
▁passabl	-12.7674
▁kaw	-12.7675
60	-12.7675
▁jr	-12.7684
aam	-12.7691
▁repell	-12.7692
▁doi	-12.7692
▁capt	-12.7692
▁muna	-12.7699
▁ditingkat	-12.7703
igorous	-12.7706
eeeeee	-12.7708
mbah	-12.7711
nget	-12.7713
aman	-12.7716
▁skn	-12.772
ered	-12.7721
has	-12.7726
▁atw	-12.7727
▁germinat	-12.7729
▁sc	-12.7733
▁satuu	-12.7734
▁mens	-12.7737
▁ngta	-12.7739
▁loll	-12.7743
iiiiii	-12.7743
▁heading	-12.7744
▁dikiri	-12.7745
duct	-12.7746
▁ukuranny	-12.7748
pnya	-12.7752
▁lok	-12.7754
jw	-12.7754
▁yauda	-12.7757
▁pumas	-12.7758
▁clearance	-12.7759
▁syekalii	-12.7762
▁bul	-12.7767
▁bao	-12.7769
▁yaaaaaaaaaa	-12.7773
ov	-12.7773
itive	-12.7775
▁nymp	-12.7775
▁udahh	-12.7777
▁diper	-12.7789
▁mill	-12.779
▁jelekk	-12.7798
▁revo	-12.7807
▁terimakasii	-12.7811
▁krim	-12.7812
itude	-12.7827
hop	-12.7829
▁shed	-12.7834
▁ios	-12.784
▁lengan	-12.785
▁swo	-12.7853
▁bayi	-12.7855
▁considerat	-12.7855
▁disiniiii	-12.7855
qi	-12.7856
racket	-12.7858
▁welcom	-12.7858
▁naked	-12.7859
tract	-12.786
▁swatch	-12.7861
▁advertise	-12.7867
▁boskuh	-12.7872
mpang	-12.7873
stand	-12.7876
etting	-12.7877
kf	-12.7877
gree	-12.7879
▁semog	-12.7881
▁building	-12.7884
▁amaze	-12.7886
▁bob	-12.7886
mal	-12.7887
▁tre	-12.7888
▁improv	-12.7895
sssssssssssssss	-12.7899
▁mngecewak	-12.7903
▁deceive	-12.7903
bm	-12.7905
nao	-12.7905
ocation	-12.7905
▁horr	-12.7908
▁gamba	-12.791
ear	-12.7915
▁maxim	-12.792
▁friendli	-12.792
▁tiep	-12.7925
elli	-12.7925
▁makin	-12.7927
▁dismay	-12.7927
sanan	-12.7931
▁yee	-12.7932
▁sabar	-12.7932
▁porta	-12.7934
▁lembutt	-12.7935
▁winds	-12.7937
▁struggl	-12.7953
karang	-12.7954
▁hadeuh	-12.7954
▁satisfactor	-12.7956
ei	-12.7957
▁decorati	-12.7958
▁pkokny	-12.7959
▁conve	-12.7959
▁kebu	-12.7959
▁environment	-12.7963
▁bosqu	-12.7964
▁yeu	-12.7965
▁cardio	-12.7969
jwb	-12.7978
rmh	-12.7981
▁jaa	-12.7982
▁sipppp	-12.7983
ase	-12.7983
ero	-12.7983
▁hadeh	-12.7984
▁consul	-12.7984
ongkir	-12.7984
▁conduct	-12.7988
child	-12.7989
▁loi	-12.799
hirob	-12.7991
position	-12.7996
▁1500	-12.7996
apple	-12.7997
material	-12.7997
brid	-12.7998
rmakasih	-12.8003
aqua	-12.8004
wide	-12.8004
▁gla	-12.8005
settle	-12.8006
elf	-12.8007
niat	-12.8007
definite	-12.8008
▁chaf	-12.8008
uw	-12.8015
▁chees	-12.8015
▁respin	-12.8016
iiiiiiiiiiiiii	-12.8018
oard	-12.8019
▁warnanyaa	-12.8019
▁xu	-12.8022
▁penetrat	-12.8022
▁ganyesel	-12.8022
▁cakepp	-12.8025
ike	-12.8026
▁rasp	-12.8027
cession	-12.8027
▁administrator	-12.8028
▁endeavo	-12.8028
▁escort	-12.8028
▁fatigue	-12.8028
▁fertilizer	-12.8028
▁mechanism	-12.8028
▁pelastik	-12.8028
▁repurhase	-12.8028
▁boutique	-12.8028
▁discredit	-12.8028
▁sacrifice	-12.8028
▁interface	-12.8028
▁victim	-12.8028
▁oyster	-12.8028
▁abandon	-12.8028
▁peripher	-12.8028
▁ngebantu	-12.8028
▁hoax	-12.8028
▁burden	-12.8028
▁stride	-12.8028
▁chestnut	-12.8028
▁condens	-12.8028
▁statue	-12.8028
▁incline	-12.8028
▁uhuy	-12.8028
▁fender	-12.8028
▁keabisa	-12.8028
▁preloved	-12.8028
▁clown	-12.8028
▁entah	-12.8028
▁cyclone	-12.8029
▁peoduk	-12.8029
▁defend	-12.8029
▁presum	-12.8029
▁frank	-12.8029
▁thermos	-12.8029
elimina	-12.8029
▁binigay	-12.803
▁ponakan	-12.803
▁keadaan	-12.803
▁catokan	-12.803
▁talent	-12.803
▁drastic	-12.803
▁dgambar	-12.803
▁oval	-12.803
▁lounge	-12.8031
▁gga	-12.8031
▁education	-12.8031
▁render	-12.8031
▁permintaan	-12.8032
▁bingitz	-12.8032
▁bench	-12.8032
▁guidebook	-12.8032
▁gadget	-12.8032
▁dinner	-12.8032
▁demi	-12.8032
▁tension	-12.8032
▁hygiene	-12.8032
▁nambah	-12.8032
▁insane	-12.8033
dominant	-12.8033
▁freak	-12.8033
▁cwok	-12.8033
▁handicap	-12.8034
▁clna	-12.8034
▁optimal	-12.8034
▁ketch	-12.8035
▁pengiman	-12.8035
▁discussion	-12.8035
▁kancing	-12.8035
rtama	-12.8036
▁bngtttt	-12.8036
▁disgr	-12.8037
▁bgni	-12.8037
▁ceruti	-12.8038
▁flight	-12.8039
▁pham	-12.804
▁dispute	-12.8041
▁perch	-12.8041
▁piss	-12.8042
▁donut	-12.8042
▁ngo	-12.8044
▁media	-12.8044
▁bangeetttt	-12.8044
▁testimon	-12.8045
▁flea	-12.8046
ob	-12.8046
▁thic	-12.8047
▁unsu	-12.8047
▁poduk	-12.8048
▁dahla	-12.8048
▁lnggann	-12.8049
▁www	-12.8049
▁hah	-12.805
▁resleting	-12.805
▁premi	-12.805
▁broth	-12.805
vm	-12.8051
▁plot	-12.8051
▁pantesan	-12.8052
▁aduh	-12.8052
▁modelny	-12.8053
ij	-12.8053
▁plis	-12.8053
obic	-12.8053
▁gigi	-12.8054
log	-12.8055
▁terussss	-12.8055
▁josssssss	-12.8056
▁pwede	-12.8056
▁pano	-12.8056
okay	-12.8057
▁oreo	-12.8058
▁tempel	-12.806
list	-12.806
▁musli	-12.8061
▁lebar	-12.8061
▁storm	-12.8061
rnh	-12.8065
▁gtuu	-12.8067
▁cuku	-12.8068
▁ros	-12.8069
del	-12.807
aat	-12.8073
▁buangett	-12.8073
▁225	-12.8074
▁pulaaa	-12.8076
▁kde	-12.8077
▁parahhh	-12.8078
▁adhere	-12.8078
▁eee	-12.8079
▁ske	-12.8079
▁keen	-12.8079
▁bangetz	-12.808
▁stan	-12.8081
ncar	-12.8082
▁pilih	-12.8082
bisa	-12.8082
▁laff	-12.8083
zu	-12.8084
▁cuteee	-12.8087
▁banh	-12.8088
▁fk	-12.8089
▁lc	-12.809
▁emin	-12.8091
▁drawer	-12.8093
▁passss	-12.8093
▁penggiriman	-12.8095
▁naiship	-12.8097
tap	-12.8097
▁swab	-12.8098
▁hamper	-12.8099
cca	-12.81
weg	-12.8102
▁pcking	-12.8105
▁kyaknya	-12.8105
ayang	-12.8105
▁sukaakk	-12.8108
▁digambar	-12.8109
kaka	-12.8112
cocok	-12.8114
▁105	-12.8119
eet	-12.812
▁resize	-12.812
eved	-12.812
shaft	-12.8122
joker	-12.8126
udi	-12.8126
▁wir	-12.8128
then	-12.8128
▁claus	-12.8132
▁bago	-12.8134
pur	-12.8137
rib	-12.8142
kv	-12.8143
▁xr	-12.8148
▁consideration	-12.8148
▁recycl	-12.815
▁situ	-12.8153
▁bon	-12.8157
▁spider	-12.8158
▁correction	-12.8158
▁haul	-12.816
▁canno	-12.8162
▁ngon	-12.8168
▁ob	-12.8168
tysm	-12.817
▁malemnya	-12.817
▁oengirim	-12.817
▁mksihh	-12.8172
▁bibs	-12.8172
▁regulate	-12.8181
▁mie	-12.8181
▁nam	-12.8182
▁stil	-12.8184
▁soflens	-12.8187
due	-12.8187
▁nyu	-12.819
dish	-12.819
▁dismantl	-12.8195
▁tlaga	-12.8198
▁syantikk	-12.82
▁banyk	-12.8201
stock	-12.8201
▁spf	-12.8202
harian	-12.8203
▁dipa	-12.8205
teen	-12.8209
▁perfection	-12.8212
▁bib	-12.8214
▁jaketnya	-12.8219
▁dina	-12.8223
▁kere	-12.8223
▁oat	-12.8223
abas	-12.8223
▁rupa	-12.8224
▁koo	-12.8224
▁hua	-12.8225
iiiiiiiiiiiiiii	-12.8227
▁sukaaaaaaaaaaaa	-12.823
▁sks	-12.8233
▁cardi	-12.8235
tf	-12.8236
▁kip	-12.8236
▁rg	-12.8243
▁difoto	-12.8244
▁maskernya	-12.825
▁spen	-12.8251
▁seiz	-12.8251
tom	-12.8254
kum	-12.8255
oot	-12.826
▁reall	-12.8261
tail	-12.8263
▁djdjd	-12.8263
▁maria	-12.8266
mpk	-12.8274
▁kekecil	-12.8275
cker	-12.8275
▁ddddddddddd	-12.8287
▁tarik	-12.8288
▁satis	-12.8289
audi	-12.8289
▁overla	-12.829
itt	-12.8291
▁napo	-12.8291
▁gabe	-12.8292
pers	-12.8292
awet	-12.8293
▁kualitaa	-12.83
▁jb	-12.8305
iba	-12.8308
▁mikir	-12.8309
real	-12.831
sode	-12.831
▁driv	-12.8311
xc	-12.8317
▁ff	-12.8317
▁benerin	-12.8324
▁confir	-12.8333
▁ret	-12.8334
▁kaaaa	-12.8336
▁onkir	-12.8338
bab	-12.8345
▁sblm	-12.8349
▁caref	-12.8353
ill	-12.8356
▁aslinya	-12.8359
upper	-12.836
▁ent	-12.8369
▁libra	-12.837
▁crep	-12.837
ayo	-12.8376
▁creat	-12.8376
ari	-12.8378
▁aug	-12.838
▁biasanya	-12.838
▁encapsulate	-12.8381
▁usaha	-12.8382
▁usahanya	-12.8385
▁alr	-12.839
pf	-12.839
pencet	-12.839
atan	-12.8392
▁suuka	-12.8393
▁engage	-12.84
ssssssssssssss	-12.8404
▁bahany	-12.8406
pods	-12.8408
▁mengecewak	-12.841
▁diperbaiki	-12.8413
▁lab	-12.8414
vg	-12.8419
▁khoiro	-12.8422
▁berry	-12.8424
▁siy	-12.8424
bsb	-12.8427
▁mei	-12.8434
▁pipet	-12.8436
alam	-12.8439
▁hj	-12.8443
▁noda	-12.8444
fr	-12.8446
ngah	-12.845
▁manually	-12.845
▁cintaa	-12.8452
▁makas	-12.8452
▁gio	-12.8458
▁mengecewakann	-12.8458
▁ngga	-12.846
tub	-12.8464
▁lima	-12.8471
▁niii	-12.8473
▁dice	-12.8483
xk	-12.8484
▁mbaa	-12.8486
oe	-12.8489
sti	-12.8495
cepatan	-12.8499
▁bangetttttttt	-12.8501
zer	-12.8506
▁glo	-12.8506
▁ripe	-12.8508
xiu	-12.8509
▁kering	-12.8509
▁ngele	-12.851
▁bua	-12.8517
iih	-12.8522
▁gn	-12.8522
▁dicobaa	-12.8528
aha	-12.8531
▁sum	-12.8534
vel	-12.8536
cal	-12.8539
▁sukaaaaaaaaaa	-12.8541
ntg	-12.8543
▁bcs	-12.8544
ching	-12.8554
jm	-12.8558
▁opt	-12.8562
▁leb	-12.8574
pile	-12.8575
inis	-12.8578
▁diva	-12.858
▁hihii	-12.8581
kdkd	-12.8597
hao	-12.8598
▁trnyt	-12.8601
▁laws	-12.8618
hrs	-12.8625
▁okelahh	-12.8626
takan	-12.8632
▁teng	-12.8636
▁xinh	-12.8645
▁sampaiiiii	-12.8649
ple	-12.8649
▁scammers	-12.8651
▁ahhh	-12.8653
bz	-12.8653
package	-12.8656
▁robek	-12.8657
ppp	-12.8657
▁inih	-12.8658
▁175	-12.8659
anda	-12.8663
toko	-12.8665
▁expedit	-12.8665
lity	-12.8672
▁sanga	-12.8679
date	-12.8684
fk	-12.8696
▁semuanyaa	-12.8705
65	-12.8707
▁abiss	-12.871
opper	-12.8713
▁artist	-12.8714
▁rc	-12.8715
▁dahhhh	-12.8724
yyyyyy	-12.8724
▁mantaab	-12.8724
▁ocr	-12.8728
▁syuuka	-12.8731
jjj	-12.8732
fb	-12.8735
eye	-12.8741
▁sila	-12.8743
pak	-12.8744
▁deffect	-12.8751
▁zone	-12.8755
▁sampeeee	-12.8755
psenan	-12.8756
nag	-12.8757
▁gen	-12.8763
▁amo	-12.8766
▁87	-12.8769
lis	-12.8772
▁gandaaaa	-12.8776
▁qq	-12.878
▁unsur	-12.8789
shirt	-12.8794
cx	-12.8795
▁margin	-12.8795
▁jati	-12.88
▁cong	-12.88
aahhh	-12.8802
▁maba	-12.8805
ifi	-12.8805
hope	-12.8811
ruh	-12.8813
▁kri	-12.8813
▁makasihhhhh	-12.8814
▁goooooooooooooo	-12.8816
▁lagga	-12.8817
▁flick	-12.882
cheap	-12.8821
▁ache	-12.8822
fish	-12.8824
muat	-12.8825
meters	-12.8828
▁blj	-12.8829
craft	-12.8829
▁hahahahaha	-12.8829
consistent	-12.883
girl	-12.883
subscribe	-12.883
▁shi	-12.883
course	-12.883
onal	-12.8833
▁baikkkkk	-12.8841
lor	-12.8844
easy	-12.8845
mei	-12.8846
▁pate	-12.8849
tip	-12.8849
▁semogaaa	-12.885
▁costume	-12.885
▁cerut	-12.8851
uwun	-12.8851
soft	-12.8851
▁tagal	-12.8854
nw	-12.8855
▁maah	-12.8856
ntul	-12.8857
▁169	-12.8857
▁pngrm	-12.8859
hmdulillah	-12.886
ebra	-12.886
nb	-12.8861
▁okokookok	-12.8861
▁australia	-12.8861
▁crochet	-12.8861
▁deodoran	-12.8861
▁detergent	-12.8861
▁duplicate	-12.8861
▁enlighten	-12.8861
▁hospitable	-12.8861
▁immense	-12.8861
▁inclusion	-12.8861
▁incompatib	-12.8861
▁procedure	-12.8861
▁retreat	-12.8861
▁salicyl	-12.8861
▁sidoarjo	-12.8861
▁aloevera	-12.8861
▁ditempel	-12.8861
▁ekpedisi	-12.8861
▁haphazard	-12.8861
▁overheat	-12.8861
▁qualify	-12.8861
▁styrofoam	-12.8861
▁goooood	-12.8861
▁hampeh	-12.8861
▁unseal	-12.8861
▁quaaaaaaaaaass	-12.8861
▁toddler	-12.8861
▁ketarik	-12.8861
▁reveal	-12.8861
▁steep	-12.8861
▁gallon	-12.8861
▁ngejreng	-12.8861
▁overpronat	-12.8861
▁banknote	-12.8861
▁hamster	-12.8861
▁password	-12.8861
▁quesion	-12.8861
▁orgasm	-12.8861
▁grippy	-12.8861
▁junior	-12.8861
▁kecawa	-12.8861
▁shrill	-12.8861
▁crust	-12.8862
▁tomato	-12.8862
▁commitment	-12.8862
▁selamaat	-12.8862
▁disney	-12.8862
▁kelipet	-12.8862
▁rewad	-12.8862
▁unfair	-12.8862
▁sympath	-12.8862
▁merch	-12.8862
▁shrugg	-12.8862
▁uju	-12.8862
▁cashew	-12.8862
▁tangan	-12.8862
▁discard	-12.8862
▁prduk	-12.8862
ucci	-12.8862
▁presto	-12.8862
▁elmo	-12.8862
▁jimat	-12.8862
▁fleec	-12.8863
▁keinginan	-12.8863
uakitas	-12.8863
▁pnjang	-12.8863
▁flourish	-12.8863
▁massive	-12.8863
▁semuaaaa	-12.8864
▁activation	-12.8864
▁graceful	-12.8864
▁reload	-12.8864
▁fon	-12.8865
neous	-12.8865
▁calar	-12.8865
▁frog	-12.8865
▁voal	-12.8865
▁dipasang	-12.8865
▁pengepak	-12.8866
▁solatip	-12.8866
▁gunting	-12.8866
▁folk	-12.8866
▁unbeat	-12.8866
▁fence	-12.8867
▁matiba	-12.8867
ulillah	-12.8868
▁leftover	-12.8868
▁accent	-12.8868
▁ombre	-12.8868
▁sophist	-12.8868
▁ttup	-12.8869
▁servant	-12.887
▁tiada	-12.887
63	-12.8871
▁controller	-12.8871
▁rocket	-12.8873
▁kmna	-12.8873
▁vivi	-12.8874
▁empek	-12.8874
▁fh	-12.8875
▁intestine	-12.8875
▁kanak	-12.8875
▁junk	-12.8876
▁endure	-12.8876
▁speckle	-12.8876
▁komplin	-12.8877
▁scalp	-12.8877
▁tingkatkan	-12.8878
▁bukak	-12.8879
lender	-12.8879
huong	-12.8879
kuu	-12.8879
hati	-12.888
mpered	-12.8881
▁oreder	-12.8881
▁circulat	-12.8881
▁dispose	-12.8883
▁brangx	-12.8884
▁retire	-12.8886
▁dengam	-12.8888
37	-12.8889
loloko	-12.889
▁nihhh	-12.889
nfx	-12.889
▁emak	-12.889
▁neci	-12.8891
▁boz	-12.8891
▁memo	-12.8891
langan	-12.8892
▁horrifi	-12.8892
▁kalu	-12.8895
▁lumaaya	-12.8898
▁yaallah	-12.8898
hip	-12.89
untle	-12.89
appointed	-12.8903
▁wkwkwkwkwk	-12.8904
▁kokk	-12.8905
ooh	-12.8908
▁sken	-12.8909
▁vom	-12.891
▁keropi	-12.8913
▁lumin	-12.8915
asib	-12.8915
kaasih	-12.8918
▁contaminat	-12.8921
▁bunion	-12.8923
▁pemb	-12.8923
▁neo	-12.8923
ckit	-12.8925
▁garis	-12.8925
▁vis	-12.8925
▁iklan	-12.8925
▁kpa	-12.8926
▁qo	-12.8926
▁formal	-12.8929
▁230	-12.8932
▁eta	-12.8934
▁produj	-12.8934
▁padu	-12.8935
▁habit	-12.8935
▁masalah	-12.8938
▁intent	-12.8938
▁drone	-12.8939
tag	-12.8943
▁bauk	-12.8944
▁penghntr	-12.8944
▁ngada	-12.8949
▁baguuuss	-12.8953
▁wee	-12.8957
▁belong	-12.8959
▁mantaaaap	-12.8959
udah	-12.896
▁jir	-12.8961
▁semp	-12.8962
▁flare	-12.8962
▁septe	-12.8963
▁sptu	-12.8963
▁subhanall	-12.8967
▁earr	-12.897
▁uhh	-12.8971
▁kute	-12.8972
▁ush	-12.8977
▁albe	-12.8978
▁bulg	-12.8982
▁saking	-12.8985
▁brain	-12.8987
▁didlm	-12.8989
kirimnya	-12.8989
sma	-12.8989
▁oko	-12.8991
play	-12.8995
blem	-12.8995
tipu	-12.8996
▁sye	-12.8997
▁ec	-12.9
▁consist	-12.9006
▁responn	-12.9016
lengkap	-12.9017
▁coast	-12.9017
▁gtau	-12.9021
▁deeeh	-12.9022
▁lgii	-12.9025
▁bango	-12.9027
▁kite	-12.903
▁sukaaaaaaaaaaa	-12.9034
▁cre	-12.9034
▁makasihhhhhhh	-12.9035
▁films	-12.9035
giriman	-12.9039
▁dif	-12.904
qq	-12.9046
▁ena	-12.9051
hieu	-12.9055
▁polos	-12.9059
▁grid	-12.906
▁berat	-12.9063
▁saturat	-12.9065
zj	-12.9065
▁impr	-12.9066
rm	-12.9068
▁twee	-12.9068
▁accu	-12.907
444	-12.9072
▁puaass	-12.9072
▁lariss	-12.9073
▁blan	-12.908
asih	-12.9096
uog	-12.9098
omi	-12.9099
▁considerabl	-12.9103
▁pinggir	-12.9108
erol	-12.9109
▁chac	-12.9125
▁nang	-12.9125
▁turq	-12.9129
▁mamak	-12.913
▁bedaa	-12.9133
banyak	-12.9134
▁turun	-12.9135
▁bakall	-12.9141
33	-12.9144
rall	-12.9145
▁umi	-12.9147
▁bange	-12.9152
nual	-12.9152
▁boxer	-12.9154
▁dii	-12.9155
cam	-12.9156
lac	-12.9158
▁tooth	-12.9158
▁mantulllllllll	-12.9165
▁bounc	-12.9165
▁gais	-12.9165
▁suprise	-12.9165
▁ramp	-12.9166
▁djdjjd	-12.9167
▁wid	-12.9169
▁pakcing	-12.9169
eeeeeee	-12.918
hah	-12.9182
dos	-12.9186
▁spru	-12.9189
▁shaa	-12.9192
▁besttt	-12.9193
done	-12.9194
▁mntapp	-12.9195
▁woi	-12.9199
look	-12.9203
▁hadehhh	-12.9204
war	-12.9205
▁sesuay	-12.9209
▁pakingny	-12.9211
▁choke	-12.9213
rusted	-12.9213
fic	-12.9214
▁youtu	-12.9217
▁recommen	-12.9219
▁perk	-12.9219
▁kbs	-12.9225
aann	-12.9231
▁peka	-12.9232
▁dunk	-12.9236
▁dana	-12.9237
plant	-12.9238
▁tanam	-12.9241
▁lala	-12.9249
▁shp	-12.925
▁kdepan	-12.9252
▁fai	-12.9256
amid	-12.9256
▁thankyouuuuu	-12.9258
use	-12.9258
htk	-12.926
▁apaa	-12.9261
az	-12.9269
makin	-12.9269
▁cont	-12.9276
▁pdah	-12.9276
▁cater	-12.9277
▁walaupo	-12.9277
test	-12.9284
▁cari	-12.9285
fron	-12.9285
pek	-12.9288
▁pst	-12.9291
les	-12.9292
▁feelings	-12.9293
▁muchh	-12.9294
▁bangeeeeet	-12.9308
uff	-12.931
lung	-12.9312
▁genero	-12.9314
casio	-12.9314
rbaek	-12.9319
▁bagussssssssss	-12.932
dag	-12.9323
ock	-12.9323
▁pumping	-12.9324
▁kado	-12.9325
▁bwa	-12.933
kdj	-12.9333
▁ngecha	-12.9335
▁uulit	-12.9337
▁hsh	-12.934
▁cycl	-12.9349
saken	-12.9353
▁leba	-12.9355
saka	-12.9359
▁ihh	-12.936
rong	-12.9368
▁originalll	-12.9374
▁spe	-12.9379
▁lmbut	-12.9383
▁penjua	-12.9394
▁bangeeetttt	-12.9397
▁telepho	-12.9399
▁kayanya	-12.9402
▁swap	-12.9408
hai	-12.9414
ukan	-12.9416
hsi	-12.9419
wes	-12.9421
▁memuas	-12.9425
▁canti	-12.9426
▁whip	-12.9431
dung	-12.9434
▁reti	-12.9434
▁folder	-12.9438
▁lis	-12.9442
fy	-12.9444
alitas	-12.9449
▁sla	-12.9451
dahan	-12.9453
▁bosque	-12.9454
ampe	-12.9457
oder	-12.9458
▁payet	-12.946
vice	-12.946
▁pokona	-12.9462
kita	-12.9466
hq	-12.9467
▁okeeeeeee	-12.9467
delver	-12.9471
▁taper	-12.9473
▁ignit	-12.9475
▁trimss	-12.9478
▁lb	-12.9494
ph	-12.9497
rachu	-12.9497
ndh	-12.9497
nggu	-12.9503
▁lage	-12.9504
enne	-12.9509
nia	-12.951
lish	-12.9513
nder	-12.9514
▁bale	-12.9517
esuai	-12.9518
arily	-12.9522
onna	-12.9525
▁jak	-12.9529
bdan	-12.9529
▁cot	-12.953
ically	-12.9531
full	-12.9531
▁cobaa	-12.9534
▁amannnn	-12.9535
▁sperti	-12.9535
br	-12.9538
lw	-12.9548
alloh	-12.9555
▁quan	-12.9564
▁adeem	-12.9571
▁hehehehehehehe	-12.9573
▁earing	-12.9573
▁pw	-12.9574
ea	-12.9574
▁lee	-12.9576
zel	-12.9577
▁akhirny	-12.958
▁okehh	-12.9584
lay	-12.9584
▁lin	-12.9593
▁priorit	-12.9602
baloi	-12.9605
month	-12.9606
▁kash	-12.9606
tude	-12.9609
hur	-12.962
▁postcard	-12.9622
▁mum	-12.9623
▁hoo	-12.9627
▁eng	-12.9628
▁datangnya	-12.9631
▁kantong	-12.9634
▁kainny	-12.9636
▁souvenir	-12.9636
▁rusakk	-12.9641
▁umr	-12.9641
▁syukaak	-12.9643
▁seharus	-12.9643
▁roomy	-12.9644
▁pao	-12.9645
art	-12.9646
▁sprinkle	-12.9646
gkusan	-12.9647
▁zo	-12.9648
▁cushin	-12.9648
aia	-12.9649
ept	-12.966
▁banyakkkk	-12.9661
▁vario	-12.9663
▁gre	-12.9664
▁tasnyaa	-12.9667
ping	-12.9671
▁tenkyu	-12.9673
▁enakkk	-12.9674
eal	-12.9675
▁nilai	-12.9676
murah	-12.9676
▁terusssss	-12.9677
▁func	-12.9678
▁siihh	-12.9681
lupas	-12.9681
▁toast	-12.9681
▁eeee	-12.9681
▁kecewaaaa	-12.9684
▁sekale	-12.9685
av	-12.9687
▁kualitasny	-12.9692
potan	-12.9693
▁kainnya	-12.9693
jaga	-12.9693
wrap	-12.9695
turn	-12.97
▁lho	-12.9702
lain	-12.9702
▁fas	-12.9702
▁deb	-12.9705
oin	-12.9706
mainin	-12.9708
net	-12.9716
▁86	-12.9716
bungkus	-12.9721
▁brow	-12.9725
weight	-12.9727
market	-12.9727
▁muka	-12.973
born	-12.9731
▁rgaaaa	-12.9733
▁bagussssssss	-12.9736
perfect	-12.9738
masalah	-12.9739
▁amaann	-12.9742
durable	-12.9742
value	-12.9743
sana	-12.9745
dikirim	-12.9747
notch	-12.9749
▁nganter	-12.975
▁assalamu	-12.9757
▁pkt	-12.9757
▁katany	-12.9758
▁dede	-12.9759
limit	-12.976
uruh	-12.9761
▁remo	-12.9761
▁puck	-12.9763
ication	-12.9765
▁apricot	-12.977
▁bandrol	-12.977
▁cleft	-12.977
▁consecutive	-12.977
▁distributor	-12.977
▁fluoresce	-12.977
▁membrane	-12.977
▁principle	-12.977
▁science	-12.977
▁silhouette	-12.977
▁viettel	-12.977
▁ablution	-12.977
▁cigarette	-12.977
▁tweezer	-12.977
▁awkward	-12.977
▁engrav	-12.977
▁experiment	-12.977
▁propeller	-12.977
▁president	-12.977
▁scroll	-12.977
▁blakang	-12.977
▁superglue	-12.977
▁rebate	-12.977
▁breastfeeding	-12.977
▁concept	-12.977
▁legitimate	-12.977
▁precious	-12.977
▁graphic	-12.977
▁pompom	-12.977
▁survey	-12.9771
▁kualias	-12.9771
▁mortar	-12.9771
xitskg	-12.9771
▁selali	-12.9771
sssssaaaaaaa	-12.9771
▁berpuas	-12.9771
▁gedhe	-12.9771
▁jlek	-12.9771
▁custamer	-12.9771
▁pertma	-12.9771
▁tanpa	-12.9771
▁pokony	-12.9771
▁swimwear	-12.9771
▁fibr	-12.9771
▁carving	-12.9771
▁vermic	-12.9771
▁wander	-12.9771
▁miniature	-12.9771
▁diragu	-12.9771
▁sblh	-12.9771
▁pwngiriman	-12.9771
▁dilapak	-12.9772
▁yeaay	-12.9772
▁hampir	-12.9772
▁puppet	-12.9772
▁depict	-12.9772
▁dagangan	-12.9772
▁cupboard	-12.9772
▁solasi	-12.9773
▁plum	-12.9773
▁rekommend	-12.9773
▁picnic	-12.9773
yg	-12.9773
▁munafie	-12.9774
▁lunar	-12.9774
▁jazakillahu	-12.9774
▁marble	-12.9774
▁miscella	-12.9775
▁pallet	-12.9775
▁lengket	-12.9775
▁sbnernya	-12.9776
▁teruk	-12.9777
▁brngny	-12.9777
▁nganterin	-12.9777
▁dijual	-12.9777
▁ngasi	-12.9777
▁ganito	-12.9778
▁discontinued	-12.978
▁mashaallah	-12.978
▁groom	-12.978
▁creation	-12.9781
▁critical	-12.9781
▁ampunnn	-12.9781
▁msalah	-12.9781
▁tally	-12.9782
▁rejeki	-12.9782
▁guddd	-12.9782
sok	-12.9783
▁161	-12.9784
▁gracious	-12.9785
▁dedek	-12.9786
▁hardcase	-12.9786
▁maaksih	-12.9787
▁reflection	-12.9787
▁haraga	-12.9787
▁gandosssss	-12.9788
▁berubah	-12.9789
▁lick	-12.979
▁nez	-12.979
▁banner	-12.979
▁bandage	-12.979
▁koyak	-12.9791
▁bangey	-12.9791
▁daisy	-12.9793
▁handbody	-12.9793
card	-12.9794
▁corak	-12.9797
▁haram	-12.9797
▁dirapih	-12.9798
▁glide	-12.9798
▁pokokna	-12.9798
▁jln	-12.9799
▁bunyi	-12.98
▁consultation	-12.9801
▁avai	-12.9802
▁terdabest	-12.9802
▁umpte	-12.9802
▁meskipun	-12.9803
▁comic	-12.9804
▁dkasi	-12.9806
▁mit	-12.9806
▁lives	-12.9806
▁repay	-12.9807
▁makeover	-12.9808
▁jung	-12.9808
llllll	-12.9808
▁kasya	-12.9809
▁lamaaaaaaa	-12.9813
baby	-12.9813
▁135	-12.9814
▁represent	-12.9815
sha	-12.9815
▁yahhhhh	-12.9816
▁reviewer	-12.9816
▁ruler	-12.9817
▁sukaaak	-12.9818
▁dire	-12.982
▁redem	-12.9823
▁makasiiiih	-12.9824
gga	-12.983
▁swee	-12.983
sum	-12.983
rifle	-12.9831
▁ampun	-12.9831
▁surv	-12.9831
▁dongker	-12.9832
▁penjuall	-12.9832
▁sig	-12.9832
rock	-12.9833
▁awettt	-12.9835
gras	-12.9835
▁immedi	-12.9835
▁viva	-12.9835
▁gituuu	-12.9835
▁gown	-12.9837
▁wlwp	-12.9838
▁sight	-12.9839
▁kucing	-12.9844
▁dui	-12.9849
▁lava	-12.985
▁kmn	-12.9851
▁tko	-12.9851
▁howl	-12.9853
▁pouchnya	-12.9856
▁73	-12.9856
city	-12.9858
▁hobb	-12.9859
▁pesannan	-12.9859
imar	-12.986
▁convey	-12.9862
▁certificate	-12.9868
▁sns	-12.9868
▁donation	-12.987
▁persist	-12.9875
cchd	-12.9875
▁dpa	-12.9875
▁rgaaaaaa	-12.9876
▁pera	-12.9877
▁geneal	-12.9881
▁spam	-12.9883
▁maacih	-12.9885
▁logi	-12.9885
▁rank	-12.9886
▁bagusssssssss	-12.9886
▁terr	-12.9886
▁tongs	-12.9887
minato	-12.989
▁bross	-12.9892
mantul	-12.9894
uuuuuuu	-12.9895
▁akak	-12.9897
▁rsa	-12.9898
18	-12.9902
▁cepeett	-12.9903
▁sangaatt	-12.9903
nyaaaaa	-12.9906
▁gene	-12.9907
▁plat	-12.9908
▁takde	-12.9915
oknya	-12.9915
▁retailer	-12.9923
▁maju	-12.9923
dddddddd	-12.9929
ida	-12.9931
▁gbr	-12.9934
▁kwn	-12.9934
uai	-12.9934
ndn	-12.9936
▁dika	-12.9938
▁trmkasih	-12.994
▁kerop	-12.9947
▁tightness	-12.9948
abr	-12.995
▁moss	-12.9951
▁lbs	-12.9952
▁pelan	-12.9959
▁tahi	-12.9959
▁logg	-12.9962
▁mos	-12.9963
▁sehat	-12.9963
▁eyeshadownya	-12.9964
kre	-12.9968
▁barrels	-12.997
dapat	-12.9973
▁kerennnnn	-12.9974
nova	-12.9978
▁manic	-12.9979
lued	-12.9979
ody	-12.9981
tight	-12.9982
aannn	-12.9982
▁bca	-12.9986
▁lampunya	-12.9995
▁recomed	-12.9995
kka	-13
▁dpn	-13.0002
▁74	-13.0006
▁halu	-13.0009
▁chains	-13.001
▁taz	-13.0016
jv	-13.0016
▁gm	-13.002
gt	-13.0021
uter	-13.0022
ehead	-13.0022
▁topic	-13.0024
▁coinciden	-13.0025
▁accelerat	-13.0027
▁pec	-13.0027
▁msk	-13.003
▁lainnya	-13.003
▁bitch	-13.0031
▁resubmitt	-13.0032
gede	-13.0033
agle	-13.0033
67	-13.0037
▁srm	-13.0037
spon	-13.0042
arini	-13.0043
▁bunga	-13.0044
▁cuci	-13.0045
▁tempera	-13.0049
ehhh	-13.0052
lna	-13.006
ford	-13.006
zjz	-13.0063
▁suppli	-13.0063
gecewakan	-13.0067
▁headaches	-13.0068
lalu	-13.0071
▁mice	-13.0074
▁kyo	-13.0075
▁daan	-13.0077
▁sdg	-13.008
▁commute	-13.0081
▁tempe	-13.0083
rate	-13.0088
sai	-13.0094
lll	-13.0095
lama	-13.0096
▁sesus	-13.0101
crpat	-13.0106
▁wry	-13.0117
▁hinge	-13.0125
ricket	-13.0125
▁shini	-13.0126
hilo	-13.0132
off	-13.0132
mitin	-13.0133
eeeeeeee	-13.0134
partment	-13.0135
▁smpek	-13.0136
▁hahahha	-13.0139
▁tbel	-13.0141
oooooo	-13.0142
▁std	-13.0146
fon	-13.0149
uot	-13.0153
▁presen	-13.0153
▁recon	-13.0156
▁pasta	-13.0162
▁teeima	-13.0162
▁syukaaaaa	-13.0164
▁bec	-13.0167
▁author	-13.0172
▁refra	-13.0172
sletingnya	-13.0177
izing	-13.0177
▁grandm	-13.0181
▁makaci	-13.0189
▁log	-13.0196
▁magh	-13.0201
ganan	-13.0202
▁lari	-13.0203
pernah	-13.0204
▁tao	-13.0207
bare	-13.0207
▁studi	-13.021
jsbd	-13.0214
onya	-13.0215
nsive	-13.0217
entel	-13.0222
▁gripe	-13.0225
pah	-13.0226
saa	-13.0228
▁negligen	-13.0229
tang	-13.0232
bles	-13.0245
▁pakett	-13.0249
▁pil	-13.0249
▁prng	-13.0256
▁bubblewrapp	-13.0261
▁ensur	-13.0262
▁dow	-13.0269
uah	-13.0274
▁okkkk	-13.028
▁sesau	-13.0284
▁bki	-13.0284
▁slid	-13.0285
▁singlet	-13.0288
▁cepaaatt	-13.0291
airy	-13.0294
▁listing	-13.0295
lite	-13.0297
gw	-13.0298
dol	-13.03
jsj	-13.0302
cute	-13.0304
lepas	-13.0307
▁baruu	-13.0308
hehehehehehehe	-13.0312
▁divid	-13.0314
36	-13.0315
ctv	-13.0316
opek	-13.032
▁eman	-13.0322
▁thom	-13.0323
▁akutu	-13.0324
▁kda	-13.0332
ease	-13.0332
▁rekom	-13.0337
▁pokokknya	-13.0346
era	-13.0349
▁wanginya	-13.035
▁sjsjs	-13.0357
▁bout	-13.0368
▁shocks	-13.039
jz	-13.0391
rc	-13.0394
▁wh	-13.0394
▁lngsu	-13.0396
cook	-13.0401
cope	-13.0406
▁repai	-13.0406
▁bgo	-13.041
kadih	-13.0411
▁ww	-13.0412
▁globe	-13.0412
ogog	-13.0416
ition	-13.0422
efoto	-13.0423
▁144	-13.0427
▁pav	-13.0432
▁momo	-13.0436
action	-13.0438
▁duluu	-13.0442
received	-13.0443
tcha	-13.0445
uction	-13.0447
▁shu	-13.0451
▁decorate	-13.0454
▁bisaa	-13.0455
dih	-13.0455
▁wal	-13.0456
▁copi	-13.0456
willing	-13.0457
▁sayng	-13.0458
▁besokan	-13.0458
▁pik	-13.0459
annn	-13.0459
▁mega	-13.0459
hhd	-13.0467
▁xma	-13.0469
ajaj	-13.0469
laa	-13.047
jdjd	-13.0476
njual	-13.048
▁nei	-13.048
qng	-13.048
ateng	-13.0482
▁sampl	-13.0486
▁marah	-13.0489
▁appare	-13.0497
▁suz	-13.0498
idak	-13.0502
▁fri	-13.0503
75	-13.0508
sion	-13.051
api	-13.0513
▁cinta	-13.0517
djs	-13.0519
78	-13.052
unset	-13.0528
neng	-13.0533
isit	-13.0537
48	-13.0538
▁bhanny	-13.0542
▁lac	-13.0542
▁tun	-13.0546
▁hus	-13.0547
ebox	-13.0547
▁46	-13.0548
benta	-13.0552
cking	-13.0557
▁scramble	-13.0561
▁mats	-13.0561
▁bangeeett	-13.0561
▁purchaser	-13.0563
▁ppl	-13.0563
cah	-13.0568
blend	-13.0568
▁luk	-13.0571
▁pendul	-13.0573
▁daah	-13.0578
mall	-13.0579
color	-13.0584
▁dibuka	-13.0584
▁exclud	-13.0584
rrrr	-13.0587
ngetin	-13.0589
▁interfere	-13.0593
▁baguz	-13.0594
▁cab	-13.0603
▁fal	-13.0604
▁murahhhhh	-13.0605
▁190	-13.0606
▁hana	-13.0607
style	-13.0607
erchi	-13.0609
beb	-13.0614
▁recomendedd	-13.0616
▁baguuuuusss	-13.0618
press	-13.0622
▁unequ	-13.0622
▁luo	-13.0623
damage	-13.0624
tie	-13.0626
dtg	-13.0627
▁yaw	-13.0633
▁bol	-13.0634
▁lhoo	-13.0636
▁expres	-13.0637
uishe	-13.0639
amon	-13.0642
pn	-13.0646
tttttttt	-13.0647
arr	-13.0648
▁caaa	-13.0651
▁kereenn	-13.0654
▁delive	-13.0655
▁jz	-13.0656
car	-13.0657
▁persisten	-13.0657
pair	-13.0661
immed	-13.0665
▁baca	-13.0665
▁greet	-13.0666
▁daa	-13.0666
▁ref	-13.0672
▁makasihhhhhh	-13.0676
▁shippinggood	-13.0689
▁immi	-13.069
jsks	-13.0693
▁mane	-13.0694
olation	-13.0695
▁udaah	-13.0697
uga	-13.0698
▁pesn	-13.0701
▁tahun	-13.0702
▁kualitan	-13.0704
ksa	-13.0705
tea	-13.0709
indo	-13.0709
wv	-13.0711
▁compa	-13.0712
rest	-13.0713
▁115	-13.0718
bener	-13.0723
▁frust	-13.0725
rut	-13.0726
plek	-13.0726
▁rib	-13.0727
▁baj	-13.0727
high	-13.0729
▁fortunate	-13.0732
rda	-13.0733
sekian	-13.0734
▁distin	-13.0734
▁jgak	-13.0735
beat	-13.0735
▁judg	-13.0736
recieve	-13.0736
tz	-13.0736
sepatu	-13.0739
▁hahhaha	-13.0739
samsung	-13.0739
▁exis	-13.0739
quick	-13.0739
power	-13.0739
which	-13.074
▁vita	-13.0742
▁kasar	-13.0743
▁muba	-13.0743
▁giler	-13.0746
▁barakallahu	-13.0747
▁aha	-13.0748
▁woo	-13.075
▁pana	-13.075
▁favo	-13.075
cry	-13.0751
▁ntap	-13.0752
▁luvvv	-13.0752
▁slips	-13.0754
▁comfor	-13.0755
shopee	-13.0756
las	-13.0756
improved	-13.0758
▁sukasukasuka	-13.0759
▁siippp	-13.0761
komplen	-13.0761
▁pengemasann	-13.0764
▁rah	-13.0766
runtusan	-13.0767
▁hihihihi	-13.0768
usan	-13.0768
▁subscript	-13.0769
▁artis	-13.0769
▁substa	-13.077
khchlxxhddlxgmxm	-13.077
asdfghjklzxcvbnm	-13.077
khxj	-13.077
▁disrespect	-13.077
▁ngeselin	-13.077
▁overwhelm	-13.077
▁philippine	-13.077
▁reassess	-13.077
▁replenish	-13.077
▁vintage	-13.077
▁vxgdhv	-13.077
▁adveris	-13.077
▁focallure	-13.077
▁piercing	-13.077
▁spiral	-13.077
▁dolphin	-13.077
▁inevitabl	-13.077
▁nyiram	-13.077
▁susceptib	-13.077
▁popcorn	-13.077
▁menstrua	-13.077
▁bedsheet	-13.077
▁kusem	-13.077
▁remnant	-13.077
▁stigma	-13.077
▁thrift	-13.077
▁tablespoon	-13.077
▁civil	-13.077
▁disiini	-13.077
▁defeat	-13.077
▁hiccup	-13.077
▁kaftan	-13.077
▁splendid	-13.077
▁lizard	-13.077
▁segar	-13.077
▁bercak	-13.0771
▁nyemil	-13.0771
▁daugt	-13.0771
▁gallery	-13.0771
▁pigeon	-13.0771
▁samyang	-13.0771
custom	-13.0771
▁emphasize	-13.0771
▁mntp	-13.0771
▁flutter	-13.0771
▁alesan	-13.0771
▁semogga	-13.0771
▁npaka	-13.0771
▁joob	-13.0771
▁shaving	-13.0771
▁armrest	-13.0771
pucino	-13.0771
▁ngerakit	-13.0771
▁recommnd	-13.0772
▁unravel	-13.0772
▁termantul	-13.0772
▁diabet	-13.0772
▁dikurir	-13.0772
plica	-13.0772
▁republic	-13.0772
▁spinner	-13.0772
▁dropsip	-13.0772
▁splash	-13.0772
▁omni	-13.0772
▁dibeli	-13.0773
bdbdbd	-13.0773
▁sekarang	-13.0773
▁pasobra	-13.0773
▁dibungkus	-13.0773
▁famous	-13.0773
▁gliter	-13.0773
▁reception	-13.0773
▁costemer	-13.0773
▁pedal	-13.0773
▁ditaro	-13.0773
▁greentea	-13.0773
▁aktif	-13.0773
▁guud	-13.0773
▁niacin	-13.0774
▁haiz	-13.0774
▁baraang	-13.0774
▁haturnuhun	-13.0774
▁ortho	-13.0774
maker	-13.0774
▁sterofo	-13.0774
▁whiff	-13.0774
▁resell	-13.0775
▁makaish	-13.0775
▁potential	-13.0775
▁shush	-13.0775
ttttttttttttttt	-13.0775
▁overlook	-13.0775
▁apron	-13.0776
▁pega	-13.0776
▁screenshot	-13.0776
▁kmasan	-13.0777
▁dndjd	-13.0777
▁settlement	-13.0777
▁bulet	-13.0777
▁naru	-13.0777
▁renew	-13.0777
▁probem	-13.0777
▁ajib	-13.0778
▁teros	-13.0778
▁subs	-13.0778
▁mapapa	-13.0778
▁deficienc	-13.0778
▁matern	-13.0778
▁1080	-13.0779
cific	-13.0779
▁urban	-13.0779
▁ngeluari	-13.078
consider	-13.078
▁headlight	-13.078
▁plaster	-13.078
visor	-13.078
tially	-13.0781
▁gasampe	-13.0781
▁scoo	-13.0781
▁disorder	-13.0781
terim	-13.0782
▁titan	-13.0783
▁ganjel	-13.0783
▁nempel	-13.0783
▁awake	-13.0783
▁airline	-13.0783
▁baranng	-13.0783
▁jnji	-13.0784
▁broom	-13.0785
▁quote	-13.0785
▁twelve	-13.0786
▁wrnany	-13.0786
▁chamo	-13.0787
▁nakakasa	-13.0787
▁jualanya	-13.0788
▁crackling	-13.0788
▁strand	-13.0789
▁decal	-13.0789
▁pembungkusan	-13.079
▁diniliv	-13.079
▁afte	-13.0791
kaseh	-13.0791
▁dinaik	-13.0792
▁gamuat	-13.0792
▁era	-13.0792
▁wadi	-13.0793
▁restriction	-13.0793
▁kenk	-13.0793
▁selmat	-13.0794
▁eeh	-13.0795
▁pengiraman	-13.0795
▁makadih	-13.0798
really	-13.0798
▁trunk	-13.0798
lamp	-13.0799
▁klihat	-13.0799
▁xiao	-13.0801
▁diguna	-13.0801
▁shoo	-13.0801
▁cinn	-13.0803
▁planet	-13.0804
uciviv	-13.0805
▁telon	-13.0806
gj	-13.0807
jsjdjdj	-13.081
euca	-13.0811
▁anakku	-13.0811
▁oppose	-13.0813
▁alhamdul	-13.0814
▁dinote	-13.0818
fact	-13.0818
▁mepet	-13.0819
▁hasn	-13.0821
▁nkka	-13.0822
sol	-13.0824
▁ongkirr	-13.0824
▁bayar	-13.0825
▁dikabari	-13.0829
▁hahahaa	-13.083
▁spectac	-13.083
▁gul	-13.0831
bos	-13.0831
▁lancarr	-13.0833
▁nic	-13.0833
haha	-13.0834
xt	-13.0836
▁lane	-13.0837
ima	-13.0837
▁foil	-13.0839
▁tahan	-13.084
▁rains	-13.084
oll	-13.084
▁organizer	-13.084
▁latch	-13.0847
lerk	-13.0847
▁roads	-13.085
▁tengah	-13.0851
▁inad	-13.0851
tuuu	-13.0851
▁yyyy	-13.0852
▁kmu	-13.0853
▁pains	-13.0854
690	-13.0854
zzl	-13.0855
▁chess	-13.0855
ivery	-13.0859
▁mksiih	-13.086
▁xnk	-13.0861
▁derive	-13.0862
▁pengin	-13.0863
▁hcm	-13.0864
▁stork	-13.0865
bili	-13.0866
▁sape	-13.0866
▁vua	-13.0866
▁pengirimna	-13.0867
van	-13.0868
▁diaku	-13.087
▁sue	-13.087
ramel	-13.0871
▁yeey	-13.0875
▁ditu	-13.0875
tal	-13.0875
▁sangattt	-13.0876
▁prosuk	-13.0876
▁harusnya	-13.0877
5000	-13.0879
▁yoo	-13.088
▁kereeennn	-13.088
noon	-13.0881
effective	-13.0884
▁explore	-13.0886
abak	-13.0887
▁wince	-13.0889
▁wb	-13.089
▁pesa	-13.089
▁qty	-13.0891
▁bles	-13.0893
▁makasiihhh	-13.0894
lle	-13.0895
▁tek	-13.0897
▁nnn	-13.0899
big	-13.09
▁deo	-13.0905
anem	-13.0906
▁pnh	-13.0907
nnnnnnn	-13.0908
▁tokony	-13.0909
kripsi	-13.0909
▁compet	-13.091
rse	-13.0914
▁bawah	-13.0918
kom	-13.0918
▁obat	-13.0919
▁atta	-13.0919
▁cuanti	-13.092
▁dimari	-13.092
▁sbs	-13.0923
kkkkkkkkkkkkkk	-13.0932
isnya	-13.0935
▁wak	-13.0942
▁dksih	-13.0945
akai	-13.0945
▁kual	-13.0947
▁maid	-13.0949
▁hehehhehe	-13.0949
▁puny	-13.0949
▁mkasiih	-13.095
▁menyesal	-13.0951
uct	-13.0952
▁aduhh	-13.0952
bxn	-13.0953
▁jum	-13.0954
▁hasil	-13.0955
▁inci	-13.0956
▁bond	-13.0959
▁sesuia	-13.0959
ega	-13.0962
▁mmm	-13.0962
▁ahaha	-13.0965
▁offend	-13.0967
usin	-13.0968
▁sobra	-13.0969
▁72	-13.0971
pot	-13.0973
▁okeeeee	-13.0976
▁hayy	-13.0976
▁aux	-13.0978
▁dodge	-13.0978
▁mdah	-13.0986
yuk	-13.099
▁ekspe	-13.0991
▁gaesss	-13.0992
▁lagee	-13.0992
▁stirr	-13.0994
▁ook	-13.0996
▁moms	-13.0998
▁desi	-13.1
▁subsdi	-13.1
lz	-13.1002
dud	-13.1004
▁hehehehehehe	-13.1005
yub	-13.1006
▁combi	-13.1006
lebih	-13.1009
▁wiggl	-13.101
▁kacau	-13.1012
unya	-13.1012
uj	-13.1013
rlihat	-13.1015
▁pua	-13.1016
▁ub	-13.1018
colo	-13.1027
▁konfirmasi	-13.1027
abu	-13.1031
▁bantu	-13.1032
▁loa	-13.1034
▁mata	-13.104
ntuk	-13.104
masuk	-13.1051
▁murh	-13.1054
acy	-13.1057
▁bod	-13.1058
▁bann	-13.1061
iv	-13.1069
▁spice	-13.1069
wg	-13.1071
▁maksa	-13.1072
▁jade	-13.1077
ree	-13.1081
lum	-13.1085
▁terang	-13.1092
engan	-13.1095
▁mira	-13.1095
▁washi	-13.1097
▁ngirim	-13.1098
rrrrrr	-13.1101
yaa	-13.1103
▁mod	-13.1103
▁texti	-13.1106
ema	-13.1107
uuuuuuuu	-13.1107
▁wlup	-13.1108
▁paul	-13.1108
lr	-13.1108
gm	-13.1114
▁charming	-13.1115
▁bong	-13.1116
▁meme	-13.1118
▁expert	-13.1119
iiiiiiiiiii	-13.1122
▁trimakasihh	-13.1126
▁bucks	-13.1128
▁leging	-13.113
pel	-13.113
uuuuuuuuuuu	-13.1131
▁guede	-13.1131
fto	-13.1133
▁observ	-13.1133
▁kho	-13.1141
www	-13.1142
▁alhamdu	-13.1144
▁toge	-13.1145
▁pengha	-13.1146
▁baguy	-13.1149
▁bungkus	-13.1149
▁fringe	-13.1152
▁definet	-13.1153
▁sampei	-13.1156
jdh	-13.117
▁neu	-13.117
beli	-13.1173
▁vene	-13.1174
▁flake	-13.1175
jai	-13.1182
▁lagiiiiii	-13.1182
papa	-13.1183
▁huff	-13.1185
▁impres	-13.1188
tand	-13.119
▁isiny	-13.1192
▁yaaaaaaaaaaaaaa	-13.1193
ump	-13.1195
▁dlwa	-13.1197
lie	-13.1199
▁beut	-13.1202
▁sumpahhh	-13.1204
paid	-13.1209
▁gituh	-13.1209
▁tapiiiii	-13.1213
iiiiiiii	-13.1213
▁asus	-13.1213
▁nare	-13.1215
▁lamaaa	-13.1216
kurng	-13.122
▁yon	-13.1221
bia	-13.1221
rtanggungjawab	-13.1224
djjdjd	-13.1225
drive	-13.1235
hx	-13.1237
▁baguuuussss	-13.1247
▁bentuk	-13.1248
udo	-13.1252
ogogo	-13.1254
agile	-13.1256
ieh	-13.1262
▁deba	-13.1263
900	-13.1264
▁goooooooooo	-13.1265
▁dumbf	-13.1267
▁reader	-13.1269
▁lug	-13.1274
▁pembelian	-13.1274
▁stamped	-13.1277
▁benget	-13.1277
hv	-13.1279
bur	-13.128
▁maniss	-13.1283
oj	-13.1285
▁fashionabl	-13.1287
▁bobb	-13.1289
uoc	-13.1289
layan	-13.1293
gsh	-13.1293
sia	-13.1293
zn	-13.1295
agamit	-13.1307
▁sayangnya	-13.1307
▁ibuk	-13.1311
▁ambi	-13.1312
▁malam	-13.1315
▁kec	-13.1322
▁limb	-13.1325
▁kakaa	-13.1328
sini	-13.1329
▁nagmess	-13.1337
zy	-13.1337
▁geng	-13.1343
yta	-13.1353
ez	-13.1354
bshd	-13.1362
▁incom	-13.1366
▁sda	-13.1371
▁bhs	-13.1372
hahahahahahahah	-13.1373
▁kate	-13.1377
kdo	-13.1383
▁disco	-13.1383
▁headsetnya	-13.1384
syaaallah	-13.1385
space	-13.1387
▁bil	-13.1388
▁kea	-13.1391
evaluation	-13.1398
ipal	-13.1403
wb	-13.1411
bango	-13.1418
dm	-13.142
▁kecepe	-13.1422
bdj	-13.1422
▁nj	-13.1426
▁kebesa	-13.1428
▁ana	-13.143
▁66	-13.1432
▁emot	-13.1445
uuuuuuuuuuuuu	-13.1446
▁ngeh	-13.1447
▁kese	-13.1448
ota	-13.145
▁costmer	-13.1451
ook	-13.1451
▁scare	-13.1457
uuhh	-13.146
▁rog	-13.1462
loka	-13.1463
ihhh	-13.1472
▁satie	-13.1473
ccer	-13.1474
96	-13.1478
▁kindle	-13.1479
▁cob	-13.1483
300	-13.1484
▁males	-13.1485
▁dbd	-13.149
▁bha	-13.1493
nila	-13.1499
dabest	-13.1499
▁abiz	-13.1499
works	-13.1503
chh	-13.151
cewa	-13.1511
▁court	-13.1513
xxx	-13.1514
looks	-13.1518
▁jew	-13.152
vw	-13.1522
▁bonusnyaa	-13.1529
▁bayik	-13.1529
ngkau	-13.153
uki	-13.153
dbd	-13.1532
▁vol	-13.1533
▁langs	-13.1535
▁sus	-13.1539
ntong	-13.154
▁baguuuus	-13.1541
agi	-13.1542
▁automat	-13.1546
▁67	-13.1548
hsia	-13.155
▁kond	-13.1551
▁apt	-13.1553
▁abuse	-13.1566
▁edi	-13.1566
jt	-13.1567
▁wang	-13.1571
kure	-13.1572
nja	-13.1574
▁stabiliz	-13.1575
▁expedisi	-13.1579
jsjsjsjs	-13.1581
▁bera	-13.1581
ard	-13.1585
▁mona	-13.1585
saya	-13.1586
▁pulaaaa	-13.1586
▁sunni	-13.1587
▁trl	-13.1589
▁keg	-13.1589
bank	-13.1592
▁hehhehe	-13.1592
▁alsothe	-13.1593
alwa	-13.1595
▁hhhh	-13.1599
▁pking	-13.16
▁protrud	-13.1602
▁pengrimn	-13.1603
▁ew	-13.1608
apik	-13.161
▁nyama	-13.1612
▁jaket	-13.1614
trust	-13.1618
▁jj	-13.1618
▁maaci	-13.162
▁extr	-13.1625
phil	-13.1627
▁sbi	-13.1629
▁sec	-13.1634
▁phon	-13.1638
pppppppppppp	-13.1641
▁salu	-13.1642
haste	-13.1644
▁ov	-13.1646
▁resin	-13.1646
mhz	-13.1649
▁wkwkkw	-13.1649
▁doank	-13.1649
▁jf	-13.165
eve	-13.1651
▁excit	-13.1654
▁drow	-13.1655
▁chap	-13.1656
hsbs	-13.166
▁shor	-13.166
▁radiat	-13.1661
▁puasssssss	-13.1664
▁terja	-13.1664
▁superrr	-13.1669
bwh	-13.1675
rasa	-13.1676
▁consisten	-13.1677
▁hall	-13.1685
▁rins	-13.1688
▁akala	-13.1691
▁kuali	-13.1693
▁plast	-13.1694
mkin	-13.1696
etan	-13.1701
itung	-13.1704
uhan	-13.1707
ggggg	-13.171
ress	-13.1723
▁terimakasiihh	-13.1724
▁lagiiiii	-13.1724
▁ceo	-13.1724
▁hasilny	-13.1726
▁supp	-13.1731
▁provinc	-13.1731
▁thn	-13.1733
▁thabk	-13.1733
kai	-13.1735
▁recomande	-13.1737
▁bq	-13.1741
▁bestt	-13.1744
hubby	-13.1745
zzzzzz	-13.1748
▁succes	-13.1748
▁airpod	-13.1749
▁ward	-13.1752
▁dipack	-13.1759
▁bana	-13.1759
come	-13.176
dkdksksks	-13.1764
▁ngebas	-13.1765
▁accident	-13.1765
▁pip	-13.1767
adine	-13.1767
▁amanahh	-13.1768
ddddddddddddd	-13.1768
▁cua	-13.1772
sky	-13.1772
pw	-13.1773
rat	-13.1775
▁lovin	-13.1775
▁pkk	-13.1775
yaka	-13.1782
jc	-13.1782
▁sak	-13.1783
udd	-13.1783
products	-13.1787
▁cantikkkkkkkk	-13.179
pppppppppp	-13.1791
agang	-13.1793
▁nanam	-13.1799
gl	-13.1799
▁ehe	-13.18
beautiful	-13.18
elain	-13.1802
sir	-13.1802
▁jadinya	-13.1807
▁coordinate	-13.1809
hibit	-13.1809
▁grad	-13.1811
▁cepatttttt	-13.1813
▁maaciw	-13.1816
bgt	-13.182
▁hemm	-13.1823
▁185	-13.1824
▁bukaa	-13.1825
unny	-13.1825
▁bands	-13.1827
▁washer	-13.1832
▁bis	-13.1832
gdh	-13.1834
mil	-13.1834
▁iyaa	-13.1836
▁mnt	-13.184
▁ngaaaa	-13.1841
▁mara	-13.1842
▁temp	-13.1843
▁nxty	-13.1845
▁kereeeen	-13.1846
idi	-13.1847
dulu	-13.1847
wajah	-13.1848
niaga	-13.1849
tingkatkan	-13.1849
▁duk	-13.1849
eliver	-13.1849
mpai	-13.1849
support	-13.185
accurate	-13.185
different	-13.185
berfungsi	-13.185
prett	-13.185
sempet	-13.185
white	-13.185
elastic	-13.185
blue	-13.1851
suuka	-13.1851
oc	-13.1852
official	-13.1852
connect	-13.1856
▁impeccabl	-13.1856
▁responnya	-13.1856
1000	-13.1856
nu	-13.1857
▁thq	-13.1857
▁komplit	-13.1858
▁coffe	-13.1858
▁jeng	-13.1862
▁restrain	-13.1862
▁ajaaa	-13.1865
kendala	-13.1866
rio	-13.1868
house	-13.187
bntu	-13.1872
panas	-13.1875
▁pengemasanny	-13.1877
bdbxbx	-13.1881
▁germ	-13.1881
ointment	-13.1881
▁innisfree	-13.1881
▁reinforce	-13.1881
▁amplifier	-13.1881
▁arigato	-13.1881
▁crinkle	-13.1881
▁daebak	-13.1881
▁fathom	-13.1881
▁hurricane	-13.1881
▁kebangetan	-13.1881
▁lipbalm	-13.1881
▁nightgown	-13.1881
▁triumph	-13.1881
▁aggri	-13.1881
▁beautify	-13.1881
▁oroginal	-13.1881
▁pengiroman	-13.1881
▁rezeky	-13.1881
▁wreck	-13.1881
▁ekspedisi	-13.1881
▁komplain	-13.1881
▁skateboard	-13.1881
▁ketelitian	-13.1881
▁spandek	-13.1881
▁incentive	-13.1881
▁ngemas	-13.1881
▁compound	-13.1882
▁cucumber	-13.1882
▁lecture	-13.1882
▁contort	-13.1882
▁ngomong	-13.1882
▁gnaw	-13.1882
▁plyanan	-13.1882
▁pororo	-13.1882
▁sturdi	-13.1882
▁jogger	-13.1882
▁sempoi	-13.1882
▁sincerity	-13.1882
▁cholest	-13.1882
▁earbud	-13.1882
▁kmbali	-13.1882
▁dissolve	-13.1882
▁ketutup	-13.1882
▁milih	-13.1882
▁serius	-13.1882
▁mndarat	-13.1882
▁antem	-13.1882
▁accesories	-13.1882
▁tempred	-13.1882
▁barbari	-13.1882
▁aplg	-13.1882
▁pixel	-13.1882
▁underarm	-13.1882
▁pronator	-13.1882
▁micky	-13.1882
terlalu	-13.1882
▁tablecloth	-13.1882
▁terimaaa	-13.1882
▁tinggi	-13.1883
▁york	-13.1883
▁mantaaapp	-13.1883
▁ngitung	-13.1883
▁decrypt	-13.1883
▁honor	-13.1883
▁puashati	-13.1883
▁melod	-13.1883
▁pilot	-13.1883
▁costomer	-13.1883
▁pagkakapack	-13.1883
fffff	-13.1883
▁digam	-13.1883
▁celloph	-13.1884
▁leisure	-13.1884
▁nampol	-13.1884
▁climate	-13.1884
▁bgaus	-13.1884
▁podium	-13.1884
▁gomawo	-13.1884
ikan	-13.1884
▁carrot	-13.1884
▁hellokit	-13.1884
▁diffuse	-13.1884
affle	-13.1884
▁ngurang	-13.1884
▁compass	-13.1884
▁tassel	-13.1885
▁retak	-13.1885
▁pebble	-13.1885
▁torch	-13.1886
▁haircut	-13.1886
▁shortfall	-13.1886
▁journal	-13.1887
▁1999	-13.1887
▁kiel	-13.1887
▁okokokokok	-13.1887
▁reluctant	-13.1887
▁splatter	-13.1887
▁injection	-13.1887
fkkf	-13.1887
▁nourish	-13.1887
▁saktong	-13.1887
▁cepwt	-13.1888
▁eligib	-13.1888
▁johnson	-13.1888
▁fuc	-13.1888
enggol	-13.1888
▁btre	-13.1888
▁residua	-13.1888
▁quic	-13.1889
▁diction	-13.1889
▁restart	-13.1889
▁tiga	-13.189
ndise	-13.189
▁unlock	-13.1891
▁react	-13.1891
▁mrek	-13.1891
▁blacklist	-13.1891
▁babel	-13.1891
▁sesue	-13.1892
▁dengn	-13.1892
▁oriii	-13.1892
kailang	-13.1893
▁hsil	-13.1893
▁nampak	-13.1893
▁luff	-13.1893
▁pingiriman	-13.1893
▁resemble	-13.1894
neration	-13.1894
▁tmpat	-13.1894
▁giant	-13.1894
plent	-13.1895
▁ditanya	-13.1895
▁chuck	-13.1895
satisfaction	-13.1896
▁deser	-13.1896
▁ngecwa	-13.1897
▁medal	-13.1898
▁chunk	-13.1898
▁nyame	-13.1898
gustuh	-13.1899
▁overea	-13.1899
▁effe	-13.1899
▁controlle	-13.1899
▁boat	-13.1899
▁export	-13.19
▁pgka	-13.1901
▁donggg	-13.1901
▁terina	-13.1901
▁jerk	-13.1901
▁kupu	-13.1902
▁penang	-13.1902
▁anjir	-13.1904
▁popul	-13.1904
▁esok	-13.1904
▁jarang	-13.1905
kau	-13.1905
▁hoop	-13.1906
▁plstik	-13.1906
▁vertical	-13.1906
▁ccu	-13.1907
▁pketnya	-13.1909
che	-13.1911
▁barangnyaaa	-13.1911
▁luntur	-13.1912
▁salh	-13.1912
▁greatfeel	-13.1913
▁babydol	-13.1913
▁nito	-13.1913
▁pengiriam	-13.1914
▁reson	-13.1915
▁pesnan	-13.1915
▁ow	-13.1915
▁thrust	-13.1915
▁suds	-13.1915
gantung	-13.1918
▁bilang	-13.1919
▁129	-13.1919
osa	-13.1919
▁warrn	-13.192
▁uu	-13.192
▁nauseat	-13.192
▁merit	-13.1922
uq	-13.1922
▁inverte	-13.1922
▁india	-13.1923
vl	-13.1925
cup	-13.1926
okokok	-13.1926
▁kami	-13.1928
kira	-13.1929
▁projection	-13.193
▁dikitt	-13.193
cpt	-13.1931
▁pgi	-13.1933
▁tny	-13.1933
▁krg	-13.1934
pecah	-13.1934
▁webb	-13.1934
xjx	-13.1935
▁hatch	-13.1936
rugi	-13.1936
▁collaps	-13.1936
▁resident	-13.1937
▁perkira	-13.1937
▁pooh	-13.1937
▁ngarep	-13.1937
▁alhamduilla	-13.1938
▁disappo	-13.1941
▁bnk	-13.1942
▁heheee	-13.1944
▁pepp	-13.1945
▁relay	-13.1946
▁airpla	-13.1946
▁kacama	-13.1947
▁dsnii	-13.1948
▁ambil	-13.1948
▁kegeda	-13.1948
▁joger	-13.1948
▁placement	-13.195
▁rak	-13.1952
▁basin	-13.1953
▁prtahank	-13.1955
▁tngan	-13.1957
uhh	-13.1957
vvvvvvvvvvvvvvvv	-13.1958
▁breed	-13.1959
cool	-13.196
▁ego	-13.1961
▁packageditem	-13.1961
▁anyhow	-13.1962
later	-13.1965
▁kul	-13.1968
▁tisu	-13.1977
▁terk	-13.1983
▁beet	-13.1985
rod	-13.1987
last	-13.1988
▁howeveri	-13.1989
▁brace	-13.199
▁awl	-13.1992
▁cropp	-13.1996
▁onti	-13.1998
▁surf	-13.1999
suit	-13.1999
▁oper	-13.2
▁muchhhh	-13.2
zan	-13.2
▁babget	-13.2002
▁mog	-13.2002
▁stiker	-13.2005
▁pengemesan	-13.2008
▁dvd	-13.2009
▁pny	-13.201
akin	-13.201
▁dior	-13.2011
tanggap	-13.2011
mile	-13.2012
▁descend	-13.2014
▁lupa	-13.2021
uper	-13.2023
▁kresek	-13.2023
▁agin	-13.2025
▁restricti	-13.2027
llll	-13.2028
spective	-13.2031
▁nyan	-13.2031
flamma	-13.2035
▁bodie	-13.2036
▁ventil	-13.2038
▁orderrr	-13.2044
▁repea	-13.2048
▁kede	-13.2048
▁ehehehe	-13.2054
▁doong	-13.2055
ngerti	-13.2057
▁promin	-13.2059
chus	-13.206
▁retrieve	-13.2063
also	-13.2064
▁impot	-13.2066
▁nup	-13.2067
▁brownies	-13.2067
pie	-13.207
mbaar	-13.2071
▁scou	-13.2072
▁paraaah	-13.2078
▁lambatt	-13.2079
▁igt	-13.208
▁ev	-13.2083
▁hehehehhe	-13.2084
42	-13.2084
49	-13.209
fore	-13.2099
msn	-13.2107
▁belanjan	-13.211
ooooooooooo	-13.2114
astic	-13.2119
▁scrambl	-13.2121
▁asset	-13.2122
▁ayos	-13.2125
▁walkin	-13.2143
▁officer	-13.215
▁cantum	-13.2152
▁momm	-13.2156
▁tera	-13.2157
▁slimm	-13.2157
▁beep	-13.2158
▁coun	-13.216
▁blacken	-13.2162
atnya	-13.2164
▁byak	-13.2166
kecewa	-13.2169
▁bark	-13.2169
gin	-13.2175
▁nyampenyaa	-13.2176
▁muchhh	-13.2178
▁fiik	-13.2183
▁teb	-13.2184
tool	-13.2185
ula	-13.2185
prices	-13.2187
give	-13.2187
▁bubbl	-13.2187
▁panass	-13.2189
▁pikir	-13.219
lli	-13.219
▁signed	-13.2192
ringe	-13.2195
▁expedite	-13.2196
▁bantal	-13.2197
▁hunter	-13.2197
▁fragan	-13.22
ellent	-13.22
change	-13.2203
▁beki	-13.2204
▁ayo	-13.2206
kkkkkkkkkkk	-13.2206
▁lig	-13.2207
sunod	-13.2207
▁kcl	-13.2208
amaan	-13.2212
▁madur	-13.2213
▁lainn	-13.2213
ndj	-13.2216
part	-13.2217
▁exten	-13.2223
▁aww	-13.2225
▁div	-13.2225
▁asian	-13.2234
vent	-13.2235
iran	-13.2236
▁kecew	-13.2237
ddddddddddddddd	-13.2241
▁matt	-13.2241
▁cetar	-13.2242
▁shay	-13.2248
▁inorder	-13.2248
▁kada	-13.2249
▁foreigner	-13.2255
▁penye	-13.2255
▁ayan	-13.2259
▁beber	-13.2261
lipat	-13.2264
hhe	-13.2265
kek	-13.2267
▁sempurnaa	-13.2268
▁lua	-13.2268
▁campu	-13.2274
ooooooooo	-13.2275
▁hurm	-13.2276
▁hallo	-13.2277
▁yeyy	-13.2282
ris	-13.2291
▁hsl	-13.2296
▁boi	-13.2301
▁hrap	-13.2302
semoga	-13.2304
▁tasti	-13.2305
▁award	-13.2309
▁pertahank	-13.231
▁yest	-13.2311
▁ngn	-13.2312
zh	-13.2313
▁logic	-13.2316
▁hx	-13.2318
▁relpic	-13.2321
fan	-13.2323
▁tah	-13.2324
▁ttm	-13.2325
▁gemess	-13.2326
▁mantullllll	-13.2326
▁mantaomantap	-13.2332
eie	-13.2333
ngga	-13.2333
hc	-13.2337
▁ceaaaaaaaaa	-13.2337
olog	-13.2342
▁mir	-13.2342
▁scr	-13.2343
rga	-13.2344
▁germinate	-13.2345
▁sambe	-13.2347
▁puaaasss	-13.2351
▁bgtz	-13.2352
53	-13.2356
▁lembi	-13.2356
▁conclud	-13.2358
innie	-13.2359
▁paka	-13.2366
▁rum	-13.2368
▁starter	-13.2381
▁wit	-13.2384
▁dove	-13.239
▁mahall	-13.2392
ient	-13.2397
rai	-13.2406
▁kekurangan	-13.2409
sfied	-13.241
uja	-13.2414
▁tlp	-13.2419
▁kura	-13.2422
▁fak	-13.2425
▁slma	-13.2426
ikk	-13.243
wq	-13.2434
yyyyyyyyyyyyyy	-13.2435
▁naa	-13.2438
▁pokoo	-13.2438
▁aju	-13.2444
▁eri	-13.2445
mbi	-13.2446
▁dba	-13.2452
mbul	-13.2453
ians	-13.2457
▁butuh	-13.2462
▁mental	-13.2465
▁alhamdulli	-13.2467
tttttt	-13.2467
ntly	-13.2471
iver	-13.2472
▁marami	-13.2475
ssssssssss	-13.2482
aaaah	-13.2485
cour	-13.2487
makasihmakasih	-13.2489
▁toooo	-13.2489
aaaan	-13.249
▁doorma	-13.2491
mor	-13.2501
▁lamg	-13.2504
▁hijabnya	-13.2504
▁eve	-13.2505
elected	-13.2506
▁bbw	-13.2506
▁lamm	-13.2508
▁estim	-13.2511
▁puassssssss	-13.2512
hea	-13.2512
▁advers	-13.2515
tump	-13.2517
▁bekas	-13.2517
▁gambarnya	-13.2534
▁humidifi	-13.2535
▁sampaaii	-13.2541
dbdb	-13.2543
▁gamer	-13.2545
ubo	-13.2545
▁alhmd	-13.2548
uuuuuuuuuuuuuu	-13.2549
lash	-13.2551
▁meas	-13.2553
gger	-13.2557
ional	-13.2557
sik	-13.2561
mkasih	-13.2565
▁hbs	-13.2567
zk	-13.2569
▁ituu	-13.2571
rkah	-13.2572
▁encapsulat	-13.2573
wuz	-13.2573
▁pengemasn	-13.2574
▁branche	-13.2575
sebab	-13.2579
sinya	-13.258
▁gems	-13.2581
awang	-13.2581
▁hha	-13.2583
jau	-13.2586
▁5555555	-13.259
▁ceaaaaaaaaaaa	-13.2592
▁lup	-13.2594
dks	-13.2594
▁prose	-13.2595
▁pokokk	-13.2596
nsns	-13.26
▁telk	-13.26
▁unti	-13.2604
recommend	-13.2606
ikke	-13.2606
▁coordinat	-13.2607
span	-13.2612
▁daun	-13.2625
▁errat	-13.2627
dhan	-13.2633
▁debate	-13.2635
▁postpon	-13.2635
kakak	-13.2636
mpa	-13.2636
▁terimakai	-13.2639
▁cakeep	-13.2643
▁tingkatk	-13.2648
dean	-13.2648
engemasan	-13.2651
aaaaan	-13.2653
xxxxxxxxxxxxxxx	-13.2658
▁tapu	-13.2662
sure	-13.2663
onic	-13.267
▁laminat	-13.2677
tech	-13.2678
▁bgeet	-13.2681
▁occurr	-13.2688
▁tidakk	-13.2693
▁connecti	-13.2702
▁cf	-13.2703
▁dupe	-13.2705
▁elit	-13.2708
▁medy	-13.2709
ule	-13.2713
▁balotell	-13.2715
38	-13.2715
▁slama	-13.2716
▁sangad	-13.2721
▁heee	-13.2721
▁execut	-13.2721
▁smuaa	-13.2724
▁reaaa	-13.2724
tanggal	-13.2725
tel	-13.2725
▁featur	-13.2727
▁pengirima	-13.2733
▁mantaaappp	-13.2737
▁coincide	-13.2739
▁amat	-13.274
▁sinese	-13.2741
amat	-13.2742
▁ngiri	-13.2744
iman	-13.2749
ien	-13.275
▁funk	-13.2751
▁trimakasiih	-13.2753
jak	-13.2753
▁opi	-13.2758
▁cet	-13.276
enak	-13.2763
▁bagys	-13.2764
▁makasihhhhhhhhh	-13.2777
▁banyaaak	-13.2787
▁masak	-13.2794
lake	-13.2795
▁bngeet	-13.2798
▁jobs	-13.2799
83	-13.28
▁kesaya	-13.2801
▁nyaaaaaa	-13.2803
rum	-13.2803
▁happ	-13.2806
job	-13.2806
laten	-13.2807
tric	-13.2809
▁discs	-13.2813
▁del	-13.2815
acco	-13.2816
agaan	-13.2818
bot	-13.2818
▁koleksi	-13.282
▁fren	-13.2826
▁mele	-13.2826
ement	-13.2829
nate	-13.2837
eeeeh	-13.2838
▁tengkyuuu	-13.284
▁experienc	-13.2844
usion	-13.2846
huhu	-13.2847
tw	-13.2849
▁banyakkkkkk	-13.2849
▁maps	-13.285
▁inquire	-13.2852
▁lur	-13.2852
▁catet	-13.2854
gon	-13.2857
ignati	-13.2857
▁dismantle	-13.2859
▁bubb	-13.286
uci	-13.2862
embaliin	-13.2863
▁selm	-13.2864
jxh	-13.2865
rip	-13.2865
▁okeeeeeeee	-13.2872
▁hsbs	-13.2873
▁blam	-13.2877
usuk	-13.2878
▁cung	-13.2884
ape	-13.2887
▁luamaaaa	-13.2887
▁bka	-13.2901
▁chut	-13.2903
▁itungan	-13.2903
▁ful	-13.2906
rrrrr	-13.2912
lau	-13.2914
jdn	-13.2914
▁keti	-13.2917
lotte	-13.292
▁djdj	-13.2924
kaan	-13.293
fah	-13.2934
▁bre	-13.2935
▁niih	-13.2936
▁ef	-13.294
▁aluss	-13.2942
▁goog	-13.2948
ttol	-13.2949
▁bauny	-13.2952
imi	-13.2955
▁bund	-13.2955
dndb	-13.2957
▁squish	-13.2962
▁nugg	-13.2964
ass	-13.2966
▁msak	-13.2966
rus	-13.2969
▁sebelumnya	-13.297
apan	-13.2971
▁bula	-13.2972
▁eventho	-13.2981
▁baran	-13.2986
xv	-13.2986
▁teeny	-13.299
▁pisa	-13.2993
gnan	-13.2995
jav	-13.2995
rep	-13.2998
▁syukakk	-13.3
kokojojo	-13.3003
ec	-13.3004
▁discr	-13.3008
▁fantas	-13.3009
▁penghnt	-13.3009
ception	-13.301
▁caaaaaaaaaaaa	-13.3014
▁bestttt	-13.3014
▁dikirimm	-13.3015
jir	-13.3016
▁nyesal	-13.3018
▁lengkappp	-13.3019
▁tapiiii	-13.3021
utup	-13.3023
tics	-13.3025
elnya	-13.3026
▁dhi	-13.3026
ruff	-13.3026
▁norm	-13.3028
▁fog	-13.3029
540	-13.303
▁nagu	-13.3034
▁psnn	-13.3035
▁obe	-13.3039
▁daster	-13.304
▁sapa	-13.3041
▁activat	-13.3041
vention	-13.3041
▁ayu	-13.3041
▁ktny	-13.3041
▁therap	-13.3042
script	-13.3043
▁bgtttttt	-13.3043
shot	-13.3049
▁nyamp	-13.3049
troph	-13.3054
bill	-13.3058
rec	-13.3059
hank	-13.3059
▁warrant	-13.306
jan	-13.3062
▁gandaaa	-13.3064
opp	-13.3066
rik	-13.3066
▁tnyt	-13.3066
▁bara	-13.3067
▁ferr	-13.3067
kualiti	-13.3068
▁mung	-13.3074
▁bodo	-13.3074
ncl	-13.3078
kkkkkkkkkkkkk	-13.308
▁thankiu	-13.3082
▁unis	-13.3083
ksls	-13.3084
oops	-13.3084
mantulmantul	-13.3086
▁tss	-13.3086
rsahabat	-13.3087
▁saii	-13.3087
▁nagpa	-13.3089
▁4000	-13.309
masan	-13.309
suk	-13.309
guard	-13.3091
▁chea	-13.3091
▁lipet	-13.3094
▁inexp	-13.3094
▁dani	-13.3095
apt	-13.3095
▁kebe	-13.3096
foam	-13.3098
ppppppp	-13.3099
1234567890	-13.3099
▁stimul	-13.3099
fashion	-13.3099
regulate	-13.3099
reservation	-13.31
mobile	-13.31
april	-13.31
frame	-13.31
problem	-13.31
sanitizer	-13.31
plastic	-13.3101
giao	-13.3103
passable	-13.3103
▁polar	-13.3103
150	-13.3104
2020	-13.3104
▁realiz	-13.3104
▁poooo	-13.3105
02	-13.3105
kala	-13.3106
sleep	-13.3107
dhdhd	-13.3109
when	-13.3109
▁uncomfortabl	-13.3109
nigay	-13.311
▁semgg	-13.311
▁jreng	-13.3113
▁miscarr	-13.3114
▁publish	-13.3115
▁hype	-13.3116
▁hhg	-13.3116
pem	-13.3116
▁saanga	-13.3116
▁sobekk	-13.3117
burn	-13.3117
▁economic	-13.3119
▁pulp	-13.3119
▁inject	-13.3119
bble	-13.312
ountain	-13.312
▁wkw	-13.3122
ays	-13.3123
about	-13.3123
water	-13.3124
illa	-13.3124
▁cstm	-13.3126
▁puaaaas	-13.3127
gmit	-13.3128
ilateral	-13.3129
▁ornament	-13.3129
nnnnnnnnnnnn	-13.313
hamdullilah	-13.313
rist	-13.3131
▁emer	-13.3131
lqllq	-13.3131
▁ahihi	-13.3131
jojokokkkojkkkk	-13.3131
▁exasperat	-13.3131
▁090677	-13.3131
▁alpha	-13.3131
▁correpond	-13.3131
▁crocodile	-13.3131
▁cultivate	-13.3131
▁despatch	-13.3131
▁diminish	-13.3131
▁erima	-13.3131
▁hexagon	-13.3131
▁lantern	-13.3131
▁qwrqwrqw	-13.3131
▁refrigerate	-13.3131
▁resource	-13.3131
▁revenue	-13.3131
▁sandwich	-13.3131
▁unquestion	-13.3131
▁vegetarian	-13.3131
▁constrict	-13.3131
▁obedient	-13.3131
▁resort	-13.3131
▁deploy	-13.3131
▁interval	-13.3131
▁ucul	-13.3131
▁buavita	-13.3131
▁glamor	-13.3131
▁pemgemasan	-13.3131
▁touchscreen	-13.3131
▁prophet	-13.3131
▁yampun	-13.3131
▁nonsens	-13.3132
▁crawl	-13.3132
▁bamget	-13.3132
▁konfrm	-13.3132
▁masculin	-13.3132
▁sweetener	-13.3132
oarse	-13.3132
▁sprout	-13.3132
▁chuc	-13.3132
▁preform	-13.3132
▁emulsion	-13.3132
▁aplikasi	-13.3132
▁recitation	-13.3132
▁senior	-13.3132
▁lumayn	-13.3132
▁errand	-13.3132
▁seblm	-13.3132
▁accomoatin	-13.3132
▁coretannya	-13.3132
▁riview	-13.3132
▁expedtion	-13.3132
▁kdpan	-13.3132
▁incrase	-13.3132
▁degdeg	-13.3132
▁bangeeeeeeeet	-13.3132
▁dilakban	-13.3132
▁voros	-13.3132
▁fuji	-13.3132
▁kasut	-13.3132
▁pagkadeliver	-13.3132
▁thunder	-13.3132
▁musim	-13.3132
▁dramatic	-13.3132
▁terpercaya	-13.3132
▁fragment	-13.3132
▁mousepad	-13.3132
▁magaganda	-13.3132
▁unplug	-13.3132
▁dibersih	-13.3132
▁30000	-13.3132
▁interaction	-13.3132
▁delever	-13.3132
▁requst	-13.3132
▁leverage	-13.3132
▁dideskripsi	-13.3132
▁deceit	-13.3133
▁selallu	-13.3133
▁streak	-13.3133
▁succulent	-13.3133
▁innocent	-13.3133
▁brudul	-13.3133
▁tongsis	-13.3133
▁rekomendasi	-13.3133
▁romper	-13.3133
▁intolerabl	-13.3133
▁brazi	-13.3133
▁intinya	-13.3133
▁nhaaa	-13.3133
▁dilayani	-13.3134
▁deliever	-13.3134
▁imperfect	-13.3134
▁waduh	-13.3134
▁valuable	-13.3134
▁reform	-13.3134
▁susuai	-13.3134
▁remek	-13.3134
▁accomplish	-13.3134
▁stella	-13.3134
▁jumpsuit	-13.3135
▁coklat	-13.3135
▁kwlitas	-13.3135
▁sequin	-13.3135
iproc	-13.3135
▁consignor	-13.3135
▁oacking	-13.3135
▁harrow	-13.3135
▁pengiruman	-13.3135
▁diganti	-13.3135
▁mantapz	-13.3135
▁unilateral	-13.3135
▁anterin	-13.3135
▁cricket	-13.3136
▁kipas	-13.3136
smsm	-13.3136
▁lawful	-13.3136
training	-13.3136
▁cepatcepat	-13.3136
▁aci	-13.3137
▁jagoa	-13.3137
▁detain	-13.3137
oever	-13.3137
▁barber	-13.3137
▁transm	-13.3138
▁independent	-13.3138
▁sebulan	-13.3138
▁transation	-13.3138
licious	-13.3138
▁canister	-13.3138
▁tumbuh	-13.3138
▁diinginkan	-13.3139
brng	-13.3139
▁ceck	-13.3139
hasil	-13.3139
▁attribute	-13.3139
▁detector	-13.3139
▁hawaii	-13.3139
▁warnany	-13.3139
▁muah	-13.314
▁eastern	-13.3141
[...]
